{
  "version": "1.0",
  "truncation": null,
  "padding": null,
  "added_tokens": [
    {
      "id": 0,
      "content": "<pad>",
      "single_word": false,
      "lstrip": false,
      "rstrip": false,
      "normalized": false,
      "special": true
    },
    {
      "id": 1,
      "content": "<unk>",
      "single_word": false,
      "lstrip": false,
      "rstrip": false,
      "normalized": false,
      "special": true
    },
    {
      "id": 2,
      "content": " ",
      "single_word": false,
      "lstrip": false,
      "rstrip": false,
      "normalized": false,
      "special": true
    }
  ],
  "normalizer": {
    "type": "Sequence",
    "normalizers": [
      {
        "type": "NFKC"
      },
      {
        "type": "Lowercase"
      }
    ]
  },
  "pre_tokenizer": {
    "type": "Sequence",
    "pretokenizers": [
      {
        "type": "Whitespace"
      },
      {
        "type": "ByteLevel",
        "add_prefix_space": false,
        "trim_offsets": true,
        "use_regex": true
      }
    ]
  },
  "post_processor": {
    "type": "ByteLevel",
    "add_prefix_space": true,
    "trim_offsets": false,
    "use_regex": true
  },
  "decoder": null,
  "model": {
    "type": "BPE",
    "dropout": null,
    "unk_token": null,
    "continuing_subword_prefix": null,
    "end_of_word_suffix": null,
    "fuse_unk": false,
    "byte_fallback": false,
    "ignore_merges": false,
    "vocab": {
      "<pad>": 0,
      "<unk>": 1,
      " ": 2,
      "(": 3,
      ")": 4,
      ",": 5,
      "-": 6,
      ".": 7,
      "9": 8,
      ":": 9,
      "<": 10,
      "a": 11,
      "b": 12,
      "c": 13,
      "d": 14,
      "e": 15,
      "f": 16,
      "g": 17,
      "h": 18,
      "i": 19,
      "j": 20,
      "k": 21,
      "l": 22,
      "m": 23,
      "n": 24,
      "o": 25,
      "p": 26,
      "q": 27,
      "r": 28,
      "s": 29,
      "t": 30,
      "u": 31,
      "v": 32,
      "w": 33,
      "x": 34,
      "y": 35,
      "z": 36,
      "99": 37,
      "ro": 38,
      "9999": 39,
      "hk": 40,
      "se": 41,
      "pro": 42,
      "xy": 43,
      "proxy": 44,
      "ed": 45,
      "co": 46,
      "cu": 47,
      "cse": 48,
      "edu": 49,
      "cuhk": 50,
      "es": 51,
      "yt": 52,
      "byt": 53,
      "bytes": 54,
      "kb": 55,
      "th": 56,
      "com": 57,
      "en": 58,
      "999": 59,
      "ug": 60,
      "roug": 61,
      "throug": 62,
      "through": 63,
      "tt": 64,
      "op": 65,
      "open": 66,
      "ps": 67,
      "htt": 68,
      "https": 69,
      "ec": 70,
      "ti": 71,
      "li": 72,
      "lo": 73,
      "ei": 74,
      "nt": 75,
      "eti": 76,
      "clo": 77,
      "me": 78,
      "close": 79,
      "rec": 80,
      "feti": 81,
      "ved": 82,
      "sent": 83,
      "lifeti": 84,
      "eived": 85,
      "received": 86,
      "lifetime": 87,
      "99999": 88,
      "go": 89,
      "le": 90,
      "og": 91,
      "goog": 92,
      "nn": 93,
      "google": 94,
      "er": 95,
      "ta": 96,
      "conn": 97,
      "ww": 98,
      "id": 99,
      "connec": 100,
      "ror": 101,
      "error": 102,
      "ot": 103,
      "et": 104,
      "--": 105,
      "on": 106,
      "not": 107,
      "ba": 108,
      "in": 109,
      "cou": 110,
      "ld": 111,
      "could": 112,
      "ent": 113,
      "tion": 114,
      "im": 115,
      "ca": 116,
      "bo": 117,
      "net": 118,
      "sta": 119,
      "ub": 120,
      "eo": 121,
      "ith": 122,
      "re": 123,
      "www": 124,
      "idu": 125,
      "baidu": 126,
      "dn": 127,
      "connection": 128,
      "connect": 129,
      "999999": 130,
      "ma": 131,
      "sn": 132,
      "cn": 133,
      "vid": 134,
      "video": 135,
      "so": 136,
      "img": 137,
      "---": 138,
      "googlevideo": 139,
      "cli": 140,
      "ser": 141,
      "to": 142,
      "the": 143,
      "client": 144,
      "el": 145,
      "ad": 146,
      "dro": 147,
      "pbo": 148,
      "dropbo": 149,
      "dropbox": 150,
      "pi": 151,
      "hu": 152,
      "as": 153,
      "tic": 154,
      "ck": 155,
      "static": 156,
      "qq": 157,
      "us": 158,
      "pl": 159,
      "with": 160,
      "do": 161,
      "serv": 162,
      "cdn": 163,
      "sh": 164,
      "gou": 165,
      "it": 166,
      "get": 167,
      "gith": 168,
      "kn": 169,
      "tar": 170,
      "sogou": 171,
      "api": 172,
      "ch": 173,
      "an": 174,
      "de": 175,
      "9999999": 176,
      "ve": 177,
      "stat": 178,
      "be": 179,
      "mb": 180,
      "github": 181,
      "cs": 182,
      "fo": 183,
      "qu": 184,
      "doub": 185,
      "ge": 186,
      "lish": 187,
      "wei": 188,
      "ol": 189,
      "nc": 190,
      "server": 191,
      "il": 192,
      "blish": 193,
      "lec": 194,
      "res": 195,
      "sec": 196,
      "code": 197,
      "esta": 198,
      "nnot": 199,
      "cannot": 200,
      "target": 201,
      "status": 202,
      "establish": 203,
      "sin": 204,
      "lick": 205,
      "mp": 206,
      "was": 207,
      "est": 208,
      "compl": 209,
      "etion": 210,
      "canc": 211,
      "requ": 212,
      "eled": 213,
      "befo": 214,
      "completion": 215,
      "canceled": 216,
      "request": 217,
      "before": 218,
      "olve": 219,
      "resolve": 220,
      "ou": 221,
      "sina": 222,
      "ten": 223,
      "clients": 224,
      "doublec": 225,
      "doubleclick": 226,
      "di": 227,
      "fa": 228,
      "ne": 229,
      "cont": 230,
      "max": 231,
      "content": 232,
      "age": 233,
      "rit": 234,
      "att": 235,
      "ss": 236,
      "da": 237,
      "dstatic": 238,
      "you": 239,
      "csdn": 240,
      "av": 241,
      "weibo": 242,
      "crit": 243,
      "emp": 244,
      "js": 245,
      "ly": 246,
      "pin": 247,
      "user": 248,
      "apis": 249,
      "iled": 250,
      "failed": 251,
      "attemp": 252,
      "criteo": 253,
      "attempt": 254,
      "sohu": 255,
      "usercontent": 256,
      "ra": 257,
      "xin": 258,
      "zz": 259,
      "cation": 260,
      "man": 261,
      "cnzz": 262,
      "ie": 263,
      "te": 264,
      "tor": 265,
      "ay": 266,
      "cf": 267,
      "oo": 268,
      "up": 269,
      "ydstatic": 270,
      "log": 271,
      "cha": 272,
      "sinaimg": 273,
      "dm": 274,
      "ds": 275,
      "oim": 276,
      "po": 277,
      "uba": 278,
      "ws": 279,
      "yin": 280,
      "googleapis": 281,
      "hua": 282,
      "play": 283,
      "weixin": 284,
      "pinyin": 285,
      "manhua": 286,
      "ah": 287,
      "cent": 288,
      "les": 289,
      "ng": 290,
      "ndi": 291,
      "rt": 292,
      "tc": 293,
      "yndi": 294,
      "zh": 295,
      "googles": 296,
      "ads": 297,
      "yndication": 298,
      "googlesyndication": 299,
      "atar": 300,
      "ic": 301,
      "lb": 302,
      "tub": 303,
      "ytimg": 304,
      "nnel": 305,
      "mail": 306,
      "youtub": 307,
      "avatar": 308,
      "channel": 309,
      "youtube": 310,
      "ali": 311,
      "bd": 312,
      "gstatic": 313,
      "lt": 314,
      "ph": 315,
      "ts": 316,
      "yah": 317,
      "lemax": 318,
      "bolt": 319,
      "cdndm": 320,
      "kne": 321,
      "ang": 322,
      "doublemax": 323,
      "tenmax": 324,
      "tencent": 325,
      "oimage": 326,
      "yahoo": 327,
      "cm": 328,
      "gg": 329,
      "io": 330,
      "inn": 331,
      "ihu": 332,
      "min": 333,
      "no": 334,
      "pe": 335,
      "pp": 336,
      "99999999": 337,
      "con": 338,
      "googleusercontent": 339,
      "ity": 340,
      "bdimg": 341,
      "pht": 342,
      "ggpht": 343,
      "innity": 344,
      "ag": 345,
      "ar": 346,
      "bel": 347,
      "fi": 348,
      "hm": 349,
      "pconn": 350,
      "st": 351,
      "tw": 352,
      "ver": 353,
      "long": 354,
      "tcpconn": 355,
      "zhihu": 356,
      "mini": 357,
      "al": 358,
      "dmp": 359,
      "gq": 360,
      "ia": 361,
      "llo": 362,
      "sy": 363,
      "tre": 364,
      "vgq": 365,
      "wx": 366,
      "secu": 367,
      "news": 368,
      "oimagea": 369,
      "trello": 370,
      "blo": 371,
      "ce": 372,
      "eb": 373,
      "ever": 374,
      "gra": 375,
      "lk": 376,
      "mta": 377,
      "mma": 378,
      "pc": 379,
      "puba": 380,
      "rly": 381,
      "xel": 382,
      "yan": 383,
      "edge": 384,
      "note": 385,
      "pic": 386,
      "pixel": 387,
      "doc": 388,
      "servic": 389,
      "chang": 390,
      "dao": 391,
      "date": 392,
      "youdao": 393,
      "update": 394,
      "alicdn": 395,
      "knez": 396,
      "block": 397,
      "evernote": 398,
      "gramma": 399,
      "mtalk": 400,
      "pubads": 401,
      "changyan": 402,
      "grammarly": 403,
      "is": 404,
      "ics": 405,
      "pa": 406,
      "pas": 407,
      "spo": 408,
      "un": 409,
      "ues": 410,
      "ytics": 411,
      "ect": 412,
      "googleads": 413,
      "baidustatic": 414,
      "sock": 415,
      "ado": 416,
      "itc": 417,
      "anal": 418,
      "githubusercontent": 419,
      "ssl": 420,
      "pos": 421,
      "cebo": 422,
      "doctor": 423,
      "services": 424,
      "passpo": 425,
      "analytics": 426,
      "passport": 427,
      "am": 428,
      "dr": 429,
      "gm": 430,
      "llec": 431,
      "ok": 432,
      "page": 433,
      "rm": 434,
      "vie": 435,
      "wer": 436,
      "collec": 437,
      "eng": 438,
      "plus": 439,
      "githuba": 440,
      "sinajs": 441,
      "dis": 442,
      "nex": 443,
      "team": 444,
      "avatars": 445,
      "pagead": 446,
      "viewer": 447,
      "collector": 448,
      "githubapp": 449,
      "teamviewer": 450,
      "are": 451,
      "bcdn": 452,
      "bdstatic": 453,
      "blog": 454,
      "cl": 455,
      "ct": 456,
      "dl": 457,
      "fbcdn": 458,
      "ji": 459,
      "ment": 460,
      "oba": 461,
      "pv": 462,
      "pad": 463,
      "pect": 464,
      "sa": 465,
      "ty": 466,
      "tec": 467,
      "tpc": 468,
      "ud": 469,
      "unex": 470,
      "xues": 471,
      "yre": 472,
      "sen": 473,
      "sets": 474,
      "edly": 475,
      "ople": 476,
      "live": 477,
      "nts": 478,
      "cloud": 479,
      "closed": 480,
      "taoba": 481,
      "ing": 482,
      "assets": 483,
      "sogoucdn": 484,
      "and": 485,
      "bea": 486,
      "out": 487,
      "facebo": 488,
      "nez": 489,
      "csdnimg": 490,
      "nos": 491,
      "people": 492,
      "belnez": 493,
      "secure": 494,
      "socks": 495,
      "adobe": 496,
      "pectedly": 497,
      "tech": 498,
      "unexpectedly": 499,
      "xueshu": 500,
      "taobao": 501,
      "facebook": 502,
      "ama": 503,
      "ex": 504,
      "fl": 505,
      "fm": 506,
      "fs": 507,
      "fly": 508,
      "feb": 509,
      "ges": 510,
      "jp": 511,
      "kd": 512,
      "mg": 513,
      "med": 514,
      "ome": 515,
      "pub": 516,
      "pch": 517,
      "qh": 518,
      "rta": 519,
      "sug": 520,
      "wi": 521,
      "wn": 522,
      "wsin": 523,
      "xf": 524,
      "xx": 525,
      "rowsin": 526,
      "hkg": 527,
      "timg": 528,
      "tag": 529,
      "ine": 530,
      "caca": 531,
      "stack": 532,
      "click": 533,
      "eland": 534,
      "hui": 535,
      "huhui": 536,
      "serving": 537,
      "sho": 538,
      "share": 539,
      "css": 540,
      "gemini": 541,
      "ping": 542,
      "login": 543,
      "beln": 544,
      "sys": 545,
      "sync": 546,
      "ishuhui": 547,
      "engine": 548,
      "safeb": 549,
      "nosdn": 550,
      "gestion": 551,
      "pchome": 552,
      "rtax": 553,
      "suggestion": 554,
      "rowsing": 555,
      "cacafly": 556,
      "safebrowsing": 557,
      "ac": 558,
      "adn": 559,
      "aws": 560,
      "app": 561,
      "bi": 562,
      "bt": 563,
      "cpro": 564,
      "eas": 565,
      "han": 566,
      "hfm": 567,
      "ib": 568,
      "kit": 569,
      "kie": 570,
      "lh": 571,
      "ms": 572,
      "moo": 573,
      "mic": 574,
      "mhfm": 575,
      "qd": 576,
      "rc": 577,
      "ri": 578,
      "si": 579,
      "tv": 580,
      "tch": 581,
      "ur": 582,
      "uve": 583,
      "wang": 584,
      "web": 585,
      "xs": 586,
      "zer": 587,
      "zon": 588,
      "eclick": 589,
      "tifi": 590,
      "load": 591,
      "ogs": 592,
      "imp": 593,
      "cat": 594,
      "mast": 595,
      "match": 596,
      "tool": 597,
      "adzer": 598,
      "gouts": 599,
      "knl": 600,
      "qulish": 601,
      "rity": 602,
      "ssp": 603,
      "avd": 604,
      "cations": 605,
      "notifi": 606,
      "pekit": 607,
      "confi": 608,
      "vgqs": 609,
      "vgqsen": 610,
      "security": 611,
      "clg": 612,
      "typekit": 613,
      "yread": 614,
      "amazon": 615,
      "media": 616,
      "qhimg": 617,
      "short": 618,
      "adnxs": 619,
      "easyread": 620,
      "hangouts": 621,
      "mookie": 622,
      "micro": 623,
      "tva": 624,
      "master": 625,
      "tools": 626,
      "adzerk": 627,
      "qulishi": 628,
      "notifications": 629,
      "config": 630,
      "vgqsenes": 631,
      "amazonaws": 632,
      "ati": 633,
      "ant": 634,
      "ach": 635,
      "bh": 636,
      "bs": 637,
      "bug": 638,
      "bra": 639,
      "cv": 640,
      "cid": 641,
      "cre": 642,
      "cmatch": 643,
      "dp": 644,
      "dup": 645,
      "ema": 646,
      "fro": 647,
      "fcmatch": 648,
      "gn": 649,
      "gr": 650,
      "hp": 651,
      "int": 652,
      "ian": 653,
      "ive": 654,
      "ipv": 655,
      "men": 656,
      "mdn": 657,
      "na": 658,
      "ns": 659,
      "nx": 660,
      "pk": 661,
      "ql": 662,
      "ren": 663,
      "sim": 664,
      "sit": 665,
      "sch": 666,
      "scontent": 667,
      "src": 668,
      "ui": 669,
      "ux": 670,
      "wh": 671,
      "wpad": 672,
      "sestat": 673,
      "sear": 674,
      "edn": 675,
      "comment": 676,
      "commen": 677,
      "ting": 678,
      "logo": 679,
      "googlead": 680,
      "googletag": 681,
      "tapad": 682,
      "tanx": 683,
      "info": 684,
      "counts": 685,
      "image": 686,
      "cas": 687,
      "recommen": 688,
      "asia": 689,
      "serve": 690,
      "debug": 691,
      "form": 692,
      "fonts": 693,
      "quant": 694,
      "olar": 695,
      "tensi": 696,
      "dict": 697,
      "contentrecommen": 698,
      "attach": 699,
      "data": 700,
      "avp": 701,
      "chat": 702,
      "dsp": 703,
      "oimag": 704,
      "manhuaren": 705,
      "zhimg": 706,
      "oimageb": 707,
      "conf": 708,
      "agkn": 709,
      "newsimg": 710,
      "drive": 711,
      "cloudfro": 712,
      "beap": 713,
      "beacon": 714,
      "outbra": 715,
      "securepubads": 716,
      "adobelogin": 717,
      "extensi": 718,
      "fls": 719,
      "kdpic": 720,
      "wifi": 721,
      "accounts": 722,
      "biz": 723,
      "cidian": 724,
      "creati": 725,
      "emaji": 726,
      "simba": 727,
      "sitemaji": 728,
      "scholar": 729,
      "search": 730,
      "googleadservices": 731,
      "formi": 732,
      "quantserve": 733,
      "contentrecommend": 734,
      "attachment": 735,
      "oimagec": 736,
      "cloudfront": 737,
      "outbrain": 738,
      "extension": 739,
      "ai": 740,
      "ao": 741,
      "at": 742,
      "ara": 743,
      "atanx": 744,
      "bj": 745,
      "bl": 746,
      "bw": 747,
      "bei": 748,
      "bcebo": 749,
      "bbh": 750,
      "cr": 751,
      "cpc": 752,
      "dt": 753,
      "dth": 754,
      "der": 755,
      "dre": 756,
      "dbl": 757,
      "ft": 758,
      "flo": 759,
      "feng": 760,
      "fclick": 761,
      "ga": 762,
      "gt": 763,
      "gv": 764,
      "gtimg": 765,
      "hi": 766,
      "hn": 767,
      "hne": 768,
      "itt": 769,
      "icon": 770,
      "iji": 771,
      "jx": 772,
      "jy": 773,
      "ject": 774,
      "kk": 775,
      "kr": 776,
      "ky": 777,
      "kcdn": 778,
      "lcr": 779,
      "mm": 780,
      "mo": 781,
      "msn": 782,
      "mde": 783,
      "mcm": 784,
      "mia": 785,
      "mct": 786,
      "nux": 787,
      "or": 788,
      "ocs": 789,
      "over": 790,
      "odr": 791,
      "pj": 792,
      "pt": 793,
      "pu": 794,
      "ppl": 795,
      "pan": 796,
      "pengine": 797,
      "qa": 798,
      "qs": 799,
      "qpic": 800,
      "qlogo": 801,
      "qbw": 802,
      "rub": 803,
      "rst": 804,
      "sb": 805,
      "sco": 806,
      "sso": 807,
      "sclick": 808,
      "sky": 809,
      "tp": 810,
      "tdmp": 811,
      "tri": 812,
      "tui": 813,
      "use": 814,
      "vec": 815,
      "wk": 816,
      "win": 817,
      "wra": 818,
      "wpengine": 819,
      "xdr": 820,
      "xbbh": 821,
      "yimg": 822,
      "yupdate": 823,
      "zkcdn": 824,
      "sene": 825,
      "project": 826,
      "cus": 827,
      "thun": 828,
      "opai": 829,
      "psg": 830,
      "lib": 831,
      "linux": 832,
      "recar": 833,
      "lego": 834,
      "ogues": 835,
      "ets": 836,
      "baiji": 837,
      "imtt": 838,
      "imag": 839,
      "cach": 840,
      "catc": 841,
      "netdn": 842,
      "ubmcm": 843,
      "matic": 844,
      "soft": 845,
      "imgcach": 846,
      "clientservices": 847,
      "ade": 848,
      "admaster": 849,
      "addth": 850,
      "dropboxapi": 851,
      "hup": 852,
      "qqmail": 853,
      "dows": 854,
      "down": 855,
      "getdropbox": 856,
      "chan": 857,
      "demde": 858,
      "stats": 859,
      "csi": 860,
      "focus": 861,
      "quali": 862,
      "ilyupdate": 863,
      "dailyupdate": 864,
      "ral": 865,
      "manag": 866,
      "upload": 867,
      "dslb": 868,
      "ahao": 869,
      "central": 870,
      "alitui": 871,
      "tenmaximg": 872,
      "noavatar": 873,
      "stri": 874,
      "twitt": 875,
      "vgqsene": 876,
      "uni": 877,
      "sockets": 878,
      "adobei": 879,
      "gmtdmp": 880,
      "yrexdr": 881,
      "send": 882,
      "exchan": 883,
      "kdcl": 884,
      "pubs": 885,
      "pubmatic": 886,
      "stackover": 887,
      "stackexchan": 888,
      "url": 889,
      "wangwang": 890,
      "microad": 891,
      "microsoft": 892,
      "dpm": 893,
      "gnar": 894,
      "gravatar": 895,
      "hpd": 896,
      "inte": 897,
      "nsl": 898,
      "qlsn": 899,
      "googletagmanag": 900,
      "creativec": 901,
      "aralego": 902,
      "bcebos": 903,
      "dresearch": 904,
      "dblp": 905,
      "flow": 906,
      "gtms": 907,
      "gvt": 908,
      "hicloud": 909,
      "hnedn": 910,
      "iconproject": 911,
      "jxc": 912,
      "krcom": 913,
      "mmstat": 914,
      "miaopai": 915,
      "org": 916,
      "ocsp": 917,
      "ptlogin": 918,
      "pplv": 919,
      "qbwup": 920,
      "rubiconproject": 921,
      "scorecar": 922,
      "skype": 923,
      "trier": 924,
      "windows": 925,
      "wrating": 926,
      "xbbhjxc": 927,
      "thunder": 928,
      "oguesnsl": 929,
      "baijiahao": 930,
      "images": 931,
      "catchup": 932,
      "netdna": 933,
      "ubmcmm": 934,
      "imgcache": 935,
      "addthis": 936,
      "download": 937,
      "demdex": 938,
      "quality": 939,
      "strip": 940,
      "twitter": 941,
      "vgqsenee": 942,
      "adobeid": 943,
      "yrexdrpj": 944,
      "stackoverflow": 945,
      "stackexchange": 946,
      "googletagmanager": 947,
      "creativecdn": 948,
      "scorecardresearch": 949,
      "ak": 950,
      "ap": 951,
      "au": 952,
      "aw": 953,
      "ase": 954,
      "ald": 955,
      "aman": 956,
      "asearch": 957,
      "bp": 958,
      "br": 959,
      "by": 960,
      "bid": 961,
      "bjs": 962,
      "bpc": 963,
      "cg": 964,
      "cta": 965,
      "cbjs": 966,
      "dc": 967,
      "dj": 968,
      "dw": 969,
      "dps": 970,
      "dsh": 971,
      "dpa": 972,
      "dhp": 973,
      "ee": 974,
      "ease": 975,
      "fre": 976,
      "gs": 977,
      "geo": 978,
      "gma": 979,
      "gxin": 980,
      "gic": 981,
      "gmail": 982,
      "hd": 983,
      "his": 984,
      "if": 985,
      "ir": 986,
      "iz": 987,
      "irec": 988,
      "ica": 989,
      "iwi": 990,
      "iux": 991,
      "ifeng": 992,
      "ihd": 993,
      "jl": 994,
      "jfm": 995,
      "ko": 996,
      "kle": 997,
      "kiwi": 998,
      "lg": 999,
      "ml": 1000,
      "mu": 1001,
      "mes": 1002,
      "mmb": 1003,
      "mjy": 1004,
      "nh": 1005,
      "neo": 1006,
      "nal": 1007,
      "niux": 1008,
      "nmjy": 1009,
      "ocdn": 1010,
      "osi": 1011,
      "pr": 1012,
      "pz": 1013,
      "pco": 1014,
      "pdl": 1015,
      "qihu": 1016,
      "qhm": 1017,
      "rp": 1018,
      "rv": 1019,
      "ry": 1020,
      "red": 1021,
      "rss": 1022,
      "rko": 1023,
      "sp": 1024,
      "sw": 1025,
      "sti": 1026,
      "sub": 1027,
      "sma": 1028,
      "stor": 1029,
      "sdoc": 1030,
      "sstats": 1031,
      "srko": 1032,
      "tj": 1033,
      "tn": 1034,
      "tro": 1035,
      "ter": 1036,
      "trc": 1037,
      "tdp": 1038,
      "tql": 1039,
      "tdt": 1040,
      "uh": 1041,
      "um": 1042,
      "uy": 1043,
      "uan": 1044,
      "ums": 1045,
      "uald": 1046,
      "uter": 1047,
      "vjp": 1048,
      "way": 1049,
      "wbpc": 1050,
      "wosi": 1051,
      "wtdt": 1052,
      "xt": 1053,
      "xuan": 1054,
      "ync": 1055,
      "yun": 1056,
      "yms": 1057,
      "yap": 1058,
      "ybp": 1059,
      "zjfm": 1060,
      "999999999": 1061,
      "seng": 1062,
      "ytnh": 1063,
      "thir": 1064,
      "opta": 1065,
      "openx": 1066,
      "http": 1067,
      "ecmb": 1068,
      "tips": 1069,
      "lime": 1070,
      "list": 1071,
      "loca": 1072,
      "mekn": 1073,
      "lemedia": 1074,
      "ert": 1075,
      "ery": 1076,
      "ernal": 1077,
      "tabo": 1078,
      "wwbiz": 1079,
      "otocdn": 1080,
      "bayms": 1081,
      "ingo": 1082,
      "inpu": 1083,
      "ims": 1084,
      "impa": 1085,
      "capi": 1086,
      "casa": 1087,
      "camo": 1088,
      "netease": 1089,
      "dns": 1090,
      "cncdn": 1091,
      "imgur": 1092,
      "imgsrc": 1093,
      "imgtn": 1094,
      "adtech": 1095,
      "adtdp": 1096,
      "adingo": 1097,
      "ash": 1098,
      "ask": 1099,
      "qqweb": 1100,
      "usync": 1101,
      "cdnjs": 1102,
      "shou": 1103,
      "shar": 1104,
      "itch": 1105,
      "knel": 1106,
      "csm": 1107,
      "query": 1108,
      "lishing": 1109,
      "ola": 1110,
      "sinaapp": 1111,
      "dir": 1112,
      "dicta": 1113,
      "digic": 1114,
      "ssum": 1115,
      "avn": 1116,
      "lyjl": 1117,
      "race": 1118,
      "ieee": 1119,
      "teway": 1120,
      "text": 1121,
      "tory": 1122,
      "cfg": 1123,
      "upmo": 1124,
      "dmw": 1125,
      "rtb": 1126,
      "rty": 1127,
      "zhstatic": 1128,
      "adsrv": 1129,
      "photocdn": 1130,
      "tst": 1131,
      "mingxin": 1132,
      "agent": 1133,
      "stun": 1134,
      "longca": 1135,
      "miniga": 1136,
      "iao": 1137,
      "wxml": 1138,
      "newsapp": 1139,
      "trellocdn": 1140,
      "service": 1141,
      "unpk": 1142,
      "okie": 1143,
      "nexage": 1144,
      "cloudfl": 1145,
      "amaihd": 1146,
      "flash": 1147,
      "medal": 1148,
      "publishing": 1149,
      "qhres": 1150,
      "wix": 1151,
      "showxml": 1152,
      "acc": 1153,
      "bile": 1154,
      "btrace": 1155,
      "qdun": 1156,
      "ursdoc": 1157,
      "impr": 1158,
      "impservice": 1159,
      "vgqskn": 1160,
      "tvax": 1161,
      "internal": 1162,
      "nsclick": 1163,
      "pki": 1164,
      "tingyun": 1165,
      "logos": 1166,
      "googletagservices": 1167,
      "imageplus": 1168,
      "asiamax": 1169,
      "confpublishing": 1170,
      "creative": 1171,
      "dtrp": 1172,
      "fengnet": 1173,
      "gateway": 1174,
      "jyb": 1175,
      "kkk": 1176,
      "puui": 1177,
      "akamaihd": 1178,
      "auth": 1179,
      "amanad": 1180,
      "brand": 1181,
      "bidsw": 1182,
      "cgi": 1183,
      "dshytnh": 1184,
      "dparty": 1185,
      "dhptql": 1186,
      "free": 1187,
      "gslb": 1188,
      "history": 1189,
      "irector": 1190,
      "icauh": 1191,
      "ifengimg": 1192,
      "kiwihk": 1193,
      "messeng": 1194,
      "mmbiz": 1195,
      "neosma": 1196,
      "niuxiao": 1197,
      "nmjylyjl": 1198,
      "pcookie": 1199,
      "pdlxf": 1200,
      "qihucdn": 1201,
      "ryvjp": 1202,
      "redirector": 1203,
      "stir": 1204,
      "sublime": 1205,
      "storage": 1206,
      "srkodhptql": 1207,
      "trouter": 1208,
      "uykle": 1209,
      "ualdn": 1210,
      "wbpctips": 1211,
      "wosign": 1212,
      "wtdtjs": 1213,
      "xuanfengnet": 1214,
      "thirdparty": 1215,
      "optaim": 1216,
      "local": 1217,
      "mekned": 1218,
      "taboola": 1219,
      "wwbizapi": 1220,
      "baymsgr": 1221,
      "input": 1222,
      "impact": 1223,
      "casalemedia": 1224,
      "shouji": 1225,
      "shared": 1226,
      "dictapp": 1227,
      "digicert": 1228,
      "ieeeconfpublishing": 1229,
      "upmobile": 1230,
      "adsrvr": 1231,
      "mingxing": 1232,
      "minigame": 1233,
      "unpkg": 1234,
      "cloudflare": 1235,
      "ursdoccdn": 1236,
      "internalapi": 1237,
      "bidswitch": 1238,
      "messenger": 1239,
      "neosmart": 1240,
      "nmjylyjluykle": 1241,
      "sublimetext": 1242,
      "srkodhptqlryvjp": 1243
    },
    "merges": [
      "9 9",
      "r o",
      "99 99",
      "h k",
      "s e",
      "p ro",
      "x y",
      "pro xy",
      "e d",
      "c o",
      "c u",
      "c se",
      "ed u",
      "cu hk",
      "e s",
      "y t",
      "b yt",
      "byt es",
      "k b",
      "t h",
      "co m",
      "e n",
      "99 9",
      "u g",
      "ro ug",
      "th roug",
      "throug h",
      "t t",
      "o p",
      "op en",
      "p s",
      "h tt",
      "htt ps",
      "e c",
      "t i",
      "l i",
      "l o",
      "e i",
      "n t",
      "e ti",
      "c lo",
      "m e",
      "clo se",
      "r ec",
      "f eti",
      "v ed",
      "se nt",
      "li feti",
      "ei ved",
      "rec eived",
      "lifeti me",
      "9999 9",
      "g o",
      "l e",
      "o g",
      "go og",
      "n n",
      "goog le",
      "e r",
      "t a",
      "co nn",
      "w w",
      "i d",
      "conn ec",
      "ro r",
      "er ror",
      "o t",
      "e t",
      "- -",
      "o n",
      "n ot",
      "b a",
      "i n",
      "co u",
      "l d",
      "cou ld",
      "en t",
      "ti on",
      "i m",
      "c a",
      "b o",
      "n et",
      "s ta",
      "u b",
      "e o",
      "i th",
      "r e",
      "ww w",
      "id u",
      "ba idu",
      "d n",
      "connec tion",
      "connec t",
      "9999 99",
      "m a",
      "s n",
      "c n",
      "v id",
      "vid eo",
      "s o",
      "im g",
      "-- -",
      "google video",
      "c li",
      "se r",
      "t o",
      "th e",
      "cli ent",
      "e l",
      "a d",
      "d ro",
      "p bo",
      "dro pbo",
      "dropbo x",
      "p i",
      "h u",
      "a s",
      "ti c",
      "c k",
      "sta tic",
      "q q",
      "u s",
      "p l",
      "w ith",
      "d o",
      "ser v",
      "c dn",
      "s h",
      "go u",
      "i t",
      "g et",
      "g ith",
      "k n",
      "ta r",
      "so gou",
      "a pi",
      "c h",
      "a n",
      "d e",
      "9999 999",
      "v e",
      "sta t",
      "b e",
      "m b",
      "gith ub",
      "c s",
      "f o",
      "q u",
      "do ub",
      "g e",
      "li sh",
      "w ei",
      "o l",
      "n c",
      "serv er",
      "i l",
      "b lish",
      "l ec",
      "r es",
      "se c",
      "co de",
      "es ta",
      "nn ot",
      "ca nnot",
      "tar get",
      "stat us",
      "esta blish",
      "s in",
      "li ck",
      "m p",
      "w as",
      "es t",
      "com pl",
      "eti on",
      "ca nc",
      "re qu",
      "el ed",
      "be fo",
      "compl etion",
      "canc eled",
      "requ est",
      "befo re",
      "ol ve",
      "res olve",
      "o u",
      "sin a",
      "t en",
      "client s",
      "doub lec",
      "doublec lick",
      "d i",
      "f a",
      "n e",
      "co nt",
      "ma x",
      "cont ent",
      "a ge",
      "r it",
      "a tt",
      "s s",
      "d a",
      "d static",
      "y ou",
      "cs dn",
      "a v",
      "wei bo",
      "c rit",
      "e mp",
      "j s",
      "l y",
      "p in",
      "u ser",
      "api s",
      "il ed",
      "fa iled",
      "att emp",
      "crit eo",
      "attemp t",
      "so hu",
      "user content",
      "r a",
      "x in",
      "z z",
      "ca tion",
      "ma n",
      "cn zz",
      "i e",
      "t e",
      "to r",
      "a y",
      "c f",
      "o o",
      "u p",
      "y dstatic",
      "lo g",
      "ch a",
      "sina img",
      "d m",
      "d s",
      "o im",
      "p o",
      "u ba",
      "w s",
      "y in",
      "google apis",
      "hu a",
      "pl ay",
      "wei xin",
      "pin yin",
      "man hua",
      "a h",
      "c ent",
      "l es",
      "n g",
      "n di",
      "r t",
      "t c",
      "y ndi",
      "z h",
      "goog les",
      "ad s",
      "yndi cation",
      "googles yndication",
      "a tar",
      "i c",
      "l b",
      "t ub",
      "yt img",
      "nn el",
      "ma il",
      "you tub",
      "av atar",
      "cha nnel",
      "youtub e",
      "a li",
      "b d",
      "g static",
      "l t",
      "p h",
      "t s",
      "y ah",
      "le max",
      "bo lt",
      "cdn dm",
      "kn e",
      "an g",
      "doub lemax",
      "ten max",
      "ten cent",
      "oim age",
      "yah oo",
      "c m",
      "g g",
      "i o",
      "i nn",
      "i hu",
      "m in",
      "n o",
      "p e",
      "p p",
      "9999 9999",
      "co n",
      "google usercontent",
      "it y",
      "bd img",
      "ph t",
      "gg pht",
      "inn ity",
      "a g",
      "a r",
      "b el",
      "f i",
      "h m",
      "p conn",
      "s t",
      "t w",
      "v er",
      "lo ng",
      "tc pconn",
      "zh ihu",
      "min i",
      "a l",
      "d mp",
      "g q",
      "i a",
      "l lo",
      "s y",
      "t re",
      "v gq",
      "w x",
      "se cu",
      "ne ws",
      "oimage a",
      "tre llo",
      "b lo",
      "c e",
      "e b",
      "e ver",
      "g ra",
      "l k",
      "m ta",
      "m ma",
      "p c",
      "p uba",
      "r ly",
      "x el",
      "y an",
      "ed ge",
      "not e",
      "pi c",
      "pi xel",
      "do c",
      "serv ic",
      "ch ang",
      "da o",
      "da te",
      "you dao",
      "up date",
      "ali cdn",
      "kne z",
      "blo ck",
      "ever note",
      "gra mma",
      "mta lk",
      "puba ds",
      "chang yan",
      "gramma rly",
      "i s",
      "i cs",
      "p a",
      "p as",
      "s po",
      "u n",
      "u es",
      "yt ics",
      "ec t",
      "google ads",
      "baidu static",
      "so ck",
      "ad o",
      "it c",
      "an al",
      "github usercontent",
      "ss l",
      "po s",
      "ce bo",
      "doc tor",
      "servic es",
      "pas spo",
      "anal ytics",
      "passpo rt",
      "a m",
      "d r",
      "g m",
      "l lec",
      "o k",
      "p age",
      "r m",
      "v ie",
      "w er",
      "co llec",
      "en g",
      "pl us",
      "gith uba",
      "sina js",
      "di s",
      "ne x",
      "te am",
      "avatar s",
      "page ad",
      "vie wer",
      "collec tor",
      "githuba pp",
      "team viewer",
      "a re",
      "b cdn",
      "b dstatic",
      "b log",
      "c l",
      "c t",
      "d l",
      "f bcdn",
      "j i",
      "m ent",
      "o ba",
      "p v",
      "p ad",
      "p ect",
      "s a",
      "t y",
      "t ec",
      "t pc",
      "u d",
      "u nex",
      "x ues",
      "y re",
      "se n",
      "se ts",
      "ed ly",
      "op le",
      "li ve",
      "nt s",
      "clo ud",
      "close d",
      "ta oba",
      "in g",
      "as sets",
      "sogou cdn",
      "an d",
      "be a",
      "ou t",
      "fa cebo",
      "ne z",
      "csdn img",
      "no s",
      "pe ople",
      "bel nez",
      "secu re",
      "sock s",
      "ado be",
      "pect edly",
      "tec h",
      "unex pectedly",
      "xues hu",
      "taoba o",
      "facebo ok",
      "a ma",
      "e x",
      "f l",
      "f m",
      "f s",
      "f ly",
      "f eb",
      "g es",
      "j p",
      "k d",
      "m g",
      "m ed",
      "o me",
      "p ub",
      "p ch",
      "q h",
      "r ta",
      "s ug",
      "w i",
      "w n",
      "w sin",
      "x f",
      "x x",
      "ro wsin",
      "hk g",
      "ti mg",
      "ta g",
      "in e",
      "ca ca",
      "sta ck",
      "cli ck",
      "el and",
      "hu i",
      "hu hui",
      "serv ing",
      "sh o",
      "sh are",
      "cs s",
      "ge mini",
      "pin g",
      "log in",
      "bel n",
      "sy s",
      "sy nc",
      "is huhui",
      "eng ine",
      "sa feb",
      "nos dn",
      "ges tion",
      "pch ome",
      "rta x",
      "sug gestion",
      "rowsin g",
      "caca fly",
      "safeb rowsing",
      "a c",
      "a dn",
      "a ws",
      "a pp",
      "b i",
      "b t",
      "c pro",
      "e as",
      "h an",
      "h fm",
      "i b",
      "k it",
      "k ie",
      "l h",
      "m s",
      "m oo",
      "m ic",
      "m hfm",
      "q d",
      "r c",
      "r i",
      "s i",
      "t v",
      "t ch",
      "u r",
      "u ve",
      "w ang",
      "w eb",
      "x s",
      "z er",
      "z on",
      "ec lick",
      "ti fi",
      "lo ad",
      "og s",
      "im p",
      "ca t",
      "ma st",
      "ma tch",
      "to ol",
      "ad zer",
      "gou ts",
      "kn l",
      "qu lish",
      "rit y",
      "ss p",
      "av d",
      "cation s",
      "no tifi",
      "pe kit",
      "con fi",
      "vgq s",
      "vgq sen",
      "secu rity",
      "cl g",
      "ty pekit",
      "yre ad",
      "ama zon",
      "med ia",
      "qh img",
      "sho rt",
      "adn xs",
      "eas yread",
      "han gouts",
      "moo kie",
      "mic ro",
      "tv a",
      "mast er",
      "tool s",
      "adzer k",
      "qulish i",
      "notifi cations",
      "confi g",
      "vgqsen es",
      "amazon aws",
      "a ti",
      "a nt",
      "a ch",
      "b h",
      "b s",
      "b ug",
      "b ra",
      "c v",
      "c id",
      "c re",
      "c match",
      "d p",
      "d up",
      "e ma",
      "f ro",
      "f cmatch",
      "g n",
      "g r",
      "h p",
      "i nt",
      "i an",
      "i ve",
      "i pv",
      "m en",
      "m dn",
      "n a",
      "n s",
      "n x",
      "p k",
      "q l",
      "r en",
      "s im",
      "s it",
      "s ch",
      "s content",
      "s rc",
      "u i",
      "u x",
      "w h",
      "w pad",
      "se stat",
      "se ar",
      "ed n",
      "com ment",
      "com men",
      "ti ng",
      "lo go",
      "google ad",
      "google tag",
      "ta pad",
      "ta nx",
      "in fo",
      "cou nts",
      "im age",
      "ca s",
      "re commen",
      "as ia",
      "serv e",
      "de bug",
      "fo rm",
      "fo nts",
      "qu ant",
      "ol ar",
      "ten si",
      "di ct",
      "content recommen",
      "att ach",
      "da ta",
      "av p",
      "cha t",
      "ds p",
      "oim ag",
      "manhua ren",
      "zh img",
      "oimage b",
      "con f",
      "ag kn",
      "news img",
      "dr ive",
      "cloud fro",
      "bea p",
      "bea con",
      "out bra",
      "secure pubads",
      "adobe login",
      "ex tensi",
      "fl s",
      "kd pic",
      "wi fi",
      "ac counts",
      "bi z",
      "cid ian",
      "cre ati",
      "ema ji",
      "sim ba",
      "sit emaji",
      "sch olar",
      "sear ch",
      "googlead services",
      "form i",
      "quant serve",
      "contentrecommen d",
      "attach ment",
      "oimag ec",
      "cloudfro nt",
      "outbra in",
      "extensi on",
      "a i",
      "a o",
      "a t",
      "a ra",
      "a tanx",
      "b j",
      "b l",
      "b w",
      "b ei",
      "b cebo",
      "b bh",
      "c r",
      "c pc",
      "d t",
      "d th",
      "d er",
      "d re",
      "d bl",
      "f t",
      "f lo",
      "f eng",
      "f click",
      "g a",
      "g t",
      "g v",
      "g timg",
      "h i",
      "h n",
      "h ne",
      "i tt",
      "i con",
      "i ji",
      "j x",
      "j y",
      "j ect",
      "k k",
      "k r",
      "k y",
      "k cdn",
      "l cr",
      "m m",
      "m o",
      "m sn",
      "m de",
      "m cm",
      "m ia",
      "m ct",
      "n ux",
      "o r",
      "o cs",
      "o ver",
      "o dr",
      "p j",
      "p t",
      "p u",
      "p pl",
      "p an",
      "p engine",
      "q a",
      "q s",
      "q pic",
      "q logo",
      "q bw",
      "r ub",
      "r st",
      "s b",
      "s co",
      "s so",
      "s click",
      "s ky",
      "t p",
      "t dmp",
      "t ri",
      "t ui",
      "u se",
      "v ec",
      "w k",
      "w in",
      "w ra",
      "w pengine",
      "x dr",
      "x bbh",
      "y img",
      "y update",
      "z kcdn",
      "se ne",
      "pro ject",
      "cu s",
      "th un",
      "op ai",
      "ps g",
      "li b",
      "li nux",
      "rec ar",
      "le go",
      "og ues",
      "et s",
      "ba iji",
      "im tt",
      "im ag",
      "ca ch",
      "ca tc",
      "net dn",
      "ub mcm",
      "ma tic",
      "so ft",
      "img cach",
      "client services",
      "ad e",
      "ad master",
      "ad dth",
      "dropbox api",
      "hu p",
      "qq mail",
      "do ws",
      "do wn",
      "get dropbox",
      "ch an",
      "de mde",
      "stat s",
      "cs i",
      "fo cus",
      "qu ali",
      "il yupdate",
      "da ilyupdate",
      "ra l",
      "man ag",
      "up load",
      "ds lb",
      "ah ao",
      "cent ral",
      "ali tui",
      "tenmax img",
      "no avatar",
      "st ri",
      "tw itt",
      "vgq sene",
      "un i",
      "sock ets",
      "ado bei",
      "gm tdmp",
      "yre xdr",
      "sen d",
      "ex chan",
      "kd cl",
      "pub s",
      "pub matic",
      "stack over",
      "stack exchan",
      "ur l",
      "wang wang",
      "micro ad",
      "micro soft",
      "dp m",
      "gn ar",
      "gr avatar",
      "hp d",
      "int e",
      "ns l",
      "ql sn",
      "googletag manag",
      "creati vec",
      "ara lego",
      "bcebo s",
      "dre search",
      "dbl p",
      "flo w",
      "gt ms",
      "gv t",
      "hi cloud",
      "hn edn",
      "icon project",
      "jx c",
      "kr com",
      "mm stat",
      "mia opai",
      "or g",
      "ocs p",
      "pt login",
      "ppl v",
      "qbw up",
      "rub iconproject",
      "sco recar",
      "sky pe",
      "tri er",
      "win dows",
      "wra ting",
      "xbbh jxc",
      "thun der",
      "ogues nsl",
      "baiji ahao",
      "imag es",
      "catc hup",
      "netdn a",
      "ubmcm m",
      "imgcach e",
      "addth is",
      "down load",
      "demde x",
      "quali ty",
      "stri p",
      "twitt er",
      "vgqsene e",
      "adobei d",
      "yrexdr pj",
      "stackover flow",
      "stackexchan ge",
      "googletagmanag er",
      "creativec dn",
      "scorecar dresearch",
      "a k",
      "a p",
      "a u",
      "a w",
      "a se",
      "a ld",
      "a man",
      "a search",
      "b p",
      "b r",
      "b y",
      "b id",
      "b js",
      "b pc",
      "c g",
      "c ta",
      "c bjs",
      "d c",
      "d j",
      "d w",
      "d ps",
      "d sh",
      "d pa",
      "d hp",
      "e e",
      "e ase",
      "f re",
      "g s",
      "g eo",
      "g ma",
      "g xin",
      "g ic",
      "g mail",
      "h d",
      "h is",
      "i f",
      "i r",
      "i z",
      "i rec",
      "i ca",
      "i wi",
      "i ux",
      "i feng",
      "i hd",
      "j l",
      "j fm",
      "k o",
      "k le",
      "k iwi",
      "l g",
      "m l",
      "m u",
      "m es",
      "m mb",
      "m jy",
      "n h",
      "n eo",
      "n al",
      "n iux",
      "n mjy",
      "o cdn",
      "o si",
      "p r",
      "p z",
      "p co",
      "p dl",
      "q ihu",
      "q hm",
      "r p",
      "r v",
      "r y",
      "r ed",
      "r ss",
      "r ko",
      "s p",
      "s w",
      "s ti",
      "s ub",
      "s ma",
      "s tor",
      "s doc",
      "s stats",
      "s rko",
      "t j",
      "t n",
      "t ro",
      "t er",
      "t rc",
      "t dp",
      "t ql",
      "t dt",
      "u h",
      "u m",
      "u y",
      "u an",
      "u ms",
      "u ald",
      "u ter",
      "v jp",
      "w ay",
      "w bpc",
      "w osi",
      "w tdt",
      "x t",
      "x uan",
      "y nc",
      "y un",
      "y ms",
      "y ap",
      "y bp",
      "z jfm",
      "9999 99999",
      "se ng",
      "yt nh",
      "th ir",
      "op ta",
      "open x",
      "htt p",
      "ec mb",
      "ti ps",
      "li me",
      "li st",
      "lo ca",
      "me kn",
      "le media",
      "er t",
      "er y",
      "er nal",
      "ta bo",
      "ww biz",
      "ot ocdn",
      "ba yms",
      "in go",
      "in pu",
      "im s",
      "im pa",
      "ca pi",
      "ca sa",
      "ca mo",
      "net ease",
      "dn s",
      "cn cdn",
      "img ur",
      "img src",
      "img tn",
      "ad tech",
      "ad tdp",
      "ad ingo",
      "as h",
      "as k",
      "qq web",
      "us ync",
      "cdn js",
      "sh ou",
      "sh ar",
      "it ch",
      "kn el",
      "cs m",
      "qu ery",
      "lish ing",
      "ol a",
      "sina app",
      "di r",
      "di cta",
      "di gic",
      "ss um",
      "av n",
      "ly jl",
      "ra ce",
      "ie ee",
      "te way",
      "te xt",
      "tor y",
      "cf g",
      "up mo",
      "dm w",
      "rt b",
      "rt y",
      "zh static",
      "ads rv",
      "ph otocdn",
      "ts t",
      "min gxin",
      "ag ent",
      "st un",
      "long ca",
      "mini ga",
      "ia o",
      "wx ml",
      "news app",
      "trello cdn",
      "servic e",
      "un pk",
      "ok ie",
      "nex age",
      "cloud fl",
      "ama ihd",
      "fl ash",
      "med al",
      "pub lishing",
      "qh res",
      "wi x",
      "sho wxml",
      "ac c",
      "bi le",
      "bt race",
      "qd un",
      "ur sdoc",
      "imp r",
      "imp service",
      "vgqs kn",
      "tva x",
      "int ernal",
      "ns click",
      "pk i",
      "ting yun",
      "logo s",
      "googletag services",
      "image plus",
      "asia max",
      "conf publishing",
      "creati ve",
      "dt rp",
      "feng net",
      "ga teway",
      "jy b",
      "kk k",
      "pu ui",
      "ak amaihd",
      "au th",
      "aman ad",
      "br and",
      "bid sw",
      "cg i",
      "dsh ytnh",
      "dpa rty",
      "dhp tql",
      "fre e",
      "gs lb",
      "his tory",
      "irec tor",
      "ica uh",
      "ifeng img",
      "kiwi hk",
      "mes seng",
      "mmb iz",
      "neo sma",
      "niux iao",
      "nmjy lyjl",
      "pco okie",
      "pdl xf",
      "qihu cdn",
      "ry vjp",
      "red irector",
      "sti r",
      "sub lime",
      "stor age",
      "srko dhptql",
      "tro uter",
      "uy kle",
      "uald n",
      "wbpc tips",
      "wosi gn",
      "wtdt js",
      "xuan fengnet",
      "thir dparty",
      "opta im",
      "loca l",
      "mekn ed",
      "tabo ola",
      "wwbiz api",
      "bayms gr",
      "inpu t",
      "impa ct",
      "casa lemedia",
      "shou ji",
      "shar ed",
      "dicta pp",
      "digic ert",
      "ieee confpublishing",
      "upmo bile",
      "adsrv r",
      "mingxin g",
      "miniga me",
      "unpk g",
      "cloudfl are",
      "ursdoc cdn",
      "internal api",
      "bidsw itch",
      "messeng er",
      "neosma rt",
      "nmjylyjl uykle",
      "sublime text",
      "srkodhptql ryvjp"
    ]
  }
}