{
  "version": "1.0",
  "truncation": null,
  "padding": null,
  "added_tokens": [
    {
      "id": 0,
      "content": "<pad>",
      "single_word": false,
      "lstrip": false,
      "rstrip": false,
      "normalized": false,
      "special": true
    },
    {
      "id": 1,
      "content": "<unk>",
      "single_word": false,
      "lstrip": false,
      "rstrip": false,
      "normalized": false,
      "special": true
    },
    {
      "id": 2,
      "content": " ",
      "single_word": false,
      "lstrip": false,
      "rstrip": false,
      "normalized": false,
      "special": true
    }
  ],
  "normalizer": {
    "type": "Sequence",
    "normalizers": [
      {
        "type": "NFKC"
      },
      {
        "type": "Lowercase"
      }
    ]
  },
  "pre_tokenizer": {
    "type": "Sequence",
    "pretokenizers": [
      {
        "type": "Whitespace"
      },
      {
        "type": "ByteLevel",
        "add_prefix_space": false,
        "trim_offsets": true,
        "use_regex": true
      }
    ]
  },
  "post_processor": {
    "type": "ByteLevel",
    "add_prefix_space": true,
    "trim_offsets": false,
    "use_regex": true
  },
  "decoder": null,
  "model": {
    "type": "BPE",
    "dropout": null,
    "unk_token": null,
    "continuing_subword_prefix": null,
    "end_of_word_suffix": null,
    "fuse_unk": false,
    "byte_fallback": false,
    "ignore_merges": false,
    "vocab": {
      "<pad>": 0,
      "<unk>": 1,
      " ": 2,
      "!": 3,
      "#": 4,
      "$": 5,
      "%": 6,
      "&": 7,
      "'": 8,
      "(": 9,
      ")": 10,
      "*": 11,
      "+": 12,
      ",": 13,
      "-": 14,
      ".": 15,
      "/": 16,
      "9": 17,
      ":": 18,
      ";": 19,
      "<": 20,
      "=": 21,
      ">": 22,
      "?": 23,
      "@": 24,
      "[": 25,
      "\\": 26,
      "]": 27,
      "_": 28,
      "`": 29,
      "a": 30,
      "b": 31,
      "c": 32,
      "d": 33,
      "e": 34,
      "f": 35,
      "g": 36,
      "h": 37,
      "i": 38,
      "j": 39,
      "k": 40,
      "l": 41,
      "m": 42,
      "n": 43,
      "o": 44,
      "p": 45,
      "q": 46,
      "r": 47,
      "s": 48,
      "t": 49,
      "u": 50,
      "v": 51,
      "w": 52,
      "x": 53,
      "y": 54,
      "z": 55,
      "|": 56,
      "99": 57,
      "9999": 58,
      "99999999": 59,
      "ff": 60,
      "999": 61,
      "ar": 62,
      "de": 63,
      "se": 64,
      "no": 65,
      "in": 66,
      "99999": 67,
      "ce": 68,
      "car": 69,
      "card": 70,
      "at": 71,
      "node": 72,
      "ch": 73,
      "9999999999999999": 74,
      "or": 75,
      "ser": 76,
      "ec": 77,
      "do": 78,
      "),": 79,
      "ffff": 80,
      "pr": 81,
      "lo": 82,
      "ed": 83,
      "pd": 84,
      "vpd": 85,
      "ip": 86,
      "on": 87,
      "ss": 88,
      "pro": 89,
      "serv": 90,
      "as": 91,
      "id": 92,
      "to": 93,
      "ou": 94,
      "ct": 95,
      "ee": 96,
      "nd": 97,
      "ion": 98,
      "par": 99,
      "fffff": 100,
      "ml": 101,
      "ice": 102,
      "service": 103,
      "999999999999999999999999": 104,
      "st": 105,
      "dear": 106,
      "iar": 107,
      "th": 108,
      "proce": 109,
      "not": 110,
      "999999": 111,
      "er": 112,
      "ing": 113,
      "eck": 114,
      "process": 115,
      "check": 116,
      "processor": 117,
      "ecid": 118,
      "slo": 119,
      "slot": 120,
      "atch": 121,
      "sy": 122,
      "ck": 123,
      "ound": 124,
      "found": 125,
      "match": 126,
      "ab": 127,
      "ted": 128,
      "ne": 129,
      "for": 130,
      "lock": 131,
      "block": 132,
      "re": 133,
      "of": 134,
      "ask": 135,
      "dat": 136,
      "pe": 137,
      "the": 138,
      "ad": 139,
      "ting": 140,
      "bl": 141,
      "sym": 142,
      "blk": 143,
      "sh": 144,
      "mask": 145,
      "new": 146,
      "ase": 147,
      "ido": 148,
      "um": 149,
      "serted": 150,
      "chip": 151,
      "into": 152,
      "abase": 153,
      "database": 154,
      "inserted": 155,
      "ty": 156,
      "ction": 157,
      "part": 158,
      "num": 159,
      "ut": 160,
      "pre": 161,
      "efor": 162,
      "type": 163,
      "999999999999999999999999999": 164,
      "parefor": 165,
      "preparefor": 166,
      "prepareforservice": 167,
      "))": 168,
      "mcard": 169,
      "sernum": 170,
      "ctn": 171,
      "mlctn": 172,
      "mcardsernum": 173,
      "mip": 174,
      "mtype": 175,
      "mlp": 176,
      "action": 177,
      "wn": 178,
      "down": 179,
      "shut": 180,
      "shutting": 181,
      "le": 182,
      "9999999999999999999999999999": 183,
      "nt": 184,
      "om": 185,
      "li": 186,
      "99999999999999": 187,
      "..": 188,
      "me": 189,
      "te": 190,
      "ea": 191,
      "com": 192,
      "an": 193,
      "by": 194,
      "ti": 195,
      "9999999": 196,
      "hk": 197,
      "xy": 198,
      "ssion": 199,
      "proxy": 200,
      "iv": 201,
      "bffff": 202,
      "fe": 203,
      "ma": 204,
      "rece": 205,
      "receiv": 206,
      "session": 207,
      "ste": 208,
      "dc": 209,
      "is": 210,
      "fi": 211,
      "9999999999999999999": 212,
      "eeee": 213,
      "nodecard": 214,
      "ate": 215,
      "al": 216,
      "file": 217,
      "syste": 218,
      "system": 219,
      "si": 220,
      "cc": 221,
      "con": 222,
      "time": 223,
      "byte": 224,
      "bytes": 225,
      "err": 226,
      "ent": 227,
      "kb": 228,
      "received": 229,
      "ge": 230,
      "na": 231,
      "cd": 232,
      "error": 233,
      "ffffffff": 234,
      "tr": 235,
      "ba": 236,
      "dd": 237,
      "....": 238,
      "fc": 239,
      "da": 240,
      "db": 241,
      "ect": 242,
      "df": 243,
      "mi": 244,
      "oo": 245,
      "ected": 246,
      "clo": 247,
      "close": 248,
      "fpr": 249,
      "bc": 250,
      "io": 251,
      "cu": 252,
      "add": 253,
      "ex": 254,
      "ac": 255,
      "edu": 256,
      "be": 257,
      "999999999999999999": 258,
      "ae": 259,
      "served": 260,
      "ans": 261,
      "trans": 262,
      "ir": 263,
      "cse": 264,
      "cuhk": 265,
      "ok": 266,
      "bf": 267,
      "ated": 268,
      "ze": 269,
      "size": 270,
      "ps": 271,
      "cio": 272,
      "il": 273,
      "gh": 274,
      "ciod": 275,
      "fa": 276,
      "ded": 277,
      "bd": 278,
      "rou": 279,
      "lin": 280,
      "throu": 281,
      "through": 282,
      "eee": 283,
      "cf": 284,
      "and": 285,
      "out": 286,
      "pen": 287,
      "open": 288,
      "cli": 289,
      "eeeeeee": 290,
      "client": 291,
      "state": 292,
      "bb": 293,
      "ht": 294,
      "filesystem": 295,
      "erfilesystem": 296,
      "cor": 297,
      "htt": 298,
      "https": 299,
      "ca": 300,
      "name": 301,
      "sent": 302,
      "data": 303,
      "namesystem": 304,
      "life": 305,
      "lifetime": 306,
      "link": 307,
      "conn": 308,
      "timeout": 309,
      "cate": 310,
      "9999999999": 311,
      "connect": 312,
      "sessionid": 313,
      "af": 314,
      "ef": 315,
      "am": 316,
      "stor": 317,
      "det": 318,
      "pon": 319,
      "detected": 320,
      "exce": 321,
      "cb": 322,
      "star": 323,
      "ter": 324,
      "9999999999999": 325,
      "linkcard": 326,
      "us": 327,
      "read": 328,
      "main": 329,
      "map": 330,
      "va": 331,
      "domain": 332,
      "rep": 333,
      "aa": 334,
      "ram": 335,
      "oot": 336,
      "able": 337,
      "99999999999999999": 338,
      "starting": 339,
      "edblock": 340,
      "addstor": 341,
      "addstoredblock": 342,
      "est": 343,
      "fer": 344,
      "repli": 345,
      "so": 346,
      "connection": 347,
      "thread": 348,
      "compon": 349,
      "transfer": 350,
      "datanode": 351,
      "replicate": 352,
      "component": 353,
      "wi": 354,
      "ust": 355,
      "wid": 356,
      "dir": 357,
      "mp": 358,
      "cl": 359,
      "corr": 360,
      "clust": 361,
      "gram": 362,
      "fd": 363,
      "program": 364,
      "root": 365,
      "et": 366,
      "added": 367,
      "rom": 368,
      "cket": 369,
      "........": 370,
      "pt": 371,
      "ds": 372,
      "from": 373,
      "transmi": 374,
      "corrected": 375,
      "ver": 376,
      "su": 377,
      "eb": 378,
      "ation": 379,
      "ilable": 380,
      "vailable": 381,
      "ni": 382,
      "addre": 383,
      "address": 384,
      "hi": 385,
      "with": 386,
      "ssing": 387,
      "clusterfilesystem": 388,
      "chan": 389,
      "missing": 390,
      "set": 391,
      "val": 392,
      "sc": 393,
      "secon": 394,
      "seconds": 395,
      "dcr": 396,
      "goo": 397,
      "valid": 398,
      "go": 399,
      "gl": 400,
      "min": 401,
      "xffffffff": 402,
      "net": 403,
      "lish": 404,
      "ablish": 405,
      "establish": 406,
      "ms": 407,
      "invalid": 408,
      "change": 409,
      "una": 410,
      "unavailable": 411,
      "tted": 412,
      "transmitted": 413,
      "over": 414,
      "sed": 415,
      "bgl": 416,
      "sr": 417,
      "termin": 418,
      "eded": 419,
      "upd": 420,
      "proces": 421,
      "stat": 422,
      "ory": 423,
      "processed": 424,
      "pir": 425,
      "whi": 426,
      "expir": 427,
      "closed": 428,
      "socket": 429,
      "blockmap": 430,
      "updated": 431,
      "exceeded": 432,
      "established": 433,
      "nego": 434,
      "tiated": 435,
      "termination": 436,
      "expiring": 437,
      "negotiated": 438,
      "src": 439,
      "serverfilesystem": 440,
      "ffffff": 441,
      "direct": 442,
      "directory": 443,
      "which": 444,
      "--": 445,
      "per": 446,
      "had": 447,
      "co": 448,
      "gle": 449,
      "google": 450,
      "cr": 451,
      "qu": 452,
      "999999999": 453,
      "such": 454,
      "ger": 455,
      "fb": 456,
      "99999999999": 457,
      "tor": 458,
      "ol": 459,
      "pa": 460,
      "lon": 461,
      "ption": 462,
      "fail": 463,
      "dest": 464,
      "torus": 465,
      "hwid": 466,
      "fee": 467,
      "ima": 468,
      "load": 469,
      "image": 470,
      "sw": 471,
      "hom": 472,
      "log": 473,
      "loading": 474,
      "core": 475,
      "wwid": 476,
      "scsi": 477,
      "status": 478,
      "gen": 479,
      "home": 480,
      "ru": 481,
      "arge": 482,
      "failed": 483,
      "targe": 484,
      "cal": 485,
      "gener": 486,
      "nc": 487,
      "vi": 488,
      "exception": 489,
      "receiver": 490,
      "longer": 491,
      "ww": 492,
      "test": 493,
      "temp": 494,
      "files": 495,
      "fea": 496,
      "up": 497,
      "generated": 498,
      "der": 499,
      "sets": 500,
      "user": 501,
      "fffffffe": 502,
      "md": 503,
      "consi": 504,
      "inconsi": 505,
      "nodesets": 506,
      "stent": 507,
      "inconsistent": 508,
      "wor": 509,
      "this": 510,
      "being": 511,
      "it": 512,
      "code": 513,
      "ap": 514,
      "done": 515,
      "uni": 516,
      "ddr": 517,
      "inst": 518,
      "inter": 519,
      "work": 520,
      "fu": 521,
      "lr": 522,
      "put": 523,
      "server": 524,
      "cou": 525,
      "nf": 526,
      "input": 527,
      "dele": 528,
      "network": 529,
      "ld": 530,
      "ls": 531,
      "requ": 532,
      "could": 533,
      "nb": 534,
      "999999999999": 535,
      "allo": 536,
      "domains": 537,
      "nodes": 538,
      "ruction": 539,
      "targeting": 540,
      "instruction": 541,
      "allocate": 542,
      "swl": 543,
      "allocateblock": 544,
      "hw": 545,
      "unix": 546,
      "ctr": 547,
      "mand": 548,
      "ll": 549,
      "pip": 550,
      "xer": 551,
      "pipe": 552,
      "age": 553,
      "999999999999999": 554,
      "ede": 555,
      "ic": 556,
      "fff": 557,
      "command": 558,
      "login": 559,
      "gi": 560,
      "request": 561,
      "ating": 562,
      "chdir": 563,
      "ddc": 564,
      "int": 565,
      "................": 566,
      "(/": 567,
      "ja": 568,
      "nal": 569,
      "ffe": 570,
      "-[": 571,
      "op": 572,
      "receiving": 573,
      "niff": 574,
      "delete": 575,
      "sp": 576,
      "java": 577,
      "ran": 578,
      "bo": 579,
      "gb": 580,
      "has": 581,
      "kee": 582,
      "keeper": 583,
      "im": 584,
      "faa": 585,
      "invalidset": 586,
      "sn": 587,
      "packet": 588,
      "deo": 589,
      "video": 590,
      "baid": 591,
      "ber": 592,
      "ary": 593,
      "---": 594,
      "ts": 595,
      "ta": 596,
      "ve": 597,
      "edfaa": 598,
      "googlevideo": 599,
      "bol": 600,
      "cn": 601,
      "www": 602,
      "alle": 603,
      "cmd": 604,
      "rand": 605,
      "pl": 606,
      "fcc": 607,
      "cur": 608,
      "baidu": 609,
      "orum": 610,
      "back": 611,
      "quorum": 612,
      "ssage": 613,
      "message": 614,
      "tempor": 615,
      "apps": 616,
      "backup": 617,
      "en": 618,
      "fda": 619,
      "sen": 620,
      "face": 621,
      "task": 622,
      "eep": 623,
      "temporary": 624,
      "res": 625,
      "tree": 626,
      "good": 627,
      "dr": 628,
      "po": 629,
      "cec": 630,
      "case": 631,
      "spe": 632,
      "ur": 633,
      "sweep": 634,
      "cases": 635,
      "boot": 636,
      "symbol": 637,
      "can": 638,
      "mpi": 639,
      "interr": 640,
      "cac": 641,
      "es": 642,
      "mo": 643,
      "full": 644,
      "rank": 645,
      "nch": 646,
      "interface": 647,
      "sender": 648,
      "ev": 649,
      "retransmi": 650,
      "number": 651,
      "via": 652,
      "event": 653,
      "retransmission": 654,
      "alt": 655,
      "wr": 656,
      "nel": 657,
      "ant": 658,
      "ha": 659,
      "ite": 660,
      "mc": 661,
      "ob": 662,
      "sig": 663,
      "cre": 664,
      "calls": 665,
      "ial": 666,
      "job": 667,
      "man": 668,
      "ra": 669,
      "zoo": 670,
      "synch": 671,
      "box": 672,
      "zookeeper": 673,
      "bw": 674,
      "hu": 675,
      "ffb": 676,
      "ced": 677,
      "low": 678,
      "its": 679,
      "signal": 680,
      "xc": 681,
      "mpits": 682,
      "allen": 683,
      "bwallen": 684,
      "efc": 685,
      "fcd": 686,
      "ker": 687,
      "redu": 688,
      "sion": 689,
      "sof": 690,
      "tch": 691,
      "sho": 692,
      "scr": 693,
      "mb": 694,
      "serial": 695,
      "ipaddress": 696,
      "rent": 697,
      "current": 698,
      "serialnumber": 699,
      "act": 700,
      "ali": 701,
      "ffa": 702,
      "asm": 703,
      "static": 704,
      "spasm": 705,
      "we": 706,
      "ndant": 707,
      "sys": 708,
      "ccc": 709,
      "dfs": 710,
      "redundant": 711,
      "tx": 712,
      "tal": 713,
      "ubl": 714,
      "deni": 715,
      "ster": 716,
      "regi": 717,
      "adc": 718,
      "mission": 719,
      "permission": 720,
      "feea": 721,
      "testcases": 722,
      "feaa": 723,
      "denied": 724,
      "register": 725,
      "ader": 726,
      "fce": 727,
      "kin": 728,
      "med": 729,
      "xid": 730,
      "inf": 731,
      "doubl": 732,
      "ccd": 733,
      "fdfe": 734,
      "pakin": 735,
      "fun": 736,
      "kernel": 737,
      "qq": 738,
      "ure": 739,
      "upt": 740,
      "cluster": 741,
      "function": 742,
      "cp": 743,
      "ib": 744,
      "swi": 745,
      "eds": 746,
      "theader": 747,
      "line": 748,
      "target": 749,
      "ddcmd": 750,
      "img": 751,
      "interrupt": 752,
      "softheader": 753,
      "switch": 754,
      "available": 755,
      "eer": 756,
      "cdn": 757,
      "tag": 758,
      "pla": 759,
      "drop": 760,
      "scratch": 761,
      "activ": 762,
      "ort": 763,
      "sysc": 764,
      "alls": 765,
      "bglscratch": 766,
      "dropbox": 767,
      "syscalls": 768,
      "bff": 769,
      "bad": 770,
      "cation": 771,
      "fol": 772,
      "edram": 773,
      "total": 774,
      "comp": 775,
      "functional": 776,
      "ibm": 777,
      "mnt": 778,
      "doop": 779,
      "fffffe": 780,
      "micr": 781,
      "hadoop": 782,
      "follow": 783,
      "rts": 784,
      "ment": 785,
      "max": 786,
      "micro": 787,
      "./": 788,
      "bi": 789,
      "bfe": 790,
      "cce": 791,
      "du": 792,
      "mid": 793,
      "sna": 794,
      "xa": 795,
      "local": 796,
      "logs": 797,
      "respon": 798,
      "comple": 799,
      "ime": 800,
      "jtag": 801,
      "lce": 802,
      "psho": 803,
      "perfor": 804,
      "long": 805,
      "spelce": 806,
      "cannot": 807,
      "wei": 808,
      "info": 809,
      "snapsho": 810,
      "snapshot": 811,
      "efe": 812,
      "ffc": 813,
      "ada": 814,
      "plane": 815,
      "midplane": 816,
      ":/": 817,
      "xe": 818,
      "che": 819,
      "sol": 820,
      "creating": 821,
      "cs": 822,
      "fdb": 823,
      "un": 824,
      "was": 825,
      "ature": 826,
      "erature": 827,
      "adb": 828,
      "ioexception": 829,
      "exceeds": 830,
      "temperature": 831,
      "internal": 832,
      "write": 833,
      "end": 834,
      "gou": 835,
      "hy": 836,
      "mg": 837,
      "ue": 838,
      "ild": 839,
      "sogou": 840,
      "correct": 841,
      "modu": 842,
      "cdc": 843,
      "eff": 844,
      "peer": 845,
      "ath": 846,
      "adf": 847,
      "...": 848,
      "microseconds": 849,
      "module": 850,
      "br": 851,
      "kn": 852,
      "tmp": 853,
      "ub": 854,
      "child": 855,
      "serviceaction": 856,
      "errno": 857,
      "run": 858,
      "endserviceaction": 859,
      "correctable": 860,
      "bee": 861,
      "iti": 862,
      "phy": 863,
      "path": 864,
      "attemp": 865,
      "reset": 866,
      "lib": 867,
      "cda": 868,
      "cdf": 869,
      "story": 870,
      "history": 871,
      "gooding": 872,
      "txt": 873,
      "ade": 874,
      "ly": 875,
      "pm": 876,
      "var": 877,
      "zxid": 878,
      "ffd": 879,
      "bin": 880,
      "but": 881,
      "port": 882,
      "edc": 883,
      "resol": 884,
      "lick": 885,
      "xyz": 886,
      "deleting": 887,
      "gith": 888,
      "resolve": 889,
      "cde": 890,
      "eec": 891,
      "fl": 892,
      "hp": 893,
      "upon": 894,
      "xfffffffe": 895,
      "eclick": 896,
      "shutdown": 897,
      "ptor": 898,
      "ffffffe": 899,
      "fdae": 900,
      "raptor": 901,
      "performed": 902,
      "hpcc": 903,
      "bu": 904,
      "bfc": 905,
      "sin": 906,
      "vn": 907,
      "cdb": 908,
      "bfb": 909,
      "storage": 910,
      "usr": 911,
      "sppm": 912,
      "writeblock": 913,
      "xyzt": 914,
      "aec": 915,
      "nsion": 916,
      "wer": 917,
      "xf": 918,
      "ast": 919,
      "tent": 920,
      "ang": 921,
      "content": 922,
      "start": 923,
      "interconnect": 924,
      "packetrespon": 925,
      "randtxt": 926,
      "sina": 927,
      "packetresponder": 928,
      "cad": 929,
      "dn": 930,
      "gn": 931,
      "glo": 932,
      "mdb": 933,
      "contr": 934,
      "glv": 935,
      "tests": 936,
      "ddcmdb": 937,
      "rando": 938,
      "fdaf": 939,
      "doubleclick": 940,
      "active": 941,
      "github": 942,
      "control": 943,
      "ddcmdbglv": 944,
      "ace": 945,
      "din": 946,
      "dime": 947,
      "xce": 948,
      "fffe": 949,
      "ordin": 950,
      "does": 951,
      "any": 952,
      "sical": 953,
      "belong": 954,
      "bfd": 955,
      "coordin": 956,
      "physical": 957,
      "random": 958,
      "dimension": 959,
      "coordinate": 960,
      "ity": 961,
      "sor": 962,
      "tion": 963,
      "xb": 964,
      "ecc": 965,
      "mem": 966,
      "ten": 967,
      "xception": 968,
      "cab": 969,
      "ik": 970,
      "led": 971,
      "sli": 972,
      "pes": 973,
      "cdd": 974,
      "mini": 975,
      "attempting": 976,
      "glosli": 977,
      "el": 978,
      "ler": 979,
      "are": 980,
      "cee": 981,
      "org": 982,
      "ash": 983,
      "asserted": 984,
      "fcb": 985,
      "bfa": 986,
      "ght": 987,
      "bdir": 988,
      "version": 989,
      "vel": 990,
      "flash": 991,
      "apa": 992,
      "befor": 993,
      "fdf": 994,
      "mk": 995,
      "sec": 996,
      "ine": 997,
      "ceb": 998,
      "celed": 999,
      "edb": 1000,
      "stre": 1001,
      "all": 1002,
      "ccb": 1003,
      "trand": 1004,
      "............": 1005,
      "succe": 1006,
      "canceled": 1007,
      "align": 1008,
      "big": 1009,
      "completion": 1010,
      "weibo": 1011,
      "been": 1012,
      "sortrand": 1013,
      "before": 1014,
      "bec": 1015,
      "flo": 1016,
      "fdc": 1017,
      "mar": 1018,
      "mmi": 1019,
      "pj": 1020,
      "xml": 1021,
      "dev": 1022,
      "ecf": 1023,
      "eea": 1024,
      "parity": 1025,
      "renew": 1026,
      "comm": 1027,
      "ired": 1028,
      "efd": 1029,
      "subdir": 1030,
      "failing": 1031,
      "required": 1032,
      "stream": 1033,
      "alignment": 1034,
      "acc": 1035,
      "bde": 1036,
      "bea": 1037,
      "gent": 1038,
      "lts": 1039,
      "sid": 1040,
      "cart": 1041,
      "paralle": 1042,
      "resu": 1043,
      "ccf": 1044,
      "errors": 1045,
      "criti": 1046,
      "imb": 1047,
      "quorumserver": 1048,
      "quorumpeer": 1049,
      "power": 1050,
      "mccart": 1051,
      "follower": 1052,
      "apache": 1053,
      "pjmccart": 1054,
      "parallel": 1055,
      "results": 1056,
      "critical": 1057,
      "**": 1058,
      "aee": 1059,
      "pp": 1060,
      "yti": 1061,
      "chine": 1062,
      "abc": 1063,
      "resh": 1064,
      "machine": 1065,
      "cca": 1066,
      "fcf": 1067,
      "aeb": 1068,
      "efb": 1069,
      "old": 1070,
      "env": 1071,
      "urgent": 1072,
      "double": 1073,
      "aea": 1074,
      "ist": 1075,
      "latch": 1076,
      "ning": 1077,
      "off": 1078,
      "dec": 1079,
      "ffffe": 1080,
      "edf": 1081,
      "proper": 1082,
      "ount": 1083,
      "abd": 1084,
      "nex": 1085,
      "ties": 1086,
      "fefff": 1087,
      "mail": 1088,
      "bac": 1089,
      "sohu": 1090,
      "exceptions": 1091,
      "api": 1092,
      "point": 1093,
      "followup": 1094,
      "communi": 1095,
      "properties": 1096,
      "aed": 1097,
      "bg": 1098,
      "bbc": 1099,
      "efa": 1100,
      "fbc": 1101,
      "hdfs": 1102,
      "js": 1103,
      "rec": 1104,
      "vol": 1105,
      "ffea": 1106,
      "eef": 1107,
      "umm": 1108,
      "receive": 1109,
      "conf": 1110,
      "dac": 1111,
      "aef": 1112,
      "fffffff": 1113,
      "crite": 1114,
      "german": 1115,
      "func": 1116,
      "........................": 1117,
      "interrupts": 1118,
      "vnm": 1119,
      "criteo": 1120,
      "germann": 1121,
      "av": 1122,
      "cable": 1123,
      "ifi": 1124,
      "sing": 1125,
      "eda": 1126,
      "ble": 1127,
      "dcd": 1128,
      "exist": 1129,
      "chang": 1130,
      "coll": 1131,
      "spent": 1132,
      "interrup": 1133,
      "csdn": 1134,
      "::": 1135,
      "bit": 1136,
      "cfc": 1137,
      "mmc": 1138,
      "pected": 1139,
      "use": 1140,
      "unex": 1141,
      "vpes": 1142,
      "wh": 1143,
      "xd": 1144,
      "xffff": 1145,
      "ffaa": 1146,
      "cea": 1147,
      "doe": 1148,
      "thresh": 1149,
      "abe": 1150,
      "level": 1151,
      "dbc": 1152,
      "acb": 1153,
      "cau": 1154,
      "cop": 1155,
      "usercontent": 1156,
      "apis": 1157,
      "cpmd": 1158,
      "device": 1159,
      "receiveblock": 1160,
      "ification": 1161,
      "mmcs": 1162,
      "unexpected": 1163,
      "threshold": 1164,
      ":-": 1165,
      "ah": 1166,
      "aab": 1167,
      "cbc": 1168,
      "cxid": 1169,
      "dad": 1170,
      "fac": 1171,
      "grep": 1172,
      "ij": 1173,
      "mount": 1174,
      "ntype": 1175,
      "opt": 1176,
      "qpath": 1177,
      "xin": 1178,
      "yah": 1179,
      "nodeexist": 1180,
      "edd": 1181,
      "stab": 1182,
      "processing": 1183,
      "revalid": 1184,
      "reqpath": 1185,
      "blue": 1186,
      "fig": 1187,
      "config": 1188,
      "errorcode": 1189,
      "mirand": 1190,
      "ille": 1191,
      "afb": 1192,
      "dirs": 1193,
      "got": 1194,
      "perf": 1195,
      "keeperexception": 1196,
      "keepererrorcode": 1197,
      "create": 1198,
      "manhu": 1199,
      "txntype": 1200,
      "floating": 1201,
      "when": 1202,
      "yahoo": 1203,
      "nodeexists": 1204,
      "revalidating": 1205,
      "miranda": 1206,
      "aac": 1207,
      "bs": 1208,
      "eof": 1209,
      "ebc": 1210,
      "fde": 1211,
      "fec": 1212,
      "lang": 1213,
      "mn": 1214,
      "my": 1215,
      "eca": 1216,
      "onment": 1217,
      "synd": 1218,
      "rel": 1219,
      "ads": 1220,
      "prep": 1221,
      "lio": 1222,
      "eac": 1223,
      "dcc": 1224,
      "aler": 1225,
      "baa": 1226,
      "ironment": 1227,
      "fdmn": 1228,
      "sub": 1229,
      "curi": 1230,
      "enable": 1231,
      "registers": 1232,
      "weixin": 1233,
      "bug": 1234,
      "sinaimg": 1235,
      "success": 1236,
      "environment": 1237,
      "offset": 1238,
      "communication": 1239,
      "bglio": 1240,
      "()": 1241,
      "afc": 1242,
      "ager": 1243,
      "bdc": 1244,
      "bcc": 1245,
      "bdf": 1246,
      "clock": 1247,
      "gal": 1248,
      "pin": 1249,
      "rce": 1250,
      "ux": 1251,
      "ube": 1252,
      "wa": 1253,
      "yin": 1254,
      "yout": 1255,
      "zhi": 1256,
      "deactiv": 1257,
      "atar": 1258,
      "ource": 1259,
      "eeb": 1260,
      "nez": 1261,
      "meso": 1262,
      "get": 1263,
      "bcb": 1264,
      "started": 1265,
      "reading": 1266,
      "while": 1267,
      "commands": 1268,
      "manager": 1269,
      "memory": 1270,
      "caught": 1271,
      "illegal": 1272,
      "subcommands": 1273,
      "pinyin": 1274,
      "youtube": 1275,
      "deactivated": 1276,
      "mesos": 1277,
      "acd": 1278,
      "cle": 1279,
      "cbb": 1280,
      "dis": 1281,
      "eed": 1282,
      "fab": 1283,
      "fae": 1284,
      "ili": 1285,
      "pi": 1286,
      "pan": 1287,
      "pgood": 1288,
      "sram": 1289,
      "ulr": 1290,
      "xx": 1291,
      "ying": 1292,
      "zer": 1293,
      "cent": 1294,
      "ecd": 1295,
      "proble": 1296,
      "too": 1297,
      "eexception": 1298,
      "typ": 1299,
      "ance": 1300,
      "ates": 1301,
      "trying": 1302,
      "ection": 1303,
      "aca": 1304,
      "clients": 1305,
      "aaa": 1306,
      "mpgood": 1307,
      "stateexception": 1308,
      "googleapis": 1309,
      "googlesynd": 1310,
      "ication": 1311,
      "....................": 1312,
      "rail": 1313,
      "currently": 1314,
      "ike": 1315,
      "volt": 1316,
      "stabili": 1317,
      "manhua": 1318,
      "illegalstateexception": 1319,
      "clear": 1320,
      "ulrike": 1321,
      "googlesyndication": 1322,
      "stability": 1323,
      "afe": 1324,
      "aae": 1325,
      "afa": 1326,
      "beck": 1327,
      "bba": 1328,
      "bda": 1329,
      "bffe": 1330,
      "cbf": 1331,
      "dp": 1332,
      "ding": 1333,
      "dur": 1334,
      "ece": 1335,
      "ebe": 1336,
      "hand": 1337,
      "rbs": 1338,
      "sle": 1339,
      "tw": 1340,
      "uo": 1341,
      "war": 1342,
      "yates": 1343,
      "zz": 1344,
      "inni": 1345,
      "initi": 1346,
      "orbeck": 1347,
      "aba": 1348,
      "shu": 1349,
      "umt": 1350,
      "texception": 1351,
      "eae": 1352,
      "dca": 1353,
      "ook": 1354,
      "bcast": 1355,
      "acf": 1356,
      "cache": 1357,
      "afd": 1358,
      "wires": 1359,
      "going": 1360,
      "instance": 1361,
      "imum": 1362,
      "cnzz": 1363,
      "fully": 1364,
      "maximum": 1365,
      "responding": 1366,
      "bro": 1367,
      "controller": 1368,
      "ikuo": 1369,
      "election": 1370,
      "ytimg": 1371,
      "single": 1372,
      "during": 1373,
      "handler": 1374,
      "innity": 1375,
      "dce": 1376,
      "ebd": 1377,
      "fan": 1378,
      "gp": 1379,
      "gr": 1380,
      "gstatic": 1381,
      "ia": 1382,
      "jar": 1383,
      "lb": 1384,
      "mu": 1385,
      "source": 1386,
      "atic": 1387,
      "pred": 1388,
      "ndm": 1389,
      "share": 1390,
      "tech": 1391,
      "mapred": 1392,
      "bef": 1393,
      "bel": 1394,
      "aeger": 1395,
      "ambi": 1396,
      "scip": 1397,
      "terminating": 1398,
      "bolt": 1399,
      "plus": 1400,
      "draeger": 1401,
      "aliz": 1402,
      "alicdn": 1403,
      "switchcontroller": 1404,
      "completed": 1405,
      "midplaneswitchcontroller": 1406,
      "tencent": 1407,
      "doublemax": 1408,
      "avatar": 1409,
      "configur": 1410,
      "eofexception": 1411,
      "zhihu": 1412,
      "panic": 1413,
      "initializ": 1414,
      "ambient": 1415,
      "bbe": 1416,
      "cnt": 1417,
      "eab": 1418,
      "ebf": 1419,
      "esr": 1420,
      "fdd": 1421,
      "fps": 1422,
      "fbd": 1423,
      "fbb": 1424,
      "hpl": 1425,
      "halt": 1426,
      "hang": 1427,
      "mas": 1428,
      "mdc": 1429,
      "summ": 1430,
      "wcnt": 1431,
      "yan": 1432,
      "dee": 1433,
      "debug": 1434,
      "cecc": 1435,
      "oni": 1436,
      "ssl": 1437,
      "propo": 1438,
      "asser": 1439,
      "sta": 1440,
      "str": 1441,
      "steer": 1442,
      "abb": 1443,
      "nels": 1444,
      "light": 1445,
      "../": 1446,
      "eaa": 1447,
      "ive": 1448,
      "fef": 1449,
      "feff": 1450,
      "cdndm": 1451,
      "bae": 1452,
      "exe": 1453,
      "linux": 1454,
      "caf": 1455,
      "msr": 1456,
      "copro": 1457,
      "ition": 1458,
      "gige": 1459,
      "snapshotting": 1460,
      "running": 1461,
      "changyan": 1462,
      "zero": 1463,
      "problem": 1464,
      "ulrikey": 1465,
      "fpscr": 1466,
      "master": 1467,
      "mdcask": 1468,
      "summary": 1469,
      "proposed": 1470,
      "//": 1471,
      "aw": 1472,
      "ale": 1473,
      "ame": 1474,
      "bce": 1475,
      "bdb": 1476,
      "cm": 1477,
      "cas": 1478,
      "cbe": 1479,
      "cae": 1480,
      "cfa": 1481,
      "gq": 1482,
      "ggp": 1483,
      "lp": 1484,
      "lt": 1485,
      "nect": 1486,
      "tcp": 1487,
      "trel": 1488,
      "vgq": 1489,
      "dea": 1490,
      "def": 1491,
      "send": 1492,
      "non": 1493,
      "infer": 1494,
      "cef": 1495,
      "onnect": 1496,
      "ssport": 1497,
      "blocks": 1498,
      "ntime": 1499,
      "timed": 1500,
      "ccce": 1501,
      "cccc": 1502,
      "cccd": 1503,
      "fca": 1504,
      "oken": 1505,
      "ters": 1506,
      "ustatic": 1507,
      "grammar": 1508,
      "fffffffc": 1509,
      "googleusercontent": 1510,
      "passport": 1511,
      "runtime": 1512,
      "baidustatic": 1513,
      "mode": 1514,
      "shock": 1515,
      "adcast": 1516,
      "://": 1517,
      "broken": 1518,
      "member": 1519,
      "tenmax": 1520,
      "reconnect": 1521,
      "bluelight": 1522,
      "warning": 1523,
      "broadcast": 1524,
      "configured": 1525,
      "initializing": 1526,
      "ggpht": 1527,
      "tcpconn": 1528,
      "trello": 1529,
      "inferno": 1530,
      "grammarly": 1531,
      "/.": 1532,
      "ado": 1533,
      "aad": 1534,
      "cfe": 1535,
      "cba": 1536,
      "cmc": 1537,
      "dde": 1538,
      "dfe": 1539,
      "dfc": 1540,
      "emp": 1541,
      "fba": 1542,
      "hn": 1543,
      "humm": 1544,
      "moni": 1545,
      "nio": 1546,
      "og": 1547,
      "rst": 1548,
      "ris": 1549,
      "rfi": 1550,
      "sl": 1551,
      "tp": 1552,
      "wx": 1553,
      "wil": 1554,
      "you": 1555,
      "arch": 1556,
      "deb": 1557,
      "des": 1558,
      "sel": 1559,
      "cece": 1560,
      "ther": 1561,
      "notification": 1562,
      "abf": 1563,
      "sher": 1564,
      "news": 1565,
      "idoproxy": 1566,
      "liam": 1567,
      "anal": 1568,
      "byinterrup": 1569,
      "reception": 1570,
      "dcf": 1571,
      "dda": 1572,
      "ddb": 1573,
      "fcac": 1574,
      "dao": 1575,
      "dbproperties": 1576,
      "iolog": 1577,
      "addr": 1578,
      "acce": 1579,
      "bdimg": 1580,
      "cacc": 1581,
      "verification": 1582,
      "channel": 1583,
      "channels": 1584,
      "closedbyinterrup": 1585,
      "googleads": 1586,
      "page": 1587,
      "vicar": 1588,
      "itc": 1589,
      "nfs": 1590,
      "ller": 1591,
      "pos": 1592,
      "speeds": 1593,
      "xel": 1594,
      "brdes": 1595,
      "attempt": 1596,
      "succeeded": 1597,
      "ytics": 1598,
      "interrupted": 1599,
      "usedatabase": 1600,
      "successfully": 1601,
      "pixel": 1602,
      "adobe": 1603,
      "empty": 1604,
      "hummer": 1605,
      "monitor": 1606,
      "risboot": 1607,
      "rfisher": 1608,
      "william": 1609,
      "youdao": 1610,
      "analytics": 1611,
      "closedbyinterruptexception": 1612,
      "williams": 1613,
      "bed": 1614,
      "bcd": 1615,
      "bmi": 1616,
      "dff": 1617,
      "dmp": 1618,
      "dup": 1619,
      "dstatic": 1620,
      "eba": 1621,
      "ewer": 1622,
      "fed": 1623,
      "fad": 1624,
      "ie": 1625,
      "iter": 1626,
      "jeff": 1627,
      "ky": 1628,
      "kpt": 1629,
      "knez": 1630,
      "lust": 1631,
      "mm": 1632,
      "oper": 1633,
      "red": 1634,
      "rma": 1635,
      "tin": 1636,
      "unt": 1637,
      "ubad": 1638,
      "xl": 1639,
      "ydstatic": 1640,
      "zed": 1641,
      "fffc": 1642,
      "devel": 1643,
      "secu": 1644,
      "norma": 1645,
      "cecb": 1646,
      "chkpt": 1647,
      "edge": 1648,
      "sync": 1649,
      "abort": 1650,
      "retrying": 1651,
      "ofdir": 1652,
      "mes": 1653,
      "meta": 1654,
      "team": 1655,
      "eaf": 1656,
      "antyp": 1657,
      "may": 1658,
      "contin": 1659,
      "cdbc": 1660,
      "ddd": 1661,
      "ddf": 1662,
      "daa": 1663,
      "mit": 1664,
      "bcf": 1665,
      "cfd": 1666,
      "caa": 1667,
      "ested": 1668,
      "sock": 1669,
      "update": 1670,
      "crc": 1671,
      "fbcdn": 1672,
      "viewer": 1673,
      "userfunc": 1674,
      "app": 1675,
      ".................": 1676,
      "writer": 1677,
      "have": 1678,
      "mance": 1679,
      "scrip": 1680,
      "performance": 1681,
      "githubusercontent": 1682,
      "...............": 1683,
      "****": 1684,
      "ffffeffe": 1685,
      "changing": 1686,
      "alert": 1687,
      "wait": 1688,
      "slept": 1689,
      "assert": 1690,
      "stack": 1691,
      "steering": 1692,
      "select": 1693,
      "bmiller": 1694,
      "lustre": 1695,
      "operation": 1696,
      "untested": 1697,
      "ubads": 1698,
      "ofdirty": 1699,
      "teamviewer": 1700,
      "antypas": 1701,
      "ause": 1702,
      "bdd": 1703,
      "book": 1704,
      "cj": 1705,
      "cxx": 1706,
      "di": 1707,
      "dl": 1708,
      "dbl": 1709,
      "fbe": 1710,
      "fbf": 1711,
      "gm": 1712,
      "ho": 1713,
      "ishu": 1714,
      "ku": 1715,
      "last": 1716,
      "occ": 1717,
      "oba": 1718,
      "pur": 1719,
      "sto": 1720,
      "sca": 1721,
      "ul": 1722,
      "vm": 1723,
      "descrip": 1724,
      "search": 1725,
      "cedc": 1726,
      "cebc": 1727,
      "orters": 1728,
      "asic": 1729,
      "tomand": 1730,
      "eeno": 1731,
      "services": 1732,
      "partition": 1733,
      "letest": 1734,
      "limit": 1735,
      "hkg": 1736,
      "fetch": 1737,
      "dcb": 1738,
      "first": 1739,
      "eeeeeeee": 1740,
      "ccdc": 1741,
      "gene": 1742,
      "cdfc": 1743,
      "daf": 1744,
      "dahn": 1745,
      "beb": 1746,
      "bbb": 1747,
      "capt": 1748,
      "efdb": 1749,
      "ready": 1750,
      "replication": 1751,
      ".........": 1752,
      "dsmc": 1753,
      "vers": 1754,
      "supp": 1755,
      "setting": 1756,
      "caltech": 1757,
      "install": 1758,
      "bota": 1759,
      "taoba": 1760,
      "facebook": 1761,
      "urred": 1762,
      "hui": 1763,
      "linear": 1764,
      "play": 1765,
      "complete": 1766,
      "solvers": 1767,
      "uncorrectable": 1768,
      "sogoucdn": 1769,
      "buber": 1770,
      "sinajs": 1771,
      "bluegene": 1772,
      "disable": 1773,
      "greeno": 1774,
      "belnez": 1775,
      "avatars": 1776,
      "lton": 1777,
      "idoproxydb": 1778,
      "access": 1779,
      "pagead": 1780,
      "auselton": 1781,
      "ishuhui": 1782,
      "kubota": 1783,
      "occurred": 1784,
      "scaletest": 1785,
      "descriptor": 1786,
      "tomandjeff": 1787,
      "capture": 1788,
      "supporters": 1789,
      "taobao": 1790,
      "=/": 1791,
      "au": 1792,
      "bbd": 1793,
      "blog": 1794,
      "cpro": 1795,
      "cada": 1796,
      "dtyp": 1797,
      "emap": 1798,
      "fm": 1799,
      "ian": 1800,
      "jgh": 1801,
      "lcom": 1802,
      "mtal": 1803,
      "ping": 1804,
      "pic": 1805,
      "qb": 1806,
      "qbox": 1807,
      "rky": 1808,
      "same": 1809,
      "ush": 1810,
      "win": 1811,
      "xue": 1812,
      "yt": 1813,
      "ffbc": 1814,
      "ffca": 1815,
      "dedc": 1816,
      "deac": 1817,
      "nos": 1818,
      "atter": 1819,
      "orted": 1820,
      "ffffc": 1821,
      "ndy": 1822,
      "pare": 1823,
      "aborted": 1824,
      "form": 1825,
      "blockinfo": 1826,
      "remain": 1827,
      "umemap": 1828,
      "prefi": 1829,
      "prefetch": 1830,
      "compare": 1831,
      "timg": 1832,
      "stell": 1833,
      "ccfc": 1834,
      "gemini": 1835,
      "tri": 1836,
      "ddbc": 1837,
      "......": 1838,
      "dae": 1839,
      "addmember": 1840,
      "exec": 1841,
      "ben": 1842,
      "bench": 1843,
      "bfdc": 1844,
      "ciostream": 1845,
      "lines": 1846,
      "outs": 1847,
      "opening": 1848,
      "efcd": 1849,
      "efdf": 1850,
      "store": 1851,
      "mapfile": 1852,
      "sods": 1853,
      "fdff": 1854,
      "dsk": 1855,
      "scatter": 1856,
      "bglmaster": 1857,
      "quant": 1858,
      "pap": 1859,
      "pack": 1860,
      "hommes": 1861,
      "genvm": 1862,
      "caling": 1863,
      "testqbox": 1864,
      "itten": 1865,
      "apc": 1866,
      "interval": 1867,
      "serverdb": 1868,
      "count": 1869,
      "plb": 1870,
      "bootgenvm": 1871,
      "written": 1872,
      "hack": 1873,
      "welcom": 1874,
      "clusteraddmember": 1875,
      "jtagid": 1876,
      "under": 1877,
      "mgr": 1878,
      "cdcc": 1879,
      "adec": 1880,
      "cdec": 1881,
      "flush": 1882,
      "miniben": 1883,
      ".............": 1884,
      "mark": 1885,
      "parityalignment": 1886,
      "mailbox": 1887,
      "volumemap": 1888,
      ".........................": 1889,
      "ookie": 1890,
      "mundy": 1891,
      "hangouts": 1892,
      "debugger": 1893,
      "feffed": 1894,
      "there": 1895,
      "notifications": 1896,
      "socks": 1897,
      "cjmundy": 1898,
      "mtalk": 1899,
      "xueshu": 1900,
      "prefix": 1901,
      "stella": 1902,
      "benchmark": 1903,
      "sodscaling": 1904,
      "bootgenvmunix": 1905,
      "welcome": 1906,
      "ama": 1907,
      "aaf": 1908,
      "affe": 1909,
      "css": 1910,
      "cbd": 1911,
      "cating": 1912,
      "ccec": 1913,
      "cbfb": 1914,
      "dba": 1915,
      "dni": 1916,
      "dffe": 1917,
      "ddec": 1918,
      "ead": 1919,
      "ebb": 1920,
      "fcec": 1921,
      "flow": 1922,
      "hm": 1923,
      "imp": 1924,
      "iwhich": 1925,
      "ible": 1926,
      "jp": 1927,
      "jul": 1928,
      "mookie": 1929,
      "os": 1930,
      "pk": 1931,
      "pch": 1932,
      "pwr": 1933,
      "rt": 1934,
      "round": 1935,
      "rta": 1936,
      "tun": 1937,
      "web": 1938,
      "xt": 1939,
      "xbf": 1940,
      "xhpl": 1941,
      "yun": 1942,
      "ffer": 1943,
      "decd": 1944,
      "incomplete": 1945,
      "ceec": 1946,
      "cardsto": 1947,
      "ecb": 1948,
      "ffffbffe": 1949,
      "serve": 1950,
      "serving": 1951,
      "assets": 1952,
      "nding": 1953,
      "fffffc": 1954,
      "pending": 1955,
      "addc": 1956,
      "adcc": 1957,
      "ome": 1958,
      "live": 1959,
      "text": 1960,
      "anx": 1961,
      "feb": 1962,
      "maj": 1963,
      "dccc": 1964,
      "dcfc": 1965,
      "already": 1966,
      "cccb": 1967,
      "cddc": 1968,
      "cdac": 1969,
      "baf": 1970,
      "baker": 1971,
      "dddc": 1972,
      "fcdc": 1973,
      "fcbc": 1974,
      "dbf": 1975,
      "ector": 1976,
      "clou": 1977,
      "acdc": 1978,
      "ill": 1979,
      "bdstatic": 1980,
      "linpack": 1981,
      "linkerror": 1982,
      "efde": 1983,
      "efea": 1984,
      "efdc": 1985,
      "efcc": 1986,
      "efda": 1987,
      "efbc": 1988,
      "sod": 1989,
      "fdfc": 1990,
      "romio": 1991,
      "expired": 1992,
      "fbfffffe": 1993,
      "generating": 1994,
      "tested": 1995,
      "testing": 1996,
      "codes": 1997,
      "ages": 1998,
      "..................": 1999,
      "...................": 2000,
      "berts": 2001,
      "fccc": 2002,
      "drive": 2003,
      "caca": 2004,
      "fulltest": 2005,
      "ffbffe": 2006,
      "soft": 2007,
      "media": 2008,
      "bfffe": 2009,
      "csdni": 2010,
      "buffer": 2011,
      "fdfa": 2012,
      "..............": 2013,
      "beacon": 2014,
      "ppc": 2015,
      "communicating": 2016,
      "...........................": 2017,
      "xffffc": 2018,
      "unexpectedly": 2019,
      "fdee": 2020,
      "alerts": 2021,
      ".....................": 2022,
      "sles": 2023,
      "beln": 2024,
      "tpc": 2025,
      "fady": 2026,
      "continue": 2027,
      "replicationmonitor": 2028,
      "format": 2029,
      "quantserve": 2030,
      "iwhichcardsto": 2031,
      "pchome": 2032,
      "pwroff": 2033,
      "rtax": 2034,
      "tuned": 2035,
      "pendingreplicationmonitor": 2036,
      "bertsch": 2037,
      "csdnimg": 2038,
      "iwhichcardstopwroff": 2039,
      "/)": 2040,
      "/../": 2041,
      "==": 2042,
      "aver": 2043,
      "bp": 2044,
      "bab": 2045,
      "bis": 2046,
      "bra": 2047,
      "cff": 2048,
      "div": 2049,
      "dcec": 2050,
      "dition": 2051,
      "ever": 2052,
      "efff": 2053,
      "effa": 2054,
      "ewe": 2055,
      "eue": 2056,
      "essl": 2057,
      "fg": 2058,
      "fp": 2059,
      "fced": 2060,
      "fresh": 2061,
      "gge": 2062,
      "hne": 2063,
      "if": 2064,
      "iting": 2065,
      "ject": 2066,
      "kmap": 2067,
      "kit": 2068,
      "mps": 2069,
      "oima": 2070,
      "pub": 2071,
      "pubads": 2072,
      "qa": 2073,
      "rm": 2074,
      "sma": 2075,
      "scontent": 2076,
      "tc": 2077,
      "tva": 2078,
      "table": 2079,
      "tur": 2080,
      "tue": 2081,
      "tlb": 2082,
      "taddr": 2083,
      "uba": 2084,
      "uve": 2085,
      "vt": 2086,
      "vx": 2087,
      "ws": 2088,
      "wang": 2089,
      "xaa": 2090,
      "xfffffe": 2091,
      "ygi": 2092,
      "zon": 2093,
      "ffdc": 2094,
      "ffac": 2095,
      "ffcb": 2096,
      "arale": 2097,
      "del": 2098,
      "demo": 2099,
      "ses": 2100,
      "sene": 2101,
      "cefc": 2102,
      "ceac": 2103,
      "cebf": 2104,
      "cecf": 2105,
      "doct": 2106,
      "location": 2107,
      "loewe": 2108,
      "edn": 2109,
      "ong": 2110,
      "asia": 2111,
      "tool": 2112,
      "parmd": 2113,
      "stion": 2114,
      "stir": 2115,
      "thunder": 2116,
      "note": 2117,
      "blocked": 2118,
      "restarting": 2119,
      "rever": 2120,
      "refresh": 2121,
      "adbc": 2122,
      "adac": 2123,
      "short": 2124,
      "idos": 2125,
      "idochip": 2126,
      "idomar": 2127,
      "ump": 2128,
      "partad": 2129,
      "pression": 2130,
      "typekit": 2131,
      "lit": 2132,
      "lized": 2133,
      "tel": 2134,
      "iver": 2135,
      "bffffffe": 2136,
      "dcdc": 2137,
      "dcbc": 2138,
      "sic": 2139,
      "conso": 2140,
      "condition": 2141,
      "geo": 2142,
      "tra": 2143,
      "trace": 2144,
      ".....": 2145,
      ".......": 2146,
      "fcde": 2147,
      "fcmatch": 2148,
      "dace": 2149,
      "daec": 2150,
      "dbg": 2151,
      "dfa": 2152,
      "dfcc": 2153,
      "dfbc": 2154,
      "bca": 2155,
      "exchange": 2156,
      "expression": 2157,
      "acbc": 2158,
      "bfec": 2159,
      "ily": 2160,
      "faf": 2161,
      "outbra": 2162,
      "cace": 2163,
      "afly": 2164,
      "efce": 2165,
      "efec": 2166,
      "efed": 2167,
      "efba": 2168,
      "repubads": 2169,
      "replicas": 2170,
      "dsp": 2171,
      "sugge": 2172,
      "niel": 2173,
      "nized": 2174,
      "hit": 2175,
      "high": 2176,
      "minus": 2177,
      "bglidochip": 2178,
      "sockets": 2179,
      "ffffffbe": 2180,
      "-->": 2181,
      "queue": 2182,
      "failure": 2183,
      "general": 2184,
      "word": 2185,
      "llap": 2186,
      "ddcc": 2187,
      "split": 2188,
      "treeaddr": 2189,
      "pose": 2190,
      "mpich": 2191,
      "cacf": 2192,
      "cacafly": 2193,
      "efca": 2194,
      "ality": 2195,
      "fcea": 2196,
      "fceb": 2197,
      "cpp": 2198,
      "cpu": 2199,
      "activating": 2200,
      "microsoft": 2201,
      "due": 2202,
      "csar": 2203,
      "unable": 2204,
      "unrec": 2205,
      "knl": 2206,
      "githuba": 2207,
      "contention": 2208,
      "cabc": 2209,
      "eland": 2210,
      "fdcc": 2211,
      "beap": 2212,
      "avd": 2213,
      "collector": 2214,
      "waiting": 2215,
      "getting": 2216,
      "dcache": 2217,
      "strong": 2218,
      "aws": 2219,
      "vgqs": 2220,
      "vgqsene": 2221,
      "ognized": 2222,
      "develf": 2223,
      "secure": 2224,
      "securepubads": 2225,
      "normal": 2226,
      "normalized": 2227,
      "stackexchange": 2228,
      "ofdirtydbl": 2229,
      "ofdirtylines": 2230,
      "dict": 2231,
      "host": 2232,
      "purpose": 2233,
      "accessible": 2234,
      "windo": 2235,
      "nosdn": 2236,
      "testqboxhang": 2237,
      "counter": 2238,
      "amazon": 2239,
      "yunsic": 2240,
      "averages": 2241,
      "evernote": 2242,
      "fgygi": 2243,
      "oimag": 2244,
      "taddriver": 2245,
      "aralego": 2246,
      "doctor": 2247,
      "tools": 2248,
      "reverse": 2249,
      "idomarsh": 2250,
      "console": 2251,
      "outbrain": 2252,
      "suggestion": 2253,
      "nielsen": 2254,
      "unrecognized": 2255,
      "githubapp": 2256,
      "vgqsenes": 2257,
      "ofdirtydblword": 2258,
      "amazonaws": 2259,
      "):": 2260,
      ")........................": 2261,
      "ag": 2262,
      "ay": 2263,
      "ail": 2264,
      "acec": 2265,
      "accc": 2266,
      "ci": 2267,
      "cv": 2268,
      "cid": 2269,
      "cadc": 2270,
      "cpes": 2271,
      "dm": 2272,
      "dab": 2273,
      "dfffffe": 2274,
      "ep": 2275,
      "eas": 2276,
      "effe": 2277,
      "effb": 2278,
      "effc": 2279,
      "eedc": 2280,
      "fo": 2281,
      "fr": 2282,
      "fon": 2283,
      "fls": 2284,
      "gate": 2285,
      "gra": 2286,
      "gine": 2287,
      "give": 2288,
      "gvt": 2289,
      "hel": 2290,
      "ide": 2291,
      "ich": 2292,
      "kne": 2293,
      "kdp": 2294,
      "lu": 2295,
      "late": 2296,
      "lac": 2297,
      "mf": 2298,
      "mer": 2299,
      "ming": 2300,
      "mba": 2301,
      "nl": 2302,
      "nx": 2303,
      "oc": 2304,
      "ot": 2305,
      "own": 2306,
      "pu": 2307,
      "pas": 2308,
      "pth": 2309,
      "pad": 2310,
      "pcounter": 2311,
      "qs": 2312,
      "qhi": 2313,
      "rich": 2314,
      "sch": 2315,
      "smi": 2316,
      "scli": 2317,
      "safe": 2318,
      "tu": 2319,
      "uation": 2320,
      "ues": 2321,
      "vatar": 2322,
      "wsing": 2323,
      "xfffff": 2324,
      "xad": 2325,
      "xda": 2326,
      "xfa": 2327,
      "xbb": 2328,
      "yread": 2329,
      "fft": 2330,
      "ffde": 2331,
      "ffce": 2332,
      "ffcc": 2333,
      "ffcd": 2334,
      "ffae": 2335,
      "aren": 2336,
      "dede": 2337,
      "decc": 2338,
      "dedd": 2339,
      "debc": 2340,
      "deve": 2341,
      "depth": 2342,
      "sequ": 2343,
      "nosl": 2344,
      "inex": 2345,
      "init": 2346,
      "inity": 2347,
      "cecd": 2348,
      "cedd": 2349,
      "cebd": 2350,
      "atta": 2351,
      "atanx": 2352,
      "char": 2353,
      "chat": 2354,
      "cham": 2355,
      "chment": 2356,
      "chown": 2357,
      "order": 2358,
      "ffffca": 2359,
      "ffffeb": 2360,
      "lop": 2361,
      "lone": 2362,
      "logo": 2363,
      "ipv": 2364,
      "iple": 2365,
      "ssp": 2366,
      "promp": 2367,
      "towar": 2368,
      "outexception": 2369,
      "eeec": 2370,
      "ndir": 2371,
      "ndwid": 2372,
      "parame": 2373,
      "fffffbfe": 2374,
      "servicemailbox": 2375,
      "still": 2376,
      "ckpt": 2377,
      "abcc": 2378,
      "abfc": 2379,
      "abbc": 2380,
      "abac": 2381,
      "peop": 2382,
      "adfc": 2383,
      "adzer": 2384,
      "adnx": 2385,
      "presta": 2386,
      "omme": 2387,
      "bffffdfe": 2388,
      "feffff": 2389,
      "fefe": 2390,
      "allr": 2391,
      "simba": 2392,
      "ccbc": 2393,
      "ccbf": 2394,
      "cccf": 2395,
      "timeoutexception": 2396,
      "bytebug": 2397,
      "errstr": 2398,
      "getel": 2399,
      "bandwid": 2400,
      "ddfc": 2401,
      "ddac": 2402,
      "fcff": 2403,
      "fcce": 2404,
      "fcbe": 2405,
      "dacb": 2406,
      "dbb": 2407,
      "dbd": 2408,
      "dbe": 2409,
      "dbdc": 2410,
      "dfb": 2411,
      "dfd": 2412,
      "dfed": 2413,
      "dfac": 2414,
      "dfbb": 2415,
      "closing": 2416,
      "iostate": 2417,
      "acac": 2418,
      "educe": 2419,
      "aefe": 2420,
      "bfea": 2421,
      "bfbb": 2422,
      "faec": 2423,
      "cfb": 2424,
      "bbde": 2425,
      "caec": 2426,
      "cacd": 2427,
      "cafc": 2428,
      "caac": 2429,
      "efee": 2430,
      "efdd": 2431,
      "efac": 2432,
      "efbe": 2433,
      "efbf": 2434,
      "efbd": 2435,
      "efbb": 2436,
      "amd": 2437,
      "detail": 2438,
      "cbea": 2439,
      "cbbc": 2440,
      "valone": 2441,
      "replac": 2442,
      "claw": 2443,
      "fddc": 2444,
      "...........": 2445,
      "verif": 2446,
      "sup": 2447,
      "hiclou": 2448,
      "gov": 2449,
      "lishi": 2450,
      "overflow": 2451,
      "bgla": 2452,
      "srm": 2453,
      "processes": 2454,
      "sockettimeoutexception": 2455,
      "fffffffa": 2456,
      "perclaw": 2457,
      "googletag": 2458,
      "qulishi": 2459,
      "fbbc": 2460,
      "olar": 2461,
      "papi": 2462,
      "loguser": 2463,
      "rundir": 2464,
      "ncy": 2465,
      "temphigh": 2466,
      "mdn": 2467,
      "consider": 2468,
      "hwstab": 2469,
      "llnl": 2470,
      "................................": 2471,
      "jag": 2472,
      "spec": 2473,
      "impr": 2474,
      "fccd": 2475,
      "fccf": 2476,
      "fdaa": 2477,
      "resource": 2478,
      "symbols": 2479,
      "mcmm": 2480,
      "sign": 2481,
      "creat": 2482,
      "rack": 2483,
      "efcb": 2484,
      "efcf": 2485,
      "fcda": 2486,
      "fcdb": 2487,
      "fcdd": 2488,
      "fcdf": 2489,
      "reduce": 2490,
      "fcee": 2491,
      "fcef": 2492,
      "infinity": 2493,
      "cpc": 2494,
      "cpm": 2495,
      "bffc": 2496,
      "bffd": 2497,
      "edrams": 2498,
      "biz": 2499,
      "bfeb": 2500,
      "efeb": 2501,
      "efef": 2502,
      "hyperclaw": 2503,
      "effd": 2504,
      "brian": 2505,
      "ubmcmm": 2506,
      "runs": 2507,
      "contentrec": 2508,
      "gnu": 2509,
      "glob": 2510,
      "cabd": 2511,
      "cabf": 2512,
      "cabot": 2513,
      "beca": 2514,
      "flopcounter": 2515,
      "streamtri": 2516,
      "pping": 2517,
      "fbca": 2518,
      "manhuaren": 2519,
      "alerio": 2520,
      "enableflush": 2521,
      "zhimg": 2522,
      "problems": 2523,
      "......................": 2524,
      ".......................": 2525,
      "ulriketests": 2526,
      "browsing": 2527,
      "mult": 2528,
      "assertion": 2529,
      "strip": 2530,
      "zerobytebug": 2531,
      "bdbb": 2532,
      "sending": 2533,
      "ogs": 2534,
      "adobelogin": 2535,
      "mmstat": 2536,
      "continuation": 2537,
      "dblp": 2538,
      "gmt": 2539,
      "purge": 2540,
      "trier": 2541,
      "fdfffdfe": 2542,
      "mailboxmonitor": 2543,
      "major": 2544,
      "parmdg": 2545,
      "stirtur": 2546,
      "train": 2547,
      "windows": 2548,
      "idomarshalerio": 2549,
      "cidian": 2550,
      "epstreamtri": 2551,
      "easyread": 2552,
      "fonts": 2553,
      "gravatar": 2554,
      "kdpic": 2555,
      "latency": 2556,
      "pasci": 2557,
      "qhimg": 2558,
      "scholar": 2559,
      "smith": 2560,
      "sclick": 2561,
      "safebrowsing": 2562,
      "develop": 2563,
      "nosleep": 2564,
      "inexact": 2565,
      "attachment": 2566,
      "ffffebfe": 2567,
      "prompt": 2568,
      "toward": 2569,
      "parameters": 2570,
      "servicemailboxes": 2571,
      "people": 2572,
      "adzerk": 2573,
      "adnxs": 2574,
      "ommend": 2575,
      "fefefeff": 2576,
      "allreduce": 2577,
      "bandwidth": 2578,
      "detailed": 2579,
      "replacing": 2580,
      "verify": 2581,
      "hicloud": 2582,
      "loguserinfo": 2583,
      "contentrecommend": 2584,
      "flopcounters": 2585,
      "multiple": 2586,
      "epstreamtriad": 2587,
      "!(": 2588,
      ")...": 2589,
      ").......": 2590,
      "*)": 2591,
      "=!(": 2592,
      "ao": 2593,
      "aff": 2594,
      "aadc": 2595,
      "aada": 2596,
      "affd": 2597,
      "afffffff": 2598,
      "bh": 2599,
      "bj": 2600,
      "bip": 2601,
      "bid": 2602,
      "base": 2603,
      "ban": 2604,
      "bbf": 2605,
      "brand": 2606,
      "bcec": 2607,
      "badc": 2608,
      "babc": 2609,
      "bbac": 2610,
      "cat": 2611,
      "csi": 2612,
      "cgi": 2613,
      "cffffffe": 2614,
      "caeb": 2615,
      "cbac": 2616,
      "dw": 2617,
      "dy": 2618,
      "dpar": 2619,
      "dffc": 2620,
      "dada": 2621,
      "dpm": 2622,
      "dabc": 2623,
      "dump": 2624,
      "ek": 2625,
      "efaa": 2626,
      "fadc": 2627,
      "fecc": 2628,
      "fabc": 2629,
      "fdec": 2630,
      "fbac": 2631,
      "gs": 2632,
      "gt": 2633,
      "gu": 2634,
      "ging": 2635,
      "gbgl": 2636,
      "gun": 2637,
      "gath": 2638,
      "gmail": 2639,
      "gtimg": 2640,
      "hpd": 2641,
      "han": 2642,
      "hfm": 2643,
      "iz": 2644,
      "ise": 2645,
      "iss": 2646,
      "iap": 2647,
      "ies": 2648,
      "icache": 2649,
      "jy": 2650,
      "jni": 2651,
      "ke": 2652,
      "kk": 2653,
      "kdc": 2654,
      "ken": 2655,
      "knel": 2656,
      "kcdn": 2657,
      "la": 2658,
      "lh": 2659,
      "lcr": 2660,
      "lapa": 2661,
      "mde": 2662,
      "mct": 2663,
      "mis": 2664,
      "matic": 2665,
      "mhfm": 2666,
      "ng": 2667,
      "nm": 2668,
      "nee": 2669,
      "ode": 2670,
      "oimage": 2671,
      "odr": 2672,
      "pv": 2673,
      "pps": 2674,
      "pol": 2675,
      "pll": 2676,
      "pux": 2677,
      "qi": 2678,
      "qx": 2679,
      "qls": 2680,
      "qpic": 2681,
      "qrt": 2682,
      "qlogo": 2683,
      "ro": 2684,
      "rs": 2685,
      "rw": 2686,
      "rss": 2687,
      "ring": 2688,
      "ral": 2689,
      "rflo": 2690,
      "rther": 2691,
      "rfft": 2692,
      "sb": 2693,
      "son": 2694,
      "spar": 2695,
      "scom": 2696,
      "sam": 2697,
      "spa": 2698,
      "score": 2699,
      "sort": 2700,
      "sky": 2701,
      "sqrt": 2702,
      "tz": 2703,
      "tat": 2704,
      "tab": 2705,
      "tter": 2706,
      "twi": 2707,
      "tap": 2708,
      "tserver": 2709,
      "txyz": 2710,
      "tdp": 2711,
      "tanx": 2712,
      "uch": 2713,
      "ual": 2714,
      "uedu": 2715,
      "ubgl": 2716,
      "vr": 2717,
      "ving": 2718,
      "vis": 2719,
      "wd": 2720,
      "wal": 2721,
      "wpad": 2722,
      "xde": 2723,
      "xfc": 2724,
      "xdb": 2725,
      "xae": 2726,
      "xca": 2727,
      "xaf": 2728,
      "xef": 2729,
      "xffffff": 2730,
      "xfee": 2731,
      "xfffffff": 2732,
      "xvicar": 2733,
      "yx": 2734,
      "yms": 2735,
      "yap": 2736,
      "yes": 2737,
      "yimg": 2738,
      "ybp": 2739,
      "yuedu": 2740,
      "zkcdn": 2741,
      "ffec": 2742,
      "ffee": 2743,
      "ffab": 2744,
      "ffad": 2745,
      "ffba": 2746,
      "ffda": 2747,
      "ffdb": 2748,
      "ffadd": 2749,
      "ffbe": 2750,
      "ffbf": 2751,
      "ffbd": 2752,
      "ffcf": 2753,
      "ffbb": 2754,
      "ffaf": 2755,
      "ffadc": 2756,
      "ffcdf": 2757,
      "ffbfb": 2758,
      "ffaeb": 2759,
      "ffafb": 2760,
      "fftw": 2761,
      "ared": 2762,
      "arty": 2763,
      "arant": 2764,
      "arily": 2765,
      "dece": 2766,
      "deec": 2767,
      "deed": 2768,
      "defe": 2769,
      "defc": 2770,
      "debf": 2771,
      "decl": 2772,
      "debcc": 2773,
      "denormalized": 2774,
      "demde": 2775,
      "sever": 2776,
      "sestat": 2777,
      "seille": 2778,
      "seek": 2779,
      "noio": 2780,
      "nocomm": 2781,
      "noavatar": 2782,
      "nozerobytebug": 2783,
      "inte": 2784,
      "ceab": 2785,
      "ceda": 2786,
      "cedb": 2787,
      "ceca": 2788,
      "ceeb": 2789,
      "cards": 2790,
      "cardre": 2791,
      "chmo": 2792,
      "ecce": 2793,
      "ecda": 2794,
      "ecbc": 2795,
      "ecac": 2796,
      "ecdn": 2797,
      "ecise": 2798,
      "lost": 2799,
      "edde": 2800,
      "edba": 2801,
      "edfc": 2802,
      "edda": 2803,
      "edfa": 2804,
      "edbb": 2805,
      "edump": 2806,
      "sso": 2807,
      "ssum": 2808,
      "sstat": 2809,
      "project": 2810,
      "topurge": 2811,
      "token": 2812,
      "touch": 2813,
      "ctl": 2814,
      "eebea": 2815,
      "ioni": 2816,
      "fffffd": 2817,
      "servicenetwork": 2818,
      "stu": 2819,
      "thir": 2820,
      "ery": 2821,
      "erist": 2822,
      "ckap": 2823,
      "abec": 2824,
      "abdc": 2825,
      "abdb": 2826,
      "abled": 2827,
      "nete": 2828,
      "neos": 2829,
      "force": 2830,
      "formi": 2831,
      "reopen": 2832,
      "resets": 2833,
      "remo": 2834,
      "remer": 2835,
      "adv": 2836,
      "adbe": 2837,
      "adsr": 2838,
      "admaster": 2839,
      "adservices": 2840,
      "adtdp": 2841,
      "blac": 2842,
      "shared": 2843,
      "newma": 2844,
      "newsi": 2845,
      "idotrans": 2846,
      "idoclient": 2847,
      "idoms": 2848,
      "present": 2849,
      "pressing": 2850,
      "preqx": 2851,
      "download": 2852,
      "list": 2853,
      "meam": 2854,
      "mekn": 2855,
      "tension": 2856,
      "temaj": 2857,
      "eaae": 2858,
      "comms": 2859,
      "comment": 2860,
      "anad": 2861,
      "ivecdn": 2862,
      "bffffa": 2863,
      "bffffd": 2864,
      "fefffff": 2865,
      "fefc": 2866,
      "febc": 2867,
      "febf": 2868,
      "fefab": 2869,
      "sessiontimeout": 2870,
      "dcdd": 2871,
      "dcda": 2872,
      "dcac": 2873,
      "dcbf": 2874,
      "dcount": 2875,
      "dcode": 2876,
      "fier": 2877,
      "fiel": 2878,
      "sitemaj": 2879,
      "ccba": 2880,
      "ccdd": 2881,
      "ccda": 2882,
      "conc": 2883,
      "conproject": 2884,
      "errhan": 2885,
      "ential": 2886,
      "cdadc": 2887,
      "cdfffe": 2888,
      "trc": 2889,
      "trout": 2890,
      "trun": 2891,
      "trapp": 2892,
      "baec": 2893,
      "baab": 2894,
      "bacc": 2895,
      "baac": 2896,
      "baij": 2897,
      "bayms": 2898,
      "ddff": 2899,
      "ddmd": 2900,
      "fcab": 2901,
      "fcfc": 2902,
      "fcbf": 2903,
      "fcaf": 2904,
      "fcffe": 2905,
      "fcdcf": 2906,
      "dacc": 2907,
      "dacd": 2908,
      "dafc": 2909,
      "daac": 2910,
      "dacf": 2911,
      "daily": 2912,
      "dbec": 2913,
      "dbfc": 2914,
      "dbbc": 2915,
      "dbfd": 2916,
      "dbremer": 2917,
      "miao": 2918,
      "oola": 2919,
      "bcdc": 2920,
      "cus": 2921,
      "cupps": 2922,
      "adding": 2923,
      "addthis": 2924,
      "exter": 2925,
      "extension": 2926,
      "acfc": 2927,
      "acbf": 2928,
      "acbb": 2929,
      "beab": 2930,
      "bebd": 2931,
      "aeec": 2932,
      "aefc": 2933,
      "bfed": 2934,
      "bfee": 2935,
      "bfac": 2936,
      "bfaf": 2937,
      "bfdea": 2938,
      "psu": 2939,
      "ghdr": 2940,
      "facc": 2941,
      "fafc": 2942,
      "fafa": 2943,
      "dedreplication": 2944,
      "bdab": 2945,
      "route": 2946,
      "linadv": 2947,
      "output": 2948,
      "clientservices": 2949,
      "bbab": 2950,
      "coredump": 2951,
      "caee": 2952,
      "caus": 2953,
      "camo": 2954,
      "capi": 2955,
      "afbb": 2956,
      "after": 2957,
      "efccb": 2958,
      "efdcd": 2959,
      "efdbc": 2960,
      "efdcb": 2961,
      "amanad": 2962,
      "cbec": 2963,
      "cbdc": 2964,
      "cbcc": 2965,
      "cbfc": 2966,
      "mapfiles": 2967,
      "aaec": 2968,
      "aacc": 2969,
      "aaac": 2970,
      "wix": 2971,
      "wifi": 2972,
      "clg": 2973,
      "fdfffff": 2974,
      "fdfffe": 2975,
      "rome": 2976,
      "ptlogin": 2977,
      "suite": 2978,
      "ebde": 2979,
      "ebee": 2980,
      "ebea": 2981,
      "ebba": 2982,
      "ebda": 2983,
      "ebdb": 2984,
      "msn": 2985,
      "bglerr": 2986,
      "bglcode": 2987,
      "stats": 2988,
      "ffffffc": 2989,
      "person": 2990,
      "googleadservices": 2991,
      "quality": 2992,
      "query": 2993,
      "fbab": 2994,
      "fbdc": 2995,
      "fbcc": 2996,
      "fbba": 2997,
      "fbda": 2998,
      "oldcode": 2999,
      "pai": 3000,
      "images": 3001,
      "homme": 3002,
      "rubi": 3003,
      "testsuite": 3004,
      "feac": 3005,
      "feaf": 3006,
      "upload": 3007,
      "wordcount": 3008,
      "ddrsize": 3009,
      "worker": 3010,
      "further": 3011,
      "lsf": 3012,
      "allocation": 3013,
      "ctrs": 3014,
      "edea": 3015,
      "edef": 3016,
      "edefb": 3017,
      "ics": 3018,
      "............................": 3019,
      "bos": 3020,
      "snsl": 3021,
      "fccb": 3022,
      "fccff": 3023,
      "fccce": 3024,
      "fccfe": 3025,
      "fccbf": 3026,
      "fcccf": 3027,
      "curioni": 3028,
      "temporarily": 3029,
      "engine": 3030,
      "enabled": 3031,
      "senee": 3032,
      "senger": 3033,
      "url": 3034,
      "mods": 3035,
      "mobi": 3036,
      "wrating": 3037,
      "wray": 3038,
      "hao": 3039,
      "object": 3040,
      "rai": 3041,
      "ffbff": 3042,
      "ffbdf": 3043,
      "efcfc": 3044,
      "efcbc": 3045,
      "efcbd": 3046,
      "efcfd": 3047,
      "fcdbf": 3048,
      "softw": 3049,
      "show": 3050,
      "shots": 3051,
      "acterist": 3052,
      "alitu": 3053,
      "ffaec": 3054,
      "ffaed": 3055,
      "ffafa": 3056,
      "fcebd": 3057,
      "fcecb": 3058,
      "qqmail": 3059,
      "ddcmdgbgl": 3060,
      "imgur": 3061,
      "imgcache": 3062,
      "dropboxapi": 3063,
      "microad": 3064,
      "performing": 3065,
      "unsign": 3066,
      "uesnsl": 3067,
      "portmgr": 3068,
      "eecc": 3069,
      "build": 3070,
      "bfcb": 3071,
      "dns": 3072,
      "gnar": 3073,
      "sorter": 3074,
      "cabe": 3075,
      "areservicenetwork": 3076,
      "fcbea": 3077,
      "bdirect": 3078,
      "float": 3079,
      "mart": 3080,
      "marseille": 3081,
      "account": 3082,
      "bdea": 3083,
      "bdee": 3084,
      "aeac": 3085,
      "next": 3086,
      "bbca": 3087,
      "efaea": 3088,
      "recv": 3089,
      "receivetrain": 3090,
      "avp": 3091,
      "existing": 3092,
      "xffffb": 3093,
      "xffffd": 3094,
      "ffaaa": 3095,
      "caused": 3096,
      "aaba": 3097,
      "grepa": 3098,
      "grepb": 3099,
      "configfile": 3100,
      "syndrome": 3101,
      "bdcb": 3102,
      "bdfa": 3103,
      "way": 3104,
      "central": 3105,
      "iahao": 3106,
      "configuration": 3107,
      "onix": 3108,
      "alemedia": 3109,
      "bcebos": 3110,
      "casalemedia": 3111,
      "cfaf": 3112,
      "vgqsenee": 3113,
      "hnedn": 3114,
      "oguesnsl": 3115,
      "slf": 3116,
      "adobeid": 3117,
      "messenger": 3118,
      "stackoverflow": 3119,
      "stopping": 3120,
      "efdbd": 3121,
      "aug": 3122,
      "auth": 3123,
      "autopurge": 3124,
      "fmmods": 3125,
      "winerr": 3126,
      "efdfd": 3127,
      "underflow": 3128,
      "impservice": 3129,
      "pkt": 3130,
      "cloudf": 3131,
      "/../../": 3132,
      "divac": 3133,
      "divide": 3134,
      "pubs": 3135,
      "pubmatic": 3136,
      "small": 3137,
      "tvax": 3138,
      "wangwang": 3139,
      "vgqskn": 3140,
      "dictapp": 3141,
      "oimagec": 3142,
      "oimagea": 3143,
      "consoleip": 3144,
      "consoleport": 3145,
      "agkn": 3146,
      "cvs": 3147,
      "focus": 3148,
      "fraction": 3149,
      "gateway": 3150,
      "hello": 3151,
      "ocsp": 3152,
      "sequential": 3153,
      "characterist": 3154,
      "chamonix": 3155,
      "ordered": 3156,
      "suppressing": 3157,
      "googletagmanager": 3158,
      "special": 3159,
      "imprecise": 3160,
      "creativecdn": 3161,
      "global": 3162,
      "gmtdmp": 3163,
      "stirturbdirect": 3164,
      "biparty": 3165,
      "bidswitch": 3166,
      "bank": 3167,
      "dparty": 3168,
      "gtms": 3169,
      "guarant": 3170,
      "gunnels": 3171,
      "gather": 3172,
      "issues": 3173,
      "kdcl": 3174,
      "lapack": 3175,
      "miscompare": 3176,
      "neededreplication": 3177,
      "oimageb": 3178,
      "poll": 3179,
      "qlsn": 3180,
      "rflomp": 3181,
      "sparing": 3182,
      "scomerror": 3183,
      "samrai": 3184,
      "space": 3185,
      "scorecardre": 3186,
      "skype": 3187,
      "tzyx": 3188,
      "taboola": 3189,
      "twitter": 3190,
      "tapad": 3191,
      "ualdn": 3192,
      "visus": 3193,
      "walk": 3194,
      "declareservicenetwork": 3195,
      "demdex": 3196,
      "severed": 3197,
      "chmod": 3198,
      "sstats": 3199,
      "thirdparty": 3200,
      "ckapfer": 3201,
      "netease": 3202,
      "neosmart": 3203,
      "removing": 3204,
      "adsrvr": 3205,
      "blacs": 3206,
      "newmaps": 3207,
      "newsimg": 3208,
      "idotransportmgr": 3209,
      "idoclientmgr": 3210,
      "mekned": 3211,
      "fields": 3212,
      "sitemaji": 3213,
      "trouter": 3214,
      "truncate": 3215,
      "baijiahao": 3216,
      "baymsgr": 3217,
      "dailyupdate": 3218,
      "miaopai": 3219,
      "external": 3220,
      "causing": 3221,
      "personality": 3222,
      "rubiconproject": 3223,
      "mobile": 3224,
      "software": 3225,
      "alitui": 3226,
      "ddcmdgbglv": 3227,
      "unsigned": 3228,
      "marseillebgl": 3229,
      "accounts": 3230,
      "characteristics": 3231,
      "bipartyz": 3232,
      "guaranteed": 3233,
      "neededreplications": 3234,
      "scorecardresearch": 3235,
      "declareservicenetworkcharacteristics": 3236,
      "&)": 3237,
      "&,": 3238,
      ")'": 3239,
      ")...........................": 3240,
      ")......................": 3241,
      ").......................": 3242,
      "*,": 3243,
      "*&)": 3244,
      "->": 3245,
      "/./": 3246,
      "=<": 3247,
      "?/": 3248,
      "ak": 3249,
      "ass": 3250,
      "aut": 3251,
      "aded": 3252,
      "aeee": 3253,
      "aim": 3254,
      "ave": 3255,
      "acda": 3256,
      "aedc": 3257,
      "avn": 3258,
      "acdd": 3259,
      "afcb": 3260,
      "aeea": 3261,
      "agent": 3262,
      "aabc": 3263,
      "affaa": 3264,
      "aux": 3265,
      "bt": 3266,
      "bx": 3267,
      "bz": 3268,
      "bar": 3269,
      "batch": 3270,
      "bus": 3271,
      "bfff": 3272,
      "bffb": 3273,
      "bits": 3274,
      "bcda": 3275,
      "bedc": 3276,
      "bvn": 3277,
      "bceb": 3278,
      "bccb": 3279,
      "beda": 3280,
      "bdbc": 3281,
      "bates": 3282,
      "babb": 3283,
      "babf": 3284,
      "btrace": 3285,
      "catch": 3286,
      "cadd": 3287,
      "cfff": 3288,
      "cffa": 3289,
      "cadb": 3290,
      "cffea": 3291,
      "cookie": 3292,
      "ctools": 3293,
      "cwd": 3294,
      "dg": 3295,
      "dh": 3296,
      "dj": 3297,
      "dk": 3298,
      "dt": 3299,
      "dsh": 3300,
      "dge": 3301,
      "dna": 3302,
      "dtr": 3303,
      "dps": 3304,
      "dram": 3305,
      "dffa": 3306,
      "dadc": 3307,
      "dadf": 3308,
      "dffd": 3309,
      "dfffe": 3310,
      "dfcb": 3311,
      "dfcf": 3312,
      "dabd": 3313,
      "dbac": 3314,
      "dfffffff": 3315,
      "dlb": 3316,
      "dabb": 3317,
      "dabf": 3318,
      "effff": 3319,
      "efffff": 3320,
      "eadd": 3321,
      "eld": 3322,
      "eadf": 3323,
      "ebfb": 3324,
      "estart": 3325,
      "ecee": 3326,
      "ebfa": 3327,
      "eceb": 3328,
      "eedb": 3329,
      "eabc": 3330,
      "eabd": 3331,
      "ebaa": 3332,
      "etexception": 3333,
      "ebae": 3334,
      "ether": 3335,
      "fs": 3336,
      "fin": 3337,
      "fre": 3338,
      "foo": 3339,
      "fstat": 3340,
      "ftest": 3341,
      "fedc": 3342,
      "fbfb": 3343,
      "ftests": 3344,
      "fabd": 3345,
      "faef": 3346,
      "fbaa": 3347,
      "fbef": 3348,
      "fmm": 3349,
      "fsync": 3350,
      "fchown": 3351,
      "fchmod": 3352,
      "ftruncate": 3353,
      "gd": 3354,
      "gin": 3355,
      "ged": 3356,
      "gid": 3357,
      "gto": 3358,
      "gice": 3359,
      "gum": 3360,
      "gma": 3361,
      "gcc": 3362,
      "groot": 3363,
      "gapps": 3364,
      "game": 3365,
      "gctl": 3366,
      "hd": 3367,
      "hj": 3368,
      "har": 3369,
      "hid": 3370,
      "hres": 3371,
      "hstatic": 3372,
      "hpm": 3373,
      "ior": 3374,
      "ited": 3375,
      "ish": 3376,
      "ile": 3377,
      "ife": 3378,
      "ieee": 3379,
      "icb": 3380,
      "iwi": 3381,
      "iet": 3382,
      "ims": 3383,
      "ical": 3384,
      "icau": 3385,
      "ieeec": 3386,
      "ihd": 3387,
      "ji": 3388,
      "jr": 3389,
      "jre": 3390,
      "jline": 3391,
      "jection": 3392,
      "jvm": 3393,
      "jfm": 3394,
      "jlu": 3395,
      "jng": 3396,
      "jdk": 3397,
      "ko": 3398,
      "kr": 3399,
      "kck": 3400,
      "kle": 3401,
      "keb": 3402,
      "ktest": 3403,
      "kill": 3404,
      "kiwi": 3405,
      "lg": 3406,
      "ln": 3407,
      "llo": 3408,
      "ling": 3409,
      "lti": 3410,
      "lstat": 3411,
      "large": 3412,
      "lxf": 3413,
      "lare": 3414,
      "lchown": 3415,
      "lseek": 3416,
      "mpd": 3417,
      "mon": 3418,
      "mbl": 3419,
      "merr": 3420,
      "mmb": 3421,
      "mmu": 3422,
      "nh": 3423,
      "np": 3424,
      "nu": 3425,
      "nted": 3426,
      "nle": 3427,
      "nan": 3428,
      "nded": 3429,
      "nms": 3430,
      "ngi": 3431,
      "nve": 3432,
      "nsclick": 3433,
      "oid": 3434,
      "oad": 3435,
      "obe": 3436,
      "option": 3437,
      "osign": 3438,
      "ph": 3439,
      "pz": 3440,
      "por": 3441,
      "pid": 3442,
      "pted": 3443,
      "pnet": 3444,
      "pop": 3445,
      "ppl": 3446,
      "pmo": 3447,
      "pho": 3448,
      "pwd": 3449,
      "pcookie": 3450,
      "qd": 3451,
      "qw": 3452,
      "qum": 3453,
      "qlr": 3454,
      "qbw": 3455,
      "qdu": 3456,
      "qhm": 3457,
      "qhres": 3458,
      "ry": 3459,
      "ron": 3460,
      "roc": 3461,
      "sa": 3462,
      "sdo": 3463,
      "sall": 3464,
      "sses": 3465,
      "sgs": 3466,
      "tj": 3467,
      "tn": 3468,
      "tt": 3469,
      "tst": 3470,
      "tsh": 3471,
      "tmgr": 3472,
      "tdt": 3473,
      "tmpd": 3474,
      "ui": 3475,
      "uid": 3476,
      "umask": 3477,
      "uan": 3478,
      "ugh": 3479,
      "ures": 3480,
      "udp": 3481,
      "usync": 3482,
      "vir": 3483,
      "vaddr": 3484,
      "vjp": 3485,
      "vbuffer": 3486,
      "vtrace": 3487,
      "void": 3488,
      "wf": 3489,
      "wk": 3490,
      "wed": 3491,
      "watch": 3492,
      "wan": 3493,
      "wpen": 3494,
      "wsu": 3495,
      "wbp": 3496,
      "wosign": 3497,
      "wtdt": 3498,
      "xff": 3499,
      "xec": 3500,
      "xed": 3501,
      "xing": 3502,
      "xab": 3503,
      "xfe": 3504,
      "xdc": 3505,
      "xcd": 3506,
      "xba": 3507,
      "xbc": 3508,
      "xac": 3509,
      "xbe": 3510,
      "xbd": 3511,
      "xcb": 3512,
      "xfd": 3513,
      "xfb": 3514,
      "xfff": 3515,
      "xdr": 3516,
      "xfcd": 3517,
      "xbfe": 3518,
      "xffd": 3519,
      "xffffffe": 3520,
      "xfffe": 3521,
      "xbfa": 3522,
      "xafd": 3523,
      "xgr": 3524,
      "xabb": 3525,
      "xfefefeff": 3526,
      "xuan": 3527,
      "yre": 3528,
      "yur": 3529,
      "yndm": 3530,
      "ykle": 3531,
      "yvjp": 3532,
      "zhstatic": 3533,
      "zjfm": 3534,
      "zsall": 3535,
      "||": 3536,
      "ffeeee": 3537,
      "fffa": 3538,
      "fffd": 3539,
      "fffb": 3540,
      "ffcec": 3541,
      "ffced": 3542,
      "fffdfe": 3543,
      "ffada": 3544,
      "ffadb": 3545,
      "ffadf": 3546,
      "ffbfd": 3547,
      "ffcee": 3548,
      "ffbfa": 3549,
      "ffdcd": 3550,
      "ffacb": 3551,
      "ffdcc": 3552,
      "ffbaa": 3553,
      "ffbcb": 3554,
      "ffaca": 3555,
      "ffacf": 3556,
      "ffbae": 3557,
      "ffcaf": 3558,
      "ffcef": 3559,
      "ffabf": 3560,
      "ffdda": 3561,
      "ffcaa": 3562,
      "ffbbb": 3563,
      "ffbaf": 3564,
      "ffdbf": 3565,
      "arest": 3566,
      "argum": 3567,
      "den": 3568,
      "deab": 3569,
      "dedf": 3570,
      "debd": 3571,
      "debb": 3572,
      "deeb": 3573,
      "defb": 3574,
      "deeca": 3575,
      "degroot": 3576,
      "seti": 3577,
      "secur": 3578,
      "sembl": 3579,
      "nop": 3580,
      "nopr": 3581,
      "nova": 3582,
      "noni": 3583,
      "noapc": 3584,
      "noroute": 3585,
      "ink": 3586,
      "inform": 3587,
      "incount": 3588,
      "injection": 3589,
      "cer": 3590,
      "cesi": 3591,
      "cedf": 3592,
      "cebe": 3593,
      "cebb": 3594,
      "cefd": 3595,
      "ceabe": 3596,
      "ato": 3597,
      "att": 3598,
      "atall": 3599,
      "ative": 3600,
      "ching": 3601,
      "chcham": 3602,
      "orac": 3603,
      "ories": 3604,
      "orestart": 3605,
      "serapis": 3606,
      "ecff": 3607,
      "ecde": 3608,
      "ecad": 3609,
      "ecfe": 3610,
      "eccc": 3611,
      "ecba": 3612,
      "ecae": 3613,
      "ecfa": 3614,
      "ecbb": 3615,
      "ecaf": 3616,
      "ecaa": 3617,
      "ecmb": 3618,
      "ecccc": 3619,
      "ecdca": 3620,
      "ecvbuffer": 3621,
      "dog": 3622,
      "ffffbc": 3623,
      "priv": 3624,
      "loor": 3625,
      "look": 3626,
      "loader": 3627,
      "edfe": 3628,
      "eddc": 3629,
      "edcc": 3630,
      "eddf": 3631,
      "edbc": 3632,
      "edac": 3633,
      "edca": 3634,
      "edaa": 3635,
      "edbae": 3636,
      "edbbb": 3637,
      "pdate": 3638,
      "pdbg": 3639,
      "pdlxf": 3640,
      "ips": 3641,
      "only": 3642,
      "onfp": 3643,
      "ssive": 3644,
      "ssible": 3645,
      "prof": 3646,
      "ason": 3647,
      "assembl": 3648,
      "idx": 3649,
      "idmp": 3650,
      "topo": 3651,
      "tocdn": 3652,
      "toall": 3653,
      "toho": 3654,
      "ouji": 3655,
      "ctest": 3656,
      "ctld": 3657,
      "ctips": 3658,
      "eece": 3659,
      "eeba": 3660,
      "eefc": 3661,
      "eebc": 3662,
      "eeae": 3663,
      "eebf": 3664,
      "eebd": 3665,
      "eebb": 3666,
      "ndor": 3667,
      "parserapis": 3668,
      "mlink": 3669,
      "stand": 3670,
      "stun": 3671,
      "iary": 3672,
      "thre": 3673,
      "ingo": 3674,
      "symlink": 3675,
      "cktime": 3676,
      "abed": 3677,
      "abea": 3678,
      "abdd": 3679,
      "abca": 3680,
      "abef": 3681,
      "nearest": 3682,
      "readd": 3683,
      "reserved": 3684,
      "rename": 3685,
      "renc": 3686,
      "retag": 3687,
      "restarted": 3688,
      "regctl": 3689,
      "reason": 3690,
      "ofda": 3691,
      "adce": 3692,
      "adda": 3693,
      "adfa": 3694,
      "adcb": 3695,
      "adtech": 3696,
      "adingo": 3697,
      "tingyun": 3698,
      "bll": 3699,
      "blas": 3700,
      "blime": 3701,
      "blast": 3702,
      "symcd": 3703,
      "shouji": 3704,
      "newmpi": 3705,
      "newkernel": 3706,
      "newcomp": 3707,
      "newhack": 3708,
      "asearch": 3709,
      "idoudp": 3710,
      "ums": 3711,
      "partsn": 3712,
      "ution": 3713,
      "utime": 3714,
      "preta": 3715,
      "len": 3716,
      "les": 3717,
      "leme": 3718,
      "leader": 3719,
      "leav": 3720,
      "ntifi": 3721,
      "licate": 3722,
      "libr": 3723,
      "mehu": 3724,
      "tetsh": 3725,
      "eade": 3726,
      "eace": 3727,
      "eaec": 3728,
      "eafc": 3729,
      "eaca": 3730,
      "eapp": 3731,
      "commit": 3732,
      "ancom": 3733,
      "bye": 3734,
      "tig": 3735,
      "timi": 3736,
      "timer": 3737,
      "ticktime": 3738,
      "feec": 3739,
      "feab": 3740,
      "fead": 3741,
      "febd": 3742,
      "feffe": 3743,
      "fefcd": 3744,
      "feeds": 3745,
      "fefcf": 3746,
      "fefeb": 3747,
      "feng": 3748,
      "fefafa": 3749,
      "macce": 3750,
      "make": 3751,
      "makeb": 3752,
      "mallo": 3753,
      "stexception": 3754,
      "stepping": 3755,
      "dcu": 3756,
      "dcce": 3757,
      "dccd": 3758,
      "dcdb": 3759,
      "dcdf": 3760,
      "dcae": 3761,
      "dcbd": 3762,
      "dccf": 3763,
      "dcaf": 3764,
      "dccb": 3765,
      "dcaee": 3766,
      "iso": 3767,
      "field": 3768,
      "nodecards": 3769,
      "alerr": 3770,
      "systemcontroller": 3771,
      "siwf": 3772,
      "sixgr": 3773,
      "ccr": 3774,
      "ccab": 3775,
      "ccdb": 3776,
      "ccac": 3777,
      "ccbe": 3778,
      "ccfa": 3779,
      "ccbd": 3780,
      "ccca": 3781,
      "ccaf": 3782,
      "ccsame": 3783,
      "ccyndm": 3784,
      "const": 3785,
      "contig": 3786,
      "times": 3787,
      "timeofda": 3788,
      "entry": 3789,
      "getr": 3790,
      "cdde": 3791,
      "cdce": 3792,
      "cdbe": 3793,
      "cdfbab": 3794,
      "trap": 3795,
      "baff": 3796,
      "bafc": 3797,
      "baae": 3798,
      "bacb": 3799,
      "baeb": 3800,
      "ddde": 3801,
      "ddab": 3802,
      "ddad": 3803,
      "ddba": 3804,
      "dddd": 3805,
      "ddaf": 3806,
      "ddabe": 3807,
      "fcba": 3808,
      "fcfa": 3809,
      "fcded": 3810,
      "fcbd": 3811,
      "fcbb": 3812,
      "fcfd": 3813,
      "fcfff": 3814,
      "fcfaa": 3815,
      "fcfcc": 3816,
      "fcfda": 3817,
      "fccec": 3818,
      "fcfcd": 3819,
      "fcbff": 3820,
      "fcbfe": 3821,
      "fcfdb": 3822,
      "fcffd": 3823,
      "fclick": 3824,
      "fcbfb": 3825,
      "fcfcb": 3826,
      "fcbfa": 3827,
      "fcceb": 3828,
      "fcdec": 3829,
      "fcbac": 3830,
      "fcdcd": 3831,
      "fccea": 3832,
      "fcbaa": 3833,
      "fcdca": 3834,
      "fcdeb": 3835,
      "fcbcf": 3836,
      "fcdcb": 3837,
      "fcbeb": 3838,
      "fcbbb": 3839,
      "daea": 3840,
      "daaf": 3841,
      "dafdc": 3842,
      "daabd": 3843,
      "daabe": 3844,
      "dafca": 3845,
      "dbde": 3846,
      "dbea": 3847,
      "dbcc": 3848,
      "dbdd": 3849,
      "dbsr": 3850,
      "dbcr": 3851,
      "dfde": 3852,
      "dfec": 3853,
      "dfdc": 3854,
      "dfae": 3855,
      "dfbf": 3856,
      "dfdac": 3857,
      "dfafa": 3858,
      "mib": 3859,
      "mira": 3860,
      "bcab": 3861,
      "bcfc": 3862,
      "bcbc": 3863,
      "bcac": 3864,
      "bcbe": 3865,
      "bcbf": 3866,
      "bcaa": 3867,
      "exit": 3868,
      "exited": 3869,
      "acfa": 3870,
      "acbd": 3871,
      "acaf": 3872,
      "accec": 3873,
      "bead": 3874,
      "beba": 3875,
      "bebc": 3876,
      "bebe": 3877,
      "bebf": 3878,
      "bebb": 3879,
      "befb": 3880,
      "befcc": 3881,
      "bebfdc": 3882,
      "begin": 3883,
      "aede": 3884,
      "aebe": 3885,
      "aebf": 3886,
      "aebd": 3887,
      "aebb": 3888,
      "aefee": 3889,
      "aeffa": 3890,
      "aeedf": 3891,
      "irq": 3892,
      "irector": 3893,
      "bfde": 3894,
      "bfab": 3895,
      "bfcc": 3896,
      "bfda": 3897,
      "bfbf": 3898,
      "bfaa": 3899,
      "bfdac": 3900,
      "bfbaf": 3901,
      "bfcefc": 3902,
      "psg": 3903,
      "ciodb": 3904,
      "ilt": 3905,
      "iler": 3906,
      "iliary": 3907,
      "fade": 3908,
      "faee": 3909,
      "faad": 3910,
      "faecd": 3911,
      "faedbae": 3912,
      "bdde": 3913,
      "bdfe": 3914,
      "bdfc": 3915,
      "rounded": 3916,
      "linfo": 3917,
      "cfg": 3918,
      "cfde": 3919,
      "cfee": 3920,
      "cfbc": 3921,
      "cfecf": 3922,
      "cfdddc": 3923,
      "cflu": 3924,
      "cfloor": 3925,
      "outstand": 3926,
      "openx": 3927,
      "openjdk": 3928,
      "bbec": 3929,
      "bbdc": 3930,
      "bbdb": 3931,
      "bbbb": 3932,
      "bbccf": 3933,
      "bbdee": 3934,
      "bbadbe": 3935,
      "corpor": 3936,
      "http": 3937,
      "cade": 3938,
      "caea": 3939,
      "caaa": 3940,
      "caeeb": 3941,
      "caffee": 3942,
      "canoni": 3943,
      "caching": 3944,
      "connected": 3945,
      "afde": 3946,
      "afcc": 3947,
      "afdb": 3948,
      "afbc": 3949,
      "afbe": 3950,
      "afbd": 3951,
      "afabf": 3952,
      "afecda": 3953,
      "efad": 3954,
      "efddc": 3955,
      "efccc": 3956,
      "efccd": 3957,
      "efbfe": 3958,
      "efadf": 3959,
      "efcda": 3960,
      "efcdf": 3961,
      "efedc": 3962,
      "efbfc": 3963,
      "efbfd": 3964,
      "efedb": 3965,
      "efecf": 3966,
      "efeea": 3967,
      "efcca": 3968,
      "efeef": 3969,
      "efedd": 3970,
      "efeca": 3971,
      "efdcc": 3972,
      "efbaa": 3973,
      "efeeb": 3974,
      "efbcb": 3975,
      "efecd": 3976,
      "efdca": 3977,
      "efbef": 3978,
      "efeaa": 3979,
      "efdea": 3980,
      "efdef": 3981,
      "efcef": 3982,
      "efdeb": 3983,
      "efdcf": 3984,
      "efdda": 3985,
      "efddb": 3986,
      "efddd": 3987,
      "efddf": 3988,
      "efdaa": 3989,
      "efdaf": 3990,
      "efecb": 3991,
      "efbaf": 3992,
      "amr": 3993,
      "excessive": 3994,
      "cbde": 3995,
      "cbad": 3996,
      "cbba": 3997,
      "cbdd": 3998,
      "cbjs": 3999,
      "cbrt": 4000,
      "linkcards": 4001,
      "usage": 4002,
      "readv": 4003,
      "readblock": 4004,
      "readlink": 4005,
      "mapping": 4006,
      "aaee": 4007,
      "aacd": 4008,
      "aafc": 4009,
      "aafa": 4010,
      "aaaf": 4011,
      "aapp": 4012,
      "aaabc": 4013,
      "soon": 4014,
      "sopt": 4015,
      "mpl": 4016,
      "mpxl": 4017,
      "mpill": 4018,
      "mpleme": 4019,
      "clk": 4020,
      "class": 4021,
      "corrupt": 4022,
      "fdde": 4023,
      "fdffc": 4024,
      "fdffffe": 4025,
      "etc": 4026,
      "ptarge": 4027,
      "ptance": 4028,
      "ptqlr": 4029,
      "dslb": 4030,
      "verbo": 4031,
      "sublime": 4032,
      "ebce": 4033,
      "ebed": 4034,
      "ebbc": 4035,
      "ebbd": 4036,
      "ebeee": 4037,
      "niux": 4038,
      "addresses": 4039,
      "values": 4040,
      "scancom": 4041,
      "dcrs": 4042,
      "validate": 4043,
      "glp": 4044,
      "minsessiontimeout": 4045,
      "nets": 4046,
      "netty": 4047,
      "netdna": 4048,
      "msghdr": 4049,
      "msgto": 4050,
      "overable": 4051,
      "bglc": 4052,
      "bglsys": 4053,
      "bglctl": 4054,
      "bglpersonality": 4055,
      "srko": 4056,
      "terminated": 4057,
      "ffffffd": 4058,
      "ffffffee": 4059,
      "fffffffb": 4060,
      "directories": 4061,
      "cosy": 4062,
      "glen": 4063,
      "crl": 4064,
      "quiet": 4065,
      "qusixgr": 4066,
      "fbde": 4067,
      "fbec": 4068,
      "fbcd": 4069,
      "fbfc": 4070,
      "fbdb": 4071,
      "fbbe": 4072,
      "fbbf": 4073,
      "fbbae": 4074,
      "pavtrace": 4075,
      "failures": 4076,
      "feeb": 4077,
      "feeaa": 4078,
      "imageplus": 4079,
      "logfile": 4080,
      "logies": 4081,
      "logical": 4082,
      "rules": 4083,
      "generic": 4084,
      "wwbiz": 4085,
      "testlong": 4086,
      "testscrip": 4087,
      "feaaa": 4088,
      "upmobile": 4089,
      "itz": 4090,
      "aph": 4091,
      "apu": 4092,
      "apac": 4093,
      "unit": 4094,
      "unimpleme": 4095,
      "instr": 4096,
      "interexception": 4097,
      "llpo": 4098,
      "llseek": 4099,
      "xercesi": 4100,
      "edec": 4101,
      "icbcast": 4102,
      "ddca": 4103,
      "ddcb": 4104,
      "ddcd": 4105,
      "intf": 4106,
      "....................................": 4107,
      ".................................": 4108,
      "...............................": 4109,
      ".............................": 4110,
      "optimi": 4111,
      "sppmo": 4112,
      "imtt": 4113,
      "snan": 4114,
      "tau": 4115,
      "vendor": 4116,
      "cnk": 4117,
      "cncdn": 4118,
      "cnvt": 4119,
      "cmdline": 4120,
      "fcca": 4121,
      "fccde": 4122,
      "fccab": 4123,
      "fcccd": 4124,
      "fccba": 4125,
      "fccdd": 4126,
      "fccdf": 4127,
      "fccac": 4128,
      "fccbe": 4129,
      "fccae": 4130,
      "fccfa": 4131,
      "fccbd": 4132,
      "fccbb": 4133,
      "fccaf": 4134,
      "fccaa": 4135,
      "fccfd": 4136,
      "fccfb": 4137,
      "backgr": 4138,
      "encer": 4139,
      "fdac": 4140,
      "fdaea": 4141,
      "sensor": 4142,
      "facee": 4143,
      "goodbye": 4144,
      "drv": 4145,
      "popt": 4146,
      "possible": 4147,
      "cecfc": 4148,
      "ursdo": 4149,
      "mpihpm": 4150,
      "cacb": 4151,
      "zookeeperserver": 4152,
      "hucdn": 4153,
      "ffbde": 4154,
      "ffbec": 4155,
      "ffbed": 4156,
      "ffbab": 4157,
      "ffbfe": 4158,
      "ffbcc": 4159,
      "ffbfc": 4160,
      "ffbda": 4161,
      "ffbdb": 4162,
      "ffbbc": 4163,
      "ffbbe": 4164,
      "ffbbf": 4165,
      "ffbbd": 4166,
      "ffbffbff": 4167,
      "efcfe": 4168,
      "efcbe": 4169,
      "efcbb": 4170,
      "efcaf": 4171,
      "efcaa": 4172,
      "efcfb": 4173,
      "efcbad": 4174,
      "fcdff": 4175,
      "fcdce": 4176,
      "fcdab": 4177,
      "fcdfe": 4178,
      "fcddc": 4179,
      "fcddd": 4180,
      "fcddb": 4181,
      "fcdbe": 4182,
      "fcdae": 4183,
      "fcdbd": 4184,
      "fcdaf": 4185,
      "fcdaa": 4186,
      "fcdfd": 4187,
      "mbio": 4188,
      "ffaff": 4189,
      "ffade": 4190,
      "ffaee": 4191,
      "ffaab": 4192,
      "ffaea": 4193,
      "ffafe": 4194,
      "ffacc": 4195,
      "ffafc": 4196,
      "ffaac": 4197,
      "ffaae": 4198,
      "ffaaf": 4199,
      "ublish": 4200,
      "fceff": 4201,
      "fceec": 4202,
      "fceed": 4203,
      "fcead": 4204,
      "fcefe": 4205,
      "fcecc": 4206,
      "fcecd": 4207,
      "fceda": 4208,
      "fcedb": 4209,
      "fcebc": 4210,
      "fcebe": 4211,
      "fceae": 4212,
      "fcebf": 4213,
      "fcebb": 4214,
      "fceca": 4215,
      "fceaf": 4216,
      "fcefd": 4217,
      "fceeb": 4218,
      "medal": 4219,
      "ccdn": 4220,
      "fdfeabe": 4221,
      "functest": 4222,
      "qqweb": 4223,
      "cpgr": 4224,
      "targetclose": 4225,
      "imgsrc": 4226,
      "imgtn": 4227,
      "cdnjs": 4228,
      "tagr": 4229,
      "dropping": 4230,
      "scratchpad": 4231,
      "bffee": 4232,
      "bffea": 4233,
      "bffbc": 4234,
      "bffac": 4235,
      "bffcf": 4236,
      "bffcbf": 4237,
      "bffdea": 4238,
      "fold": 4239,
      "compiler": 4240,
      "fffffefe": 4241,
      "fffffefa": 4242,
      "micron": 4243,
      "following": 4244,
      "maxbug": 4245,
      "maxsessiontimeout": 4246,
      "microloader": 4247,
      "cceb": 4248,
      "cceea": 4249,
      "cceda": 4250,
      "snapreta": 4251,
      "xaed": 4252,
      "longca": 4253,
      "longlong": 4254,
      "efeff": 4255,
      "efece": 4256,
      "efeab": 4257,
      "efefe": 4258,
      "efebc": 4259,
      "efebd": 4260,
      "efebb": 4261,
      "efefd": 4262,
      "ffcde": 4263,
      "ffcbc": 4264,
      "ffcae": 4265,
      "ffcbf": 4266,
      "ffcbd": 4267,
      "ffcbb": 4268,
      "xequsixgr": 4269,
      "chembio": 4270,
      "csm": 4271,
      "fdbb": 4272,
      "fdbc": 4273,
      "fdbdf": 4274,
      "fdbbf": 4275,
      "unlink": 4276,
      "unpk": 4277,
      "internalapi": 4278,
      "writev": 4279,
      "writelog": 4280,
      "modulo": 4281,
      "cdca": 4282,
      "cdcf": 4283,
      "effab": 4284,
      "efffe": 4285,
      "effbc": 4286,
      "effbd": 4287,
      "effbb": 4288,
      "effca": 4289,
      "effef": 4290,
      "effcb": 4291,
      "effaa": 4292,
      "efffd": 4293,
      "brk": 4294,
      "runrecv": 4295,
      "beeb": 4296,
      "beeaab": 4297,
      "libvisus": 4298,
      "adea": 4299,
      "lyjlu": 4300,
      "ffdce": 4301,
      "bind": 4302,
      "portion": 4303,
      "cdea": 4304,
      "cdee": 4305,
      "eecb": 4306,
      "flag": 4307,
      "busy": 4308,
      "built": 4309,
      "bfca": 4310,
      "bfcf": 4311,
      "bfcbd": 4312,
      "sinaapp": 4313,
      "bfbec": 4314,
      "bfbab": 4315,
      "xfed": 4316,
      "randomacce": 4317,
      "controldescriptor": 4318,
      "controlling": 4319,
      "acef": 4320,
      "acebf": 4321,
      "bfdab": 4322,
      "xbbe": 4323,
      "memtest": 4324,
      "memmon": 4325,
      "caba": 4326,
      "minigame": 4327,
      "fcbde": 4328,
      "fcbce": 4329,
      "fcbec": 4330,
      "fcbab": 4331,
      "fcbba": 4332,
      "fcbdd": 4333,
      "fcbdf": 4334,
      "fdfb": 4335,
      "fdfdb": 4336,
      "fdfdf": 4337,
      "fdfac": 4338,
      "fdfae": 4339,
      "mkdir": 4340,
      "streitz": 4341,
      "allc": 4342,
      "allgather": 4343,
      "alltoall": 4344,
      "aligned": 4345,
      "becb": 4346,
      "becd": 4347,
      "fdcff": 4348,
      "xmlparserapis": 4349,
      "efdff": 4350,
      "efdce": 4351,
      "efdab": 4352,
      "efdfe": 4353,
      "efdfc": 4354,
      "accad": 4355,
      "bdeb": 4356,
      "bdec": 4357,
      "bdef": 4358,
      "bdece": 4359,
      "bdecc": 4360,
      "bdeae": 4361,
      "bdeaa": 4362,
      "bdecab": 4363,
      "beac": 4364,
      "***": 4365,
      "ppcfloor": 4366,
      "fcfab": 4367,
      "fcfbe": 4368,
      "fcfbf": 4369,
      "fcfbd": 4370,
      "efbcc": 4371,
      "efbcd": 4372,
      "efbda": 4373,
      "efbbc": 4374,
      "efbbe": 4375,
      "efbbd": 4376,
      "oldkernel": 4377,
      "nexage": 4378,
      "bglinfo": 4379,
      "bbcb": 4380,
      "efafb": 4381,
      "fbcbeb": 4382,
      "recoverable": 4383,
      "ffeaeb": 4384,
      "..........................": 4385,
      "interrupting": 4386,
      "cfca": 4387,
      "xdcef": 4388,
      "xffffcb": 4389,
      "aabb": 4390,
      "aabf": 4391,
      "cbca": 4392,
      "optaim": 4393,
      "ebca": 4394,
      "fdef": 4395,
      "fdead": 4396,
      "fecb": 4397,
      "fecfc": 4398,
      "subnets": 4399,
      "()'": 4400,
      "afcbf": 4401,
      "bccac": 4402,
      "bdfea": 4403,
      "wave": 4404,
      "getdropbox": 4405,
      "getcwd": 4406,
      "getgid": 4407,
      "getpid": 4408,
      "getuid": 4409,
      "gettimeofda": 4410,
      "disconnected": 4411,
      "fabf": 4412,
      "fabea": 4413,
      "fabdd": 4414,
      "fabda": 4415,
      "clearport": 4416,
      "afebf": 4417,
      "bbae": 4418,
      "bbade": 4419,
      "bdae": 4420,
      "bffebcbe": 4421,
      "initial": 4422,
      "dcaaf": 4423,
      "bcastv": 4424,
      "iao": 4425,
      "multi": 4426,
      "initialization": 4427,
      "initializeapp": 4428,
      "bbeb": 4429,
      "eabf": 4430,
      "eabea": 4431,
      "fbbb": 4432,
      "hangtest": 4433,
      "strobe": 4434,
      "fefffc": 4435,
      "coproc": 4436,
      "///": 4437,
      "awqi": 4438,
      "awrenc": 4439,
      "aleamr": 4440,
      "cbeb": 4441,
      "defbf": 4442,
      "sendpacket": 4443,
      "sendtrain": 4444,
      "sendworker": 4445,
      "sendmsgto": 4446,
      "noncontig": 4447,
      "ccccccc": 4448,
      "cccccccd": 4449,
      "tenmaximg": 4450,
      "trellocdn": 4451,
      "slave": 4452,
      "slawrenc": 4453,
      "selftest": 4454,
      "newsapp": 4455,
      "accepted": 4456,
      "acceptance": 4457,
      "pages": 4458,
      "dffacb": 4459,
      "duplicate": 4460,
      "jeffgreeno": 4461,
      "redirector": 4462,
      "socketexception": 4463,
      "********": 4464,
      "*******": 4465,
      "cjm": 4466,
      "diff": 4467,
      "died": 4468,
      "digice": 4469,
      "fbfee": 4470,
      "hot": 4471,
      "ulative": 4472,
      "ullen": 4473,
      "efdbb": 4474,
      "efdbe": 4475,
      "ytnh": 4476,
      "ffbca": 4477,
      "prefetching": 4478,
      "prefetches": 4479,
      "timgsa": 4480,
      "execution": 4481,
      "efdfb": 4482,
      "quantcount": 4483,
      "packages": 4484,
      "flushing": 4485,
      "amaihd": 4486,
      "dbaaf": 4487,
      "impact": 4488,
      "pki": 4489,
      "rtb": 4490,
      "xbfaeb": 4491,
      "bpnet": 4492,
      "rmw": 4493,
      "rmdir": 4494,
      "smaller": 4495,
      "smaato": 4496,
      "turn": 4497,
      "tlbentry": 4498,
      "xaade": 4499,
      "xfffffebc": 4500,
      "asiamax": 4501,
      "refreshes": 4502,
      "track": 4503,
      "hostname": 4504,
      "windowsu": 4505,
      "idomarshalerr": 4506,
      "ayoo": 4507,
      "dmw": 4508,
      "free": 4509,
      "hellow": 4510,
      "identifi": 4511,
      "luke": 4512,
      "mingxing": 4513,
      "pull": 4514,
      "puui": 4515,
      "tual": 4516,
      "xfffffdc": 4517,
      "xfffffef": 4518,
      "xdaabe": 4519,
      "xbbhj": 4520,
      "sequencer": 4521,
      "ordering": 4522,
      "logos": 4523,
      "bbdeba": 4524,
      "googletagservices": 4525,
      "speculative": 4526,
      "creative": 4527,
      "purgeinterval": 4528,
      "stirturbpnet": 4529,
      "nosleepyes": 4530,
      "nosleepnocomm": 4531,
      "verifystu": 4532,
      "baseline": 4533,
      "dware": 4534,
      "dyna": 4535,
      "gslb": 4536,
      "izxequsixgr": 4537,
      "jyb": 4538,
      "jylyjlu": 4539,
      "kkk": 4540,
      "nmjylyjlu": 4541,
      "qihucdn": 4542,
      "rows": 4543,
      "rocflu": 4544,
      "rssgov": 4545,
      "xfcffd": 4546,
      "yeszerobytebug": 4547,
      "yuedust": 4548,
      "nocommnosleep": 4549,
      "study": 4550,
      "idomsg": 4551,
      "idomsghdr": 4552,
      "fefabb": 4553,
      "trapped": 4554,
      "trapping": 4555,
      "ddmdv": 4556,
      "fcbfabd": 4557,
      "bfeefe": 4558,
      "bfafec": 4559,
      "aaecab": 4560,
      "showxml": 4561,
      "recvmsghdr": 4562,
      "cloudflare": 4563,
      "cloudfron": 4564,
      "gathering": 4565,
      "pollcontroldescriptor": 4566,
      "walkup": 4567,
      "mobilem": 4568,
      "akamaihd": 4569,
      "autorestart": 4570,
      "auxiliary": 4571,
      "bzclk": 4572,
      "batchfiles": 4573,
      "catchup": 4574,
      "dgtest": 4575,
      "dhptqlr": 4576,
      "dshytnh": 4577,
      "dgemm": 4578,
      "dtrp": 4579,
      "ethernet": 4580,
      "find": 4581,
      "freed": 4582,
      "foobar": 4583,
      "hardware": 4584,
      "hidden": 4585,
      "ileged": 4586,
      "ifengi": 4587,
      "icbi": 4588,
      "icauh": 4589,
      "ieeeconfp": 4590,
      "jratt": 4591,
      "krcom": 4592,
      "kiwihk": 4593,
      "lnkck": 4594,
      "mmbiz": 4595,
      "nullpo": 4596,
      "nlev": 4597,
      "nmsglen": 4598,
      "oadz": 4599,
      "pplv": 4600,
      "photocdn": 4601,
      "qumccyndm": 4602,
      "qbwup": 4603,
      "qdun": 4604,
      "rocstar": 4605,
      "tmpdir": 4606,
      "virtual": 4607,
      "watchdog": 4608,
      "wpengine": 4609,
      "wbpctips": 4610,
      "wtdtjs": 4611,
      "xedcb": 4612,
      "xdrpj": 4613,
      "xfffead": 4614,
      "xuanfeng": 4615,
      "yrexdrpj": 4616,
      "yuri": 4617,
      "ffeeeefe": 4618,
      "fffbccf": 4619,
      "ffddaff": 4620,
      "argument": 4621,
      "setitimer": 4622,
      "security": 4623,
      "noprint": 4624,
      "noroutetoho": 4625,
      "information": 4626,
      "atallbegin": 4627,
      "oracle": 4628,
      "privileged": 4629,
      "looking": 4630,
      "assembly": 4631,
      "topologies": 4632,
      "ctldl": 4633,
      "threaded": 4634,
      "readdir": 4635,
      "retagging": 4636,
      "idoudpmgr": 4637,
      "leaving": 4638,
      "library": 4639,
      "mehul": 4640,
      "tetshhot": 4641,
      "makebglp": 4642,
      "malloc": 4643,
      "ccsamef": 4644,
      "getrusage": 4645,
      "ddddddd": 4646,
      "miranova": 4647,
      "outstanding": 4648,
      "corporation": 4649,
      "canonical": 4650,
      "mpxlc": 4651,
      "fdffcbe": 4652,
      "ptargetmgr": 4653,
      "verbose": 4654,
      "sublimetext": 4655,
      "niuxiao": 4656,
      "bglctlpavtrace": 4657,
      "srkodhptqlr": 4658,
      "wwbizapi": 4659,
      "testscripts": 4660,
      "unimplemented": 4661,
      "xercesimpl": 4662,
      "optimix": 4663,
      "sppmopt": 4664,
      "background": 4665,
      "ursdoccdn": 4666,
      "ublishing": 4667,
      "functests": 4668,
      "cpgraph": 4669,
      "snapretaincount": 4670,
      "unpkg": 4671,
      "beeaabff": 4672,
      "flagging": 4673,
      "randomaccess": 4674,
      "gettimeofday": 4675,
      "initializeappmemory": 4676,
      "awqiizxequsixgr": 4677,
      "sendmsgtodebugger": 4678,
      "jeffgreenough": 4679,
      "digicert": 4680,
      "windowsupdate": 4681,
      "idomarshalerrecvbuffer": 4682,
      "identifier": 4683,
      "lukei": 4684,
      "xbbhjxc": 4685,
      "nosleepyescomm": 4686,
      "verifystuff": 4687,
      "nmjylyjluykle": 4688,
      "rocfluidmp": 4689,
      "cloudfront": 4690,
      "pollcontroldescriptors": 4691,
      "ifengimg": 4692,
      "ieeeconfpublishing": 4693,
      "nullpointerexception": 4694,
      "qumccyndmsiwf": 4695,
      "xuanfengnet": 4696,
      "noroutetohostexception": 4697,
      "srkodhptqlryvjp": 4698
    },
    "merges": [
      "9 9",
      "99 99",
      "9999 9999",
      "f f",
      "99 9",
      "a r",
      "d e",
      "s e",
      "n o",
      "i n",
      "9999 9",
      "c e",
      "c ar",
      "car d",
      "a t",
      "no de",
      "c h",
      "99999999 99999999",
      "o r",
      "se r",
      "e c",
      "d o",
      ") ,",
      "ff ff",
      "p r",
      "l o",
      "e d",
      "p d",
      "v pd",
      "i p",
      "o n",
      "s s",
      "pr o",
      "ser v",
      "a s",
      "i d",
      "t o",
      "o u",
      "c t",
      "e e",
      "n d",
      "i on",
      "p ar",
      "ffff f",
      "m l",
      "i ce",
      "serv ice",
      "9999999999999999 99999999",
      "s t",
      "de ar",
      "i ar",
      "t h",
      "pro ce",
      "no t",
      "9999 99",
      "e r",
      "in g",
      "ec k",
      "proce ss",
      "ch eck",
      "process or",
      "ec id",
      "s lo",
      "slo t",
      "at ch",
      "s y",
      "c k",
      "ou nd",
      "f ound",
      "m atch",
      "a b",
      "t ed",
      "n e",
      "f or",
      "lo ck",
      "b lock",
      "r e",
      "o f",
      "as k",
      "d at",
      "p e",
      "th e",
      "a d",
      "t ing",
      "b l",
      "sy m",
      "bl k",
      "s h",
      "m ask",
      "ne w",
      "a se",
      "i do",
      "u m",
      "ser ted",
      "ch ip",
      "in to",
      "ab ase",
      "dat abase",
      "in serted",
      "t y",
      "ct ion",
      "par t",
      "n um",
      "u t",
      "pr e",
      "e for",
      "ty pe",
      "999999999999999999999999 999",
      "par efor",
      "pre parefor",
      "preparefor service",
      ") )",
      "m card",
      "ser num",
      "ct n",
      "ml ctn",
      "mcard sernum",
      "m ip",
      "m type",
      "ml p",
      "a ction",
      "w n",
      "do wn",
      "sh ut",
      "shut ting",
      "l e",
      "999999999999999999999999 9999",
      "n t",
      "o m",
      "l i",
      "99999999 999999",
      ". .",
      "m e",
      "t e",
      "e a",
      "c om",
      "a n",
      "b y",
      "t i",
      "9999 999",
      "h k",
      "x y",
      "ss ion",
      "pro xy",
      "i v",
      "b ffff",
      "f e",
      "m a",
      "re ce",
      "rece iv",
      "se ssion",
      "st e",
      "d c",
      "i s",
      "f i",
      "9999999999999999 999",
      "ee ee",
      "node card",
      "at e",
      "a l",
      "fi le",
      "sy ste",
      "syste m",
      "s i",
      "c c",
      "c on",
      "ti me",
      "by te",
      "byte s",
      "er r",
      "e nt",
      "k b",
      "receiv ed",
      "g e",
      "n a",
      "c d",
      "err or",
      "ffff ffff",
      "t r",
      "b a",
      "d d",
      ".. ..",
      "f c",
      "d a",
      "d b",
      "ec t",
      "d f",
      "m i",
      "o o",
      "ec ted",
      "c lo",
      "clo se",
      "f pr",
      "b c",
      "i o",
      "c u",
      "ad d",
      "e x",
      "a c",
      "ed u",
      "b e",
      "9999999999999999 99",
      "a e",
      "serv ed",
      "an s",
      "tr ans",
      "i r",
      "c se",
      "cu hk",
      "o k",
      "b f",
      "at ed",
      "z e",
      "si ze",
      "p s",
      "c io",
      "i l",
      "g h",
      "cio d",
      "f a",
      "de d",
      "b d",
      "r ou",
      "l in",
      "th rou",
      "throu gh",
      "ee e",
      "c f",
      "a nd",
      "ou t",
      "pe n",
      "o pen",
      "c li",
      "eeee eee",
      "cli ent",
      "st ate",
      "b b",
      "h t",
      "file system",
      "er filesystem",
      "c or",
      "ht t",
      "htt ps",
      "c a",
      "na me",
      "se nt",
      "dat a",
      "name system",
      "li fe",
      "life time",
      "lin k",
      "con n",
      "time out",
      "c ate",
      "99999999 99",
      "conn ect",
      "session id",
      "a f",
      "e f",
      "a m",
      "st or",
      "de t",
      "p on",
      "det ected",
      "ex ce",
      "c b",
      "st ar",
      "t er",
      "99999999 99999",
      "link card",
      "u s",
      "re ad",
      "ma in",
      "ma p",
      "v a",
      "do main",
      "re p",
      "a a",
      "r am",
      "oo t",
      "ab le",
      "9999999999999999 9",
      "star ting",
      "ed block",
      "add stor",
      "addstor edblock",
      "e st",
      "f er",
      "rep li",
      "s o",
      "connect ion",
      "th read",
      "com pon",
      "trans fer",
      "data node",
      "repli cate",
      "compon ent",
      "w i",
      "u st",
      "w id",
      "d ir",
      "m p",
      "c l",
      "cor r",
      "cl ust",
      "g ram",
      "f d",
      "pro gram",
      "r oot",
      "e t",
      "ad ded",
      "r om",
      "ck et",
      ".... ....",
      "p t",
      "d s",
      "f rom",
      "trans mi",
      "corr ected",
      "v er",
      "s u",
      "e b",
      "at ion",
      "il able",
      "va ilable",
      "n i",
      "add re",
      "addre ss",
      "h i",
      "wi th",
      "ss ing",
      "clust erfilesystem",
      "ch an",
      "mi ssing",
      "se t",
      "v al",
      "s c",
      "se con",
      "secon ds",
      "dc r",
      "g oo",
      "val id",
      "g o",
      "g l",
      "m in",
      "x ffffffff",
      "ne t",
      "li sh",
      "ab lish",
      "est ablish",
      "m s",
      "in valid",
      "chan ge",
      "u na",
      "una vailable",
      "t ted",
      "transmi tted",
      "o ver",
      "se d",
      "b gl",
      "s r",
      "ter min",
      "e ded",
      "u pd",
      "proce s",
      "st at",
      "or y",
      "proces sed",
      "p ir",
      "w hi",
      "ex pir",
      "close d",
      "so cket",
      "block map",
      "upd ated",
      "exce eded",
      "establish ed",
      "ne go",
      "ti ated",
      "termin ation",
      "expir ing",
      "nego tiated",
      "sr c",
      "serv erfilesystem",
      "ffff ff",
      "dir ect",
      "direct ory",
      "whi ch",
      "- -",
      "p er",
      "h ad",
      "c o",
      "g le",
      "goo gle",
      "c r",
      "q u",
      "99999999 9",
      "su ch",
      "g er",
      "f b",
      "99999999 999",
      "t or",
      "o l",
      "p a",
      "lo n",
      "pt ion",
      "fa il",
      "de st",
      "tor us",
      "h wid",
      "f ee",
      "i ma",
      "lo ad",
      "ima ge",
      "s w",
      "h om",
      "lo g",
      "load ing",
      "cor e",
      "w wid",
      "sc si",
      "stat us",
      "ge n",
      "hom e",
      "r u",
      "ar ge",
      "fail ed",
      "t arge",
      "c al",
      "gen er",
      "n c",
      "v i",
      "exce ption",
      "receiv er",
      "lon ger",
      "w w",
      "te st",
      "te mp",
      "file s",
      "f ea",
      "u p",
      "gener ated",
      "de r",
      "set s",
      "u ser",
      "ffffff fe",
      "m d",
      "con si",
      "in consi",
      "node sets",
      "ste nt",
      "inconsi stent",
      "w or",
      "th is",
      "be ing",
      "i t",
      "co de",
      "a p",
      "do ne",
      "u ni",
      "dd r",
      "in st",
      "in ter",
      "wor k",
      "f u",
      "l r",
      "p ut",
      "serv er",
      "c ou",
      "n f",
      "in put",
      "de le",
      "net work",
      "l d",
      "l s",
      "re qu",
      "cou ld",
      "n b",
      "99999999 9999",
      "al lo",
      "domain s",
      "node s",
      "ru ction",
      "targe ting",
      "inst ruction",
      "allo cate",
      "sw l",
      "allocate block",
      "h w",
      "uni x",
      "ct r",
      "ma nd",
      "l l",
      "p ip",
      "x er",
      "pip e",
      "a ge",
      "99999999 9999999",
      "e de",
      "i c",
      "ff f",
      "com mand",
      "log in",
      "g i",
      "requ est",
      "at ing",
      "ch dir",
      "d dc",
      "in t",
      "........ ........",
      "( /",
      "j a",
      "n al",
      "ff e",
      "- [",
      "o p",
      "receiv ing",
      "ni ff",
      "dele te",
      "s p",
      "ja va",
      "r an",
      "b o",
      "g b",
      "h as",
      "k ee",
      "kee per",
      "i m",
      "fa a",
      "invalid set",
      "s n",
      "pa cket",
      "de o",
      "vi deo",
      "ba id",
      "b er",
      "ar y",
      "-- -",
      "t s",
      "t a",
      "v e",
      "ed faa",
      "google video",
      "b ol",
      "c n",
      "ww w",
      "al le",
      "c md",
      "r and",
      "p l",
      "f cc",
      "cu r",
      "baid u",
      "or um",
      "ba ck",
      "qu orum",
      "ss age",
      "me ssage",
      "temp or",
      "ap ps",
      "back up",
      "e n",
      "f da",
      "se n",
      "fa ce",
      "t ask",
      "ee p",
      "tempor ary",
      "re s",
      "tr ee",
      "goo d",
      "d r",
      "p o",
      "ce c",
      "c ase",
      "s pe",
      "u r",
      "sw eep",
      "case s",
      "b oot",
      "sym bol",
      "c an",
      "mp i",
      "int err",
      "c ac",
      "e s",
      "m o",
      "fu ll",
      "ran k",
      "n ch",
      "inter face",
      "sen der",
      "e v",
      "re transmi",
      "num ber",
      "vi a",
      "ev ent",
      "retransmi ssion",
      "al t",
      "w r",
      "ne l",
      "a nt",
      "h a",
      "i te",
      "m c",
      "o b",
      "si g",
      "c re",
      "cal ls",
      "i al",
      "j ob",
      "m an",
      "r a",
      "z oo",
      "sy nch",
      "bo x",
      "zoo keeper",
      "b w",
      "h u",
      "ff b",
      "ce d",
      "lo w",
      "it s",
      "sig nal",
      "x c",
      "mp its",
      "alle n",
      "bw allen",
      "e fc",
      "f cd",
      "k er",
      "r edu",
      "s ion",
      "s of",
      "t ch",
      "sh o",
      "sc r",
      "m b",
      "ser ial",
      "ip address",
      "re nt",
      "cur rent",
      "serial number",
      "a ct",
      "a li",
      "ff a",
      "as m",
      "stat ic",
      "sp asm",
      "w e",
      "nd ant",
      "sy s",
      "cc c",
      "df s",
      "redu ndant",
      "t x",
      "t al",
      "u bl",
      "de ni",
      "st er",
      "re gi",
      "ad c",
      "mi ssion",
      "per mission",
      "fee a",
      "test cases",
      "fea a",
      "deni ed",
      "regi ster",
      "a der",
      "f ce",
      "k in",
      "m ed",
      "x id",
      "in f",
      "do ubl",
      "cc d",
      "fd fe",
      "pa kin",
      "fu n",
      "ker nel",
      "q q",
      "u re",
      "u pt",
      "clust er",
      "fun ction",
      "c p",
      "i b",
      "s wi",
      "ed s",
      "the ader",
      "lin e",
      "targe t",
      "ddc md",
      "im g",
      "interr upt",
      "sof theader",
      "swi tch",
      "a vailable",
      "ee r",
      "cd n",
      "ta g",
      "pl a",
      "dr op",
      "scr atch",
      "act iv",
      "or t",
      "sy sc",
      "al ls",
      "bgl scratch",
      "drop box",
      "sysc alls",
      "b ff",
      "b ad",
      "c ation",
      "f ol",
      "ed ram",
      "to tal",
      "com p",
      "function al",
      "ib m",
      "m nt",
      "do op",
      "fffff e",
      "mi cr",
      "ha doop",
      "fol low",
      "r ts",
      "me nt",
      "ma x",
      "micr o",
      ". /",
      "b i",
      "b fe",
      "c ce",
      "d u",
      "m id",
      "s na",
      "x a",
      "lo cal",
      "log s",
      "res pon",
      "comp le",
      "i me",
      "j tag",
      "l ce",
      "p sho",
      "per for",
      "lon g",
      "spe lce",
      "can not",
      "we i",
      "inf o",
      "sna psho",
      "snapsho t",
      "e fe",
      "ff c",
      "ad a",
      "pla ne",
      "mid plane",
      ": /",
      "x e",
      "ch e",
      "so l",
      "cre ating",
      "c s",
      "f db",
      "u n",
      "w as",
      "at ure",
      "er ature",
      "ad b",
      "io exception",
      "exce eds",
      "temp erature",
      "inter nal",
      "wr ite",
      "e nd",
      "g ou",
      "h y",
      "m g",
      "u e",
      "il d",
      "so gou",
      "corr ect",
      "mo du",
      "c dc",
      "e ff",
      "p eer",
      "at h",
      "ad f",
      ".. .",
      "micro seconds",
      "modu le",
      "b r",
      "k n",
      "t mp",
      "u b",
      "ch ild",
      "service action",
      "err no",
      "ru n",
      "end serviceaction",
      "correct able",
      "b ee",
      "i ti",
      "p hy",
      "p ath",
      "at temp",
      "re set",
      "li b",
      "cd a",
      "cd f",
      "stor y",
      "hi story",
      "good ing",
      "tx t",
      "a de",
      "l y",
      "p m",
      "v ar",
      "z xid",
      "ff d",
      "b in",
      "b ut",
      "p ort",
      "ed c",
      "re sol",
      "li ck",
      "xy z",
      "dele ting",
      "gi th",
      "resol ve",
      "c de",
      "e ec",
      "f l",
      "h p",
      "u pon",
      "x fffffffe",
      "ec lick",
      "shut down",
      "pt or",
      "ffffff e",
      "fda e",
      "ra ptor",
      "perfor med",
      "hp cc",
      "b u",
      "b fc",
      "s in",
      "v n",
      "cd b",
      "bf b",
      "stor age",
      "us r",
      "sp pm",
      "write block",
      "xyz t",
      "a ec",
      "n sion",
      "w er",
      "x f",
      "as t",
      "te nt",
      "an g",
      "con tent",
      "star t",
      "inter connect",
      "packet respon",
      "rand txt",
      "sin a",
      "packetrespon der",
      "c ad",
      "d n",
      "g n",
      "g lo",
      "m db",
      "con tr",
      "gl v",
      "test s",
      "ddc mdb",
      "ran do",
      "fda f",
      "doubl eclick",
      "activ e",
      "gith ub",
      "contr ol",
      "ddcmdb glv",
      "a ce",
      "d in",
      "d ime",
      "x ce",
      "ff fe",
      "or din",
      "do es",
      "an y",
      "si cal",
      "be long",
      "bf d",
      "co ordin",
      "phy sical",
      "rando m",
      "dime nsion",
      "coordin ate",
      "i ty",
      "s or",
      "t ion",
      "x b",
      "ec c",
      "me m",
      "te n",
      "xce ption",
      "c ab",
      "i k",
      "l ed",
      "s li",
      "pe s",
      "cd d",
      "min i",
      "attemp ting",
      "glo sli",
      "e l",
      "l er",
      "ar e",
      "ce e",
      "or g",
      "as h",
      "as serted",
      "fc b",
      "bf a",
      "gh t",
      "bd ir",
      "ver sion",
      "ve l",
      "fl ash",
      "a pa",
      "b efor",
      "f df",
      "m k",
      "se c",
      "in e",
      "ce b",
      "ce led",
      "ed b",
      "st re",
      "al l",
      "cc b",
      "tr and",
      "........ ....",
      "su cce",
      "can celed",
      "ali gn",
      "bi g",
      "comple tion",
      "wei bo",
      "bee n",
      "sor trand",
      "befor e",
      "b ec",
      "f lo",
      "f dc",
      "m ar",
      "m mi",
      "p j",
      "x ml",
      "de v",
      "ec f",
      "ee a",
      "par ity",
      "re new",
      "com m",
      "ir ed",
      "ef d",
      "su bdir",
      "fail ing",
      "requ ired",
      "stre am",
      "align ment",
      "a cc",
      "b de",
      "b ea",
      "g ent",
      "l ts",
      "s id",
      "car t",
      "par alle",
      "re su",
      "cc f",
      "error s",
      "cr iti",
      "im b",
      "quorum server",
      "quorum peer",
      "po wer",
      "mc cart",
      "follow er",
      "apa che",
      "pj mccart",
      "paralle l",
      "resu lts",
      "criti cal",
      "* *",
      "a ee",
      "p p",
      "y ti",
      "ch ine",
      "ab c",
      "re sh",
      "ma chine",
      "cc a",
      "fc f",
      "ae b",
      "ef b",
      "ol d",
      "en v",
      "ur gent",
      "doubl e",
      "a ea",
      "i st",
      "l atch",
      "n ing",
      "o ff",
      "de c",
      "ffff e",
      "ed f",
      "pro per",
      "ou nt",
      "ab d",
      "ne x",
      "ti es",
      "fe fff",
      "ma il",
      "ba c",
      "so hu",
      "exception s",
      "ap i",
      "po int",
      "follow up",
      "comm uni",
      "proper ties",
      "a ed",
      "b g",
      "b bc",
      "e fa",
      "f bc",
      "h dfs",
      "j s",
      "r ec",
      "v ol",
      "ff ea",
      "ee f",
      "um m",
      "receiv e",
      "con f",
      "da c",
      "ae f",
      "ffffff f",
      "cr ite",
      "ger man",
      "fu nc",
      "................ ........",
      "interrupt s",
      "vn m",
      "crite o",
      "german n",
      "a v",
      "c able",
      "i fi",
      "s ing",
      "ed a",
      "bl e",
      "dc d",
      "ex ist",
      "chan g",
      "co ll",
      "spe nt",
      "interr up",
      "cs dn",
      ": :",
      "b it",
      "c fc",
      "m mc",
      "p ected",
      "u se",
      "u nex",
      "v pes",
      "w h",
      "x d",
      "x ffff",
      "ff aa",
      "ce a",
      "do e",
      "th resh",
      "ab e",
      "le vel",
      "db c",
      "ac b",
      "ca u",
      "co p",
      "user content",
      "ap is",
      "cp md",
      "dev ice",
      "receive block",
      "ifi cation",
      "mmc s",
      "unex pected",
      "thresh old",
      ": -",
      "a h",
      "a ab",
      "c bc",
      "c xid",
      "d ad",
      "f ac",
      "g rep",
      "i j",
      "m ount",
      "n type",
      "o pt",
      "q path",
      "x in",
      "y ah",
      "node exist",
      "ed d",
      "st ab",
      "process ing",
      "re valid",
      "re qpath",
      "bl ue",
      "fi g",
      "con fig",
      "error code",
      "mi rand",
      "il le",
      "af b",
      "dir s",
      "go t",
      "per f",
      "keeper exception",
      "keeper errorcode",
      "cre ate",
      "man hu",
      "tx ntype",
      "flo ating",
      "wh en",
      "yah oo",
      "nodeexist s",
      "revalid ating",
      "mirand a",
      "a ac",
      "b s",
      "e of",
      "e bc",
      "f de",
      "f ec",
      "l ang",
      "m n",
      "m y",
      "ec a",
      "on ment",
      "sy nd",
      "re l",
      "ad s",
      "pre p",
      "li o",
      "ea c",
      "dc c",
      "al er",
      "ba a",
      "ir onment",
      "fd mn",
      "su b",
      "cur i",
      "en able",
      "register s",
      "wei xin",
      "bu g",
      "sina img",
      "succe ss",
      "env ironment",
      "off set",
      "communi cation",
      "bg lio",
      "( )",
      "a fc",
      "a ger",
      "b dc",
      "b cc",
      "b df",
      "c lock",
      "g al",
      "p in",
      "r ce",
      "u x",
      "u be",
      "w a",
      "y in",
      "y out",
      "z hi",
      "de activ",
      "at ar",
      "ou rce",
      "ee b",
      "ne z",
      "me so",
      "ge t",
      "bc b",
      "star ted",
      "read ing",
      "whi le",
      "command s",
      "man ager",
      "mem ory",
      "cau ght",
      "ille gal",
      "sub commands",
      "pin yin",
      "yout ube",
      "deactiv ated",
      "meso s",
      "a cd",
      "c le",
      "c bb",
      "d is",
      "e ed",
      "f ab",
      "f ae",
      "i li",
      "p i",
      "p an",
      "p good",
      "s ram",
      "u lr",
      "x x",
      "y ing",
      "z er",
      "ce nt",
      "ec d",
      "pro ble",
      "to o",
      "ee xception",
      "ty p",
      "an ce",
      "ate s",
      "tr ying",
      "ect ion",
      "ac a",
      "client s",
      "aa a",
      "mp good",
      "stat eexception",
      "google apis",
      "google synd",
      "ic ation",
      "................ ....",
      "ra il",
      "current ly",
      "ik e",
      "vol t",
      "stab ili",
      "manhu a",
      "illegal stateexception",
      "cle ar",
      "ulr ike",
      "googlesynd ication",
      "stabili ty",
      "a fe",
      "a ae",
      "a fa",
      "b eck",
      "b ba",
      "b da",
      "b ffe",
      "c bf",
      "d p",
      "d ing",
      "d ur",
      "e ce",
      "e be",
      "h and",
      "r bs",
      "s le",
      "t w",
      "u o",
      "w ar",
      "y ates",
      "z z",
      "in ni",
      "in iti",
      "or beck",
      "ab a",
      "sh u",
      "um t",
      "te xception",
      "ea e",
      "dc a",
      "oo k",
      "bc ast",
      "ac f",
      "ca che",
      "af d",
      "wi res",
      "go ing",
      "inst ance",
      "im um",
      "cn zz",
      "full y",
      "max imum",
      "respon ding",
      "br o",
      "control ler",
      "ik uo",
      "el ection",
      "yti mg",
      "sing le",
      "dur ing",
      "hand ler",
      "inni ty",
      "d ce",
      "e bd",
      "f an",
      "g p",
      "g r",
      "g static",
      "i a",
      "j ar",
      "l b",
      "m u",
      "s ource",
      "at ic",
      "pr ed",
      "nd m",
      "sh are",
      "te ch",
      "ma pred",
      "be f",
      "be l",
      "ae ger",
      "am bi",
      "sc ip",
      "termin ating",
      "bol t",
      "pl us",
      "dr aeger",
      "ali z",
      "ali cdn",
      "switch controller",
      "comple ted",
      "midplane switchcontroller",
      "ten cent",
      "double max",
      "av atar",
      "config ur",
      "eof exception",
      "zhi hu",
      "pan ic",
      "initi aliz",
      "ambi ent",
      "b be",
      "c nt",
      "e ab",
      "e bf",
      "e sr",
      "f dd",
      "f ps",
      "f bd",
      "f bb",
      "h pl",
      "h alt",
      "h ang",
      "m as",
      "m dc",
      "s umm",
      "w cnt",
      "y an",
      "de e",
      "de bug",
      "ce cc",
      "on i",
      "ss l",
      "pro po",
      "as ser",
      "st a",
      "st r",
      "st eer",
      "ab b",
      "ne ls",
      "li ght",
      ".. /",
      "ea a",
      "iv e",
      "fe f",
      "fe ff",
      "cd ndm",
      "ba e",
      "ex e",
      "lin ux",
      "ca f",
      "ms r",
      "co pro",
      "it ion",
      "gi ge",
      "snapshot ting",
      "run ning",
      "chang yan",
      "zer o",
      "proble m",
      "ulrike y",
      "fps cr",
      "mas ter",
      "mdc ask",
      "summ ary",
      "propo sed",
      "/ /",
      "a w",
      "a le",
      "a me",
      "b ce",
      "b db",
      "c m",
      "c as",
      "c be",
      "c ae",
      "c fa",
      "g q",
      "g gp",
      "l p",
      "l t",
      "n ect",
      "t cp",
      "t rel",
      "v gq",
      "de a",
      "de f",
      "se nd",
      "no n",
      "in fer",
      "ce f",
      "on nect",
      "ss port",
      "block s",
      "nt ime",
      "ti med",
      "cc ce",
      "cc cc",
      "cc cd",
      "fc a",
      "ok en",
      "ter s",
      "ust atic",
      "gram mar",
      "ffffff fc",
      "google usercontent",
      "pa ssport",
      "ru ntime",
      "baid ustatic",
      "mo de",
      "sho ck",
      "adc ast",
      ":/ /",
      "br oken",
      "mem ber",
      "ten max",
      "rec onnect",
      "blue light",
      "war ning",
      "bro adcast",
      "configur ed",
      "initializ ing",
      "ggp ht",
      "tcp conn",
      "trel lo",
      "infer no",
      "grammar ly",
      "/ .",
      "a do",
      "a ad",
      "c fe",
      "c ba",
      "c mc",
      "d de",
      "d fe",
      "d fc",
      "e mp",
      "f ba",
      "h n",
      "h umm",
      "m oni",
      "n io",
      "o g",
      "r st",
      "r is",
      "r fi",
      "s l",
      "t p",
      "w x",
      "w il",
      "y ou",
      "ar ch",
      "de b",
      "de s",
      "se l",
      "ce ce",
      "th er",
      "not ification",
      "ab f",
      "sh er",
      "new s",
      "ido proxy",
      "li am",
      "an al",
      "by interrup",
      "rece ption",
      "dc f",
      "dd a",
      "dd b",
      "fc ac",
      "da o",
      "db properties",
      "io log",
      "add r",
      "ac ce",
      "bd img",
      "ca cc",
      "ver ification",
      "chan nel",
      "chan nels",
      "closed byinterrup",
      "google ads",
      "pa ge",
      "vi car",
      "it c",
      "nf s",
      "ll er",
      "po s",
      "spe eds",
      "xe l",
      "br des",
      "attemp t",
      "succe eded",
      "yti cs",
      "interrup ted",
      "use database",
      "success fully",
      "pi xel",
      "ado be",
      "emp ty",
      "humm er",
      "moni tor",
      "ris boot",
      "rfi sher",
      "wil liam",
      "you dao",
      "anal ytics",
      "closedbyinterrup texception",
      "william s",
      "b ed",
      "b cd",
      "b mi",
      "d ff",
      "d mp",
      "d up",
      "d static",
      "e ba",
      "e wer",
      "f ed",
      "f ad",
      "i e",
      "i ter",
      "j eff",
      "k y",
      "k pt",
      "k nez",
      "l ust",
      "m m",
      "o per",
      "r ed",
      "r ma",
      "t in",
      "u nt",
      "u bad",
      "x l",
      "y dstatic",
      "z ed",
      "ff fc",
      "de vel",
      "se cu",
      "no rma",
      "ce cb",
      "ch kpt",
      "ed ge",
      "sy nc",
      "ab ort",
      "re trying",
      "of dir",
      "me s",
      "me ta",
      "te am",
      "ea f",
      "an typ",
      "ma y",
      "con tin",
      "cd bc",
      "dd d",
      "dd f",
      "da a",
      "mi t",
      "bc f",
      "cf d",
      "ca a",
      "est ed",
      "so ck",
      "upd ate",
      "cr c",
      "fb cdn",
      "vi ewer",
      "user func",
      "ap p",
      "................ .",
      "wr iter",
      "ha ve",
      "man ce",
      "scr ip",
      "perfor mance",
      "github usercontent",
      "............ ...",
      "** **",
      "ffffe ffe",
      "chang ing",
      "aler t",
      "wa it",
      "sle pt",
      "asser t",
      "sta ck",
      "steer ing",
      "sel ect",
      "bmi ller",
      "lust re",
      "oper ation",
      "unt ested",
      "ubad s",
      "ofdir ty",
      "team viewer",
      "antyp as",
      "a use",
      "b dd",
      "b ook",
      "c j",
      "c xx",
      "d i",
      "d l",
      "d bl",
      "f be",
      "f bf",
      "g m",
      "h o",
      "i shu",
      "k u",
      "l ast",
      "o cc",
      "o ba",
      "p ur",
      "s to",
      "s ca",
      "u l",
      "v m",
      "de scrip",
      "se arch",
      "ce dc",
      "ce bc",
      "or ters",
      "as ic",
      "to mand",
      "ee no",
      "service s",
      "part ition",
      "le test",
      "li mit",
      "hk g",
      "fe tch",
      "dc b",
      "fi rst",
      "eeee eeee",
      "cc dc",
      "ge ne",
      "cd fc",
      "da f",
      "da hn",
      "be b",
      "bb b",
      "ca pt",
      "ef db",
      "read y",
      "repli cation",
      "........ .",
      "ds mc",
      "ver s",
      "su pp",
      "set ting",
      "cal tech",
      "inst all",
      "bo ta",
      "ta oba",
      "face book",
      "ur red",
      "hu i",
      "line ar",
      "pla y",
      "comple te",
      "sol vers",
      "un correctable",
      "sogou cdn",
      "bu ber",
      "sina js",
      "blue gene",
      "dis able",
      "gr eeno",
      "bel nez",
      "avatar s",
      "lt on",
      "idoproxy db",
      "acce ss",
      "page ad",
      "ause lton",
      "ishu hui",
      "ku bota",
      "occ urred",
      "sca letest",
      "descrip tor",
      "tomand jeff",
      "capt ure",
      "supp orters",
      "taoba o",
      "= /",
      "a u",
      "b bd",
      "b log",
      "c pro",
      "c ada",
      "d typ",
      "e map",
      "f m",
      "i an",
      "j gh",
      "l com",
      "m tal",
      "p ing",
      "p ic",
      "q b",
      "q box",
      "r ky",
      "s ame",
      "u sh",
      "w in",
      "x ue",
      "y t",
      "ff bc",
      "ff ca",
      "de dc",
      "de ac",
      "no s",
      "at ter",
      "or ted",
      "ffff c",
      "nd y",
      "par e",
      "ab orted",
      "for m",
      "block info",
      "re main",
      "um emap",
      "pre fi",
      "pre fetch",
      "com pare",
      "ti mg",
      "ste ll",
      "cc fc",
      "ge mini",
      "tr i",
      "dd bc",
      ".... ..",
      "da e",
      "add member",
      "ex ec",
      "be n",
      "be nch",
      "bf dc",
      "cio stream",
      "lin es",
      "out s",
      "open ing",
      "ef cd",
      "ef df",
      "stor e",
      "map file",
      "so ds",
      "fd ff",
      "ds k",
      "sc atter",
      "bgl master",
      "qu ant",
      "pa p",
      "pa ck",
      "hom mes",
      "gen vm",
      "cal ing",
      "test qbox",
      "it ten",
      "ap c",
      "inter val",
      "server db",
      "cou nt",
      "pl b",
      "boot genvm",
      "wr itten",
      "ha ck",
      "we lcom",
      "cluster addmember",
      "jtag id",
      "un der",
      "mg r",
      "cdc c",
      "ade c",
      "cde c",
      "fl ush",
      "mini ben",
      "............ .",
      "mar k",
      "parity alignment",
      "mail box",
      "vol umemap",
      "........................ .",
      "ook ie",
      "mu ndy",
      "hang outs",
      "debug ger",
      "feff ed",
      "ther e",
      "notification s",
      "sock s",
      "cj mundy",
      "mtal k",
      "xue shu",
      "prefi x",
      "stell a",
      "bench mark",
      "sods caling",
      "bootgenvm unix",
      "welcom e",
      "a ma",
      "a af",
      "a ffe",
      "c ss",
      "c bd",
      "c ating",
      "c cec",
      "c bfb",
      "d ba",
      "d ni",
      "d ffe",
      "d dec",
      "e ad",
      "e bb",
      "f cec",
      "f low",
      "h m",
      "i mp",
      "i which",
      "i ble",
      "j p",
      "j ul",
      "m ookie",
      "o s",
      "p k",
      "p ch",
      "p wr",
      "r t",
      "r ound",
      "r ta",
      "t un",
      "w eb",
      "x t",
      "x bf",
      "x hpl",
      "y un",
      "ff er",
      "de cd",
      "in complete",
      "ce ec",
      "card sto",
      "ec b",
      "ffff bffe",
      "serv e",
      "serv ing",
      "as sets",
      "nd ing",
      "fffff c",
      "pe nding",
      "ad dc",
      "ad cc",
      "om e",
      "li ve",
      "te xt",
      "an x",
      "fe b",
      "ma j",
      "dc cc",
      "dc fc",
      "al ready",
      "cc cb",
      "cd dc",
      "cd ac",
      "ba f",
      "ba ker",
      "dd dc",
      "fc dc",
      "fc bc",
      "db f",
      "ect or",
      "clo u",
      "ac dc",
      "il l",
      "bd static",
      "lin pack",
      "link error",
      "ef de",
      "ef ea",
      "ef dc",
      "ef cc",
      "ef da",
      "ef bc",
      "so d",
      "fd fc",
      "rom io",
      "expir ed",
      "fb fffffe",
      "gener ating",
      "test ed",
      "test ing",
      "code s",
      "age s",
      "................ ..",
      "................ ...",
      "ber ts",
      "fcc c",
      "dr ive",
      "cac a",
      "full test",
      "ffb ffe",
      "sof t",
      "med ia",
      "bff fe",
      "cs dni",
      "bu ffer",
      "fdf a",
      "............ ..",
      "bea con",
      "pp c",
      "communi cating",
      "........................ ...",
      "xffff c",
      "unexpected ly",
      "fde e",
      "aler ts",
      ".................... .",
      "sle s",
      "bel n",
      "tp c",
      "fad y",
      "contin ue",
      "replication monitor",
      "form at",
      "quant serve",
      "iwhich cardsto",
      "pch ome",
      "pwr off",
      "rta x",
      "tun ed",
      "pending replicationmonitor",
      "berts ch",
      "csdni mg",
      "iwhichcardsto pwroff",
      "/ )",
      "/ ../",
      "= =",
      "a ver",
      "b p",
      "b ab",
      "b is",
      "b ra",
      "c ff",
      "d iv",
      "d cec",
      "d ition",
      "e ver",
      "e fff",
      "e ffa",
      "e we",
      "e ue",
      "e ssl",
      "f g",
      "f p",
      "f ced",
      "f resh",
      "g ge",
      "h ne",
      "i f",
      "i ting",
      "j ect",
      "k map",
      "k it",
      "m ps",
      "o ima",
      "p ub",
      "p ubads",
      "q a",
      "r m",
      "s ma",
      "s content",
      "t c",
      "t va",
      "t able",
      "t ur",
      "t ue",
      "t lb",
      "t addr",
      "u ba",
      "u ve",
      "v t",
      "v x",
      "w s",
      "w ang",
      "x aa",
      "x fffffe",
      "y gi",
      "z on",
      "ff dc",
      "ff ac",
      "ff cb",
      "ar ale",
      "de l",
      "de mo",
      "se s",
      "se ne",
      "ce fc",
      "ce ac",
      "ce bf",
      "ce cf",
      "do ct",
      "lo cation",
      "lo ewe",
      "ed n",
      "on g",
      "as ia",
      "to ol",
      "par md",
      "st ion",
      "st ir",
      "th under",
      "not e",
      "block ed",
      "re starting",
      "re ver",
      "re fresh",
      "ad bc",
      "ad ac",
      "sh ort",
      "ido s",
      "ido chip",
      "ido mar",
      "um p",
      "part ad",
      "pre ssion",
      "type kit",
      "li t",
      "li zed",
      "te l",
      "iv er",
      "bffff ffe",
      "dc dc",
      "dc bc",
      "si c",
      "con so",
      "con dition",
      "ge o",
      "tr a",
      "tr ace",
      ".... .",
      ".... ...",
      "fc de",
      "fc match",
      "da ce",
      "da ec",
      "db g",
      "df a",
      "df cc",
      "df bc",
      "bc a",
      "ex change",
      "ex pression",
      "ac bc",
      "bf ec",
      "il y",
      "fa f",
      "out bra",
      "ca ce",
      "af ly",
      "ef ce",
      "ef ec",
      "ef ed",
      "ef ba",
      "rep ubads",
      "repli cas",
      "ds p",
      "su gge",
      "ni el",
      "ni zed",
      "hi t",
      "hi gh",
      "min us",
      "bgl idochip",
      "socket s",
      "ffffff be",
      "-- >",
      "qu eue",
      "fail ure",
      "gener al",
      "wor d",
      "ll ap",
      "ddc c",
      "sp lit",
      "tree addr",
      "po se",
      "mpi ch",
      "cac f",
      "cac afly",
      "efc a",
      "ali ty",
      "fce a",
      "fce b",
      "cp p",
      "cp u",
      "activ ating",
      "micro soft",
      "du e",
      "cs ar",
      "un able",
      "un rec",
      "kn l",
      "gith uba",
      "content ion",
      "cab c",
      "el and",
      "fdc c",
      "bea p",
      "av d",
      "coll ector",
      "wa iting",
      "get ting",
      "dca che",
      "str ong",
      "aw s",
      "vgq s",
      "vgq sene",
      "og nized",
      "devel f",
      "secu re",
      "secu repubads",
      "norma l",
      "norma lized",
      "stack exchange",
      "ofdirty dbl",
      "ofdirty lines",
      "di ct",
      "ho st",
      "pur pose",
      "access ible",
      "win do",
      "nos dn",
      "testqbox hang",
      "count er",
      "ama zon",
      "yun sic",
      "aver ages",
      "ever note",
      "fg ygi",
      "oima g",
      "taddr iver",
      "arale go",
      "doct or",
      "tool s",
      "rever se",
      "idomar sh",
      "conso le",
      "outbra in",
      "sugge stion",
      "niel sen",
      "unrec ognized",
      "githuba pp",
      "vgqsene s",
      "ofdirtydbl word",
      "amazon aws",
      ") :",
      ") ........................",
      "a g",
      "a y",
      "a il",
      "a cec",
      "a ccc",
      "c i",
      "c v",
      "c id",
      "c adc",
      "c pes",
      "d m",
      "d ab",
      "d fffffe",
      "e p",
      "e as",
      "e ffe",
      "e ffb",
      "e ffc",
      "e edc",
      "f o",
      "f r",
      "f on",
      "f ls",
      "g ate",
      "g ra",
      "g ine",
      "g ive",
      "g vt",
      "h el",
      "i de",
      "i ch",
      "k ne",
      "k dp",
      "l u",
      "l ate",
      "l ac",
      "m f",
      "m er",
      "m ing",
      "m ba",
      "n l",
      "n x",
      "o c",
      "o t",
      "o wn",
      "p u",
      "p as",
      "p th",
      "p ad",
      "p counter",
      "q s",
      "q hi",
      "r ich",
      "s ch",
      "s mi",
      "s cli",
      "s afe",
      "t u",
      "u ation",
      "u es",
      "v atar",
      "w sing",
      "x fffff",
      "x ad",
      "x da",
      "x fa",
      "x bb",
      "y read",
      "ff t",
      "ff de",
      "ff ce",
      "ff cc",
      "ff cd",
      "ff ae",
      "ar en",
      "de de",
      "de cc",
      "de dd",
      "de bc",
      "de ve",
      "de pth",
      "se qu",
      "no sl",
      "in ex",
      "in it",
      "in ity",
      "ce cd",
      "ce dd",
      "ce bd",
      "at ta",
      "at anx",
      "ch ar",
      "ch at",
      "ch am",
      "ch ment",
      "ch own",
      "or der",
      "ffff ca",
      "ffff eb",
      "lo p",
      "lo ne",
      "lo go",
      "ip v",
      "ip le",
      "ss p",
      "pro mp",
      "to war",
      "ou texception",
      "ee ec",
      "nd ir",
      "nd wid",
      "par ame",
      "fffff bfe",
      "service mailbox",
      "st ill",
      "ck pt",
      "ab cc",
      "ab fc",
      "ab bc",
      "ab ac",
      "pe op",
      "ad fc",
      "ad zer",
      "ad nx",
      "pre sta",
      "om me",
      "bffff dfe",
      "fe ffff",
      "fe fe",
      "al lr",
      "si mba",
      "cc bc",
      "cc bf",
      "cc cf",
      "time outexception",
      "byte bug",
      "err str",
      "ge tel",
      "ba ndwid",
      "dd fc",
      "dd ac",
      "fc ff",
      "fc ce",
      "fc be",
      "da cb",
      "db b",
      "db d",
      "db e",
      "db dc",
      "df b",
      "df d",
      "df ed",
      "df ac",
      "df bb",
      "clo sing",
      "io state",
      "ac ac",
      "edu ce",
      "ae fe",
      "bf ea",
      "bf bb",
      "fa ec",
      "cf b",
      "bb de",
      "ca ec",
      "ca cd",
      "ca fc",
      "ca ac",
      "ef ee",
      "ef dd",
      "ef ac",
      "ef be",
      "ef bf",
      "ef bd",
      "ef bb",
      "am d",
      "det ail",
      "cb ea",
      "cb bc",
      "va lone",
      "rep lac",
      "cl aw",
      "fd dc",
      "........ ...",
      "ver if",
      "su p",
      "hi clou",
      "go v",
      "lish i",
      "over flow",
      "bgl a",
      "sr m",
      "proces ses",
      "socket timeoutexception",
      "ffffff fa",
      "per claw",
      "google tag",
      "qu lishi",
      "fb bc",
      "ol ar",
      "pa pi",
      "log user",
      "ru ndir",
      "nc y",
      "temp high",
      "md n",
      "consi der",
      "hw stab",
      "ll nl",
      "................ ................",
      "ja g",
      "sp ec",
      "im pr",
      "fcc d",
      "fcc f",
      "fda a",
      "res ource",
      "symbol s",
      "mc mm",
      "sig n",
      "cre at",
      "ra ck",
      "efc b",
      "efc f",
      "fcd a",
      "fcd b",
      "fcd d",
      "fcd f",
      "redu ce",
      "fce e",
      "fce f",
      "inf inity",
      "cp c",
      "cp m",
      "bff c",
      "bff d",
      "edram s",
      "bi z",
      "bfe b",
      "efe b",
      "efe f",
      "hy perclaw",
      "eff d",
      "br ian",
      "ub mcmm",
      "run s",
      "content rec",
      "gn u",
      "glo b",
      "cab d",
      "cab f",
      "cab ot",
      "bec a",
      "flo pcounter",
      "stream tri",
      "pp ing",
      "fbc a",
      "manhu aren",
      "aler io",
      "enable flush",
      "zhi mg",
      "proble ms",
      ".................... ..",
      ".................... ...",
      "ulrike tests",
      "bro wsing",
      "mu lt",
      "asser tion",
      "str ip",
      "zero bytebug",
      "bdb b",
      "send ing",
      "og s",
      "adobe login",
      "mm stat",
      "contin uation",
      "dbl p",
      "gm t",
      "pur ge",
      "tri er",
      "fdff fdfe",
      "mailbox monitor",
      "maj or",
      "parmd g",
      "stir tur",
      "tra in",
      "windo ws",
      "idomarsh alerio",
      "cid ian",
      "ep streamtri",
      "eas yread",
      "fon ts",
      "gra vatar",
      "kdp ic",
      "late ncy",
      "pas ci",
      "qhi mg",
      "sch olar",
      "smi th",
      "scli ck",
      "safe browsing",
      "deve lop",
      "nosl eep",
      "inex act",
      "atta chment",
      "ffffeb fe",
      "promp t",
      "towar d",
      "parame ters",
      "servicemailbox es",
      "peop le",
      "adzer k",
      "adnx s",
      "omme nd",
      "fefe feff",
      "allr educe",
      "bandwid th",
      "detail ed",
      "replac ing",
      "verif y",
      "hiclou d",
      "loguser info",
      "contentrec ommend",
      "flopcounter s",
      "mult iple",
      "epstreamtri ad",
      "! (",
      ") ...",
      ") .......",
      "* )",
      "= !(",
      "a o",
      "a ff",
      "a adc",
      "a ada",
      "a ffd",
      "a fffffff",
      "b h",
      "b j",
      "b ip",
      "b id",
      "b ase",
      "b an",
      "b bf",
      "b rand",
      "b cec",
      "b adc",
      "b abc",
      "b bac",
      "c at",
      "c si",
      "c gi",
      "c ffffffe",
      "c aeb",
      "c bac",
      "d w",
      "d y",
      "d par",
      "d ffc",
      "d ada",
      "d pm",
      "d abc",
      "d ump",
      "e k",
      "e faa",
      "f adc",
      "f ecc",
      "f abc",
      "f dec",
      "f bac",
      "g s",
      "g t",
      "g u",
      "g ing",
      "g bgl",
      "g un",
      "g ath",
      "g mail",
      "g timg",
      "h pd",
      "h an",
      "h fm",
      "i z",
      "i se",
      "i ss",
      "i ap",
      "i es",
      "i cache",
      "j y",
      "j ni",
      "k e",
      "k k",
      "k dc",
      "k en",
      "k nel",
      "k cdn",
      "l a",
      "l h",
      "l cr",
      "l apa",
      "m de",
      "m ct",
      "m is",
      "m atic",
      "m hfm",
      "n g",
      "n m",
      "n ee",
      "o de",
      "o image",
      "o dr",
      "p v",
      "p ps",
      "p ol",
      "p ll",
      "p ux",
      "q i",
      "q x",
      "q ls",
      "q pic",
      "q rt",
      "q logo",
      "r o",
      "r s",
      "r w",
      "r ss",
      "r ing",
      "r al",
      "r flo",
      "r ther",
      "r fft",
      "s b",
      "s on",
      "s par",
      "s com",
      "s am",
      "s pa",
      "s core",
      "s ort",
      "s ky",
      "s qrt",
      "t z",
      "t at",
      "t ab",
      "t ter",
      "t wi",
      "t ap",
      "t server",
      "t xyz",
      "t dp",
      "t anx",
      "u ch",
      "u al",
      "u edu",
      "u bgl",
      "v r",
      "v ing",
      "v is",
      "w d",
      "w al",
      "w pad",
      "x de",
      "x fc",
      "x db",
      "x ae",
      "x ca",
      "x af",
      "x ef",
      "x ffffff",
      "x fee",
      "x fffffff",
      "x vicar",
      "y x",
      "y ms",
      "y ap",
      "y es",
      "y img",
      "y bp",
      "y uedu",
      "z kcdn",
      "ff ec",
      "ff ee",
      "ff ab",
      "ff ad",
      "ff ba",
      "ff da",
      "ff db",
      "ff add",
      "ff be",
      "ff bf",
      "ff bd",
      "ff cf",
      "ff bb",
      "ff af",
      "ff adc",
      "ff cdf",
      "ff bfb",
      "ff aeb",
      "ff afb",
      "ff tw",
      "ar ed",
      "ar ty",
      "ar ant",
      "ar ily",
      "de ce",
      "de ec",
      "de ed",
      "de fe",
      "de fc",
      "de bf",
      "de cl",
      "de bcc",
      "de normalized",
      "de mde",
      "se ver",
      "se stat",
      "se ille",
      "se ek",
      "no io",
      "no comm",
      "no avatar",
      "no zerobytebug",
      "in te",
      "ce ab",
      "ce da",
      "ce db",
      "ce ca",
      "ce eb",
      "card s",
      "card re",
      "ch mo",
      "ec ce",
      "ec da",
      "ec bc",
      "ec ac",
      "ec dn",
      "ec ise",
      "lo st",
      "ed de",
      "ed ba",
      "ed fc",
      "ed da",
      "ed fa",
      "ed bb",
      "ed ump",
      "ss o",
      "ss um",
      "ss tat",
      "pro ject",
      "to purge",
      "to ken",
      "to uch",
      "ct l",
      "ee bea",
      "ion i",
      "fffff d",
      "service network",
      "st u",
      "th ir",
      "er y",
      "er ist",
      "ck ap",
      "ab ec",
      "ab dc",
      "ab db",
      "ab led",
      "ne te",
      "ne os",
      "for ce",
      "for mi",
      "re open",
      "re sets",
      "re mo",
      "re mer",
      "ad v",
      "ad be",
      "ad sr",
      "ad master",
      "ad services",
      "ad tdp",
      "bl ac",
      "sh ared",
      "new ma",
      "new si",
      "ido trans",
      "ido client",
      "ido ms",
      "pre sent",
      "pre ssing",
      "pre qx",
      "down load",
      "li st",
      "me am",
      "me kn",
      "te nsion",
      "te maj",
      "ea ae",
      "com ms",
      "com ment",
      "an ad",
      "iv ecdn",
      "bffff a",
      "bffff d",
      "fe fffff",
      "fe fc",
      "fe bc",
      "fe bf",
      "fe fab",
      "session timeout",
      "dc dd",
      "dc da",
      "dc ac",
      "dc bf",
      "dc ount",
      "dc ode",
      "fi er",
      "fi el",
      "si temaj",
      "cc ba",
      "cc dd",
      "cc da",
      "con c",
      "con project",
      "err han",
      "ent ial",
      "cd adc",
      "cd fffe",
      "tr c",
      "tr out",
      "tr un",
      "tr app",
      "ba ec",
      "ba ab",
      "ba cc",
      "ba ac",
      "ba ij",
      "ba yms",
      "dd ff",
      "dd md",
      "fc ab",
      "fc fc",
      "fc bf",
      "fc af",
      "fc ffe",
      "fc dcf",
      "da cc",
      "da cd",
      "da fc",
      "da ac",
      "da cf",
      "da ily",
      "db ec",
      "db fc",
      "db bc",
      "db fd",
      "db remer",
      "mi ao",
      "oo la",
      "bc dc",
      "cu s",
      "cu pps",
      "add ing",
      "add this",
      "ex ter",
      "ex tension",
      "ac fc",
      "ac bf",
      "ac bb",
      "be ab",
      "be bd",
      "ae ec",
      "ae fc",
      "bf ed",
      "bf ee",
      "bf ac",
      "bf af",
      "bf dea",
      "ps u",
      "gh dr",
      "fa cc",
      "fa fc",
      "fa fa",
      "ded replication",
      "bd ab",
      "rou te",
      "lin adv",
      "out put",
      "client services",
      "bb ab",
      "cor edump",
      "ca ee",
      "ca us",
      "ca mo",
      "ca pi",
      "af bb",
      "af ter",
      "ef ccb",
      "ef dcd",
      "ef dbc",
      "ef dcb",
      "am anad",
      "cb ec",
      "cb dc",
      "cb cc",
      "cb fc",
      "map files",
      "aa ec",
      "aa cc",
      "aa ac",
      "wi x",
      "wi fi",
      "cl g",
      "fd fffff",
      "fd fffe",
      "rom e",
      "pt login",
      "su ite",
      "eb de",
      "eb ee",
      "eb ea",
      "eb ba",
      "eb da",
      "eb db",
      "ms n",
      "bgl err",
      "bgl code",
      "stat s",
      "ffffff c",
      "per son",
      "google adservices",
      "qu ality",
      "qu ery",
      "fb ab",
      "fb dc",
      "fb cc",
      "fb ba",
      "fb da",
      "ol dcode",
      "pa i",
      "image s",
      "hom me",
      "ru bi",
      "test suite",
      "fea c",
      "fea f",
      "up load",
      "wor dcount",
      "ddr size",
      "work er",
      "fu rther",
      "ls f",
      "allo cation",
      "ctr s",
      "ede a",
      "ede f",
      "ede fb",
      "ic s",
      "................ ............",
      "bo s",
      "sn sl",
      "fcc b",
      "fcc ff",
      "fcc ce",
      "fcc fe",
      "fcc bf",
      "fcc cf",
      "cur ioni",
      "tempor arily",
      "en gine",
      "en abled",
      "sen ee",
      "sen ger",
      "ur l",
      "mo ds",
      "mo bi",
      "wr ating",
      "wr ay",
      "ha o",
      "ob ject",
      "ra i",
      "ffb ff",
      "ffb df",
      "efc fc",
      "efc bc",
      "efc bd",
      "efc fd",
      "fcd bf",
      "sof tw",
      "sho w",
      "sho ts",
      "act erist",
      "ali tu",
      "ffa ec",
      "ffa ed",
      "ffa fa",
      "fce bd",
      "fce cb",
      "qq mail",
      "ddcmd gbgl",
      "img ur",
      "img cache",
      "dropbox api",
      "micro ad",
      "perfor ming",
      "un sign",
      "ue snsl",
      "port mgr",
      "eec c",
      "bu ild",
      "bfc b",
      "dn s",
      "gn ar",
      "sor ter",
      "cab e",
      "are servicenetwork",
      "fcb ea",
      "bdir ect",
      "flo at",
      "mar t",
      "mar seille",
      "acc ount",
      "bde a",
      "bde e",
      "aea c",
      "nex t",
      "bbc a",
      "efa ea",
      "rec v",
      "receive train",
      "av p",
      "exist ing",
      "xffff b",
      "xffff d",
      "ffaa a",
      "cau sed",
      "aab a",
      "grep a",
      "grep b",
      "config file",
      "synd rome",
      "bdc b",
      "bdf a",
      "wa y",
      "cent ral",
      "ia hao",
      "configur ation",
      "oni x",
      "ale media",
      "bce bos",
      "cas alemedia",
      "cfa f",
      "vgq senee",
      "hn edn",
      "og uesnsl",
      "sl f",
      "adobe id",
      "mes senger",
      "stack overflow",
      "sto pping",
      "efdb d",
      "au g",
      "au th",
      "au topurge",
      "fm mods",
      "win err",
      "efdf d",
      "under flow",
      "imp service",
      "pk t",
      "clou df",
      "/../ ../",
      "div ac",
      "div ide",
      "pub s",
      "pub matic",
      "sma ll",
      "tva x",
      "wang wang",
      "vgqs kn",
      "dict app",
      "oimag ec",
      "oimag ea",
      "console ip",
      "console port",
      "ag kn",
      "cv s",
      "fo cus",
      "fr action",
      "gate way",
      "hel lo",
      "oc sp",
      "sequ ential",
      "char acterist",
      "cham onix",
      "order ed",
      "sup pressing",
      "googletag manager",
      "spec ial",
      "impr ecise",
      "creat ivecdn",
      "glob al",
      "gmt dmp",
      "stirtur bdirect",
      "bip arty",
      "bid switch",
      "ban k",
      "dpar ty",
      "gt ms",
      "gu arant",
      "gun nels",
      "gath er",
      "iss ues",
      "kdc l",
      "lapa ck",
      "mis compare",
      "nee dedreplication",
      "oimage b",
      "pol l",
      "qls n",
      "rflo mp",
      "spar ing",
      "scom error",
      "sam rai",
      "spa ce",
      "score cardre",
      "sky pe",
      "tz yx",
      "tab oola",
      "twi tter",
      "tap ad",
      "ual dn",
      "vis us",
      "wal k",
      "decl areservicenetwork",
      "demde x",
      "sever ed",
      "chmo d",
      "sstat s",
      "thir dparty",
      "ckap fer",
      "nete ase",
      "neos mart",
      "remo ving",
      "adsr vr",
      "blac s",
      "newma ps",
      "newsi mg",
      "idotrans portmgr",
      "idoclient mgr",
      "mekn ed",
      "fiel ds",
      "sitemaj i",
      "trout er",
      "trun cate",
      "baij iahao",
      "bayms gr",
      "daily update",
      "miao pai",
      "exter nal",
      "caus ing",
      "person ality",
      "rubi conproject",
      "mobi le",
      "softw are",
      "alitu i",
      "ddcmdgbgl v",
      "unsign ed",
      "marseille bgl",
      "account s",
      "characterist ics",
      "biparty z",
      "guarant eed",
      "neededreplication s",
      "scorecardre search",
      "declareservicenetwork characteristics",
      "& )",
      "& ,",
      ") '",
      ") ...........................",
      ") ......................",
      ") .......................",
      "* ,",
      "* &)",
      "- >",
      "/ ./",
      "= <",
      "? /",
      "a k",
      "a ss",
      "a ut",
      "a ded",
      "a eee",
      "a im",
      "a ve",
      "a cda",
      "a edc",
      "a vn",
      "a cdd",
      "a fcb",
      "a eea",
      "a gent",
      "a abc",
      "a ffaa",
      "a ux",
      "b t",
      "b x",
      "b z",
      "b ar",
      "b atch",
      "b us",
      "b fff",
      "b ffb",
      "b its",
      "b cda",
      "b edc",
      "b vn",
      "b ceb",
      "b ccb",
      "b eda",
      "b dbc",
      "b ates",
      "b abb",
      "b abf",
      "b trace",
      "c atch",
      "c add",
      "c fff",
      "c ffa",
      "c adb",
      "c ffea",
      "c ookie",
      "c tools",
      "c wd",
      "d g",
      "d h",
      "d j",
      "d k",
      "d t",
      "d sh",
      "d ge",
      "d na",
      "d tr",
      "d ps",
      "d ram",
      "d ffa",
      "d adc",
      "d adf",
      "d ffd",
      "d fffe",
      "d fcb",
      "d fcf",
      "d abd",
      "d bac",
      "d fffffff",
      "d lb",
      "d abb",
      "d abf",
      "e ffff",
      "e fffff",
      "e add",
      "e ld",
      "e adf",
      "e bfb",
      "e start",
      "e cee",
      "e bfa",
      "e ceb",
      "e edb",
      "e abc",
      "e abd",
      "e baa",
      "e texception",
      "e bae",
      "e ther",
      "f s",
      "f in",
      "f re",
      "f oo",
      "f stat",
      "f test",
      "f edc",
      "f bfb",
      "f tests",
      "f abd",
      "f aef",
      "f baa",
      "f bef",
      "f mm",
      "f sync",
      "f chown",
      "f chmod",
      "f truncate",
      "g d",
      "g in",
      "g ed",
      "g id",
      "g to",
      "g ice",
      "g um",
      "g ma",
      "g cc",
      "g root",
      "g apps",
      "g ame",
      "g ctl",
      "h d",
      "h j",
      "h ar",
      "h id",
      "h res",
      "h static",
      "h pm",
      "i or",
      "i ted",
      "i sh",
      "i le",
      "i fe",
      "i eee",
      "i cb",
      "i wi",
      "i et",
      "i ms",
      "i cal",
      "i cau",
      "i eeec",
      "i hd",
      "j i",
      "j r",
      "j re",
      "j line",
      "j ection",
      "j vm",
      "j fm",
      "j lu",
      "j ng",
      "j dk",
      "k o",
      "k r",
      "k ck",
      "k le",
      "k eb",
      "k test",
      "k ill",
      "k iwi",
      "l g",
      "l n",
      "l lo",
      "l ing",
      "l ti",
      "l stat",
      "l arge",
      "l xf",
      "l are",
      "l chown",
      "l seek",
      "m pd",
      "m on",
      "m bl",
      "m err",
      "m mb",
      "m mu",
      "n h",
      "n p",
      "n u",
      "n ted",
      "n le",
      "n an",
      "n ded",
      "n ms",
      "n gi",
      "n ve",
      "n sclick",
      "o id",
      "o ad",
      "o be",
      "o ption",
      "o sign",
      "p h",
      "p z",
      "p or",
      "p id",
      "p ted",
      "p net",
      "p op",
      "p pl",
      "p mo",
      "p ho",
      "p wd",
      "p cookie",
      "q d",
      "q w",
      "q um",
      "q lr",
      "q bw",
      "q du",
      "q hm",
      "q hres",
      "r y",
      "r on",
      "r oc",
      "s a",
      "s do",
      "s all",
      "s ses",
      "s gs",
      "t j",
      "t n",
      "t t",
      "t st",
      "t sh",
      "t mgr",
      "t dt",
      "t mpd",
      "u i",
      "u id",
      "u mask",
      "u an",
      "u gh",
      "u res",
      "u dp",
      "u sync",
      "v ir",
      "v addr",
      "v jp",
      "v buffer",
      "v trace",
      "v oid",
      "w f",
      "w k",
      "w ed",
      "w atch",
      "w an",
      "w pen",
      "w su",
      "w bp",
      "w osign",
      "w tdt",
      "x ff",
      "x ec",
      "x ed",
      "x ing",
      "x ab",
      "x fe",
      "x dc",
      "x cd",
      "x ba",
      "x bc",
      "x ac",
      "x be",
      "x bd",
      "x cb",
      "x fd",
      "x fb",
      "x fff",
      "x dr",
      "x fcd",
      "x bfe",
      "x ffd",
      "x ffffffe",
      "x fffe",
      "x bfa",
      "x afd",
      "x gr",
      "x abb",
      "x fefefeff",
      "x uan",
      "y re",
      "y ur",
      "y ndm",
      "y kle",
      "y vjp",
      "z hstatic",
      "z jfm",
      "z sall",
      "| |",
      "ff eeee",
      "ff fa",
      "ff fd",
      "ff fb",
      "ff cec",
      "ff ced",
      "ff fdfe",
      "ff ada",
      "ff adb",
      "ff adf",
      "ff bfd",
      "ff cee",
      "ff bfa",
      "ff dcd",
      "ff acb",
      "ff dcc",
      "ff baa",
      "ff bcb",
      "ff aca",
      "ff acf",
      "ff bae",
      "ff caf",
      "ff cef",
      "ff abf",
      "ff dda",
      "ff caa",
      "ff bbb",
      "ff baf",
      "ff dbf",
      "ar est",
      "ar gum",
      "de n",
      "de ab",
      "de df",
      "de bd",
      "de bb",
      "de eb",
      "de fb",
      "de eca",
      "de groot",
      "se ti",
      "se cur",
      "se mbl",
      "no p",
      "no pr",
      "no va",
      "no ni",
      "no apc",
      "no route",
      "in k",
      "in form",
      "in count",
      "in jection",
      "ce r",
      "ce si",
      "ce df",
      "ce be",
      "ce bb",
      "ce fd",
      "ce abe",
      "at o",
      "at t",
      "at all",
      "at ive",
      "ch ing",
      "ch cham",
      "or ac",
      "or ies",
      "or estart",
      "ser apis",
      "ec ff",
      "ec de",
      "ec ad",
      "ec fe",
      "ec cc",
      "ec ba",
      "ec ae",
      "ec fa",
      "ec bb",
      "ec af",
      "ec aa",
      "ec mb",
      "ec ccc",
      "ec dca",
      "ec vbuffer",
      "do g",
      "ffff bc",
      "pr iv",
      "lo or",
      "lo ok",
      "lo ader",
      "ed fe",
      "ed dc",
      "ed cc",
      "ed df",
      "ed bc",
      "ed ac",
      "ed ca",
      "ed aa",
      "ed bae",
      "ed bbb",
      "pd ate",
      "pd bg",
      "pd lxf",
      "ip s",
      "on ly",
      "on fp",
      "ss ive",
      "ss ible",
      "pro f",
      "as on",
      "as sembl",
      "id x",
      "id mp",
      "to po",
      "to cdn",
      "to all",
      "to ho",
      "ou ji",
      "ct est",
      "ct ld",
      "ct ips",
      "ee ce",
      "ee ba",
      "ee fc",
      "ee bc",
      "ee ae",
      "ee bf",
      "ee bd",
      "ee bb",
      "nd or",
      "par serapis",
      "ml ink",
      "st and",
      "st un",
      "iar y",
      "th re",
      "ing o",
      "sy mlink",
      "ck time",
      "ab ed",
      "ab ea",
      "ab dd",
      "ab ca",
      "ab ef",
      "ne arest",
      "re add",
      "re served",
      "re name",
      "re nc",
      "re tag",
      "re started",
      "re gctl",
      "re ason",
      "of da",
      "ad ce",
      "ad da",
      "ad fa",
      "ad cb",
      "ad tech",
      "ad ingo",
      "ting yun",
      "bl l",
      "bl as",
      "bl ime",
      "bl ast",
      "sym cd",
      "sh ouji",
      "new mpi",
      "new kernel",
      "new comp",
      "new hack",
      "ase arch",
      "ido udp",
      "um s",
      "part sn",
      "ut ion",
      "ut ime",
      "pre ta",
      "le n",
      "le s",
      "le me",
      "le ader",
      "le av",
      "nt ifi",
      "li cate",
      "li br",
      "me hu",
      "te tsh",
      "ea de",
      "ea ce",
      "ea ec",
      "ea fc",
      "ea ca",
      "ea pp",
      "com mit",
      "an com",
      "by e",
      "ti g",
      "ti mi",
      "ti mer",
      "ti cktime",
      "fe ec",
      "fe ab",
      "fe ad",
      "fe bd",
      "fe ffe",
      "fe fcd",
      "fe eds",
      "fe fcf",
      "fe feb",
      "fe ng",
      "fe fafa",
      "ma cce",
      "ma ke",
      "ma keb",
      "ma llo",
      "ste xception",
      "ste pping",
      "dc u",
      "dc ce",
      "dc cd",
      "dc db",
      "dc df",
      "dc ae",
      "dc bd",
      "dc cf",
      "dc af",
      "dc cb",
      "dc aee",
      "is o",
      "fi eld",
      "nodecard s",
      "al err",
      "system controller",
      "si wf",
      "si xgr",
      "cc r",
      "cc ab",
      "cc db",
      "cc ac",
      "cc be",
      "cc fa",
      "cc bd",
      "cc ca",
      "cc af",
      "cc same",
      "cc yndm",
      "con st",
      "con tig",
      "time s",
      "time ofda",
      "ent ry",
      "ge tr",
      "cd de",
      "cd ce",
      "cd be",
      "cd fbab",
      "tr ap",
      "ba ff",
      "ba fc",
      "ba ae",
      "ba cb",
      "ba eb",
      "dd de",
      "dd ab",
      "dd ad",
      "dd ba",
      "dd dd",
      "dd af",
      "dd abe",
      "fc ba",
      "fc fa",
      "fc ded",
      "fc bd",
      "fc bb",
      "fc fd",
      "fc fff",
      "fc faa",
      "fc fcc",
      "fc fda",
      "fc cec",
      "fc fcd",
      "fc bff",
      "fc bfe",
      "fc fdb",
      "fc ffd",
      "fc lick",
      "fc bfb",
      "fc fcb",
      "fc bfa",
      "fc ceb",
      "fc dec",
      "fc bac",
      "fc dcd",
      "fc cea",
      "fc baa",
      "fc dca",
      "fc deb",
      "fc bcf",
      "fc dcb",
      "fc beb",
      "fc bbb",
      "da ea",
      "da af",
      "da fdc",
      "da abd",
      "da abe",
      "da fca",
      "db de",
      "db ea",
      "db cc",
      "db dd",
      "db sr",
      "db cr",
      "df de",
      "df ec",
      "df dc",
      "df ae",
      "df bf",
      "df dac",
      "df afa",
      "mi b",
      "mi ra",
      "bc ab",
      "bc fc",
      "bc bc",
      "bc ac",
      "bc be",
      "bc bf",
      "bc aa",
      "ex it",
      "ex ited",
      "ac fa",
      "ac bd",
      "ac af",
      "ac cec",
      "be ad",
      "be ba",
      "be bc",
      "be be",
      "be bf",
      "be bb",
      "be fb",
      "be fcc",
      "be bfdc",
      "be gin",
      "ae de",
      "ae be",
      "ae bf",
      "ae bd",
      "ae bb",
      "ae fee",
      "ae ffa",
      "ae edf",
      "ir q",
      "ir ector",
      "bf de",
      "bf ab",
      "bf cc",
      "bf da",
      "bf bf",
      "bf aa",
      "bf dac",
      "bf baf",
      "bf cefc",
      "ps g",
      "cio db",
      "il t",
      "il er",
      "il iary",
      "fa de",
      "fa ee",
      "fa ad",
      "fa ecd",
      "fa edbae",
      "bd de",
      "bd fe",
      "bd fc",
      "rou nded",
      "lin fo",
      "cf g",
      "cf de",
      "cf ee",
      "cf bc",
      "cf ecf",
      "cf dddc",
      "cf lu",
      "cf loor",
      "out stand",
      "open x",
      "open jdk",
      "bb ec",
      "bb dc",
      "bb db",
      "bb bb",
      "bb ccf",
      "bb dee",
      "bb adbe",
      "cor por",
      "htt p",
      "ca de",
      "ca ea",
      "ca aa",
      "ca eeb",
      "ca ffee",
      "ca noni",
      "ca ching",
      "conn ected",
      "af de",
      "af cc",
      "af db",
      "af bc",
      "af be",
      "af bd",
      "af abf",
      "af ecda",
      "ef ad",
      "ef ddc",
      "ef ccc",
      "ef ccd",
      "ef bfe",
      "ef adf",
      "ef cda",
      "ef cdf",
      "ef edc",
      "ef bfc",
      "ef bfd",
      "ef edb",
      "ef ecf",
      "ef eea",
      "ef cca",
      "ef eef",
      "ef edd",
      "ef eca",
      "ef dcc",
      "ef baa",
      "ef eeb",
      "ef bcb",
      "ef ecd",
      "ef dca",
      "ef bef",
      "ef eaa",
      "ef dea",
      "ef def",
      "ef cef",
      "ef deb",
      "ef dcf",
      "ef dda",
      "ef ddb",
      "ef ddd",
      "ef ddf",
      "ef daa",
      "ef daf",
      "ef ecb",
      "ef baf",
      "am r",
      "exce ssive",
      "cb de",
      "cb ad",
      "cb ba",
      "cb dd",
      "cb js",
      "cb rt",
      "linkcard s",
      "us age",
      "read v",
      "read block",
      "read link",
      "map ping",
      "aa ee",
      "aa cd",
      "aa fc",
      "aa fa",
      "aa af",
      "aa pp",
      "aa abc",
      "so on",
      "so pt",
      "mp l",
      "mp xl",
      "mp ill",
      "mp leme",
      "cl k",
      "cl ass",
      "corr upt",
      "fd de",
      "fd ffc",
      "fd ffffe",
      "et c",
      "pt arge",
      "pt ance",
      "pt qlr",
      "ds lb",
      "ver bo",
      "su blime",
      "eb ce",
      "eb ed",
      "eb bc",
      "eb bd",
      "eb eee",
      "ni ux",
      "addre sses",
      "val ues",
      "sc ancom",
      "dcr s",
      "valid ate",
      "gl p",
      "min sessiontimeout",
      "net s",
      "net ty",
      "net dna",
      "ms ghdr",
      "ms gto",
      "over able",
      "bgl c",
      "bgl sys",
      "bgl ctl",
      "bgl personality",
      "sr ko",
      "termin ated",
      "ffffff d",
      "ffffff ee",
      "ffffff fb",
      "direct ories",
      "co sy",
      "gle n",
      "cr l",
      "qu iet",
      "qu sixgr",
      "fb de",
      "fb ec",
      "fb cd",
      "fb fc",
      "fb db",
      "fb be",
      "fb bf",
      "fb bae",
      "pa vtrace",
      "fail ures",
      "fee b",
      "fee aa",
      "image plus",
      "log file",
      "log ies",
      "log ical",
      "ru les",
      "gener ic",
      "ww biz",
      "test long",
      "test scrip",
      "fea aa",
      "up mobile",
      "it z",
      "ap h",
      "ap u",
      "ap ac",
      "uni t",
      "uni mpleme",
      "inst r",
      "inter exception",
      "ll po",
      "ll seek",
      "xer cesi",
      "ede c",
      "ic bcast",
      "ddc a",
      "ddc b",
      "ddc d",
      "int f",
      "................ ....................",
      "................ .................",
      "................ ...............",
      "................ .............",
      "op timi",
      "sp pmo",
      "im tt",
      "sn an",
      "ta u",
      "ve ndor",
      "cn k",
      "cn cdn",
      "cn vt",
      "cmd line",
      "fcc a",
      "fcc de",
      "fcc ab",
      "fcc cd",
      "fcc ba",
      "fcc dd",
      "fcc df",
      "fcc ac",
      "fcc be",
      "fcc ae",
      "fcc fa",
      "fcc bd",
      "fcc bb",
      "fcc af",
      "fcc aa",
      "fcc fd",
      "fcc fb",
      "back gr",
      "en cer",
      "fda c",
      "fda ea",
      "sen sor",
      "face e",
      "good bye",
      "dr v",
      "po pt",
      "po ssible",
      "cec fc",
      "ur sdo",
      "mpi hpm",
      "cac b",
      "zookeeper server",
      "hu cdn",
      "ffb de",
      "ffb ec",
      "ffb ed",
      "ffb ab",
      "ffb fe",
      "ffb cc",
      "ffb fc",
      "ffb da",
      "ffb db",
      "ffb bc",
      "ffb be",
      "ffb bf",
      "ffb bd",
      "ffb ffbff",
      "efc fe",
      "efc be",
      "efc bb",
      "efc af",
      "efc aa",
      "efc fb",
      "efc bad",
      "fcd ff",
      "fcd ce",
      "fcd ab",
      "fcd fe",
      "fcd dc",
      "fcd dd",
      "fcd db",
      "fcd be",
      "fcd ae",
      "fcd bd",
      "fcd af",
      "fcd aa",
      "fcd fd",
      "mb io",
      "ffa ff",
      "ffa de",
      "ffa ee",
      "ffa ab",
      "ffa ea",
      "ffa fe",
      "ffa cc",
      "ffa fc",
      "ffa ac",
      "ffa ae",
      "ffa af",
      "ubl ish",
      "fce ff",
      "fce ec",
      "fce ed",
      "fce ad",
      "fce fe",
      "fce cc",
      "fce cd",
      "fce da",
      "fce db",
      "fce bc",
      "fce be",
      "fce ae",
      "fce bf",
      "fce bb",
      "fce ca",
      "fce af",
      "fce fd",
      "fce eb",
      "med al",
      "ccd n",
      "fdfe abe",
      "fun ctest",
      "qq web",
      "cp gr",
      "target close",
      "img src",
      "img tn",
      "cdn js",
      "tag r",
      "drop ping",
      "scratch pad",
      "bff ee",
      "bff ea",
      "bff bc",
      "bff ac",
      "bff cf",
      "bff cbf",
      "bff dea",
      "fol d",
      "comp iler",
      "fffffe fe",
      "fffffe fa",
      "micr on",
      "follow ing",
      "max bug",
      "max sessiontimeout",
      "micro loader",
      "cce b",
      "cce ea",
      "cce da",
      "sna preta",
      "xa ed",
      "long ca",
      "long long",
      "efe ff",
      "efe ce",
      "efe ab",
      "efe fe",
      "efe bc",
      "efe bd",
      "efe bb",
      "efe fd",
      "ffc de",
      "ffc bc",
      "ffc ae",
      "ffc bf",
      "ffc bd",
      "ffc bb",
      "xe qusixgr",
      "che mbio",
      "cs m",
      "fdb b",
      "fdb c",
      "fdb df",
      "fdb bf",
      "un link",
      "un pk",
      "internal api",
      "write v",
      "write log",
      "modu lo",
      "cdc a",
      "cdc f",
      "eff ab",
      "eff fe",
      "eff bc",
      "eff bd",
      "eff bb",
      "eff ca",
      "eff ef",
      "eff cb",
      "eff aa",
      "eff fd",
      "br k",
      "run recv",
      "bee b",
      "bee aab",
      "lib visus",
      "ade a",
      "ly jlu",
      "ffd ce",
      "bin d",
      "port ion",
      "cde a",
      "cde e",
      "eec b",
      "fl ag",
      "bu sy",
      "bu ilt",
      "bfc a",
      "bfc f",
      "bfc bd",
      "sin aapp",
      "bfb ec",
      "bfb ab",
      "xf ed",
      "rando macce",
      "control descriptor",
      "control ling",
      "ace f",
      "ace bf",
      "bfd ab",
      "xb be",
      "mem test",
      "mem mon",
      "cab a",
      "mini game",
      "fcb de",
      "fcb ce",
      "fcb ec",
      "fcb ab",
      "fcb ba",
      "fcb dd",
      "fcb df",
      "fdf b",
      "fdf db",
      "fdf df",
      "fdf ac",
      "fdf ae",
      "mk dir",
      "stre itz",
      "all c",
      "all gather",
      "all toall",
      "align ed",
      "bec b",
      "bec d",
      "fdc ff",
      "xml parserapis",
      "efd ff",
      "efd ce",
      "efd ab",
      "efd fe",
      "efd fc",
      "acc ad",
      "bde b",
      "bde c",
      "bde f",
      "bde ce",
      "bde cc",
      "bde ae",
      "bde aa",
      "bde cab",
      "bea c",
      "** *",
      "pp cfloor",
      "fcf ab",
      "fcf be",
      "fcf bf",
      "fcf bd",
      "efb cc",
      "efb cd",
      "efb da",
      "efb bc",
      "efb be",
      "efb bd",
      "old kernel",
      "nex age",
      "bg linfo",
      "bbc b",
      "efa fb",
      "fbc beb",
      "rec overable",
      "ffea eb",
      "........................ ..",
      "interrup ting",
      "cfc a",
      "xd cef",
      "xffff cb",
      "aab b",
      "aab f",
      "cbc a",
      "opt aim",
      "ebc a",
      "fde f",
      "fde ad",
      "fec b",
      "fec fc",
      "sub nets",
      "() '",
      "afc bf",
      "bcc ac",
      "bdf ea",
      "wa ve",
      "get dropbox",
      "get cwd",
      "get gid",
      "get pid",
      "get uid",
      "get timeofda",
      "dis connected",
      "fab f",
      "fab ea",
      "fab dd",
      "fab da",
      "clear port",
      "afe bf",
      "bba e",
      "bba de",
      "bda e",
      "bffe bcbe",
      "initi al",
      "dca af",
      "bcast v",
      "ia o",
      "mu lti",
      "initializ ation",
      "initializ eapp",
      "bbe b",
      "eab f",
      "eab ea",
      "fbb b",
      "hang test",
      "str obe",
      "feff fc",
      "copro c",
      "// /",
      "aw qi",
      "aw renc",
      "ale amr",
      "cbe b",
      "def bf",
      "send packet",
      "send train",
      "send worker",
      "send msgto",
      "non contig",
      "cccc ccc",
      "cccc cccd",
      "tenmax img",
      "trello cdn",
      "sl ave",
      "sl awrenc",
      "sel ftest",
      "news app",
      "acce pted",
      "acce ptance",
      "page s",
      "dff acb",
      "dup licate",
      "jeff greeno",
      "red irector",
      "sock etexception",
      "**** ****",
      "**** ***",
      "cj m",
      "di ff",
      "di ed",
      "di gice",
      "fbf ee",
      "ho t",
      "ul ative",
      "ul len",
      "efdb b",
      "efdb e",
      "yt nh",
      "ffbc a",
      "prefetch ing",
      "prefetch es",
      "timg sa",
      "exec ution",
      "efdf b",
      "quant count",
      "pack ages",
      "flush ing",
      "ama ihd",
      "dba af",
      "imp act",
      "pk i",
      "rt b",
      "xbf aeb",
      "bp net",
      "rm w",
      "rm dir",
      "sma ller",
      "sma ato",
      "tur n",
      "tlb entry",
      "xaa de",
      "xfffffe bc",
      "asia max",
      "refresh es",
      "tra ck",
      "host name",
      "windo wsu",
      "idomarsh alerr",
      "ay oo",
      "dm w",
      "fr ee",
      "hel low",
      "ide ntifi",
      "lu ke",
      "ming xing",
      "pu ll",
      "pu ui",
      "tu al",
      "xfffff dc",
      "xfffff ef",
      "xda abe",
      "xbb hj",
      "sequ encer",
      "order ing",
      "logo s",
      "bbde ba",
      "googletag services",
      "spec ulative",
      "creat ive",
      "purge interval",
      "stirtur bpnet",
      "nosleep yes",
      "nosleep nocomm",
      "verify stu",
      "base line",
      "dw are",
      "dy na",
      "gs lb",
      "iz xequsixgr",
      "jy b",
      "jy lyjlu",
      "kk k",
      "nm jylyjlu",
      "qi hucdn",
      "ro ws",
      "ro cflu",
      "rss gov",
      "xfc ffd",
      "yes zerobytebug",
      "yuedu st",
      "nocomm nosleep",
      "stu dy",
      "idoms g",
      "idoms ghdr",
      "fefab b",
      "trapp ed",
      "trapp ing",
      "ddmd v",
      "fcbf abd",
      "bfee fe",
      "bfaf ec",
      "aaec ab",
      "show xml",
      "recv msghdr",
      "cloudf lare",
      "cloudf ron",
      "gather ing",
      "poll controldescriptor",
      "walk up",
      "mobile m",
      "ak amaihd",
      "aut orestart",
      "aux iliary",
      "bz clk",
      "batch files",
      "catch up",
      "dg test",
      "dh ptqlr",
      "dsh ytnh",
      "dge mm",
      "dtr p",
      "ether net",
      "fin d",
      "fre ed",
      "foo bar",
      "har dware",
      "hid den",
      "ile ged",
      "ife ngi",
      "icb i",
      "icau h",
      "ieeec onfp",
      "jr att",
      "kr com",
      "kiwi hk",
      "ln kck",
      "mmb iz",
      "nu llpo",
      "nle v",
      "nms glen",
      "oad z",
      "ppl v",
      "pho tocdn",
      "qum ccyndm",
      "qbw up",
      "qdu n",
      "roc star",
      "tmpd ir",
      "vir tual",
      "watch dog",
      "wpen gine",
      "wbp ctips",
      "wtdt js",
      "xed cb",
      "xdr pj",
      "xfffe ad",
      "xuan feng",
      "yre xdrpj",
      "yur i",
      "ffeeee fe",
      "fffb ccf",
      "ffdda ff",
      "argum ent",
      "seti timer",
      "secur ity",
      "nopr int",
      "noroute toho",
      "inform ation",
      "atall begin",
      "orac le",
      "priv ileged",
      "look ing",
      "assembl y",
      "topo logies",
      "ctld l",
      "thre aded",
      "readd ir",
      "retag ging",
      "idoudp mgr",
      "leav ing",
      "libr ary",
      "mehu l",
      "tetsh hot",
      "makeb glp",
      "mallo c",
      "ccsame f",
      "getr usage",
      "dddd ddd",
      "mira nova",
      "outstand ing",
      "corpor ation",
      "canoni cal",
      "mpxl c",
      "fdffc be",
      "ptarge tmgr",
      "verbo se",
      "sublime text",
      "niux iao",
      "bglctl pavtrace",
      "srko dhptqlr",
      "wwbiz api",
      "testscrip ts",
      "unimpleme nted",
      "xercesi mpl",
      "optimi x",
      "sppmo pt",
      "backgr ound",
      "ursdo ccdn",
      "ublish ing",
      "functest s",
      "cpgr aph",
      "snapreta incount",
      "unpk g",
      "beeaab ff",
      "flag ging",
      "randomacce ss",
      "gettimeofda y",
      "initializeapp memory",
      "awqi izxequsixgr",
      "sendmsgto debugger",
      "jeffgreeno ugh",
      "digice rt",
      "windowsu pdate",
      "idomarshalerr ecvbuffer",
      "identifi er",
      "luke i",
      "xbbhj xc",
      "nosleepyes comm",
      "verifystu ff",
      "nmjylyjlu ykle",
      "rocflu idmp",
      "cloudfron t",
      "pollcontroldescriptor s",
      "ifengi mg",
      "ieeeconfp ublishing",
      "nullpo interexception",
      "qumccyndm siwf",
      "xuanfeng net",
      "noroutetoho stexception",
      "srkodhptqlr yvjp"
    ]
  }
}