{
  "version": "1.0",
  "truncation": null,
  "padding": null,
  "added_tokens": [
    {
      "id": 0,
      "content": "<pad>",
      "single_word": false,
      "lstrip": false,
      "rstrip": false,
      "normalized": false,
      "special": true
    },
    {
      "id": 1,
      "content": "<unk>",
      "single_word": false,
      "lstrip": false,
      "rstrip": false,
      "normalized": false,
      "special": true
    },
    {
      "id": 2,
      "content": " ",
      "single_word": false,
      "lstrip": false,
      "rstrip": false,
      "normalized": false,
      "special": true
    }
  ],
  "normalizer": {
    "type": "Sequence",
    "normalizers": [
      {
        "type": "NFKC"
      },
      {
        "type": "Lowercase"
      }
    ]
  },
  "pre_tokenizer": {
    "type": "Sequence",
    "pretokenizers": [
      {
        "type": "Whitespace"
      },
      {
        "type": "ByteLevel",
        "add_prefix_space": false,
        "trim_offsets": true,
        "use_regex": true
      }
    ]
  },
  "post_processor": {
    "type": "ByteLevel",
    "add_prefix_space": true,
    "trim_offsets": false,
    "use_regex": true
  },
  "decoder": null,
  "model": {
    "type": "BPE",
    "dropout": null,
    "unk_token": null,
    "continuing_subword_prefix": null,
    "end_of_word_suffix": null,
    "fuse_unk": false,
    "byte_fallback": false,
    "ignore_merges": false,
    "vocab": {
      "<pad>": 0,
      "<unk>": 1,
      " ": 2,
      "!": 3,
      "#": 4,
      "$": 5,
      "(": 6,
      ")": 7,
      "*": 8,
      "+": 9,
      ",": 10,
      "-": 11,
      ".": 12,
      "/": 13,
      "9": 14,
      ":": 15,
      ";": 16,
      "<": 17,
      "=": 18,
      ">": 19,
      "@": 20,
      "[": 21,
      "\\": 22,
      "]": 23,
      "_": 24,
      "a": 25,
      "b": 26,
      "c": 27,
      "d": 28,
      "e": 29,
      "f": 30,
      "g": 31,
      "h": 32,
      "i": 33,
      "j": 34,
      "k": 35,
      "l": 36,
      "m": 37,
      "n": 38,
      "o": 39,
      "p": 40,
      "q": 41,
      "r": 42,
      "s": 43,
      "t": 44,
      "u": 45,
      "v": 46,
      "w": 47,
      "x": 48,
      "y": 49,
      "z": 50,
      "99": 51,
      "9999": 52,
      "999": 53,
      "99999999": 54,
      "ed": 55,
      "se": 56,
      "ro": 57,
      "te": 58,
      "bl": 59,
      "in": 60,
      "on": 61,
      "99999": 62,
      "de": 63,
      "pro": 64,
      "no": 65,
      "re": 66,
      "ck": 67,
      "hk": 68,
      "ce": 69,
      "ti": 70,
      "or": 71,
      "ock": 72,
      "en": 73,
      "xy": 74,
      "proxy": 75,
      "ff": 76,
      "block": 77,
      "er": 78,
      "om": 79,
      "ar": 80,
      "node": 81,
      "si": 82,
      "st": 83,
      "le": 84,
      "th": 85,
      "9999999999999999": 86,
      "cl": 87,
      "blk": 88,
      "me": 89,
      "at": 90,
      "ing": 91,
      "com": 92,
      "ne": 93,
      "cu": 94,
      "ved": 95,
      "sy": 96,
      "ste": 97,
      "ad": 98,
      "edu": 99,
      "to": 100,
      "by": 101,
      "cse": 102,
      "cuhk": 103,
      "ent": 104,
      "an": 105,
      "id": 106,
      "sion": 107,
      "ssion": 108,
      "tes": 109,
      "rece": 110,
      "recei": 111,
      "bytes": 112,
      "session": 113,
      "kb": 114,
      "ch": 115,
      "is": 116,
      "tion": 117,
      "time": 118,
      "ser": 119,
      "9999999999999999999": 120,
      "op": 121,
      "for": 122,
      "con": 123,
      "tt": 124,
      "nt": 125,
      "received": 126,
      "ps": 127,
      "ug": 128,
      "fe": 129,
      "ugh": 130,
      "rough": 131,
      "ter": 132,
      "through": 133,
      "open": 134,
      "syste": 135,
      "system": 136,
      "ma": 137,
      "ou": 138,
      "ile": 139,
      "htt": 140,
      "https": 141,
      "al": 142,
      "clo": 143,
      "ror": 144,
      "error": 145,
      "sta": 146,
      "..": 147,
      "ex": 148,
      "li": 149,
      "file": 150,
      "ge": 151,
      "of": 152,
      "na": 153,
      "nec": 154,
      "connec": 155,
      "ient": 156,
      "ok": 157,
      "ffff": 158,
      "add": 159,
      "inter": 160,
      "ai": 161,
      "ss": 162,
      "up": 163,
      "sent": 164,
      "close": 165,
      "fetime": 166,
      "lifetime": 167,
      "iar": 168,
      "dear": 169,
      "ting": 170,
      "ir": 171,
      "sk": 172,
      "connection": 173,
      "9999999999": 174,
      "client": 175,
      "out": 176,
      "go": 177,
      "999999": 178,
      "filesystem": 179,
      "ted": 180,
      "served": 181,
      "ver": 182,
      "ze": 183,
      "size": 184,
      "ue": 185,
      "pon": 186,
      "timeout": 187,
      "lo": 188,
      "ated": 189,
      "sessionid": 190,
      "9999999": 191,
      "exp": 192,
      "wor": 193,
      "name": 194,
      "expir": 195,
      "wi": 196,
      "state": 197,
      "work": 198,
      "namesystem": 199,
      "val": 200,
      "ail": 201,
      "ble": 202,
      "and": 203,
      "not": 204,
      "sym": 205,
      "ca": 206,
      "ain": 207,
      "ee": 208,
      "dom": 209,
      "domain": 210,
      "od": 211,
      "mask": 212,
      "nd": 213,
      "wh": 214,
      "cess": 215,
      "999999999999999999": 216,
      "server": 217,
      "net": 218,
      "able": 219,
      "et": 220,
      "ww": 221,
      "....": 222,
      "process": 223,
      "compon": 224,
      "component": 225,
      "vail": 226,
      "vailable": 227,
      "og": 228,
      "am": 229,
      "added": 230,
      "ster": 231,
      "min": 232,
      "mp": 233,
      "exce": 234,
      "ot": 235,
      "ni": 236,
      "que": 237,
      "uster": 238,
      "cluster": 239,
      "lin": 240,
      "termin": 241,
      "set": 242,
      "had": 243,
      "ish": 244,
      "chan": 245,
      "link": 246,
      "the": 247,
      "**": 248,
      "ac": 249,
      "stor": 250,
      "blish": 251,
      "esta": 252,
      "hw": 253,
      "establish": 254,
      "goog": 255,
      "google": 256,
      "cted": 257,
      "rup": 258,
      "interrup": 259,
      "clusterfilesystem": 260,
      "with": 261,
      "sock": 262,
      "ba": 263,
      "fro": 264,
      "map": 265,
      "from": 266,
      "ving": 267,
      "socket": 268,
      "as": 269,
      "vi": 270,
      "eded": 271,
      "ms": 272,
      "sr": 273,
      "una": 274,
      "change": 275,
      "ard": 276,
      "serverfilesystem": 277,
      "unavailable": 278,
      "card": 279,
      "edblock": 280,
      "addstor": 281,
      "addstoredblock": 282,
      "exceeded": 283,
      "expiring": 284,
      "dat": 285,
      "sed": 286,
      "read": 287,
      "data": 288,
      "ation": 289,
      "ci": 290,
      "valid": 291,
      "dele": 292,
      "processed": 293,
      "tr": 294,
      "closed": 295,
      "termination": 296,
      "su": 297,
      "tiated": 298,
      "nego": 299,
      "established": 300,
      "negotiated": 301,
      "bo": 302,
      "ich": 303,
      "ev": 304,
      "event": 305,
      "fa": 306,
      "send": 307,
      "invalid": 308,
      "which": 309,
      "network": 310,
      "worker": 311,
      "temp": 312,
      "vp": 313,
      "thread": 314,
      "src": 315,
      "ciod": 316,
      "upd": 317,
      "vpd": 318,
      "age": 319,
      "root": 320,
      "pe": 321,
      "sc": 322,
      "interval": 323,
      "expired": 324,
      "linkerror": 325,
      "tected": 326,
      "detected": 327,
      "blockmap": 328,
      "updated": 329,
      "bd": 330,
      "pa": 331,
      "ans": 332,
      "cate": 333,
      "trans": 334,
      "dest": 335,
      "ask": 336,
      "res": 337,
      "--": 338,
      "reque": 339,
      "request": 340,
      "ld": 341,
      "99999999999999999": 342,
      "fd": 343,
      "wai": 344,
      "hwid": 345,
      "atu": 346,
      "do": 347,
      "ger": 348,
      "mi": 349,
      "df": 350,
      "ning": 351,
      "lon": 352,
      "ram": 353,
      "ffffff": 354,
      "wwid": 355,
      "scsi": 356,
      "tor": 357,
      "ec": 358,
      "mod": 359,
      "tch": 360,
      "ule": 361,
      "comm": 362,
      "module": 363,
      "swi": 364,
      "mess": 365,
      "switch": 366,
      "message": 367,
      "dc": 368,
      "new": 369,
      "while": 370,
      "niff": 371,
      "receiving": 372,
      "connect": 373,
      "cur": 374,
      "command": 375,
      "co": 376,
      "gram": 377,
      "ating": 378,
      "che": 379,
      "longer": 380,
      "delete": 381,
      "waiting": 382,
      "queue": 383,
      "interrupted": 384,
      "cou": 385,
      "invalidset": 386,
      "star": 387,
      "fffff": 388,
      "has": 389,
      "sets": 390,
      "bient": 391,
      "........": 392,
      "ambient": 393,
      "tar": 394,
      "program": 395,
      "could": 396,
      "targe": 397,
      "be": 398,
      "incon": 399,
      "nodesets": 400,
      "siste": 401,
      "inconsiste": 402,
      "inconsistent": 403,
      "ap": 404,
      "fffffffe": 405,
      "rep": 406,
      "rent": 407,
      "respon": 408,
      "current": 409,
      "atch": 410,
      "per": 411,
      "gi": 412,
      "user": 413,
      "uni": 414,
      "repli": 415,
      "cd": 416,
      "face": 417,
      "unix": 418,
      "tic": 419,
      "aving": 420,
      "par": 421,
      "leaving": 422,
      "999999999": 423,
      "datanode": 424,
      "replicate": 425,
      "999999999999": 426,
      "statu": 427,
      "status": 428,
      "interface": 429,
      "via": 430,
      "check": 431,
      "bg": 432,
      "fo": 433,
      "hu": 434,
      "idu": 435,
      "processor": 436,
      "baidu": 437,
      "fou": 438,
      "match": 439,
      "****": 440,
      "dfs": 441,
      "starting": 442,
      "found": 443,
      "ima": 444,
      "md": 445,
      "slo": 446,
      "war": 447,
      "interrupting": 448,
      "sendworker": 449,
      "ecid": 450,
      "image": 451,
      "slot": 452,
      "warning": 453,
      "di": 454,
      "fer": 455,
      "rec": 456,
      "der": 457,
      "www": 458,
      "nodes": 459,
      "domains": 460,
      "targeting": 461,
      "available": 462,
      "un": 463,
      "pack": 464,
      "transfer": 465,
      "bgl": 466,
      "can": 467,
      "sing": 468,
      "cn": 469,
      "mal": 470,
      "cc": 471,
      "ption": 472,
      "ve": 473,
      "part": 474,
      "mg": 475,
      "rmal": 476,
      "normal": 477,
      "transmi": 478,
      "packet": 479,
      "qu": 480,
      "fi": 481,
      "mnt": 482,
      "oop": 483,
      "hadoop": 484,
      "af": 485,
      "ll": 486,
      "ome": 487,
      "load": 488,
      "deleting": 489,
      "fail": 490,
      "sn": 491,
      "responder": 492,
      "rector": 493,
      "packetresponder": 494,
      "home": 495,
      "tted": 496,
      "director": 497,
      "transmitted": 498,
      "directory": 499,
      "deo": 500,
      "terminating": 501,
      "video": 502,
      "alt": 503,
      "failed": 504,
      "ary": 505,
      "faa": 506,
      "spe": 507,
      "edfaa": 508,
      "allo": 509,
      "---": 510,
      "-[": 511,
      "fc": 512,
      "mis": 513,
      "ri": 514,
      "such": 515,
      "loading": 516,
      "missing": 517,
      "static": 518,
      "googlevideo": 519,
      "subd": 520,
      "boot": 521,
      "allocate": 522,
      "subdir": 523,
      "um": 524,
      "allocateblock": 525,
      "tempor": 526,
      "cor": 527,
      "task": 528,
      "exception": 529,
      "temporary": 530,
      "mb": 531,
      "box": 532,
      "quor": 533,
      "fu": 534,
      "bc": 535,
      "dd": 536,
      "dro": 537,
      "full": 538,
      "drop": 539,
      "cal": 540,
      "ty": 541,
      "ub": 542,
      "ede": 543,
      "dropbox": 544,
      "ds": 545,
      "av": 546,
      "ook": 547,
      "run": 548,
      "ur": 549,
      "eds": 550,
      "attemp": 551,
      "cmd": 552,
      "rected": 553,
      "corrected": 554,
      "fan": 555,
      "code": 556,
      "ae": 557,
      "gen": 558,
      "eratu": 559,
      "temperatu": 560,
      "temperature": 561,
      "zook": 562,
      "eeper": 563,
      "zookeeper": 564,
      "back": 565,
      "cannot": 566,
      "rand": 567,
      "secon": 568,
      "nel": 569,
      "log": 570,
      "running": 571,
      "backup": 572,
      "seconds": 573,
      "),": 574,
      "ts": 575,
      "comp": 576,
      "cation": 577,
      "ab": 578,
      "core": 579,
      "gith": 580,
      "gener": 581,
      "bffff": 582,
      "test": 583,
      "speeds": 584,
      "comple": 585,
      "dcr": 586,
      "dou": 587,
      "ip": 588,
      "dow": 589,
      "double": 590,
      "llo": 591,
      "us": 592,
      "ction": 593,
      "over": 594,
      "qq": 595,
      "ress": 596,
      "we": 597,
      "address": 598,
      "interconnect": 599,
      "action": 600,
      "quorum": 601,
      "github": 602,
      "db": 603,
      "ol": 604,
      "sog": 605,
      "down": 606,
      "sogou": 607,
      "io": 608,
      "attempting": 609,
      "nm": 610,
      "po": 611,
      "shu": 612,
      "local": 613,
      "cf": 614,
      "cri": 615,
      "sna": 616,
      "jav": 617,
      "psh": 618,
      "files": 619,
      "gige": 620,
      "snapsh": 621,
      "java": 622,
      "da": 623,
      "confi": 624,
      "config": 625,
      "ick": 626,
      "sp": 627,
      "click": 628,
      "all": 629,
      "cdn": 630,
      "generated": 631,
      "dir": 632,
      "sw": 633,
      "tre": 634,
      "vice": 635,
      "img": 636,
      "eeee": 637,
      "wei": 638,
      "bb": 639,
      "ffe": 640,
      "service": 641,
      "errors": 642,
      "channel": 643,
      "storage": 644,
      "login": 645,
      "llow": 646,
      "configur": 647,
      "ding": 648,
      "pl": 649,
      "sec": 650,
      "follow": 651,
      "tx": 652,
      "ut": 653,
      "configured": 654,
      "cb": 655,
      "mpi": 656,
      "responding": 657,
      "xid": 658,
      "main": 659,
      "suc": 660,
      "bol": 661,
      "fdfe": 662,
      "was": 663,
      "remain": 664,
      "receiver": 665,
      "resol": 666,
      "................": 667,
      "target": 668,
      "resolve": 669,
      "aa": 670,
      "ddc": 671,
      "kn": 672,
      "led": 673,
      "man": 674,
      "pi": 675,
      "var": 676,
      "99999999999": 677,
      "celed": 678,
      "stre": 679,
      "chdir": 680,
      "conte": 681,
      "acce": 682,
      "befo": 683,
      "apps": 684,
      "canceled": 685,
      "fication": 686,
      "ddr": 687,
      "completion": 688,
      "before": 689,
      "gb": 690,
      "it": 691,
      "ml": 692,
      "so": 693,
      "sin": 694,
      "fffffe": 695,
      "snapshot": 696,
      "(/": 697,
      "bf": 698,
      "ele": 699,
      "ib": 700,
      "pted": 701,
      "rts": 702,
      "sh": 703,
      "doubleclick": 704,
      "accepted": 705,
      "election": 706,
      "cre": 707,
      "usr": 708,
      "info": 709,
      "asm": 710,
      "wait": 711,
      "api": 712,
      "nment": 713,
      "spasm": 714,
      "content": 715,
      "ate": 716,
      "put": 717,
      "deni": 718,
      "tting": 719,
      "fdaf": 720,
      "mission": 721,
      "permission": 722,
      "type": 723,
      "swl": 724,
      "tree": 725,
      "ddcmd": 726,
      "denied": 727,
      ":/": 728,
      "tmp": 729,
      "tdown": 730,
      "input": 731,
      "serted": 732,
      "max": 733,
      "torus": 734,
      "start": 735,
      "shutdown": 736,
      "are": 737,
      "ly": 738,
      "999999999999999": 739,
      "ort": 740,
      "9999999999999999999999999999": 741,
      "ali": 742,
      "base": 743,
      "ild": 744,
      "ten": 745,
      "child": 746,
      "lib": 747,
      "ffffffff": 748,
      "clients": 749,
      "path": 750,
      "stream": 751,
      "ct": 752,
      "hp": 753,
      "ta": 754,
      "zz": 755,
      "fffe": 756,
      "ido": 757,
      "version": 758,
      "cnzz": 759,
      "randtx": 760,
      "randtxt": 761,
      "dn": 762,
      "fb": 763,
      "ho": 764,
      "kee": 765,
      "lce": 766,
      "pre": 767,
      "tal": 768,
      "xfffffffe": 769,
      "into": 770,
      "org": 771,
      "syn": 772,
      "chip": 773,
      "pere": 774,
      "fdae": 775,
      "usercontent": 776,
      "spelce": 777,
      "success": 778,
      "keepere": 779,
      "cs": 780,
      "mm": 781,
      "redu": 782,
      "zxid": 783,
      "inserted": 784,
      "reset": 785,
      "ads": 786,
      "ank": 787,
      "ant": 788,
      "database": 789,
      "tical": 790,
      "critical": 791,
      "hpcc": 792,
      "apa": 793,
      "eer": 794,
      "rank": 795,
      "ump": 796,
      "teo": 797,
      "noti": 798,
      "timg": 799,
      "sid": 800,
      "symbol": 801,
      "cast": 802,
      "quorump": 803,
      "quorumserver": 804,
      "criteo": 805,
      "follower": 806,
      "apache": 807,
      "notification": 808,
      "quorumpeer": 809,
      "hi": 810,
      "99999999999999": 811,
      "int": 812,
      "fdb": 813,
      "apis": 814,
      "weibo": 815,
      "ibm": 816,
      "cp": 817,
      "ea": 818,
      "ef": 819,
      "il": 820,
      "ya": 821,
      "inst": 822,
      "renew": 823,
      "nex": 824,
      "completed": 825,
      "dstatic": 826,
      "ls": 827,
      "rap": 828,
      "ydstatic": 829,
      "get": 830,
      "ndant": 831,
      "interrupt": 832,
      "fully": 833,
      "share": 834,
      "redundant": 835,
      "raptor": 836,
      "imb": 837,
      "js": 838,
      "lb": 839,
      "xin": 840,
      "xce": 841,
      "end": 842,
      "sys": 843,
      "sohu": 844,
      "synch": 845,
      "xception": 846,
      "ay": 847,
      "bro": 848,
      "es": 849,
      "oimage": 850,
      "sor": 851,
      "unex": 852,
      "synd": 853,
      "fee": 854,
      "mail": 855,
      "aimg": 856,
      "acti": 857,
      "trand": 858,
      "pected": 859,
      "pare": 860,
      "long": 861,
      "attempt": 862,
      "point": 863,
      "weixin": 864,
      "pipe": 865,
      "sinaimg": 866,
      "successfully": 867,
      "sortrand": 868,
      "unexpected": 869,
      "bw": 870,
      "bffe": 871,
      "flo": 872,
      "gent": 873,
      "gstatic": 874,
      "gnment": 875,
      "hdfs": 876,
      "ication": 877,
      "jar": 878,
      "ker": 879,
      "nal": 880,
      "num": 881,
      "ph": 882,
      "pin": 883,
      "ru": 884,
      "wer": 885,
      "yin": 886,
      "ses": 887,
      "atar": 888,
      "good": 889,
      "googleapis": 890,
      "googlesynd": 891,
      "exceptions": 892,
      "avatar": 893,
      "alignment": 894,
      "pinyin": 895,
      "googlesyndication": 896,
      "bin": 897,
      "med": 898,
      "ytimg": 899,
      "edram": 900,
      "cent": 901,
      "999999999999999999999999999": 902,
      "total": 903,
      "conn": 904,
      "...": 905,
      "ffffe": 906,
      "cases": 907,
      "eee": 908,
      "mini": 909,
      "there": 910,
      "reading": 911,
      "calls": 912,
      "testcases": 913,
      "play": 914,
      "followup": 915,
      "sina": 916,
      "creating": 917,
      "hoo": 918,
      "yahoo": 919,
      "kernel": 920,
      "))": 921,
      "mar": 922,
      "mcard": 923,
      "mtype": 924,
      "wri": 925,
      "ype": 926,
      "zhi": 927,
      "ronment": 928,
      "envi": 929,
      "sysc": 930,
      "ang": 931,
      "sernum": 932,
      "forservice": 933,
      "cont": 934,
      "googleusercontent": 935,
      "mip": 936,
      "curi": 937,
      "............": 938,
      "vel": 939,
      "urgent": 940,
      "ioexception": 941,
      "alls": 942,
      "allen": 943,
      "eeeeeee": 944,
      "mlp": 945,
      "mlct": 946,
      "prepare": 947,
      "csdn": 948,
      "instru": 949,
      "bwallen": 950,
      "mcardsernum": 951,
      "zhihu": 952,
      "environment": 953,
      "syscalls": 954,
      "mlctn": 955,
      "prepareforservice": 956,
      "instruction": 957,
      "cro": 958,
      "eb": 959,
      "eff": 960,
      "fp": 961,
      "ist": 962,
      "kin": 963,
      "pan": 964,
      "ratch": 965,
      "vnm": 966,
      "inni": 967,
      "revalid": 968,
      "sig": 969,
      "ught": 970,
      "exist": 971,
      "cache": 972,
      "caught": 973,
      "scratch": 974,
      "bdimg": 975,
      "pakin": 976,
      "micro": 977,
      "been": 978,
      "bglscratch": 979,
      "doublemax": 980,
      "shutting": 981,
      "bolt": 982,
      "manhu": 983,
      "tencent": 984,
      "floating": 985,
      "write": 986,
      "innity": 987,
      "revalidating": 988,
      ":-": 989,
      "ctor": 990,
      "cxid": 991,
      "gq": 992,
      "ic": 993,
      "mn": 994,
      "otting": 995,
      "pt": 996,
      "port": 997,
      "qpath": 998,
      "rror": 999,
      "ube": 1000,
      "vgq": 1001,
      "you": 1002,
      "yout": 1003,
      "reqpath": 1004,
      "nodeexist": 1005,
      "stat": 1006,
      "level": 1007,
      "nez": 1008,
      "ntype": 1009,
      "got": 1010,
      "eep": 1011,
      "when": 1012,
      "processing": 1013,
      "line": 1014,
      "chang": 1015,
      "fdmn": 1016,
      "perf": 1017,
      "baidustatic": 1018,
      "snapshotting": 1019,
      "dao": 1020,
      "sweep": 1021,
      "trello": 1022,
      "txntype": 1023,
      "create": 1024,
      "keeperexception": 1025,
      "keepererror": 1026,
      "oimagea": 1027,
      "signal": 1028,
      "youdao": 1029,
      "youtube": 1030,
      "nodeexists": 1031,
      "keepererrorcode": 1032,
      "au": 1033,
      "bi": 1034,
      "bcommand": 1035,
      "bcast": 1036,
      "cm": 1037,
      "cop": 1038,
      "ification": 1039,
      "mo": 1040,
      "tp": 1041,
      "tcp": 1042,
      "rol": 1043,
      "regi": 1044,
      "ceeded": 1045,
      "adcast": 1046,
      "bye": 1047,
      "verification": 1048,
      "cas": 1049,
      "ndm": 1050,
      "***": 1051,
      "subcommand": 1052,
      "grammar": 1053,
      "********": 1054,
      "*******": 1055,
      "bglv": 1056,
      "generating": 1057,
      "tested": 1058,
      "succeeded": 1059,
      "broadcast": 1060,
      "goodbye": 1061,
      "control": 1062,
      "panic": 1063,
      "writeblock": 1064,
      "tcpconn": 1065,
      "register": 1066,
      "subcommands": 1067,
      "grammarly": 1068,
      "aw": 1069,
      "bug": 1070,
      "dis": 1071,
      "el": 1072,
      "glo": 1073,
      "hm": 1074,
      "hang": 1075,
      "ie": 1076,
      "red": 1077,
      "rno": 1078,
      "sci": 1079,
      "wx": 1080,
      "xc": 1081,
      "xx": 1082,
      "yan": 1083,
      "ine": 1084,
      "errno": 1085,
      "meso": 1086,
      "ssl": 1087,
      "interrupts": 1088,
      "peer": 1089,
      "german": 1090,
      "ffffffe": 1091,
      "cdndm": 1092,
      "rect": 1093,
      "ubads": 1094,
      "githubusercontent": 1095,
      "power": 1096,
      "ddcmdbglv": 1097,
      "active": 1098,
      "fpr": 1099,
      "changyan": 1100,
      "scip": 1101,
      "mesos": 1102,
      "germann": 1103,
      "ace": 1104,
      "fl": 1105,
      "gg": 1106,
      "imp": 1107,
      "ity": 1108,
      "lu": 1109,
      "mou": 1110,
      "mir": 1111,
      "mtal": 1112,
      "oc": 1113,
      "pp": 1114,
      "page": 1115,
      "sli": 1116,
      "tw": 1117,
      "ytic": 1118,
      "sen": 1119,
      "memb": 1120,
      "anal": 1121,
      "anda": 1122,
      "cau": 1123,
      "exceeds": 1124,
      "bel": 1125,
      "perfor": 1126,
      "rip": 1127,
      "correct": 1128,
      "pos": 1129,
      "plus": 1130,
      "itc": 1131,
      "alicdn": 1132,
      "tenmax": 1133,
      "pht": 1134,
      "manhua": 1135,
      "glosli": 1136,
      "ggpht": 1137,
      "mount": 1138,
      "miranda": 1139,
      "mtalk": 1140,
      "ytics": 1141,
      "member": 1142,
      "analytics": 1143,
      "bad": 1144,
      "but": 1145,
      "bit": 1146,
      "cr": 1147,
      "ever": 1148,
      "efd": 1149,
      "my": 1150,
      "ris": 1151,
      "sle": 1152,
      "xel": 1153,
      "note": 1154,
      "timed": 1155,
      "nodecard": 1156,
      "thres": 1157,
      "any": 1158,
      "lio": 1159,
      "linkcard": 1160,
      "googleads": 1161,
      "update": 1162,
      "bdstatic": 1163,
      "does": 1164,
      "news": 1165,
      "copro": 1166,
      ".........": 1167,
      "belong": 1168,
      "bglio": 1169,
      "untested": 1170,
      "umt": 1171,
      "abort": 1172,
      "tests": 1173,
      "mance": 1174,
      "pixel": 1175,
      "hold": 1176,
      "avatars": 1177,
      "microseconds": 1178,
      "pagead": 1179,
      "performance": 1180,
      "correctable": 1181,
      "evernote": 1182,
      "risboot": 1183,
      "threshold": 1184,
      "./": 1185,
      "bfe": 1186,
      "cpro": 1187,
      "dl": 1188,
      "efc": 1189,
      "gr": 1190,
      "ha": 1191,
      "halt": 1192,
      "knez": 1193,
      "lts": 1194,
      "ob": 1195,
      "ping": 1196,
      "sti": 1197,
      "sca": 1198,
      "und": 1199,
      "vm": 1200,
      "xffffffff": 1201,
      "sene": 1202,
      "secu": 1203,
      "debug": 1204,
      "propo": 1205,
      "resu": 1206,
      "retransmi": 1207,
      "orted": 1208,
      "letest": 1209,
      "receive": 1210,
      "chine": 1211,
      "opt": 1212,
      "machine": 1213,
      "live": 1214,
      "addmember": 1215,
      "ssport": 1216,
      "......": 1217,
      "clusteraddmember": 1218,
      "ash": 1219,
      "passport": 1220,
      "fffffffc": 1221,
      "curred": 1222,
      "bea": 1223,
      "parity": 1224,
      "humm": 1225,
      "aborted": 1226,
      "sogoucdn": 1227,
      "short": 1228,
      "activ": 1229,
      "unexpectedly": 1230,
      "vgqsene": 1231,
      "flash": 1232,
      "occurred": 1233,
      "sender": 1234,
      "scaletest": 1235,
      "proposed": 1236,
      "results": 1237,
      "retransmission": 1238,
      "receiveblock": 1239,
      "hummer": 1240,
      "/.": 1241,
      "=/": 1242,
      "afe": 1243,
      "ama": 1244,
      "cdc": 1245,
      "dr": 1246,
      "dbl": 1247,
      "dmp": 1248,
      "ewer": 1249,
      "fs": 1250,
      "fish": 1251,
      "fun": 1252,
      "gh": 1253,
      "gm": 1254,
      "himg": 1255,
      "hpl": 1256,
      "ia": 1257,
      "jeff": 1258,
      "job": 1259,
      "la": 1260,
      "lle": 1261,
      "ore": 1262,
      "obe": 1263,
      "ostream": 1264,
      "pm": 1265,
      "pubads": 1266,
      "rfish": 1267,
      "sof": 1268,
      "tom": 1269,
      "ul": 1270,
      "ure": 1271,
      "uba": 1272,
      "vol": 1273,
      "xf": 1274,
      "yt": 1275,
      "ying": 1276,
      "zt": 1277,
      "edge": 1278,
      "team": 1279,
      "dev": 1280,
      "cec": 1281,
      "tition": 1282,
      "enable": 1283,
      "xyzt": 1284,
      "blocked": 1285,
      "clou": 1286,
      "adobe": 1287,
      "master": 1288,
      "stack": 1289,
      "gemini": 1290,
      "ofdir": 1291,
      "outs": 1292,
      "andjeff": 1293,
      "minib": 1294,
      "socks": 1295,
      "viewer": 1296,
      "ciostream": 1297,
      "trying": 1298,
      "summ": 1299,
      "book": 1300,
      "scrip": 1301,
      "doctor": 1302,
      "colle": 1303,
      "...........": 1304,
      "app": 1305,
      "facebook": 1306,
      "partition": 1307,
      "dict": 1308,
      "fix": 1309,
      "bootgen": 1310,
      "githuba": 1311,
      "web": 1312,
      "services": 1313,
      "pic": 1314,
      "tag": 1315,
      "fbcdn": 1316,
      "prefix": 1317,
      "sync": 1318,
      "notifications": 1319,
      "phy": 1320,
      "sinajs": 1321,
      "tpc": 1322,
      "hangouts": 1323,
      "lustre": 1324,
      "causing": 1325,
      "vmunix": 1326,
      "beacon": 1327,
      "rfisher": 1328,
      "tomandjeff": 1329,
      "teamviewer": 1330,
      "ofdirty": 1331,
      "miniben": 1332,
      "summary": 1333,
      "collector": 1334,
      "bootgenvmunix": 1335,
      "githubapp": 1336,
      "//": 1337,
      "/..": 1338,
      "affe": 1339,
      "bfffe": 1340,
      "cv": 1341,
      "cxx": 1342,
      "din": 1343,
      "dup": 1344,
      "dsk": 1345,
      "ep": 1346,
      "efe": 1347,
      "fm": 1348,
      "fce": 1349,
      "fcd": 1350,
      "fcc": 1351,
      "fbffff": 1352,
      "hfm": 1353,
      "im": 1354,
      "lt": 1355,
      "lli": 1356,
      "mc": 1357,
      "men": 1358,
      "mook": 1359,
      "mhfm": 1360,
      "oba": 1361,
      "por": 1362,
      "pur": 1363,
      "rce": 1364,
      "rta": 1365,
      "sl": 1366,
      "stion": 1367,
      "sug": 1368,
      "sup": 1369,
      "sclick": 1370,
      "safe": 1371,
      "uhu": 1372,
      "wsing": 1373,
      "xl": 1374,
      "xer": 1375,
      "xue": 1376,
      "zon": 1377,
      "edc": 1378,
      "selt": 1379,
      "tech": 1380,
      "descrip": 1381,
      "proble": 1382,
      "nos": 1383,
      "rel": 1384,
      "hkg": 1385,
      "ordin": 1386,
      "ffbffe": 1387,
      "ering": 1388,
      "sical": 1389,
      "store": 1390,
      "ource": 1391,
      "gestion": 1392,
      "ffffbffe": 1393,
      "willi": 1394,
      "ams": 1395,
      "ishuhu": 1396,
      "mapfile": 1397,
      "assets": 1398,
      "asserted": 1399,
      "tri": 1400,
      "dcd": 1401,
      "coordin": 1402,
      "count": 1403,
      "dimen": 1404,
      "ccc": 1405,
      "ccfc": 1406,
      "aeger": 1407,
      "taoba": 1408,
      "yates": 1409,
      "browsing": 1410,
      "auselt": 1411,
      "aws": 1412,
      "belnez": 1413,
      "have": 1414,
      "still": 1415,
      "vgqsenes": 1416,
      "amazon": 1417,
      "draeger": 1418,
      "function": 1419,
      "cloud": 1420,
      "physical": 1421,
      "fbfffffe": 1422,
      "mookie": 1423,
      "rtax": 1424,
      "suggestion": 1425,
      "safebrowsing": 1426,
      "xueshu": 1427,
      "descriptor": 1428,
      "problem": 1429,
      "williams": 1430,
      "ishuhui": 1431,
      "coordinate": 1432,
      "dimension": 1433,
      "taobao": 1434,
      "auselton": 1435,
      "amazonaws": 1436,
      "ag": 1437,
      "ade": 1438,
      "asi": 1439,
      "ale": 1440,
      "br": 1441,
      "bs": 1442,
      "bffffffe": 1443,
      "cj": 1444,
      "cat": 1445,
      "cid": 1446,
      "cnt": 1447,
      "css": 1448,
      "cdf": 1449,
      "dni": 1450,
      "dri": 1451,
      "eno": 1452,
      "eclick": 1453,
      "fde": 1454,
      "fir": 1455,
      "fly": 1456,
      "gre": 1457,
      "ian": 1458,
      "ji": 1459,
      "lh": 1460,
      "lr": 1461,
      "lish": 1462,
      "mat": 1463,
      "ment": 1464,
      "mps": 1465,
      "nx": 1466,
      "off": 1467,
      "qhimg": 1468,
      "sod": 1469,
      "tv": 1470,
      "tlb": 1471,
      "ui": 1472,
      "ux": 1473,
      "ume": 1474,
      "win": 1475,
      "wang": 1476,
      "wcnt": 1477,
      "xa": 1478,
      "zer": 1479,
      "edn": 1480,
      "setting": 1481,
      "sestat": 1482,
      "round": 1483,
      "proper": 1484,
      "ties": 1485,
      "fffdfe": 1486,
      "blockinfo": 1487,
      "eration": 1488,
      "clg": 1489,
      "stell": 1490,
      "steering": 1491,
      "adc": 1492,
      "adnx": 1493,
      "adzer": 1494,
      "too": 1495,
      "serving": 1496,
      "operation": 1497,
      "format": 1498,
      "conf": 1499,
      "ters": 1500,
      "aling": 1501,
      "stabi": 1502,
      "exec": 1503,
      "exten": 1504,
      "lity": 1505,
      "outbr": 1506,
      "logo": 1507,
      "caca": 1508,
      "acf": 1509,
      "pes": 1510,
      "scaling": 1511,
      "ffffffbe": 1512,
      "started": 1513,
      "beap": 1514,
      "repubads": 1515,
      "replicas": 1516,
      "cdd": 1517,
      "under": 1518,
      "quant": 1519,
      "qulish": 1520,
      "avd": 1521,
      "random": 1522,
      "dows": 1523,
      "spent": 1524,
      "sppm": 1525,
      "allredu": 1526,
      "eeeeeeee": 1527,
      "plb": 1528,
      "aren": 1529,
      "csdni": 1530,
      "mmcs": 1531,
      "install": 1532,
      "media": 1533,
      "ffffeffe": 1534,
      ".............": 1535,
      "microsof": 1536,
      "manhuaren": 1537,
      "big": 1538,
      "disable": 1539,
      "beln": 1540,
      "securepubads": 1541,
      "activating": 1542,
      "last": 1543,
      "volume": 1544,
      "porters": 1545,
      "slf": 1546,
      "supporters": 1547,
      "functional": 1548,
      "cjm": 1549,
      "cidian": 1550,
      "drive": 1551,
      "fdee": 1552,
      "first": 1553,
      "greeno": 1554,
      "offset": 1555,
      "sodscaling": 1556,
      "tva": 1557,
      "windows": 1558,
      "properties": 1559,
      "stella": 1560,
      "adnxs": 1561,
      "adzerk": 1562,
      "stability": 1563,
      "extension": 1564,
      "outbrain": 1565,
      "cacafly": 1566,
      "qulishi": 1567,
      "allreduce": 1568,
      "csdnimg": 1569,
      "microsoft": 1570,
      "volumemap": 1571,
      "ati": 1572,
      "aver": 1573,
      "avp": 1574,
      "bp": 1575,
      "bt": 1576,
      "bu": 1577,
      "ber": 1578,
      "band": 1579,
      "bfa": 1580,
      "bfd": 1581,
      "bmi": 1582,
      "csi": 1583,
      "ctr": 1584,
      "ccd": 1585,
      "ccec": 1586,
      "dm": 1587,
      "dp": 1588,
      "dfe": 1589,
      "dffe": 1590,
      "dfffffe": 1591,
      "dcache": 1592,
      "eo": 1593,
      "emp": 1594,
      "eld": 1595,
      "essl": 1596,
      "fon": 1597,
      "fls": 1598,
      "gp": 1599,
      "gv": 1600,
      "gmail": 1601,
      "gine": 1602,
      "hn": 1603,
      "hy": 1604,
      "ij": 1605,
      "ime": 1606,
      "jp": 1607,
      "jy": 1608,
      "jec": 1609,
      "jul": 1610,
      "jtag": 1611,
      "jag": 1612,
      "kd": 1613,
      "ke": 1614,
      "ki": 1615,
      "kne": 1616,
      "kmap": 1617,
      "lcom": 1618,
      "latch": 1619,
      "mf": 1620,
      "mor": 1621,
      "nc": 1622,
      "ng": 1623,
      "ntion": 1624,
      "os": 1625,
      "pr": 1626,
      "pv": 1627,
      "pch": 1628,
      "pas": 1629,
      "prep": 1630,
      "pub": 1631,
      "qa": 1632,
      "qbox": 1633,
      "qpic": 1634,
      "rich": 1635,
      "sch": 1636,
      "spa": 1637,
      "scontent": 1638,
      "tc": 1639,
      "tue": 1640,
      "tap": 1641,
      "uve": 1642,
      "wn": 1643,
      "wid": 1644,
      "xb": 1645,
      "xd": 1646,
      "xml": 1647,
      "zed": 1648,
      "9999999999999": 1649,
      "sear": 1650,
      "roby": 1651,
      "rong": 1652,
      "tema": 1653,
      "texception": 1654,
      "tebug": 1655,
      "dec": 1656,
      "deactiv": 1657,
      "promp": 1658,
      "nosle": 1659,
      "reci": 1660,
      "engine": 1661,
      "ffc": 1662,
      "fffc": 1663,
      "sible": 1664,
      "simg": 1665,
      "sitema": 1666,
      "strip": 1667,
      "strong": 1668,
      "this": 1669,
      "thunder": 1670,
      "claw": 1671,
      "memor": 1672,
      "atta": 1673,
      "compare": 1674,
      "tool": 1675,
      "anx": 1676,
      "sessiontimeout": 1677,
      "chment": 1678,
      "serve": 1679,
      "ople": 1680,
      "formi": 1681,
      "psu": 1682,
      "fexception": 1683,
      "opening": 1684,
      "closing": 1685,
      "exchange": 1686,
      "ligh": 1687,
      "geo": 1688,
      "addr": 1689,
      "internal": 1690,
      "upload": 1691,
      "zeroby": 1692,
      "word": 1693,
      "cac": 1694,
      "cask": 1695,
      "capt": 1696,
      "odr": 1697,
      "ogs": 1698,
      "ogni": 1699,
      "lines": 1700,
      "acb": 1701,
      "account": 1702,
      "bae": 1703,
      "front": 1704,
      "sockets": 1705,
      "srm": 1706,
      "trace": 1707,
      "temphi": 1708,
      "ages": 1709,
      "people": 1710,
      "resource": 1711,
      "fdaa": 1712,
      "fdfffdfe": 1713,
      "comment": 1714,
      "newsimg": 1715,
      "fffffbfe": 1716,
      "apc": 1717,
      "perclaw": 1718,
      "give": 1719,
      "replication": 1720,
      "mdn": 1721,
      "mdcask": 1722,
      "images": 1723,
      "recogni": 1724,
      "uncorrectable": 1725,
      "unrecogni": 1726,
      "bglmaster": 1727,
      "party": 1728,
      "mgr": 1729,
      "field": 1730,
      "afb": 1731,
      "ller": 1732,
      "failure": 1733,
      "fcmatch": 1734,
      "rike": 1735,
      "ddbc": 1736,
      "dsmc": 1737,
      "logs": 1738,
      "bffffdfe": 1739,
      "testing": 1740,
      "testqbox": 1741,
      "welcom": 1742,
      "olar": 1743,
      "cbfb": 1744,
      ".................": 1745,
      ".........................": 1746,
      "...........................": 1747,
      "contention": 1748,
      "creati": 1749,
      "treeaddr": 1750,
      "mmstat": 1751,
      "cpu": 1752,
      "oimagec": 1753,
      "flow": 1754,
      "contin": 1755,
      "..............": 1756,
      "...............": 1757,
      "vgqs": 1758,
      "stats": 1759,
      "auto": 1760,
      "registers": 1761,
      "impreci": 1762,
      "ppc": 1763,
      "sles": 1764,
      "gravatar": 1765,
      "undy": 1766,
      "secure": 1767,
      "cdcc": 1768,
      "dblp": 1769,
      "dblword": 1770,
      "ulrike": 1771,
      "stackexchange": 1772,
      "ofdirtylines": 1773,
      "ofdirtydblword": 1774,
      "/../": 1775,
      "purge": 1776,
      "nosdn": 1777,
      "trier": 1778,
      "cloudfront": 1779,
      "asia": 1780,
      "quantserve": 1781,
      "cjmundy": 1782,
      "averages": 1783,
      "bandwid": 1784,
      "bmiller": 1785,
      "eofexception": 1786,
      "empty": 1787,
      "fonts": 1788,
      "gvt": 1789,
      "hyperclaw": 1790,
      "ject": 1791,
      "pchome": 1792,
      "pasci": 1793,
      "scholar": 1794,
      "space": 1795,
      "tapad": 1796,
      "search": 1797,
      "deactivated": 1798,
      "prompt": 1799,
      "nosleep": 1800,
      "sitemaji": 1801,
      "memory": 1802,
      "attachment": 1803,
      "tools": 1804,
      "light": 1805,
      "zerobytebug": 1806,
      "capture": 1807,
      "accounts": 1808,
      "temphigh": 1809,
      "unrecognized": 1810,
      "testqboxhang": 1811,
      "welcome": 1812,
      "imprecise": 1813,
      "bandwidth": 1814,
      "ase": 1815,
      "ane": 1816,
      "aop": 1817,
      "ass": 1818,
      "aee": 1819,
      "aac": 1820,
      "ager": 1821,
      "abase": 1822,
      "agent": 1823,
      "bh": 1824,
      "ben": 1825,
      "bile": 1826,
      "bot": 1827,
      "bfc": 1828,
      "bri": 1829,
      "chk": 1830,
      "cce": 1831,
      "cca": 1832,
      "cfd": 1833,
      "cbe": 1834,
      "catch": 1835,
      "cbc": 1836,
      "cedc": 1837,
      "cpes": 1838,
      "dail": 1839,
      "dpm": 1840,
      "ddec": 1841,
      "dparty": 1842,
      "ebd": 1843,
      "efb": 1844,
      "fin": 1845,
      "fclick": 1846,
      "fbb": 1847,
      "gn": 1848,
      "gt": 1849,
      "gu": 1850,
      "gun": 1851,
      "gate": 1852,
      "gtimg": 1853,
      "hne": 1854,
      "if": 1855,
      "iz": 1856,
      "icon": 1857,
      "itor": 1858,
      "ily": 1859,
      "jline": 1860,
      "jlu": 1861,
      "kr": 1862,
      "ky": 1863,
      "ken": 1864,
      "kle": 1865,
      "knel": 1866,
      "kit": 1867,
      "ler": 1868,
      "late": 1869,
      "lcr": 1870,
      "mk": 1871,
      "mon": 1872,
      "mde": 1873,
      "mid": 1874,
      "mba": 1875,
      "mmi": 1876,
      "nfs": 1877,
      "old": 1878,
      "pu": 1879,
      "pen": 1880,
      "pad": 1881,
      "pco": 1882,
      "ppl": 1883,
      "pgood": 1884,
      "qd": 1885,
      "qi": 1886,
      "qs": 1887,
      "qbw": 1888,
      "qlogo": 1889,
      "rm": 1890,
      "rt": 1891,
      "rst": 1892,
      "ral": 1893,
      "rail": 1894,
      "rans": 1895,
      "rating": 1896,
      "rub": 1897,
      "rfl": 1898,
      "rky": 1899,
      "smal": 1900,
      "ssen": 1901,
      "source": 1902,
      "ssible": 1903,
      "sstats": 1904,
      "tz": 1905,
      "tter": 1906,
      "twi": 1907,
      "tserver": 1908,
      "tun": 1909,
      "tdp": 1910,
      "uedu": 1911,
      "uch": 1912,
      "ual": 1913,
      "used": 1914,
      "vx": 1915,
      "vec": 1916,
      "way": 1917,
      "wpad": 1918,
      "wrating": 1919,
      "xhpl": 1920,
      "yx": 1921,
      "yms": 1922,
      "yun": 1923,
      "yes": 1924,
      "yupdate": 1925,
      "ybp": 1926,
      "ykle": 1927,
      "yuedu": 1928,
      "zhimg": 1929,
      "edf": 1930,
      "sele": 1931,
      "sever": 1932,
      "sequ": 1933,
      "securi": 1934,
      "teed": 1935,
      "tease": 1936,
      "blue": 1937,
      "blog": 1938,
      "infer": 1939,
      "infin": 1940,
      "del": 1941,
      "device": 1942,
      "devel": 1943,
      "demo": 1944,
      "demde": 1945,
      "project": 1946,
      "nocomm": 1947,
      "noio": 1948,
      "noavatar": 1949,
      "nozerobytebug": 1950,
      "recomm": 1951,
      "reconnect": 1952,
      "requ": 1953,
      "retrying": 1954,
      "ckpt": 1955,
      "cesi": 1956,
      "ceec": 1957,
      "tial": 1958,
      "ential": 1959,
      "ffa": 1960,
      "ffb": 1961,
      "fff": 1962,
      "fftw": 1963,
      "blocks": 1964,
      "omp": 1965,
      "ared": 1966,
      "aran": 1967,
      "arale": 1968,
      "arily": 1969,
      "simba": 1970,
      "lel": 1971,
      "thir": 1972,
      "clock": 1973,
      "class": 1974,
      "meta": 1975,
      "messen": 1976,
      "atanx": 1977,
      "atabase": 1978,
      "nett": 1979,
      "netease": 1980,
      "cus": 1981,
      "syread": 1982,
      "adf": 1983,
      "adcc": 1984,
      "admaster": 1985,
      "adservices": 1986,
      "adtdp": 1987,
      "touch": 1988,
      "byinterrup": 1989,
      "anad": 1990,
      "idot": 1991,
      "chat": 1992,
      "chmar": 1993,
      "sert": 1994,
      "serapis": 1995,
      "conso": 1996,
      "psg": 1997,
      "fetch": 1998,
      "maps": 1999,
      "alit": 2000,
      "allel": 2001,
      "exe": 2002,
      "okie": 2003,
      "addthis": 2004,
      "sso": 2005,
      "ssp": 2006,
      "ssum": 2007,
      "tingyun": 2008,
      "ired": 2009,
      "skn": 2010,
      "skype": 2011,
      "clientservices": 2012,
      "location": 2013,
      "wix": 2014,
      "wifi": 2015,
      "capi": 2016,
      "camo": 2017,
      "cabot": 2018,
      "ndir": 2019,
      "etc": 2020,
      ".....": 2021,
      "amanad": 2022,
      "mpl": 2023,
      "mpgood": 2024,
      "nio": 2025,
      "linpack": 2026,
      "linux": 2027,
      "acc": 2028,
      "act": 2029,
      "story": 2030,
      "googletag": 2031,
      "googleadservices": 2032,
      "bayms": 2033,
      "mapfiles": 2034,
      "mapred": 2035,
      "assert": 2036,
      "trc": 2037,
      "closedbyinterrup": 2038,
      "bool": 2039,
      "fae": 2040,
      "bdc": 2041,
      "fdfffe": 2042,
      "mit": 2043,
      "miaop": 2044,
      "fffffff": 2045,
      "fffffffa": 2046,
      "newmaps": 2047,
      "cdac": 2048,
      "cddc": 2049,
      "cdbc": 2050,
      "parserapis": 2051,
      "parallel": 2052,
      "focus": 2053,
      "quali": 2054,
      "llap": 2055,
      "allocation": 2056,
      "temporarily": 2057,
      "dddc": 2058,
      "fulltest": 2059,
      "caltech": 2060,
      "ubmc": 2061,
      "dropboxapi": 2062,
      "dsp": 2063,
      "dslb": 2064,
      "url": 2065,
      "codes": 2066,
      "nels": 2067,
      "ipv": 2068,
      "overflow": 2069,
      "qqmail": 2070,
      "dbproperties": 2071,
      "download": 2072,
      "iolog": 2073,
      "nmjy": 2074,
      "pose": 2075,
      "imgcache": 2076,
      "serviceaction": 2077,
      "channels": 2078,
      "configuration": 2079,
      "dingreplication": 2080,
      "plane": 2081,
      "..................": 2082,
      "...................": 2083,
      "............................": 2084,
      "......................": 2085,
      "aaa": 2086,
      "knl": 2087,
      "manager": 2088,
      "accessible": 2089,
      "sho": 2090,
      "shared": 2091,
      "contentrecomm": 2092,
      "typekit": 2093,
      "maxsessiontimeout": 2094,
      "lyjlu": 2095,
      "streamtri": 2096,
      "tabool": 2097,
      "dns": 2098,
      "presta": 2099,
      "hicloud": 2100,
      "history": 2101,
      "cpc": 2102,
      "cpm": 2103,
      "easyread": 2104,
      "next": 2105,
      "getdropbox": 2106,
      "endserviceaction": 2107,
      "oimageb": 2108,
      "number": 2109,
      "rundir": 2110,
      "central": 2111,
      "ptlogin": 2112,
      "portmgr": 2113,
      "vgqskn": 2114,
      "changing": 2115,
      "auth": 2116,
      "biz": 2117,
      "mode": 2118,
      "mobile": 2119,
      "casale": 2120,
      "eland": 2121,
      "impservice": 2122,
      "ocsp": 2123,
      "caused": 2124,
      "tenmaximg": 2125,
      "efdf": 2126,
      "slept": 2127,
      "debugger": 2128,
      "vgqsenee": 2129,
      "gmt": 2130,
      "lapack": 2131,
      "volt": 2132,
      "adobelogin": 2133,
      "stackoverflow": 2134,
      "dictapp": 2135,
      "/../../": 2136,
      "cvs": 2137,
      "epstreamtri": 2138,
      "fcea": 2139,
      "imtt": 2140,
      "purpose": 2141,
      "xercesi": 2142,
      "cdfc": 2143,
      "wangwang": 2144,
      "logos": 2145,
      "tvax": 2146,
      "hnedn": 2147,
      "kdcl": 2148,
      "ncy": 2149,
      "pubs": 2150,
      "xmlparserapis": 2151,
      "fields": 2152,
      "creativec": 2153,
      "continue": 2154,
      "autopurge": 2155,
      "ulrikey": 2156,
      "benchmar": 2157,
      "brian": 2158,
      "chkpt": 2159,
      "catchup": 2160,
      "dailyupdate": 2161,
      "gnar": 2162,
      "gtms": 2163,
      "guaran": 2164,
      "gunnels": 2165,
      "gateway": 2166,
      "iconproject": 2167,
      "krcom": 2168,
      "latency": 2169,
      "monitor": 2170,
      "midplane": 2171,
      "puui": 2172,
      "pendingreplication": 2173,
      "pcookie": 2174,
      "pplv": 2175,
      "qbwup": 2176,
      "ransportmgr": 2177,
      "rubiconproject": 2178,
      "rflomp": 2179,
      "tzyx": 2180,
      "twitter": 2181,
      "tuned": 2182,
      "ualdn": 2183,
      "usedatabase": 2184,
      "select": 2185,
      "severed": 2186,
      "sequential": 2187,
      "security": 2188,
      "bluelight": 2189,
      "inferno": 2190,
      "infinity": 2191,
      "develop": 2192,
      "demdex": 2193,
      "required": 2194,
      "aralego": 2195,
      "thirdparty": 2196,
      "messenger": 2197,
      "netty": 2198,
      "idotransportmgr": 2199,
      "console": 2200,
      "alitui": 2201,
      "baymsgr": 2202,
      "closedbyinterruptexception": 2203,
      "miaopai": 2204,
      "quality": 2205,
      "ubmcmm": 2206,
      "nmjylyjlu": 2207,
      "contentrecommend": 2208,
      "taboola": 2209,
      "casalemedia": 2210,
      "epstreamtriad": 2211,
      "xercesimpl": 2212,
      "creativecdn": 2213,
      "benchmark": 2214,
      "guaranteed": 2215,
      "pendingreplicationmonitor": 2216,
      "nmjylyjluykle": 2217,
      ")...": 2218,
      ")...........................": 2219,
      "*)": 2220,
      "*,": 2221,
      "/)": 2222,
      "/./": 2223,
      "::": 2224,
      "=<": 2225,
      "ak": 2226,
      "abl": 2227,
      "aff": 2228,
      "ath": 2229,
      "ame": 2230,
      "aca": 2231,
      "aec": 2232,
      "ader": 2233,
      "abc": 2234,
      "aab": 2235,
      "aadc": 2236,
      "bj": 2237,
      "bv": 2238,
      "bx": 2239,
      "bz": 2240,
      "bce": 2241,
      "bid": 2242,
      "bai": 2243,
      "bec": 2244,
      "bbe": 2245,
      "bcc": 2246,
      "bbc": 2247,
      "bub": 2248,
      "brand": 2249,
      "bus": 2250,
      "bank": 2251,
      "bacb": 2252,
      "cde": 2253,
      "cti": 2254,
      "cle": 2255,
      "cfe": 2256,
      "cstar": 2257,
      "cgi": 2258,
      "ccdn": 2259,
      "cdec": 2260,
      "cbdc": 2261,
      "dj": 2262,
      "dk": 2263,
      "dt": 2264,
      "dw": 2265,
      "ded": 2266,
      "don": 2267,
      "dad": 2268,
      "dps": 2269,
      "due": 2270,
      "dtr": 2271,
      "dfa": 2272,
      "dbd": 2273,
      "ddf": 2274,
      "dbg": 2275,
      "daf": 2276,
      "dur": 2277,
      "dae": 2278,
      "dab": 2279,
      "dedc": 2280,
      "dadc": 2281,
      "dacf": 2282,
      "dacc": 2283,
      "ek": 2284,
      "eed": 2285,
      "eof": 2286,
      "eba": 2287,
      "equ": 2288,
      "eaf": 2289,
      "effe": 2290,
      "ellow": 2291,
      "eaa": 2292,
      "ebf": 2293,
      "eedc": 2294,
      "ecac": 2295,
      "fr": 2296,
      "fre": 2297,
      "fad": 2298,
      "fca": 2299,
      "fac": 2300,
      "fres": 2301,
      "fbc": 2302,
      "fmm": 2303,
      "gd": 2304,
      "gs": 2305,
      "ged": 2306,
      "gma": 2307,
      "gal": 2308,
      "gbglv": 2309,
      "ground": 2310,
      "gath": 2311,
      "hd": 2312,
      "hand": 2313,
      "hres": 2314,
      "hit": 2315,
      "hyt": 2316,
      "hellow": 2317,
      "ik": 2318,
      "ide": 2319,
      "ial": 2320,
      "ili": 2321,
      "iet": 2322,
      "ims": 2323,
      "irector": 2324,
      "icb": 2325,
      "ieee": 2326,
      "icache": 2327,
      "irect": 2328,
      "icau": 2329,
      "ihd": 2330,
      "jre": 2331,
      "jvm": 2332,
      "jia": 2333,
      "jdk": 2334,
      "kod": 2335,
      "kub": 2336,
      "kcdn": 2337,
      "lg": 2338,
      "lse": 2339,
      "lpa": 2340,
      "lsn": 2341,
      "lare": 2342,
      "mu": 2343,
      "mbl": 2344,
      "mer": 2345,
      "ming": 2346,
      "mcc": 2347,
      "mmb": 2348,
      "mct": 2349,
      "nb": 2350,
      "nf": 2351,
      "nh": 2352,
      "np": 2353,
      "non": 2354,
      "nti": 2355,
      "nan": 2356,
      "nter": 2357,
      "nsclick": 2358,
      "osig": 2359,
      "pj": 2360,
      "pk": 2361,
      "pw": 2362,
      "pz": 2363,
      "pid": 2364,
      "pop": 2365,
      "pri": 2366,
      "press": 2367,
      "pdl": 2368,
      "pux": 2369,
      "pki": 2370,
      "qb": 2371,
      "qlr": 2372,
      "qhres": 2373,
      "qlsn": 2374,
      "rs": 2375,
      "rth": 2376,
      "ring": 2377,
      "rai": 2378,
      "rss": 2379,
      "rule": 2380,
      "rbs": 2381,
      "sb": 2382,
      "sma": 2383,
      "sam": 2384,
      "sdo": 2385,
      "sall": 2386,
      "sses": 2387,
      "same": 2388,
      "tn": 2389,
      "tro": 2390,
      "tst": 2391,
      "tain": 2392,
      "tanx": 2393,
      "tdt": 2394,
      "tqlr": 2395,
      "uo": 2396,
      "use": 2397,
      "uid": 2398,
      "uter": 2399,
      "umask": 2400,
      "ublish": 2401,
      "ums": 2402,
      "uation": 2403,
      "usync": 2404,
      "vr": 2405,
      "vile": 2406,
      "vac": 2407,
      "vend": 2408,
      "vjp": 2409,
      "vtrace": 2410,
      "wf": 2411,
      "wan": 2412,
      "ward": 2413,
      "wbp": 2414,
      "wosig": 2415,
      "wtdt": 2416,
      "xt": 2417,
      "xing": 2418,
      "xgr": 2419,
      "xdr": 2420,
      "xequ": 2421,
      "xili": 2422,
      "yre": 2423,
      "yap": 2424,
      "yndm": 2425,
      "yvjp": 2426,
      "zkcdn": 2427,
      "zsall": 2428,
      "edb": 2429,
      "edfe": 2430,
      "edbb": 2431,
      "seti": 2432,
      "sembl": 2433,
      "rome": 2434,
      "rocf": 2435,
      "rocstar": 2436,
      "tel": 2437,
      "text": 2438,
      "blas": 2439,
      "blime": 2440,
      "inte": 2441,
      "infor": 2442,
      "inex": 2443,
      "init": 2444,
      "only": 2445,
      "decc": 2446,
      "defc": 2447,
      "proce": 2448,
      "nop": 2449,
      "nopr": 2450,
      "ression": 2451,
      "reas": 2452,
      "restarting": 2453,
      "restart": 2454,
      "remo": 2455,
      "restarted": 2456,
      "research": 2457,
      "refres": 2458,
      "cktime": 2459,
      "ckap": 2460,
      "cea": 2461,
      "cee": 2462,
      "cecd": 2463,
      "cecc": 2464,
      "cefc": 2465,
      "cert": 2466,
      "timi": 2467,
      "timer": 2468,
      "ticktime": 2469,
      "orac": 2470,
      "engi": 2471,
      "enabl": 2472,
      "proxydb": 2473,
      "fft": 2474,
      "ffde": 2475,
      "ffer": 2476,
      "ffad": 2477,
      "ffae": 2478,
      "ffaa": 2479,
      "ffade": 2480,
      "ffcdf": 2481,
      "ery": 2482,
      "erts": 2483,
      "siwf": 2484,
      "sixgr": 2485,
      "stop": 2486,
      "lement": 2487,
      "legal": 2488,
      "999999999999999999999999": 2489,
      "clk": 2490,
      "meam": 2491,
      "ato": 2492,
      "comms": 2493,
      "commit": 2494,
      "needed": 2495,
      "neare": 2496,
      "neos": 2497,
      "cution": 2498,
      "ada": 2499,
      "adb": 2500,
      "adv": 2501,
      "adsr": 2502,
      "adbe": 2503,
      "adbc": 2504,
      "adtech": 2505,
      "toall": 2506,
      "token": 2507,
      "toward": 2508,
      "ance": 2509,
      "idou": 2510,
      "idmp": 2511,
      "chmod": 2512,
      "times": 2513,
      "timeou": 2514,
      "timeof": 2515,
      "serial": 2516,
      "optimi": 2517,
      "force": 2518,
      "conc": 2519,
      "condi": 2520,
      "confp": 2521,
      "fec": 2522,
      "feaf": 2523,
      "feeds": 2524,
      "feaa": 2525,
      "ternal": 2526,
      "openx": 2527,
      "openjdk": 2528,
      "may": 2529,
      "mation": 2530,
      "matic": 2531,
      "ouji": 2532,
      "http": 2533,
      "alread": 2534,
      "alerts": 2535,
      "stab": 2536,
      "external": 2537,
      "lit": 2538,
      "list": 2539,
      "limit": 2540,
      "oking": 2541,
      "fffffd": 2542,
      "ffffbc": 2543,
      "adding": 2544,
      "aim": 2545,
      "upon": 2546,
      "upmobile": 2547,
      "output": 2548,
      "gov": 2549,
      "going": 2550,
      "verbo": 2551,
      "uesn": 2552,
      "low": 2553,
      "looking": 2554,
      "expression": 2555,
      "wihk": 2556,
      "wires": 2557,
      "symlink": 2558,
      "symcd": 2559,
      "cae": 2560,
      "cable": 2561,
      "cacd": 2562,
      "eea": 2563,
      "eebd": 2564,
      "eebf": 2565,
      "eebea": 2566,
      "serverdb": 2567,
      ".......": 2568,
      "oguesn": 2569,
      "amd": 2570,
      "minsessiontimeout": 2571,
      "mplement": 2572,
      "ota": 2573,
      "niux": 2574,
      "linadv": 2575,
      "terminated": 2576,
      "theader": 2577,
      "access": 2578,
      "hwstab": 2579,
      "baff": 2580,
      "baker": 2581,
      "sockettimeou": 2582,
      "assembl": 2583,
      "msn": 2584,
      "srkod": 2585,
      "unable": 2586,
      "cardresearch": 2587,
      "readlink": 2588,
      "cial": 2589,
      "trap": 2590,
      "sublime": 2591,
      "bos": 2592,
      "sending": 2593,
      "sendpacket": 2594,
      "ciodb": 2595,
      "score": 2596,
      "bda": 2597,
      "bdd": 2598,
      "bdirect": 2599,
      "ldl": 2600,
      "fdc": 2601,
      "fdf": 2602,
      "dfbb": 2603,
      "dflare": 2604,
      "ffffffee": 2605,
      "ecc": 2606,
      "ecf": 2607,
      "ecmb": 2608,
      "ecbc": 2609,
      "dcfc": 2610,
      "dcbf": 2611,
      "newmpi": 2612,
      "cosy": 2613,
      "counter": 2614,
      "beb": 2615,
      "being": 2616,
      "beab": 2617,
      "befcc": 2618,
      "apu": 2619,
      "gicert": 2620,
      "unimplement": 2621,
      "cda": 2622,
      "cdb": 2623,
      "cdca": 2624,
      "parmd": 2625,
      "fold": 2626,
      "hucdn": 2627,
      "imageplus": 2628,
      "died": 2629,
      "diff": 2630,
      "divac": 2631,
      "digicert": 2632,
      "bglct": 2633,
      "single": 2634,
      "cnk": 2635,
      "cncdn": 2636,
      "ccb": 2637,
      "ccdc": 2638,
      "quiet": 2639,
      "qumcc": 2640,
      "query": 2641,
      "fier": 2642,
      "after": 2643,
      "llcontrol": 2644,
      "snan": 2645,
      "special": 2646,
      "fcf": 2647,
      "corpor": 2648,
      "furth": 2649,
      "ddd": 2650,
      "ddca": 2651,
      "ddac": 2652,
      "dropping": 2653,
      "dshyt": 2654,
      "avn": 2655,
      "runs": 2656,
      "ursdo": 2657,
      "urbdirect": 2658,
      "aea": 2659,
      "aef": 2660,
      "aeac": 2661,
      "zookeeperserver": 2662,
      "background": 2663,
      "tsch": 2664,
      "compil": 2665,
      "abb": 2666,
      "abac": 2667,
      "general": 2668,
      "generic": 2669,
      "testscrip": 2670,
      "complete": 2671,
      "ipaddress": 2672,
      "qqweb": 2673,
      "dbac": 2674,
      "dbfd": 2675,
      "dbcc": 2676,
      "dbbc": 2677,
      "iostate": 2678,
      "pollcontrol": 2679,
      "cfg": 2680,
      "snapre": 2681,
      "day": 2682,
      "daac": 2683,
      "dahn": 2684,
      "configfile": 2685,
      "split": 2686,
      "alltoall": 2687,
      "cdnjs": 2688,
      "imgsrc": 2689,
      "imgur": 2690,
      "imgtn": 2691,
      "bbca": 2692,
      "bbadbe": 2693,
      "following": 2694,
      "cbac": 2695,
      "cbcc": 2696,
      "cbbc": 2697,
      "cbjs": 2698,
      "mpill": 2699,
      "mpits": 2700,
      "....................": 2701,
      "................................": 2702,
      ".............................": 2703,
      "ddcc": 2704,
      "streit": 2705,
      "soon": 2706,
      "fffffefe": 2707,
      "bfb": 2708,
      "shouji": 2709,
      "ddcmdgbglv": 2710,
      "tmpdir": 2711,
      "maxim": 2712,
      "baseline": 2713,
      "ctldl": 2714,
      "hpd": 2715,
      "hptqlr": 2716,
      "tau": 2717,
      "tagr": 2718,
      "idoproxydb": 2719,
      "fbcd": 2720,
      "fbcc": 2721,
      "fbbc": 2722,
      "host": 2723,
      "prefetch": 2724,
      "csar": 2725,
      "intf": 2726,
      "cpp": 2727,
      "cpmd": 2728,
      "eabc": 2729,
      "efca": 2730,
      "efcd": 2731,
      "efbb": 2732,
      "efbf": 2733,
      "efedc": 2734,
      "ilt": 2735,
      "illegal": 2736,
      "instr": 2737,
      "instance": 2738,
      "nexage": 2739,
      "lsf": 2740,
      "getpid": 2741,
      "getuid": 2742,
      "gettimeof": 2743,
      "broken": 2744,
      "syndrome": 2745,
      "longca": 2746,
      "bind": 2747,
      "medal": 2748,
      "edrams": 2749,
      "sinaapp": 2750,
      "mart": 2751,
      "writer": 2752,
      "effd": 2753,
      "effcb": 2754,
      "existing": 2755,
      "microad": 2756,
      "trellocdn": 2757,
      "auxili": 2758,
      "biparty": 2759,
      "bcastv": 2760,
      "awqi": 2761,
      "glob": 2762,
      "hangtest": 2763,
      "redirector": 2764,
      "wxml": 2765,
      "impr": 2766,
      "impact": 2767,
      "luidmp": 2768,
      "pages": 2769,
      "tware": 2770,
      "performed": 2771,
      "possible": 2772,
      "crc": 2773,
      "crl": 2774,
      "efda": 2775,
      "nodecards": 2776,
      "newsapp": 2777,
      "efcfb": 2778,
      "hao": 2779,
      "hack": 2780,
      "object": 2781,
      "stir": 2782,
      "stirt": 2783,
      "optaim": 2784,
      "afecda": 2785,
      "amaihd": 2786,
      "cdcf": 2787,
      "func": 2788,
      "iao": 2789,
      "softheader": 2790,
      "software": 2791,
      "cecfc": 2792,
      "cloudflare": 2793,
      "adobeid": 2794,
      "efeb": 2795,
      "efebc": 2796,
      "suppress": 2797,
      "descriptors": 2798,
      "agkn": 2799,
      "asic": 2800,
      "rounded": 2801,
      "underflow": 2802,
      "quantcount": 2803,
      "windowsupdate": 2804,
      "busy": 2805,
      "buffer": 2806,
      "built": 2807,
      "bertsch": 2808,
      "bfab": 2809,
      "bfda": 2810,
      "dmw": 2811,
      "dpmgr": 2812,
      "jyb": 2813,
      "kdpic": 2814,
      "kill": 2815,
      "kiwihk": 2816,
      "pubmatic": 2817,
      "internalapi": 2818,
      "replications": 2819,
      "creative": 2820,
      "continuation": 2821,
      "autorestart": 2822,
      "ulriketests": 2823,
      "purgeinterval": 2824,
      "nosleepyes": 2825,
      "nosleepnocomm": 2826,
      "aeec": 2827,
      "bfcf": 2828,
      "cfdddc": 2829,
      "efbfd": 2830,
      "ifengi": 2831,
      "izxequ": 2832,
      "qihucdn": 2833,
      "small": 2834,
      "smaller": 2835,
      "yeszerobytebug": 2836,
      "yuedust": 2837,
      "nocommnosleep": 2838,
      "execution": 2839,
      "googletagservices": 2840,
      "googletagmanager": 2841,
      "show": 2842,
      "showxml": 2843,
      "mobilem": 2844,
      "gmtdmp": 2845,
      "consoleip": 2846,
      "consoleport": 2847,
      "akamaihd": 2848,
      "affd": 2849,
      "bvn": 2850,
      "bzclk": 2851,
      "bcebos": 2852,
      "bidswitch": 2853,
      "baijia": 2854,
      "buber": 2855,
      "ctips": 2856,
      "clear": 2857,
      "dedd": 2858,
      "done": 2859,
      "dtrp": 2860,
      "dfafa": 2861,
      "ddfc": 2862,
      "dafc": 2863,
      "during": 2864,
      "fraction": 2865,
      "freed": 2866,
      "fady": 2867,
      "gslb": 2868,
      "gathering": 2869,
      "handler": 2870,
      "ikuo": 2871,
      "identi": 2872,
      "icbi": 2873,
      "ieeeconfp": 2874,
      "icauh": 2875,
      "kubota": 2876,
      "lseek": 2877,
      "lpavtrace": 2878,
      "mingxing": 2879,
      "mmbiz": 2880,
      "pwd": 2881,
      "privile": 2882,
      "pdlxf": 2883,
      "rssgov": 2884,
      "rules": 2885,
      "smaato": 2886,
      "samrai": 2887,
      "trouter": 2888,
      "taincount": 2889,
      "ublishing": 2890,
      "vendor": 2891,
      "wbpctips": 2892,
      "wosign": 2893,
      "wtdtjs": 2894,
      "xdrpj": 2895,
      "yrexdrpj": 2896,
      "yndmsiwf": 2897,
      "edbbb": 2898,
      "setitimer": 2899,
      "rocfluidmp": 2900,
      "information": 2901,
      "inexact": 2902,
      "processes": 2903,
      "noprint": 2904,
      "reason": 2905,
      "removing": 2906,
      "refresh": 2907,
      "ckapfer": 2908,
      "oracle": 2909,
      "enabled": 2910,
      "stopping": 2911,
      "neededreplications": 2912,
      "nearest": 2913,
      "neosmart": 2914,
      "adsrvr": 2915,
      "idoudpmgr": 2916,
      "serialnumber": 2917,
      "optimix": 2918,
      "condition": 2919,
      "already": 2920,
      "verbose": 2921,
      "oguesnsl": 2922,
      "niuxiao": 2923,
      "sockettimeoutexception": 2924,
      "assembly": 2925,
      "srkodhptqlr": 2926,
      "sublimetext": 2927,
      "scorecardresearch": 2928,
      "unimplemented": 2929,
      "parmdg": 2930,
      "bglctlpavtrace": 2931,
      "qumccyndmsiwf": 2932,
      "corporation": 2933,
      "further": 2934,
      "dshytnh": 2935,
      "ursdoccdn": 2936,
      "compiler": 2937,
      "testscripts": 2938,
      "pollcontroldescriptors": 2939,
      "snapretaincount": 2940,
      "streitz": 2941,
      "maximum": 2942,
      "gettimeofday": 2943,
      "auxiliary": 2944,
      "bipartyz": 2945,
      "awqiizxequ": 2946,
      "stirturbdirect": 2947,
      "suppressing": 2948,
      "nosleepyescomm": 2949,
      "ifengimg": 2950,
      "baijiahao": 2951,
      "identifier": 2952,
      "ieeeconfpublishing": 2953,
      "privileged": 2954,
      "srkodhptqlryvjp": 2955,
      "awqiizxequsixgr": 2956
    },
    "merges": [
      "9 9",
      "99 99",
      "99 9",
      "9999 9999",
      "e d",
      "s e",
      "r o",
      "t e",
      "b l",
      "i n",
      "o n",
      "9999 9",
      "d e",
      "p ro",
      "n o",
      "r e",
      "c k",
      "h k",
      "c e",
      "t i",
      "o r",
      "o ck",
      "e n",
      "x y",
      "pro xy",
      "f f",
      "bl ock",
      "e r",
      "o m",
      "a r",
      "no de",
      "s i",
      "s t",
      "l e",
      "t h",
      "99999999 99999999",
      "c l",
      "bl k",
      "m e",
      "a t",
      "in g",
      "c om",
      "n e",
      "c u",
      "v ed",
      "s y",
      "s te",
      "a d",
      "ed u",
      "t o",
      "b y",
      "c se",
      "cu hk",
      "en t",
      "a n",
      "i d",
      "si on",
      "s sion",
      "te s",
      "re ce",
      "rece i",
      "by tes",
      "se ssion",
      "k b",
      "c h",
      "i s",
      "ti on",
      "ti me",
      "se r",
      "9999999999999999 999",
      "o p",
      "f or",
      "c on",
      "t t",
      "n t",
      "recei ved",
      "p s",
      "u g",
      "f e",
      "ug h",
      "ro ugh",
      "te r",
      "th rough",
      "op en",
      "sy ste",
      "syste m",
      "m a",
      "o u",
      "i le",
      "h tt",
      "htt ps",
      "a l",
      "cl o",
      "ro r",
      "er ror",
      "st a",
      ". .",
      "e x",
      "l i",
      "f ile",
      "g e",
      "o f",
      "n a",
      "ne c",
      "con nec",
      "i ent",
      "o k",
      "ff ff",
      "ad d",
      "in ter",
      "a i",
      "s s",
      "u p",
      "se nt",
      "clo se",
      "fe time",
      "li fetime",
      "i ar",
      "de ar",
      "t ing",
      "i r",
      "s k",
      "connec tion",
      "99999999 99",
      "cl ient",
      "ou t",
      "g o",
      "9999 99",
      "file system",
      "t ed",
      "ser ved",
      "v er",
      "z e",
      "si ze",
      "u e",
      "p on",
      "time out",
      "l o",
      "at ed",
      "session id",
      "9999 999",
      "ex p",
      "w or",
      "na me",
      "exp ir",
      "w i",
      "sta te",
      "wor k",
      "name system",
      "v al",
      "ai l",
      "bl e",
      "an d",
      "no t",
      "sy m",
      "c a",
      "a in",
      "e e",
      "d om",
      "dom ain",
      "o d",
      "ma sk",
      "n d",
      "w h",
      "ce ss",
      "9999999999999999 99",
      "ser ver",
      "ne t",
      "a ble",
      "e t",
      "w w",
      ".. ..",
      "pro cess",
      "com pon",
      "compon ent",
      "v ail",
      "vail able",
      "o g",
      "a m",
      "add ed",
      "ste r",
      "m in",
      "m p",
      "ex ce",
      "o t",
      "n i",
      "q ue",
      "u ster",
      "cl uster",
      "l in",
      "ter min",
      "se t",
      "h ad",
      "is h",
      "ch an",
      "lin k",
      "th e",
      "* *",
      "a c",
      "st or",
      "bl ish",
      "e sta",
      "h w",
      "esta blish",
      "go og",
      "goog le",
      "c ted",
      "r up",
      "inter rup",
      "cluster filesystem",
      "wi th",
      "s ock",
      "b a",
      "f ro",
      "ma p",
      "fro m",
      "v ing",
      "sock et",
      "a s",
      "v i",
      "ed ed",
      "m s",
      "s r",
      "u na",
      "chan ge",
      "ar d",
      "server filesystem",
      "una vailable",
      "c ard",
      "ed block",
      "add stor",
      "addstor edblock",
      "exce eded",
      "expir ing",
      "d at",
      "s ed",
      "re ad",
      "dat a",
      "a tion",
      "c i",
      "val id",
      "de le",
      "process ed",
      "t r",
      "clo sed",
      "termin ation",
      "s u",
      "ti ated",
      "ne go",
      "establish ed",
      "nego tiated",
      "b o",
      "i ch",
      "e v",
      "ev ent",
      "f a",
      "se nd",
      "in valid",
      "wh ich",
      "net work",
      "work er",
      "te mp",
      "v p",
      "th read",
      "sr c",
      "ci od",
      "up d",
      "vp d",
      "a ge",
      "ro ot",
      "p e",
      "s c",
      "inter val",
      "expir ed",
      "link error",
      "te cted",
      "de tected",
      "block map",
      "upd ated",
      "b d",
      "p a",
      "an s",
      "ca te",
      "tr ans",
      "de st",
      "a sk",
      "re s",
      "- -",
      "re que",
      "reque st",
      "l d",
      "9999999999999999 9",
      "f d",
      "w ai",
      "hw id",
      "at u",
      "d o",
      "g er",
      "m i",
      "d f",
      "n ing",
      "l on",
      "r am",
      "ffff ff",
      "ww id",
      "sc si",
      "t or",
      "e c",
      "m od",
      "t ch",
      "u le",
      "com m",
      "mod ule",
      "s wi",
      "me ss",
      "swi tch",
      "mess age",
      "d c",
      "ne w",
      "wh ile",
      "ni ff",
      "recei ving",
      "connec t",
      "cu r",
      "comm and",
      "c o",
      "g ram",
      "at ing",
      "ch e",
      "lon ger",
      "dele te",
      "wai ting",
      "que ue",
      "interrup ted",
      "c ou",
      "invalid set",
      "st ar",
      "ffff f",
      "h as",
      "set s",
      "b ient",
      ".... ....",
      "am bient",
      "t ar",
      "pro gram",
      "cou ld",
      "tar ge",
      "b e",
      "in con",
      "node sets",
      "si ste",
      "incon siste",
      "inconsiste nt",
      "a p",
      "ffffff fe",
      "re p",
      "re nt",
      "res pon",
      "cur rent",
      "at ch",
      "p er",
      "g i",
      "u ser",
      "u ni",
      "rep li",
      "c d",
      "fa ce",
      "uni x",
      "ti c",
      "a ving",
      "p ar",
      "le aving",
      "99999999 9",
      "data node",
      "repli cate",
      "99999999 9999",
      "st atu",
      "statu s",
      "inter face",
      "vi a",
      "che ck",
      "b g",
      "f o",
      "h u",
      "id u",
      "process or",
      "ba idu",
      "f ou",
      "m atch",
      "** **",
      "df s",
      "star ting",
      "fou nd",
      "i ma",
      "m d",
      "s lo",
      "w ar",
      "interrup ting",
      "send worker",
      "ec id",
      "ima ge",
      "slo t",
      "war ning",
      "d i",
      "f er",
      "re c",
      "de r",
      "ww w",
      "node s",
      "domain s",
      "targe ting",
      "a vailable",
      "u n",
      "pa ck",
      "trans fer",
      "bg l",
      "c an",
      "s ing",
      "c n",
      "ma l",
      "c c",
      "p tion",
      "v e",
      "par t",
      "m g",
      "r mal",
      "no rmal",
      "trans mi",
      "pack et",
      "q u",
      "f i",
      "m nt",
      "o op",
      "had oop",
      "a f",
      "l l",
      "om e",
      "lo ad",
      "dele ting",
      "f ail",
      "s n",
      "respon der",
      "rec tor",
      "packet responder",
      "h ome",
      "tt ed",
      "di rector",
      "transmi tted",
      "director y",
      "de o",
      "termin ating",
      "vi deo",
      "al t",
      "fail ed",
      "ar y",
      "fa a",
      "s pe",
      "ed faa",
      "al lo",
      "-- -",
      "- [",
      "f c",
      "m is",
      "r i",
      "su ch",
      "load ing",
      "mis sing",
      "sta tic",
      "google video",
      "su bd",
      "bo ot",
      "allo cate",
      "subd ir",
      "u m",
      "allocate block",
      "temp or",
      "c or",
      "t ask",
      "exce ption",
      "tempor ary",
      "m b",
      "bo x",
      "qu or",
      "f u",
      "b c",
      "d d",
      "d ro",
      "fu ll",
      "dro p",
      "c al",
      "t y",
      "u b",
      "ed e",
      "drop box",
      "d s",
      "a v",
      "o ok",
      "r un",
      "u r",
      "ed s",
      "at temp",
      "c md",
      "re cted",
      "cor rected",
      "f an",
      "co de",
      "a e",
      "g en",
      "er atu",
      "temp eratu",
      "temperatu re",
      "z ook",
      "ee per",
      "zook eeper",
      "ba ck",
      "can not",
      "r and",
      "se con",
      "ne l",
      "lo g",
      "run ning",
      "back up",
      "secon ds",
      ") ,",
      "t s",
      "com p",
      "ca tion",
      "a b",
      "co re",
      "gi th",
      "gen er",
      "b ffff",
      "te st",
      "spe eds",
      "comp le",
      "dc r",
      "d ou",
      "i p",
      "do w",
      "dou ble",
      "l lo",
      "u s",
      "c tion",
      "o ver",
      "q q",
      "re ss",
      "w e",
      "add ress",
      "inter connect",
      "ac tion",
      "quor um",
      "gith ub",
      "d b",
      "o l",
      "s og",
      "dow n",
      "sog ou",
      "i o",
      "attemp ting",
      "n m",
      "p o",
      "s hu",
      "lo cal",
      "c f",
      "c ri",
      "s na",
      "j av",
      "ps h",
      "file s",
      "gi ge",
      "sna psh",
      "jav a",
      "d a",
      "con fi",
      "confi g",
      "i ck",
      "s p",
      "cl ick",
      "al l",
      "cd n",
      "gener ated",
      "d ir",
      "s w",
      "t re",
      "vi ce",
      "i mg",
      "ee ee",
      "we i",
      "b b",
      "ff e",
      "ser vice",
      "error s",
      "chan nel",
      "stor age",
      "log in",
      "llo w",
      "config ur",
      "d ing",
      "p l",
      "se c",
      "fo llow",
      "t x",
      "u t",
      "configur ed",
      "c b",
      "mp i",
      "respon ding",
      "x id",
      "ma in",
      "su c",
      "bo l",
      "fd fe",
      "w as",
      "re main",
      "recei ver",
      "res ol",
      "........ ........",
      "targe t",
      "resol ve",
      "a a",
      "d dc",
      "k n",
      "l ed",
      "m an",
      "p i",
      "v ar",
      "99999999 999",
      "ce led",
      "st re",
      "ch dir",
      "con te",
      "ac ce",
      "be fo",
      "ap ps",
      "can celed",
      "fi cation",
      "dd r",
      "comple tion",
      "befo re",
      "g b",
      "i t",
      "m l",
      "s o",
      "s in",
      "ffff fe",
      "snapsh ot",
      "( /",
      "b f",
      "e le",
      "i b",
      "p ted",
      "r ts",
      "s h",
      "double click",
      "acce pted",
      "ele ction",
      "c re",
      "u sr",
      "in fo",
      "as m",
      "wai t",
      "ap i",
      "nm ent",
      "sp asm",
      "conte nt",
      "a te",
      "p ut",
      "de ni",
      "tt ing",
      "fd af",
      "mi ssion",
      "per mission",
      "ty pe",
      "sw l",
      "tre e",
      "ddc md",
      "deni ed",
      ": /",
      "t mp",
      "t down",
      "in put",
      "ser ted",
      "ma x",
      "tor us",
      "star t",
      "shu tdown",
      "a re",
      "l y",
      "99999999 9999999",
      "or t",
      "9999999999999999 999999999999",
      "al i",
      "ba se",
      "i ld",
      "te n",
      "ch ild",
      "li b",
      "ffff ffff",
      "client s",
      "pa th",
      "stre am",
      "c t",
      "h p",
      "t a",
      "z z",
      "ff fe",
      "id o",
      "ver sion",
      "cn zz",
      "rand tx",
      "randtx t",
      "d n",
      "f b",
      "h o",
      "k ee",
      "l ce",
      "p re",
      "t al",
      "x fffffffe",
      "in to",
      "or g",
      "sy n",
      "ch ip",
      "pe re",
      "fd ae",
      "user content",
      "spe lce",
      "suc cess",
      "kee pere",
      "c s",
      "m m",
      "r edu",
      "z xid",
      "in serted",
      "re set",
      "ad s",
      "an k",
      "an t",
      "data base",
      "tic al",
      "cri tical",
      "hp cc",
      "a pa",
      "e er",
      "r ank",
      "u mp",
      "te o",
      "no ti",
      "ti mg",
      "si d",
      "sym bol",
      "ca st",
      "quor ump",
      "quorum server",
      "cri teo",
      "follow er",
      "apa che",
      "noti fication",
      "quorump eer",
      "h i",
      "99999999 999999",
      "in t",
      "fd b",
      "ap is",
      "wei bo",
      "ib m",
      "c p",
      "e a",
      "e f",
      "i l",
      "y a",
      "in st",
      "re new",
      "ne x",
      "comple ted",
      "d static",
      "l s",
      "r ap",
      "y dstatic",
      "ge t",
      "nd ant",
      "interrup t",
      "full y",
      "sh are",
      "redu ndant",
      "rap tor",
      "i mb",
      "j s",
      "l b",
      "x in",
      "x ce",
      "en d",
      "sy s",
      "so hu",
      "syn ch",
      "xce ption",
      "a y",
      "b ro",
      "e s",
      "o image",
      "s or",
      "u nex",
      "sy nd",
      "fe e",
      "ma il",
      "ai mg",
      "ac ti",
      "tr and",
      "pe cted",
      "pa re",
      "lon g",
      "attemp t",
      "po int",
      "wei xin",
      "pi pe",
      "sin aimg",
      "success fully",
      "sor trand",
      "unex pected",
      "b w",
      "b ffe",
      "f lo",
      "g ent",
      "g static",
      "g nment",
      "h dfs",
      "i cation",
      "j ar",
      "k er",
      "n al",
      "n um",
      "p h",
      "p in",
      "r u",
      "w er",
      "y in",
      "se s",
      "at ar",
      "go od",
      "google apis",
      "google synd",
      "exception s",
      "av atar",
      "ali gnment",
      "pin yin",
      "googlesynd ication",
      "b in",
      "m ed",
      "y timg",
      "ed ram",
      "ce nt",
      "9999999999999999 99999999999",
      "to tal",
      "con n",
      ".. .",
      "ffff e",
      "ca ses",
      "ee e",
      "min i",
      "the re",
      "read ing",
      "cal ls",
      "test cases",
      "pl ay",
      "follow up",
      "sin a",
      "cre ating",
      "ho o",
      "ya hoo",
      "ker nel",
      ") )",
      "m ar",
      "m card",
      "m type",
      "w ri",
      "y pe",
      "z hi",
      "ro nment",
      "en vi",
      "sy sc",
      "an g",
      "ser num",
      "for service",
      "con t",
      "google usercontent",
      "mi p",
      "cur i",
      "........ ....",
      "ve l",
      "ur gent",
      "io exception",
      "all s",
      "all en",
      "eeee eee",
      "ml p",
      "ml ct",
      "pre pare",
      "cs dn",
      "inst ru",
      "bw allen",
      "mcard sernum",
      "zhi hu",
      "envi ronment",
      "sysc alls",
      "mlct n",
      "prepare forservice",
      "instru ction",
      "c ro",
      "e b",
      "e ff",
      "f p",
      "i st",
      "k in",
      "p an",
      "r atch",
      "v nm",
      "in ni",
      "re valid",
      "si g",
      "ugh t",
      "ex ist",
      "ca che",
      "ca ught",
      "sc ratch",
      "bd img",
      "pa kin",
      "mi cro",
      "be en",
      "bgl scratch",
      "double max",
      "shu tting",
      "bol t",
      "man hu",
      "ten cent",
      "flo ating",
      "wri te",
      "inni ty",
      "revalid ating",
      ": -",
      "c tor",
      "c xid",
      "g q",
      "i c",
      "m n",
      "o tting",
      "p t",
      "p ort",
      "q path",
      "r ror",
      "u be",
      "v gq",
      "y ou",
      "y out",
      "re qpath",
      "node exist",
      "st at",
      "le vel",
      "ne z",
      "nt ype",
      "go t",
      "ee p",
      "wh en",
      "process ing",
      "lin e",
      "chan g",
      "fd mn",
      "per f",
      "baidu static",
      "snapsh otting",
      "da o",
      "sw eep",
      "tre llo",
      "tx ntype",
      "cre ate",
      "keepere xception",
      "keepere rror",
      "oimage a",
      "sig nal",
      "you dao",
      "yout ube",
      "nodeexist s",
      "keepererror code",
      "a u",
      "b i",
      "b command",
      "b cast",
      "c m",
      "c op",
      "i fication",
      "m o",
      "t p",
      "t cp",
      "ro l",
      "re gi",
      "ce eded",
      "ad cast",
      "by e",
      "ver ification",
      "ca s",
      "nd m",
      "** *",
      "su bcommand",
      "gram mar",
      "**** ****",
      "**** ***",
      "bgl v",
      "gener ating",
      "test ed",
      "suc ceeded",
      "bro adcast",
      "good bye",
      "cont rol",
      "pan ic",
      "write block",
      "tcp conn",
      "regi ster",
      "subcommand s",
      "grammar ly",
      "a w",
      "b ug",
      "d is",
      "e l",
      "g lo",
      "h m",
      "h ang",
      "i e",
      "r ed",
      "r no",
      "s ci",
      "w x",
      "x c",
      "x x",
      "y an",
      "in e",
      "er rno",
      "me so",
      "ss l",
      "interrup ts",
      "pe er",
      "ger man",
      "ffffff e",
      "cd ndm",
      "rec t",
      "ub ads",
      "github usercontent",
      "po wer",
      "ddcmd bglv",
      "acti ve",
      "fp r",
      "chang yan",
      "sci p",
      "meso s",
      "german n",
      "a ce",
      "f l",
      "g g",
      "i mp",
      "i ty",
      "l u",
      "m ou",
      "m ir",
      "m tal",
      "o c",
      "p p",
      "p age",
      "s li",
      "t w",
      "y tic",
      "se n",
      "me mb",
      "an al",
      "and a",
      "ca u",
      "exce eds",
      "be l",
      "per for",
      "ri p",
      "cor rect",
      "po s",
      "pl us",
      "it c",
      "ali cdn",
      "ten max",
      "ph t",
      "manhu a",
      "glo sli",
      "gg pht",
      "mou nt",
      "mir anda",
      "mtal k",
      "ytic s",
      "memb er",
      "anal ytics",
      "b ad",
      "b ut",
      "b it",
      "c r",
      "e ver",
      "e fd",
      "m y",
      "r is",
      "s le",
      "x el",
      "no te",
      "ti med",
      "node card",
      "th res",
      "an y",
      "li o",
      "link card",
      "google ads",
      "upd ate",
      "bd static",
      "do es",
      "new s",
      "co pro",
      "........ .",
      "be long",
      "bg lio",
      "un tested",
      "um t",
      "ab ort",
      "test s",
      "man ce",
      "pi xel",
      "ho ld",
      "avatar s",
      "micro seconds",
      "page ad",
      "perfor mance",
      "correct able",
      "ever note",
      "ris boot",
      "thres hold",
      ". /",
      "b fe",
      "c pro",
      "d l",
      "e fc",
      "g r",
      "h a",
      "h alt",
      "k nez",
      "l ts",
      "o b",
      "p ing",
      "s ti",
      "s ca",
      "u nd",
      "v m",
      "x ffffffff",
      "se ne",
      "se cu",
      "de bug",
      "pro po",
      "re su",
      "re transmi",
      "or ted",
      "le test",
      "recei ve",
      "ch ine",
      "op t",
      "ma chine",
      "li ve",
      "add member",
      "ss port",
      ".... ..",
      "cluster addmember",
      "as h",
      "pa ssport",
      "ffffff fc",
      "cur red",
      "be a",
      "par ity",
      "hu mm",
      "ab orted",
      "sogou cdn",
      "sh ort",
      "acti v",
      "unexpected ly",
      "vgq sene",
      "fl ash",
      "oc curred",
      "sen der",
      "sca letest",
      "propo sed",
      "resu lts",
      "retransmi ssion",
      "receive block",
      "humm er",
      "/ .",
      "= /",
      "a fe",
      "a ma",
      "c dc",
      "d r",
      "d bl",
      "d mp",
      "e wer",
      "f s",
      "f ish",
      "f un",
      "g h",
      "g m",
      "h img",
      "h pl",
      "i a",
      "j eff",
      "j ob",
      "l a",
      "l le",
      "o re",
      "o be",
      "o stream",
      "p m",
      "p ubads",
      "r fish",
      "s of",
      "t om",
      "u l",
      "u re",
      "u ba",
      "v ol",
      "x f",
      "y t",
      "y ing",
      "z t",
      "ed ge",
      "te am",
      "de v",
      "ce c",
      "ti tion",
      "en able",
      "xy zt",
      "block ed",
      "cl ou",
      "ad obe",
      "ma ster",
      "sta ck",
      "ge mini",
      "of dir",
      "out s",
      "and jeff",
      "min ib",
      "sock s",
      "vi ewer",
      "ci ostream",
      "tr ying",
      "su mm",
      "bo ok",
      "sc rip",
      "do ctor",
      "co lle",
      "........ ...",
      "ap p",
      "face book",
      "par tition",
      "di ct",
      "fi x",
      "boot gen",
      "gith uba",
      "we b",
      "service s",
      "pi c",
      "ta g",
      "fb cdn",
      "pre fix",
      "syn c",
      "notification s",
      "ph y",
      "sina js",
      "tp c",
      "hang outs",
      "lu stre",
      "cau sing",
      "vm unix",
      "bea con",
      "rfish er",
      "tom andjeff",
      "team viewer",
      "ofdir ty",
      "minib en",
      "summ ary",
      "colle ctor",
      "bootgen vmunix",
      "githuba pp",
      "/ /",
      "/ ..",
      "a ffe",
      "b fffe",
      "c v",
      "c xx",
      "d in",
      "d up",
      "d sk",
      "e p",
      "e fe",
      "f m",
      "f ce",
      "f cd",
      "f cc",
      "f bffff",
      "h fm",
      "i m",
      "l t",
      "l li",
      "m c",
      "m en",
      "m ook",
      "m hfm",
      "o ba",
      "p or",
      "p ur",
      "r ce",
      "r ta",
      "s l",
      "s tion",
      "s ug",
      "s up",
      "s click",
      "s afe",
      "u hu",
      "w sing",
      "x l",
      "x er",
      "x ue",
      "z on",
      "ed c",
      "se lt",
      "te ch",
      "de scrip",
      "pro ble",
      "no s",
      "re l",
      "hk g",
      "or din",
      "ff bffe",
      "er ing",
      "si cal",
      "st ore",
      "ou rce",
      "ge stion",
      "ffff bffe",
      "wi lli",
      "am s",
      "ish uhu",
      "map file",
      "as sets",
      "as serted",
      "tr i",
      "dc d",
      "co ordin",
      "cou nt",
      "di men",
      "cc c",
      "cc fc",
      "ae ger",
      "ta oba",
      "ya tes",
      "bro wsing",
      "au selt",
      "aw s",
      "bel nez",
      "ha ve",
      "sti ll",
      "vgqsene s",
      "ama zon",
      "dr aeger",
      "fun ction",
      "clou d",
      "phy sical",
      "fbffff fe",
      "mook ie",
      "rta x",
      "sug gestion",
      "safe browsing",
      "xue shu",
      "descrip tor",
      "proble m",
      "willi ams",
      "ishuhu i",
      "coordin ate",
      "dimen sion",
      "taoba o",
      "auselt on",
      "amazon aws",
      "a g",
      "a de",
      "a si",
      "a le",
      "b r",
      "b s",
      "b ffffffe",
      "c j",
      "c at",
      "c id",
      "c nt",
      "c ss",
      "c df",
      "d ni",
      "d ri",
      "e no",
      "e click",
      "f de",
      "f ir",
      "f ly",
      "g re",
      "i an",
      "j i",
      "l h",
      "l r",
      "l ish",
      "m at",
      "m ent",
      "m ps",
      "n x",
      "o ff",
      "q himg",
      "s od",
      "t v",
      "t lb",
      "u i",
      "u x",
      "u me",
      "w in",
      "w ang",
      "w cnt",
      "x a",
      "z er",
      "ed n",
      "se tting",
      "se stat",
      "ro und",
      "pro per",
      "ti es",
      "ff fdfe",
      "block info",
      "er ation",
      "cl g",
      "ste ll",
      "ste ering",
      "ad c",
      "ad nx",
      "ad zer",
      "to o",
      "ser ving",
      "op eration",
      "for mat",
      "con f",
      "ter s",
      "al ing",
      "sta bi",
      "ex ec",
      "ex ten",
      "li ty",
      "out br",
      "lo go",
      "ca ca",
      "ac f",
      "pe s",
      "sc aling",
      "ffffff be",
      "star ted",
      "be ap",
      "rep ubads",
      "repli cas",
      "cd d",
      "un der",
      "qu ant",
      "qu lish",
      "av d",
      "rand om",
      "dow s",
      "sp ent",
      "sp pm",
      "all redu",
      "eeee eeee",
      "pl b",
      "are n",
      "cs dni",
      "mm cs",
      "inst all",
      "med ia",
      "ffffe ffe",
      "............ .",
      "micro sof",
      "manhu aren",
      "bi g",
      "dis able",
      "bel n",
      "secu repubads",
      "activ ating",
      "la st",
      "vol ume",
      "por ters",
      "sl f",
      "sup porters",
      "function al",
      "cj m",
      "cid ian",
      "dri ve",
      "fde e",
      "fir st",
      "gre eno",
      "off set",
      "sod scaling",
      "tv a",
      "win dows",
      "proper ties",
      "stell a",
      "adnx s",
      "adzer k",
      "stabi lity",
      "exten sion",
      "outbr ain",
      "caca fly",
      "qulish i",
      "allredu ce",
      "csdni mg",
      "microsof t",
      "volume map",
      "a ti",
      "a ver",
      "a vp",
      "b p",
      "b t",
      "b u",
      "b er",
      "b and",
      "b fa",
      "b fd",
      "b mi",
      "c si",
      "c tr",
      "c cd",
      "c cec",
      "d m",
      "d p",
      "d fe",
      "d ffe",
      "d fffffe",
      "d cache",
      "e o",
      "e mp",
      "e ld",
      "e ssl",
      "f on",
      "f ls",
      "g p",
      "g v",
      "g mail",
      "g ine",
      "h n",
      "h y",
      "i j",
      "i me",
      "j p",
      "j y",
      "j ec",
      "j ul",
      "j tag",
      "j ag",
      "k d",
      "k e",
      "k i",
      "k ne",
      "k map",
      "l com",
      "l atch",
      "m f",
      "m or",
      "n c",
      "n g",
      "n tion",
      "o s",
      "p r",
      "p v",
      "p ch",
      "p as",
      "p rep",
      "p ub",
      "q a",
      "q box",
      "q pic",
      "r ich",
      "s ch",
      "s pa",
      "s content",
      "t c",
      "t ue",
      "t ap",
      "u ve",
      "w n",
      "w id",
      "x b",
      "x d",
      "x ml",
      "z ed",
      "99999999 99999",
      "se ar",
      "ro by",
      "ro ng",
      "te ma",
      "te xception",
      "te bug",
      "de c",
      "de activ",
      "pro mp",
      "no sle",
      "re ci",
      "en gine",
      "ff c",
      "ff fc",
      "si ble",
      "si mg",
      "si tema",
      "st rip",
      "st rong",
      "th is",
      "th under",
      "cl aw",
      "me mor",
      "at ta",
      "com pare",
      "to ol",
      "an x",
      "session timeout",
      "ch ment",
      "ser ve",
      "op le",
      "for mi",
      "ps u",
      "fe xception",
      "open ing",
      "clo sing",
      "ex change",
      "li gh",
      "ge o",
      "add r",
      "inter nal",
      "up load",
      "ze roby",
      "wor d",
      "ca c",
      "ca sk",
      "ca pt",
      "od r",
      "og s",
      "og ni",
      "lin es",
      "ac b",
      "ac count",
      "ba e",
      "fro nt",
      "socket s",
      "sr m",
      "tr ace",
      "temp hi",
      "age s",
      "pe ople",
      "res ource",
      "fd aa",
      "fd fffdfe",
      "comm ent",
      "new simg",
      "fffff bfe",
      "ap c",
      "per claw",
      "gi ve",
      "repli cation",
      "md n",
      "md cask",
      "image s",
      "rec ogni",
      "un correctable",
      "un recogni",
      "bgl master",
      "part y",
      "mg r",
      "fi eld",
      "af b",
      "ll er",
      "fail ure",
      "fc match",
      "ri ke",
      "dd bc",
      "ds mc",
      "log s",
      "bffff dfe",
      "test ing",
      "test qbox",
      "we lcom",
      "ol ar",
      "cb fb",
      "................ .",
      "................ .........",
      "................ ...........",
      "conte ntion",
      "cre ati",
      "tree addr",
      "mm stat",
      "cp u",
      "oimage c",
      "flo w",
      "cont in",
      "............ ..",
      "............ ...",
      "vgq s",
      "stat s",
      "au to",
      "register s",
      "imp reci",
      "pp c",
      "sle s",
      "gr avatar",
      "und y",
      "secu re",
      "cdc c",
      "dbl p",
      "dbl word",
      "ul rike",
      "stack exchange",
      "ofdirty lines",
      "ofdirty dblword",
      "/.. /",
      "pur ge",
      "nos dn",
      "tri er",
      "cloud front",
      "asi a",
      "quant serve",
      "cjm undy",
      "aver ages",
      "band wid",
      "bmi ller",
      "eo fexception",
      "emp ty",
      "fon ts",
      "gv t",
      "hy perclaw",
      "jec t",
      "pch ome",
      "pas ci",
      "sch olar",
      "spa ce",
      "tap ad",
      "sear ch",
      "deactiv ated",
      "promp t",
      "nosle ep",
      "sitema ji",
      "memor y",
      "atta chment",
      "tool s",
      "ligh t",
      "zeroby tebug",
      "capt ure",
      "account s",
      "temphi gh",
      "unrecogni zed",
      "testqbox hang",
      "welcom e",
      "impreci se",
      "bandwid th",
      "a se",
      "a ne",
      "a op",
      "a ss",
      "a ee",
      "a ac",
      "a ger",
      "a base",
      "a gent",
      "b h",
      "b en",
      "b ile",
      "b ot",
      "b fc",
      "b ri",
      "c hk",
      "c ce",
      "c ca",
      "c fd",
      "c be",
      "c atch",
      "c bc",
      "c edc",
      "c pes",
      "d ail",
      "d pm",
      "d dec",
      "d party",
      "e bd",
      "e fb",
      "f in",
      "f click",
      "f bb",
      "g n",
      "g t",
      "g u",
      "g un",
      "g ate",
      "g timg",
      "h ne",
      "i f",
      "i z",
      "i con",
      "i tor",
      "i ly",
      "j line",
      "j lu",
      "k r",
      "k y",
      "k en",
      "k le",
      "k nel",
      "k it",
      "l er",
      "l ate",
      "l cr",
      "m k",
      "m on",
      "m de",
      "m id",
      "m ba",
      "m mi",
      "n fs",
      "o ld",
      "p u",
      "p en",
      "p ad",
      "p co",
      "p pl",
      "p good",
      "q d",
      "q i",
      "q s",
      "q bw",
      "q logo",
      "r m",
      "r t",
      "r st",
      "r al",
      "r ail",
      "r ans",
      "r ating",
      "r ub",
      "r fl",
      "r ky",
      "s mal",
      "s sen",
      "s ource",
      "s sible",
      "s stats",
      "t z",
      "t ter",
      "t wi",
      "t server",
      "t un",
      "t dp",
      "u edu",
      "u ch",
      "u al",
      "u sed",
      "v x",
      "v ec",
      "w ay",
      "w pad",
      "w rating",
      "x hpl",
      "y x",
      "y ms",
      "y un",
      "y es",
      "y update",
      "y bp",
      "y kle",
      "y uedu",
      "z himg",
      "ed f",
      "se le",
      "se ver",
      "se qu",
      "se curi",
      "te ed",
      "te ase",
      "bl ue",
      "bl og",
      "in fer",
      "in fin",
      "de l",
      "de vice",
      "de vel",
      "de mo",
      "de mde",
      "pro ject",
      "no comm",
      "no io",
      "no avatar",
      "no zerobytebug",
      "re comm",
      "re connect",
      "re qu",
      "re trying",
      "ck pt",
      "ce si",
      "ce ec",
      "ti al",
      "en tial",
      "ff a",
      "ff b",
      "ff f",
      "ff tw",
      "block s",
      "om p",
      "ar ed",
      "ar an",
      "ar ale",
      "ar ily",
      "si mba",
      "le l",
      "th ir",
      "cl ock",
      "cl ass",
      "me ta",
      "me ssen",
      "at anx",
      "at abase",
      "ne tt",
      "ne tease",
      "cu s",
      "sy read",
      "ad f",
      "ad cc",
      "ad master",
      "ad services",
      "ad tdp",
      "to uch",
      "by interrup",
      "an ad",
      "id ot",
      "ch at",
      "ch mar",
      "ser t",
      "ser apis",
      "con so",
      "ps g",
      "fe tch",
      "ma ps",
      "al it",
      "al lel",
      "ex e",
      "ok ie",
      "add this",
      "ss o",
      "ss p",
      "ss um",
      "ting yun",
      "ir ed",
      "sk n",
      "sk ype",
      "client services",
      "lo cation",
      "wi x",
      "wi fi",
      "ca pi",
      "ca mo",
      "ca bot",
      "nd ir",
      "et c",
      ".... .",
      "am anad",
      "mp l",
      "mp good",
      "ni o",
      "lin pack",
      "lin ux",
      "ac c",
      "ac t",
      "stor y",
      "google tag",
      "google adservices",
      "ba yms",
      "map files",
      "map red",
      "as sert",
      "tr c",
      "closed byinterrup",
      "bo ol",
      "fa e",
      "bd c",
      "fd fffe",
      "mi t",
      "mi aop",
      "ffffff f",
      "ffffff fa",
      "new maps",
      "cd ac",
      "cd dc",
      "cd bc",
      "par serapis",
      "par allel",
      "fo cus",
      "qu ali",
      "ll ap",
      "allo cation",
      "tempor arily",
      "dd dc",
      "full test",
      "cal tech",
      "ub mc",
      "dropbox api",
      "ds p",
      "ds lb",
      "ur l",
      "code s",
      "nel s",
      "ip v",
      "over flow",
      "qq mail",
      "db properties",
      "down load",
      "io log",
      "nm jy",
      "po se",
      "img cache",
      "service action",
      "channel s",
      "configur ation",
      "ding replication",
      "pl ane",
      "................ ..",
      "................ ...",
      "................ ............",
      "................ ......",
      "aa a",
      "kn l",
      "man ager",
      "acce ssible",
      "sh o",
      "sh ared",
      "content recomm",
      "type kit",
      "max sessiontimeout",
      "ly jlu",
      "stream tri",
      "ta bool",
      "dn s",
      "pre sta",
      "hi cloud",
      "hi story",
      "cp c",
      "cp m",
      "ea syread",
      "nex t",
      "get dropbox",
      "end serviceaction",
      "oimage b",
      "num ber",
      "ru ndir",
      "cent ral",
      "pt login",
      "port mgr",
      "vgq skn",
      "chang ing",
      "au th",
      "bi z",
      "mo de",
      "mo bile",
      "cas ale",
      "el and",
      "imp service",
      "oc sp",
      "cau sed",
      "tenmax img",
      "efd f",
      "sle pt",
      "debug ger",
      "vgqsene e",
      "gm t",
      "la pack",
      "vol t",
      "adobe login",
      "stack overflow",
      "dict app",
      "/.. /../",
      "cv s",
      "ep streamtri",
      "fce a",
      "im tt",
      "pur pose",
      "xer cesi",
      "cdf c",
      "wang wang",
      "logo s",
      "tva x",
      "hn edn",
      "kd cl",
      "nc y",
      "pub s",
      "xml parserapis",
      "field s",
      "creati vec",
      "contin ue",
      "auto purge",
      "ulrike y",
      "ben chmar",
      "bri an",
      "chk pt",
      "catch up",
      "dail yupdate",
      "gn ar",
      "gt ms",
      "gu aran",
      "gun nels",
      "gate way",
      "icon project",
      "kr com",
      "late ncy",
      "mon itor",
      "mid plane",
      "pu ui",
      "pen dingreplication",
      "pco okie",
      "ppl v",
      "qbw up",
      "rans portmgr",
      "rub iconproject",
      "rfl omp",
      "tz yx",
      "twi tter",
      "tun ed",
      "ual dn",
      "used atabase",
      "sele ct",
      "sever ed",
      "sequ ential",
      "securi ty",
      "blue light",
      "infer no",
      "infin ity",
      "devel op",
      "demde x",
      "requ ired",
      "arale go",
      "thir dparty",
      "messen ger",
      "nett y",
      "idot ransportmgr",
      "conso le",
      "alit ui",
      "bayms gr",
      "closedbyinterrup texception",
      "miaop ai",
      "quali ty",
      "ubmc mm",
      "nmjy lyjlu",
      "contentrecomm end",
      "tabool a",
      "casale media",
      "epstreamtri ad",
      "xercesi mpl",
      "creativec dn",
      "benchmar k",
      "guaran teed",
      "pendingreplication monitor",
      "nmjylyjlu ykle",
      ") ...",
      ") ...........................",
      "* )",
      "* ,",
      "/ )",
      "/ ./",
      ": :",
      "= <",
      "a k",
      "a bl",
      "a ff",
      "a th",
      "a me",
      "a ca",
      "a ec",
      "a der",
      "a bc",
      "a ab",
      "a adc",
      "b j",
      "b v",
      "b x",
      "b z",
      "b ce",
      "b id",
      "b ai",
      "b ec",
      "b be",
      "b cc",
      "b bc",
      "b ub",
      "b rand",
      "b us",
      "b ank",
      "b acb",
      "c de",
      "c ti",
      "c le",
      "c fe",
      "c star",
      "c gi",
      "c cdn",
      "c dec",
      "c bdc",
      "d j",
      "d k",
      "d t",
      "d w",
      "d ed",
      "d on",
      "d ad",
      "d ps",
      "d ue",
      "d tr",
      "d fa",
      "d bd",
      "d df",
      "d bg",
      "d af",
      "d ur",
      "d ae",
      "d ab",
      "d edc",
      "d adc",
      "d acf",
      "d acc",
      "e k",
      "e ed",
      "e of",
      "e ba",
      "e qu",
      "e af",
      "e ffe",
      "e llow",
      "e aa",
      "e bf",
      "e edc",
      "e cac",
      "f r",
      "f re",
      "f ad",
      "f ca",
      "f ac",
      "f res",
      "f bc",
      "f mm",
      "g d",
      "g s",
      "g ed",
      "g ma",
      "g al",
      "g bglv",
      "g round",
      "g ath",
      "h d",
      "h and",
      "h res",
      "h it",
      "h yt",
      "h ellow",
      "i k",
      "i de",
      "i al",
      "i li",
      "i et",
      "i ms",
      "i rector",
      "i cb",
      "i eee",
      "i cache",
      "i rect",
      "i cau",
      "i hd",
      "j re",
      "j vm",
      "j ia",
      "j dk",
      "k od",
      "k ub",
      "k cdn",
      "l g",
      "l se",
      "l pa",
      "l sn",
      "l are",
      "m u",
      "m bl",
      "m er",
      "m ing",
      "m cc",
      "m mb",
      "m ct",
      "n b",
      "n f",
      "n h",
      "n p",
      "n on",
      "n ti",
      "n an",
      "n ter",
      "n sclick",
      "o sig",
      "p j",
      "p k",
      "p w",
      "p z",
      "p id",
      "p op",
      "p ri",
      "p ress",
      "p dl",
      "p ux",
      "p ki",
      "q b",
      "q lr",
      "q hres",
      "q lsn",
      "r s",
      "r th",
      "r ing",
      "r ai",
      "r ss",
      "r ule",
      "r bs",
      "s b",
      "s ma",
      "s am",
      "s do",
      "s all",
      "s ses",
      "s ame",
      "t n",
      "t ro",
      "t st",
      "t ain",
      "t anx",
      "t dt",
      "t qlr",
      "u o",
      "u se",
      "u id",
      "u ter",
      "u mask",
      "u blish",
      "u ms",
      "u ation",
      "u sync",
      "v r",
      "v ile",
      "v ac",
      "v end",
      "v jp",
      "v trace",
      "w f",
      "w an",
      "w ard",
      "w bp",
      "w osig",
      "w tdt",
      "x t",
      "x ing",
      "x gr",
      "x dr",
      "x equ",
      "x ili",
      "y re",
      "y ap",
      "y ndm",
      "y vjp",
      "z kcdn",
      "z sall",
      "ed b",
      "ed fe",
      "ed bb",
      "se ti",
      "se mbl",
      "ro me",
      "ro cf",
      "ro cstar",
      "te l",
      "te xt",
      "bl as",
      "bl ime",
      "in te",
      "in for",
      "in ex",
      "in it",
      "on ly",
      "de cc",
      "de fc",
      "pro ce",
      "no p",
      "no pr",
      "re ssion",
      "re as",
      "re starting",
      "re start",
      "re mo",
      "re started",
      "re search",
      "re fres",
      "ck time",
      "ck ap",
      "ce a",
      "ce e",
      "ce cd",
      "ce cc",
      "ce fc",
      "ce rt",
      "ti mi",
      "ti mer",
      "ti cktime",
      "or ac",
      "en gi",
      "en abl",
      "proxy db",
      "ff t",
      "ff de",
      "ff er",
      "ff ad",
      "ff ae",
      "ff aa",
      "ff ade",
      "ff cdf",
      "er y",
      "er ts",
      "si wf",
      "si xgr",
      "st op",
      "le ment",
      "le gal",
      "9999999999999999 99999999",
      "cl k",
      "me am",
      "at o",
      "com ms",
      "com mit",
      "ne eded",
      "ne are",
      "ne os",
      "cu tion",
      "ad a",
      "ad b",
      "ad v",
      "ad sr",
      "ad be",
      "ad bc",
      "ad tech",
      "to all",
      "to ken",
      "to ward",
      "an ce",
      "id ou",
      "id mp",
      "ch mod",
      "time s",
      "time ou",
      "time of",
      "ser ial",
      "op timi",
      "for ce",
      "con c",
      "con di",
      "con fp",
      "fe c",
      "fe af",
      "fe eds",
      "fe aa",
      "ter nal",
      "open x",
      "open jdk",
      "ma y",
      "ma tion",
      "ma tic",
      "ou ji",
      "htt p",
      "al read",
      "al erts",
      "sta b",
      "ex ternal",
      "li t",
      "li st",
      "li mit",
      "ok ing",
      "ffff fd",
      "ffff bc",
      "add ing",
      "ai m",
      "up on",
      "up mobile",
      "out put",
      "go v",
      "go ing",
      "ver bo",
      "ue sn",
      "lo w",
      "lo oking",
      "exp ression",
      "wi hk",
      "wi res",
      "sym link",
      "sym cd",
      "ca e",
      "ca ble",
      "ca cd",
      "ee a",
      "ee bd",
      "ee bf",
      "ee bea",
      "server db",
      ".... ...",
      "og uesn",
      "am d",
      "min sessiontimeout",
      "mp lement",
      "ot a",
      "ni ux",
      "lin adv",
      "termin ated",
      "the ader",
      "ac cess",
      "hw stab",
      "ba ff",
      "ba ker",
      "socket timeou",
      "as sembl",
      "ms n",
      "sr kod",
      "una ble",
      "card research",
      "read link",
      "ci al",
      "tr ap",
      "su blime",
      "bo s",
      "send ing",
      "send packet",
      "ciod b",
      "sc ore",
      "bd a",
      "bd d",
      "bd irect",
      "ld l",
      "fd c",
      "fd f",
      "df bb",
      "df lare",
      "ffffff ee",
      "ec c",
      "ec f",
      "ec mb",
      "ec bc",
      "dc fc",
      "dc bf",
      "new mpi",
      "co sy",
      "cou nter",
      "be b",
      "be ing",
      "be ab",
      "be fcc",
      "ap u",
      "gi cert",
      "uni mplement",
      "cd a",
      "cd b",
      "cd ca",
      "par md",
      "fo ld",
      "hu cdn",
      "image plus",
      "di ed",
      "di ff",
      "di vac",
      "di gicert",
      "bgl ct",
      "sing le",
      "cn k",
      "cn cdn",
      "cc b",
      "cc dc",
      "qu iet",
      "qu mcc",
      "qu ery",
      "fi er",
      "af ter",
      "ll control",
      "sn an",
      "spe cial",
      "fc f",
      "cor por",
      "fu rth",
      "dd d",
      "dd ca",
      "dd ac",
      "drop ping",
      "ds hyt",
      "av n",
      "run s",
      "ur sdo",
      "ur bdirect",
      "ae a",
      "ae f",
      "ae ac",
      "zookeeper server",
      "back ground",
      "ts ch",
      "comp il",
      "ab b",
      "ab ac",
      "gener al",
      "gener ic",
      "test scrip",
      "comple te",
      "ip address",
      "qq web",
      "db ac",
      "db fd",
      "db cc",
      "db bc",
      "io state",
      "po llcontrol",
      "cf g",
      "sna pre",
      "da y",
      "da ac",
      "da hn",
      "config file",
      "sp lit",
      "all toall",
      "cdn js",
      "img src",
      "img ur",
      "img tn",
      "bb ca",
      "bb adbe",
      "follow ing",
      "cb ac",
      "cb cc",
      "cb bc",
      "cb js",
      "mpi ll",
      "mpi ts",
      "................ ....",
      "................ ................",
      "................ .............",
      "ddc c",
      "stre it",
      "so on",
      "fffffe fe",
      "bf b",
      "sh ouji",
      "ddcmd gbglv",
      "tmp dir",
      "max im",
      "base line",
      "ct ldl",
      "hp d",
      "hp tqlr",
      "ta u",
      "ta gr",
      "ido proxydb",
      "fb cd",
      "fb cc",
      "fb bc",
      "ho st",
      "pre fetch",
      "cs ar",
      "int f",
      "cp p",
      "cp md",
      "ea bc",
      "ef ca",
      "ef cd",
      "ef bb",
      "ef bf",
      "ef edc",
      "il t",
      "il legal",
      "inst r",
      "inst ance",
      "nex age",
      "ls f",
      "get pid",
      "get uid",
      "get timeof",
      "bro ken",
      "synd rome",
      "long ca",
      "bin d",
      "med al",
      "edram s",
      "sina app",
      "mar t",
      "wri ter",
      "eff d",
      "eff cb",
      "exist ing",
      "micro ad",
      "trello cdn",
      "au xili",
      "bi party",
      "bcast v",
      "aw qi",
      "glo b",
      "hang test",
      "red irector",
      "wx ml",
      "imp r",
      "imp act",
      "lu idmp",
      "page s",
      "tw are",
      "perfor med",
      "pos sible",
      "cr c",
      "cr l",
      "efd a",
      "nodecard s",
      "news app",
      "efc fb",
      "ha o",
      "ha ck",
      "ob ject",
      "sti r",
      "sti rt",
      "opt aim",
      "afe cda",
      "ama ihd",
      "cdc f",
      "fun c",
      "ia o",
      "sof theader",
      "sof tware",
      "cec fc",
      "clou dflare",
      "adobe id",
      "efe b",
      "efe bc",
      "sup press",
      "descriptor s",
      "ag kn",
      "asi c",
      "round ed",
      "under flow",
      "quant count",
      "windows update",
      "bu sy",
      "bu ffer",
      "bu ilt",
      "ber tsch",
      "bfa b",
      "bfd a",
      "dm w",
      "dp mgr",
      "jy b",
      "kd pic",
      "ki ll",
      "ki wihk",
      "pub matic",
      "internal api",
      "replication s",
      "creati ve",
      "contin uation",
      "auto restart",
      "ulrike tests",
      "purge interval",
      "nosleep yes",
      "nosleep nocomm",
      "aee c",
      "bfc f",
      "cfd ddc",
      "efb fd",
      "if engi",
      "iz xequ",
      "qi hucdn",
      "smal l",
      "smal ler",
      "yes zerobytebug",
      "yuedu st",
      "nocomm nosleep",
      "exe cution",
      "googletag services",
      "googletag manager",
      "sho w",
      "sho wxml",
      "mobile m",
      "gmt dmp",
      "console ip",
      "console port",
      "ak amaihd",
      "aff d",
      "bv n",
      "bz clk",
      "bce bos",
      "bid switch",
      "bai jia",
      "bub er",
      "cti ps",
      "cle ar",
      "ded d",
      "don e",
      "dtr p",
      "dfa fa",
      "ddf c",
      "daf c",
      "dur ing",
      "fr action",
      "fre ed",
      "fad y",
      "gs lb",
      "gath ering",
      "hand ler",
      "ik uo",
      "ide nti",
      "icb i",
      "ieee confp",
      "icau h",
      "kub ota",
      "lse ek",
      "lpa vtrace",
      "ming xing",
      "mmb iz",
      "pw d",
      "pri vile",
      "pdl xf",
      "rss gov",
      "rule s",
      "sma ato",
      "sam rai",
      "tro uter",
      "tain count",
      "ublish ing",
      "vend or",
      "wbp ctips",
      "wosig n",
      "wtdt js",
      "xdr pj",
      "yre xdrpj",
      "yndm siwf",
      "edbb b",
      "seti timer",
      "rocf luidmp",
      "infor mation",
      "inex act",
      "proce sses",
      "nopr int",
      "reas on",
      "remo ving",
      "refres h",
      "ckap fer",
      "orac le",
      "enabl ed",
      "stop ping",
      "needed replications",
      "neare st",
      "neos mart",
      "adsr vr",
      "idou dpmgr",
      "serial number",
      "optimi x",
      "condi tion",
      "alread y",
      "verbo se",
      "oguesn sl",
      "niux iao",
      "sockettimeou texception",
      "assembl y",
      "srkod hptqlr",
      "sublime text",
      "score cardresearch",
      "unimplement ed",
      "parmd g",
      "bglct lpavtrace",
      "qumcc yndmsiwf",
      "corpor ation",
      "furth er",
      "dshyt nh",
      "ursdo ccdn",
      "compil er",
      "testscrip ts",
      "pollcontrol descriptors",
      "snapre taincount",
      "streit z",
      "maxim um",
      "gettimeof day",
      "auxili ary",
      "biparty z",
      "awqi izxequ",
      "stirt urbdirect",
      "suppress ing",
      "nosleepyes comm",
      "ifengi mg",
      "baijia hao",
      "identi fier",
      "ieeeconfp ublishing",
      "privile ged",
      "srkodhptqlr yvjp",
      "awqiizxequ sixgr"
    ]
  }
}