{
  "version": "1.0",
  "truncation": null,
  "padding": null,
  "added_tokens": [
    {
      "id": 0,
      "content": "<pad>",
      "single_word": false,
      "lstrip": false,
      "rstrip": false,
      "normalized": false,
      "special": true
    },
    {
      "id": 1,
      "content": "<unk>",
      "single_word": false,
      "lstrip": false,
      "rstrip": false,
      "normalized": false,
      "special": true
    },
    {
      "id": 2,
      "content": " ",
      "single_word": false,
      "lstrip": false,
      "rstrip": false,
      "normalized": false,
      "special": true
    }
  ],
  "normalizer": {
    "type": "Sequence",
    "normalizers": [
      {
        "type": "NFKC"
      },
      {
        "type": "Lowercase"
      }
    ]
  },
  "pre_tokenizer": {
    "type": "Sequence",
    "pretokenizers": [
      {
        "type": "Whitespace"
      },
      {
        "type": "ByteLevel",
        "add_prefix_space": false,
        "trim_offsets": true,
        "use_regex": true
      }
    ]
  },
  "post_processor": {
    "type": "ByteLevel",
    "add_prefix_space": true,
    "trim_offsets": false,
    "use_regex": true
  },
  "decoder": null,
  "model": {
    "type": "BPE",
    "dropout": null,
    "unk_token": null,
    "continuing_subword_prefix": null,
    "end_of_word_suffix": null,
    "fuse_unk": false,
    "byte_fallback": false,
    "ignore_merges": false,
    "vocab": {
      "<pad>": 0,
      "<unk>": 1,
      " ": 2,
      "(": 3,
      ")": 4,
      "*": 5,
      ",": 6,
      "-": 7,
      ".": 8,
      "/": 9,
      "9": 10,
      ":": 11,
      "_": 12,
      "a": 13,
      "b": 14,
      "c": 15,
      "d": 16,
      "e": 17,
      "f": 18,
      "g": 19,
      "h": 20,
      "i": 21,
      "j": 22,
      "k": 23,
      "l": 24,
      "m": 25,
      "n": 26,
      "o": 27,
      "p": 28,
      "q": 29,
      "r": 30,
      "s": 31,
      "t": 32,
      "u": 33,
      "v": 34,
      "w": 35,
      "x": 36,
      "y": 37,
      "z": 38,
      "99": 39,
      "9999": 40,
      "99999999": 41,
      "999": 42,
      "bl": 43,
      "ck": 44,
      "ock": 45,
      "block": 46,
      "blk": 47,
      "99999": 48,
      "9999999999999999": 49,
      "ed": 50,
      "to": 51,
      "9999999999999999999": 52,
      "te": 53,
      "re": 54,
      "ad": 55,
      "in": 56,
      "es": 57,
      "add": 58,
      "er": 59,
      "ved": 60,
      "tem": 61,
      "at": 62,
      "ce": 63,
      "iz": 64,
      "siz": 65,
      "size": 66,
      "am": 67,
      "stem": 68,
      "ystem": 69,
      "nam": 70,
      "esystem": 71,
      "namesystem": 72,
      "rece": 73,
      "recei": 74,
      "ing": 75,
      "of": 76,
      "an": 77,
      "dat": 78,
      "ser": 79,
      "999999999999999999": 80,
      "is": 81,
      "added": 82,
      "de": 83,
      "et": 84,
      "ro": 85,
      "served": 86,
      "received": 87,
      "ran": 88,
      "ar": 89,
      "li": 90,
      "red": 91,
      "le": 92,
      "sto": 93,
      "addsto": 94,
      "redblock": 95,
      "addstoredblock": 96,
      "or": 97,
      "fro": 98,
      "from": 99,
      "ap": 100,
      "map": 101,
      "up": 102,
      "tran": 103,
      "blockmap": 104,
      "dated": 105,
      "updated": 106,
      "est": 107,
      "on": 108,
      "ate": 109,
      "cate": 110,
      "as": 111,
      "ask": 112,
      "nt": 113,
      "trans": 114,
      "dest": 115,
      "rc": 116,
      "src": 117,
      "art": 118,
      "99999999999999999": 119,
      "va": 120,
      "set": 121,
      "dele": 122,
      "delete": 123,
      "dset": 124,
      "inva": 125,
      "lidset": 126,
      "invalidset": 127,
      "receiv": 128,
      "9999999": 129,
      "receiving": 130,
      "for": 131,
      "fi": 132,
      "999999": 133,
      "pli": 134,
      "repli": 135,
      "ode": 136,
      "anode": 137,
      "datanode": 138,
      "replicate": 139,
      "ot": 140,
      "file": 141,
      "read": 142,
      "it": 143,
      "st": 144,
      "ted": 145,
      "ter": 146,
      "ack": 147,
      "pack": 148,
      "packet": 149,
      "der": 150,
      "fer": 151,
      "hread": 152,
      "pon": 153,
      "spon": 154,
      "thread": 155,
      "respon": 156,
      "transfer": 157,
      "arting": 158,
      "starting": 159,
      "packetrespon": 160,
      "packetresponder": 161,
      "su": 162,
      "had": 163,
      "lo": 164,
      "mnt": 165,
      "oo": 166,
      "hadoo": 167,
      "hadoop": 168,
      "al": 169,
      "min": 170,
      "mit": 171,
      "ating": 172,
      "transmit": 173,
      "termin": 174,
      "transmitted": 175,
      "terminating": 176,
      "cu": 177,
      "df": 178,
      "let": 179,
      "rre": 180,
      "data": 181,
      "delet": 182,
      "curre": 183,
      "dfs": 184,
      "deleting": 185,
      "current": 186,
      "999999999999": 187,
      "cateblock": 188,
      "locateblock": 189,
      "allocateblock": 190,
      "root": 191,
      "user": 192,
      "por": 193,
      "part": 194,
      "task": 195,
      "tempor": 196,
      "ary": 197,
      "temporary": 198,
      "bd": 199,
      "ir": 200,
      "subd": 201,
      "subdir": 202,
      "ion": 203,
      "rand": 204,
      "tion": 205,
      "ex": 206,
      "ption": 207,
      "ception": 208,
      "exception": 209,
      "io": 210,
      "999999999999999": 211,
      "tx": 212,
      "randtx": 213,
      "randtxt": 214,
      "un": 215,
      "ava": 216,
      "java": 217,
      "qu": 218,
      "sor": 219,
      "requ": 220,
      "trand": 221,
      "sortrand": 222,
      "request": 223,
      "not": 224,
      "und": 225,
      "cat": 226,
      "pe": 227,
      "cation": 228,
      "eded": 229,
      "ioexception": 230,
      "cce": 231,
      "ifi": 232,
      "ver": 233,
      "succe": 234,
      "ification": 235,
      "verification": 236,
      "succeeded": 237,
      "ri": 238,
      "wri": 239,
      "ant": 240,
      "redund": 241,
      "redundant": 242,
      "ne": 243,
      "teblock": 244,
      "writeblock": 245,
      "by": 246,
      "fo": 247,
      "99999999999999": 248,
      "con": 249,
      "ut": 250,
      "be": 251,
      "ction": 252,
      "do": 253,
      "lon": 254,
      "reset": 255,
      "any": 256,
      "peer": 257,
      "nection": 258,
      "connection": 259,
      "belon": 260,
      "does": 261,
      "belong": 262,
      "but": 263,
      "ry": 264,
      "eblock": 265,
      "jo": 266,
      "me": 267,
      "ou": 268,
      "receiveblock": 269,
      "job": 270,
      "cted": 271,
      "cou": 272,
      "ld": 273,
      "lu": 274,
      "olu": 275,
      "try": 276,
      "volu": 277,
      "blockin": 278,
      "ream": 279,
      "inter": 280,
      "erro": 281,
      "stream": 282,
      "expe": 283,
      "unexpe": 284,
      "found": 285,
      "memap": 286,
      "could": 287,
      "trying": 288,
      "volumemap": 289,
      "blockinfo": 290,
      "error": 291,
      "unexpected": 292,
      "ch": 293,
      "fset": 294,
      "offset": 295,
      "chan": 296,
      "cnt": 297,
      "rup": 298,
      "ti": 299,
      "wcnt": 300,
      "xception": 301,
      "texception": 302,
      "replication": 303,
      "interrup": 304,
      "clo": 305,
      "ding": 306,
      "ec": 307,
      "eof": 308,
      "gs": 309,
      "ging": 310,
      "his": 311,
      "ip": 312,
      "ito": 313,
      "ls": 314,
      "ml": 315,
      "med": 316,
      "met": 317,
      "mon": 318,
      "nal": 319,
      "nio": 320,
      "nding": 321,
      "out": 322,
      "sed": 323,
      "system": 324,
      "xml": 325,
      "9999999999999": 326,
      "tory": 327,
      "mapred": 328,
      "logs": 329,
      "pending": 330,
      "nels": 331,
      "byinterrup": 332,
      "internal": 333,
      "changing": 334,
      "channels": 335,
      "timed": 336,
      "replicationmon": 337,
      "closed": 338,
      "eofexception": 339,
      "history": 340,
      "itor": 341,
      "meta": 342,
      "pendingreplicationmon": 343,
      "byinterruptexception": 344,
      "closedbyinterruptexception": 345,
      "pendingreplicationmonitor": 346,
      "bro": 347,
      "em": 348,
      "en": 349,
      "ipe": 350,
      "ken": 351,
      "mo": 352,
      "net": 353,
      "om": 354,
      "pt": 355,
      "pipe": 356,
      "sock": 357,
      "spli": 358,
      "ting": 359,
      "ving": 360,
      "remo": 361,
      "adding": 362,
      "isting": 363,
      "etti": 364,
      "ready": 365,
      "already": 366,
      "random": 367,
      "existing": 368,
      "ededreplication": 369,
      "writer": 370,
      "neededreplication": 371,
      "conf": 372,
      "meou": 373,
      "interrupted": 374,
      "broken": 375,
      "empt": 376,
      "socketti": 377,
      "split": 378,
      "removing": 379,
      "neededreplications": 380,
      "meoutexception": 381,
      "empty": 382,
      "sockettimeoutexception": 383
    },
    "merges": [
      "9 9",
      "99 99",
      "9999 9999",
      "99 9",
      "b l",
      "c k",
      "o ck",
      "bl ock",
      "bl k",
      "9999 9",
      "99999999 99999999",
      "e d",
      "t o",
      "9999999999999999 999",
      "t e",
      "r e",
      "a d",
      "i n",
      "e s",
      "ad d",
      "e r",
      "v ed",
      "te m",
      "a t",
      "c e",
      "i z",
      "s iz",
      "siz e",
      "a m",
      "s tem",
      "y stem",
      "n am",
      "es ystem",
      "nam esystem",
      "re ce",
      "rece i",
      "in g",
      "o f",
      "a n",
      "d at",
      "s er",
      "9999999999999999 99",
      "i s",
      "add ed",
      "d e",
      "e t",
      "r o",
      "ser ved",
      "recei ved",
      "r an",
      "a r",
      "l i",
      "r ed",
      "l e",
      "s to",
      "add sto",
      "red block",
      "addsto redblock",
      "o r",
      "f ro",
      "fro m",
      "a p",
      "m ap",
      "u p",
      "t ran",
      "block map",
      "dat ed",
      "up dated",
      "es t",
      "o n",
      "a te",
      "c ate",
      "a s",
      "as k",
      "n t",
      "tran s",
      "d est",
      "r c",
      "s rc",
      "ar t",
      "9999999999999999 9",
      "v a",
      "s et",
      "de le",
      "dele te",
      "d set",
      "in va",
      "li dset",
      "inva lidset",
      "recei v",
      "9999 999",
      "receiv ing",
      "f or",
      "f i",
      "9999 99",
      "p li",
      "re pli",
      "o de",
      "an ode",
      "dat anode",
      "repli cate",
      "o t",
      "fi le",
      "re ad",
      "i t",
      "s t",
      "t ed",
      "te r",
      "a ck",
      "p ack",
      "pack et",
      "d er",
      "f er",
      "h read",
      "p on",
      "s pon",
      "t hread",
      "re spon",
      "trans fer",
      "art ing",
      "st arting",
      "packet respon",
      "packetrespon der",
      "s u",
      "h ad",
      "l o",
      "m nt",
      "o o",
      "had oo",
      "hadoo p",
      "a l",
      "m in",
      "m it",
      "at ing",
      "trans mit",
      "ter min",
      "transmit ted",
      "termin ating",
      "c u",
      "d f",
      "l et",
      "r re",
      "dat a",
      "de let",
      "cu rre",
      "df s",
      "delet ing",
      "curre nt",
      "99999999 9999",
      "cate block",
      "lo cateblock",
      "al locateblock",
      "ro ot",
      "u ser",
      "p or",
      "p art",
      "t ask",
      "tem por",
      "ar y",
      "tempor ary",
      "b d",
      "i r",
      "su bd",
      "subd ir",
      "i on",
      "ran d",
      "t ion",
      "e x",
      "p tion",
      "ce ption",
      "ex ception",
      "i o",
      "99999999 9999999",
      "t x",
      "rand tx",
      "randtx t",
      "u n",
      "a va",
      "j ava",
      "q u",
      "s or",
      "re qu",
      "tran d",
      "sor trand",
      "requ est",
      "n ot",
      "un d",
      "c at",
      "p e",
      "cat ion",
      "ed ed",
      "io exception",
      "c ce",
      "i fi",
      "v er",
      "su cce",
      "ifi cation",
      "ver ification",
      "succe eded",
      "r i",
      "w ri",
      "an t",
      "red und",
      "redund ant",
      "n e",
      "te block",
      "wri teblock",
      "b y",
      "f o",
      "99999999 999999",
      "c on",
      "u t",
      "b e",
      "c tion",
      "d o",
      "l on",
      "re set",
      "an y",
      "pe er",
      "ne ction",
      "con nection",
      "be lon",
      "do es",
      "belon g",
      "b ut",
      "r y",
      "e block",
      "j o",
      "m e",
      "o u",
      "receiv eblock",
      "jo b",
      "c ted",
      "c ou",
      "l d",
      "l u",
      "o lu",
      "t ry",
      "v olu",
      "block in",
      "re am",
      "in ter",
      "er ro",
      "st ream",
      "ex pe",
      "un expe",
      "fo und",
      "me map",
      "cou ld",
      "try ing",
      "volu memap",
      "blockin fo",
      "erro r",
      "unexpe cted",
      "c h",
      "f set",
      "of fset",
      "ch an",
      "c nt",
      "r up",
      "t i",
      "w cnt",
      "x ception",
      "te xception",
      "repli cation",
      "inter rup",
      "c lo",
      "d ing",
      "e c",
      "e of",
      "g s",
      "g ing",
      "h is",
      "i p",
      "i to",
      "l s",
      "m l",
      "m ed",
      "m et",
      "m on",
      "n al",
      "n io",
      "n ding",
      "o ut",
      "s ed",
      "s ystem",
      "x ml",
      "99999999 99999",
      "to ry",
      "map red",
      "lo gs",
      "pe nding",
      "ne ls",
      "by interrup",
      "inter nal",
      "chan ging",
      "chan nels",
      "ti med",
      "replication mon",
      "clo sed",
      "eof exception",
      "his tory",
      "ito r",
      "met a",
      "pending replicationmon",
      "byinterrup texception",
      "closed byinterruptexception",
      "pendingreplicationmon itor",
      "b ro",
      "e m",
      "e n",
      "i pe",
      "k en",
      "m o",
      "n et",
      "o m",
      "p t",
      "p ipe",
      "s ock",
      "s pli",
      "t ing",
      "v ing",
      "re mo",
      "add ing",
      "is ting",
      "et ti",
      "read y",
      "al ready",
      "rand om",
      "ex isting",
      "eded replication",
      "wri ter",
      "ne ededreplication",
      "con f",
      "me ou",
      "interrup ted",
      "bro ken",
      "em pt",
      "sock etti",
      "spli t",
      "remo ving",
      "neededreplication s",
      "meou texception",
      "empt y",
      "socketti meoutexception"
    ]
  }
}