{
  "version": "1.0",
  "truncation": null,
  "padding": null,
  "added_tokens": [
    {
      "id": 0,
      "content": "<pad>",
      "single_word": false,
      "lstrip": false,
      "rstrip": false,
      "normalized": false,
      "special": true
    },
    {
      "id": 1,
      "content": "<unk>",
      "single_word": false,
      "lstrip": false,
      "rstrip": false,
      "normalized": false,
      "special": true
    },
    {
      "id": 2,
      "content": " ",
      "single_word": false,
      "lstrip": false,
      "rstrip": false,
      "normalized": false,
      "special": true
    }
  ],
  "normalizer": {
    "type": "Sequence",
    "normalizers": [
      {
        "type": "NFKC"
      },
      {
        "type": "Lowercase"
      }
    ]
  },
  "pre_tokenizer": {
    "type": "Sequence",
    "pretokenizers": [
      {
        "type": "Whitespace"
      },
      {
        "type": "ByteLevel",
        "add_prefix_space": false,
        "trim_offsets": true,
        "use_regex": true
      }
    ]
  },
  "post_processor": {
    "type": "ByteLevel",
    "add_prefix_space": true,
    "trim_offsets": false,
    "use_regex": true
  },
  "decoder": null,
  "model": {
    "type": "BPE",
    "dropout": null,
    "unk_token": null,
    "continuing_subword_prefix": null,
    "end_of_word_suffix": null,
    "fuse_unk": false,
    "byte_fallback": false,
    "ignore_merges": false,
    "vocab": {
      "<pad>": 0,
      "<unk>": 1,
      " ": 2,
      "!": 3,
      "$": 4,
      "'": 5,
      "(": 6,
      ")": 7,
      "*": 8,
      "+": 9,
      ",": 10,
      "-": 11,
      ".": 12,
      "/": 13,
      "9": 14,
      ":": 15,
      ";": 16,
      "<": 17,
      "=": 18,
      ">": 19,
      "@": 20,
      "[": 21,
      "\\": 22,
      "]": 23,
      "_": 24,
      "a": 25,
      "b": 26,
      "c": 27,
      "d": 28,
      "e": 29,
      "f": 30,
      "g": 31,
      "h": 32,
      "i": 33,
      "j": 34,
      "k": 35,
      "l": 36,
      "m": 37,
      "n": 38,
      "o": 39,
      "p": 40,
      "q": 41,
      "r": 42,
      "s": 43,
      "t": 44,
      "u": 45,
      "v": 46,
      "w": 47,
      "x": 48,
      "y": 49,
      "z": 50,
      "99": 51,
      "9999": 52,
      "999": 53,
      "99999999": 54,
      "bl": 55,
      "ed": 56,
      "99999": 57,
      "se": 58,
      "ff": 59,
      "te": 60,
      "oc": 61,
      "on": 62,
      "ock": 63,
      "ti": 64,
      "block": 65,
      "to": 66,
      "re": 67,
      "de": 68,
      "no": 69,
      "ro": 70,
      "9999999999999999": 71,
      "ce": 72,
      "blk": 73,
      "node": 74,
      "si": 75,
      "ee": 76,
      "in": 77,
      "ta": 78,
      "ser": 79,
      "om": 80,
      "es": 81,
      "nt": 82,
      "cl": 83,
      "or": 84,
      "ad": 85,
      "ved": 86,
      "th": 87,
      "an": 88,
      "ste": 89,
      "er": 90,
      "ffff": 91,
      "as": 92,
      "com": 93,
      "pro": 94,
      "hk": 95,
      "at": 96,
      "xy": 97,
      "proxy": 98,
      "ssi": 99,
      "ssion": 100,
      "by": 101,
      "session": 102,
      "id": 103,
      "is": 104,
      "ne": 105,
      "tion": 106,
      "9999999999999999999": 107,
      "..": 108,
      "il": 109,
      "me": 110,
      "ca": 111,
      "for": 112,
      "rece": 113,
      "esy": 114,
      "stem": 115,
      "recei": 116,
      "sta": 117,
      "esystem": 118,
      "tes": 119,
      "ask": 120,
      "bytes": 121,
      "time": 122,
      "fe": 123,
      "kb": 124,
      "li": 125,
      "of": 126,
      "ent": 127,
      "received": 128,
      "na": 129,
      "ch": 130,
      "ng": 131,
      "),": 132,
      "pe": 133,
      "ting": 134,
      "add": 135,
      "ou": 136,
      "serv": 137,
      "tt": 138,
      "clo": 139,
      "ran": 140,
      "cu": 141,
      "999999": 142,
      "con": 143,
      "999999999999999999": 144,
      "edu": 145,
      "ok": 146,
      "9999999": 147,
      "sy": 148,
      "served": 149,
      "sym": 150,
      "fil": 151,
      "tran": 152,
      "cse": 153,
      "cuhk": 154,
      "da": 155,
      "mask": 156,
      "ction": 157,
      "eeee": 158,
      "pa": 159,
      "trans": 160,
      "ze": 161,
      "size": 162,
      "ex": 163,
      "rd": 164,
      "card": 165,
      "ug": 166,
      "va": 167,
      "cli": 168,
      "ps": 169,
      "ugh": 170,
      "rough": 171,
      "through": 172,
      "ge": 173,
      "mi": 174,
      "tor": 175,
      "ct": 176,
      "pen": 177,
      "client": 178,
      "open": 179,
      "filesystem": 180,
      "out": 181,
      "htt": 182,
      "https": 183,
      "mesystem": 184,
      "sent": 185,
      "namesystem": 186,
      "close": 187,
      "fetime": 188,
      "lifetime": 189,
      "go": 190,
      "sed": 191,
      "ing": 192,
      "....": 193,
      "data": 194,
      "ated": 195,
      "timeout": 196,
      "sessionid": 197,
      "conne": 198,
      "ml": 199,
      "ice": 200,
      "state": 201,
      "le": 202,
      "service": 203,
      "ter": 204,
      "ma": 205,
      "ot": 206,
      "9999999999": 207,
      "pon": 208,
      "dom": 209,
      "stor": 210,
      "star": 211,
      "ain": 212,
      "ror": 213,
      "domain": 214,
      "read": 215,
      "up": 216,
      "rep": 217,
      "ble": 218,
      "error": 219,
      "99999999999999999": 220,
      "edblock": 221,
      "addstor": 222,
      "starting": 223,
      "addstoredblock": 224,
      "repli": 225,
      "replica": 226,
      "ster": 227,
      "fer": 228,
      "thread": 229,
      "compon": 230,
      "transfer": 231,
      "datanode": 232,
      "replicate": 233,
      "component": 234,
      "connection": 235,
      "wid": 236,
      "exce": 237,
      "uster": 238,
      "cluster": 239,
      "do": 240,
      "pr": 241,
      "not": 242,
      "server": 243,
      "og": 244,
      "wi": 245,
      "added": 246,
      "proc": 247,
      "proces": 248,
      "eee": 249,
      "um": 250,
      "eeeeeee": 251,
      "par": 252,
      "able": 253,
      "hu": 254,
      "pi": 255,
      "ffffffff": 256,
      "ilable": 257,
      "vailable": 258,
      "clusterfilesystem": 259,
      "chan": 260,
      "part": 261,
      "set": 262,
      "with": 263,
      "ty": 264,
      "and": 265,
      "ish": 266,
      "blish": 267,
      "tablish": 268,
      "establish": 269,
      "the": 270,
      "et": 271,
      "transmi": 272,
      "had": 273,
      "99999999999": 274,
      "net": 275,
      "change": 276,
      "una": 277,
      "min": 278,
      "root": 279,
      "map": 280,
      "tted": 281,
      "transmitted": 282,
      "unavailable": 283,
      "ac": 284,
      "al": 285,
      "dow": 286,
      "ms": 287,
      "eded": 288,
      "action": 289,
      "hi": 290,
      "termin": 291,
      "down": 292,
      "termina": 293,
      "st": 294,
      "ni": 295,
      "processed": 296,
      "expi": 297,
      "type": 298,
      "expir": 299,
      "dated": 300,
      "sock": 301,
      "blockmap": 302,
      "closed": 303,
      "updated": 304,
      "fro": 305,
      "exceeded": 306,
      "from": 307,
      "pre": 308,
      "shu": 309,
      "established": 310,
      "shut": 311,
      "tiated": 312,
      "nego": 313,
      "termination": 314,
      "expiring": 315,
      "negotiated": 316,
      "fa": 317,
      "num": 318,
      "socket": 319,
      "serverfilesystem": 320,
      "sr": 321,
      "pare": 322,
      "forservice": 323,
      "prepare": 324,
      "prepareforservice": 325,
      "))": 326,
      "mcard": 327,
      "999999999999999999999999999": 328,
      "sernum": 329,
      "ctn": 330,
      "mlctn": 331,
      "mcardsernum": 332,
      "ec": 333,
      "whi": 334,
      "which": 335,
      "99999999999999": 336,
      "mtype": 337,
      "mip": 338,
      "mlp": 339,
      "goog": 340,
      "shutting": 341,
      "res": 342,
      "google": 343,
      "mp": 344,
      "sc": 345,
      "src": 346,
      "lon": 347,
      "long": 348,
      "dest": 349,
      "........": 350,
      "qu": 351,
      "hwid": 352,
      "ffffff": 353,
      "cted": 354,
      "ba": 355,
      "bo": 356,
      "nodecard": 357,
      "inter": 358,
      "--": 359,
      "io": 360,
      "wwid": 361,
      "scsi": 362,
      "vi": 363,
      "tar": 364,
      "be": 365,
      "loc": 366,
      "us": 367,
      "longer": 368,
      "ww": 369,
      "targe": 370,
      "ption": 371,
      "val": 372,
      "sets": 373,
      "user": 374,
      "fffffffe": 375,
      "consi": 376,
      "teblock": 377,
      "nodesets": 378,
      "inconsi": 379,
      "stent": 380,
      "valid": 381,
      "inconsistent": 382,
      "fd": 383,
      "temp": 384,
      "file": 385,
      "ld": 386,
      "nd": 387,
      "pd": 388,
      "receiv": 389,
      "bd": 390,
      "wor": 391,
      "invalid": 392,
      "cou": 393,
      "vpd": 394,
      "dele": 395,
      "work": 396,
      "network": 397,
      "999999999": 398,
      "tected": 399,
      "detected": 400,
      "could": 401,
      "uni": 402,
      "999999999999": 403,
      "stat": 404,
      "df": 405,
      "nodes": 406,
      "domains": 407,
      "alloc": 408,
      "targeting": 409,
      "alloca": 410,
      "ar": 411,
      "su": 412,
      "allocateblock": 413,
      "unix": 414,
      "am": 415,
      "addres": 416,
      "address": 417,
      "999999999999999": 418,
      "connect": 419,
      "hw": 420,
      "exception": 421,
      "status": 422,
      "ll": 423,
      "comm": 424,
      "command": 425,
      "cd": 426,
      "fffff": 427,
      "new": 428,
      "requ": 429,
      "est": 430,
      "request": 431,
      "cm": 432,
      "ri": 433,
      "ve": 434,
      "lin": 435,
      "-[": 436,
      "sor": 437,
      "niff": 438,
      "receiving": 439,
      "delete": 440,
      "tory": 441,
      "ava": 442,
      "ede": 443,
      "invalidset": 444,
      "di": 445,
      "sn": 446,
      "deo": 447,
      "video": 448,
      "atch": 449,
      "idu": 450,
      "baidu": 451,
      "---": 452,
      "cmd": 453,
      "ck": 454,
      "rec": 455,
      "faa": 456,
      "link": 457,
      "ea": 458,
      "fo": 459,
      "sk": 460,
      "edfaa": 461,
      "googlevideo": 462,
      "mg": 463,
      "sl": 464,
      "ack": 465,
      "dd": 466,
      "www": 467,
      "cio": 468,
      "java": 469,
      "af": 470,
      "cn": 471,
      "ciod": 472,
      "dc": 473,
      "has": 474,
      "back": 475,
      "per": 476,
      "ram": 477,
      "orum": 478,
      "chec": 479,
      "quorum": 480,
      "check": 481,
      "ary": 482,
      "backup": 483,
      "gi": 484,
      "log": 485,
      "co": 486,
      "task": 487,
      "orary": 488,
      "temporary": 489,
      "fu": 490,
      "9999999999999": 491,
      "face": 492,
      "cor": 493,
      "fou": 494,
      "found": 495,
      "eb": 496,
      "processor": 497,
      "fail": 498,
      "boot": 499,
      "can": 500,
      "bc": 501,
      "it": 502,
      "match": 503,
      "lo": 504,
      "ecid": 505,
      "interface": 506,
      "slot": 507,
      "fda": 508,
      "ook": 509,
      "via": 510,
      "alt": 511,
      "ip": 512,
      "oo": 513,
      "tic": 514,
      "rand": 515,
      "gram": 516,
      "ob": 517,
      "direc": 518,
      "bb": 519,
      "directory": 520,
      "fc": 521,
      "job": 522,
      "zook": 523,
      "eeper": 524,
      "full": 525,
      "failed": 526,
      "zookeeper": 527,
      "od": 528,
      "ae": 529,
      "mb": 530,
      "ol": 531,
      "code": 532,
      "cc": 533,
      "bf": 534,
      "ru": 535,
      "such": 536,
      "box": 537,
      "dfs": 538,
      "ima": 539,
      "xid": 540,
      "rected": 541,
      "program": 542,
      "static": 543,
      "................": 544,
      "corrected": 545,
      "img": 546,
      "nda": 547,
      "qq": 548,
      "redu": 549,
      "image": 550,
      "ndant": 551,
      "redundant": 552,
      "bffff": 553,
      "we": 554,
      "fdfe": 555,
      "available": 556,
      "cf": 557,
      "dro": 558,
      "dou": 559,
      "tx": 560,
      "ted": 561,
      "der": 562,
      "cur": 563,
      "drop": 564,
      "double": 565,
      "ut": 566,
      "cdn": 567,
      "dropbox": 568,
      "aa": 569,
      "fi": 570,
      "tch": 571,
      "ffe": 572,
      "load": 573,
      "age": 574,
      "mnt": 575,
      "wri": 576,
      "hadoo": 577,
      "hadoop": 578,
      "ab": 579,
      "ple": 580,
      "ub": 581,
      "db": 582,
      "hot": 583,
      "sna": 584,
      "ver": 585,
      "xce": 586,
      "ome": 587,
      "respon": 588,
      "linkcard": 589,
      "dcr": 590,
      "pshot": 591,
      "local": 592,
      "cannot": 593,
      "wei": 594,
      "snapshot": 595,
      "xception": 596,
      "rup": 597,
      "ssing": 598,
      "loading": 599,
      "en": 600,
      "rent": 601,
      "nal": 602,
      "missing": 603,
      "interrup": 604,
      "current": 605,
      "ss": 606,
      "ure": 607,
      "witch": 608,
      "home": 609,
      "sog": 610,
      "comple": 611,
      "pack": 612,
      "internal": 613,
      "target": 614,
      "sogou": 615,
      "ef": 616,
      "mod": 617,
      "switch": 618,
      "wer": 619,
      "packet": 620,
      "modu": 621,
      "po": 622,
      "tmp": 623,
      "click": 624,
      "ioexception": 625,
      "module": 626,
      "ap": 627,
      "cb": 628,
      "his": 629,
      "pee": 630,
      "path": 631,
      "logs": 632,
      "history": 633,
      "peer": 634,
      ":/": 635,
      "dn": 636,
      "kn": 637,
      "ts": 638,
      "zxid": 639,
      "info": 640,
      "ild": 641,
      "child": 642,
      "var": 643,
      "kee": 644,
      "attemp": 645,
      "lib": 646,
      "che": 647,
      "pere": 648,
      "resol": 649,
      "deleting": 650,
      "llo": 651,
      "gith": 652,
      "keepere": 653,
      "resolve": 654,
      "pl": 655,
      "fffe": 656,
      "fffffe": 657,
      "cation": 658,
      "ating": 659,
      "man": 660,
      "xfffffffe": 661,
      "sina": 662,
      "storage": 663,
      "fdae": 664,
      "txt": 665,
      "writeblock": 666,
      "usr": 667,
      "erat": 668,
      "ment": 669,
      "bol": 670,
      "interconnect": 671,
      "temperat": 672,
      "randtxt": 673,
      "responder": 674,
      "packetresponder": 675,
      "temperature": 676,
      "but": 677,
      "fb": 678,
      "mes": 679,
      "ddr": 680,
      "doubleclick": 681,
      "github": 682,
      "cs": 683,
      "any": 684,
      "torus": 685,
      "does": 686,
      "belong": 687,
      "fdb": 688,
      "fdaf": 689,
      "ali": 690,
      "fff": 691,
      "reset": 692,
      "sion": 693,
      "ast": 694,
      "conte": 695,
      "start": 696,
      "shutdown": 697,
      "cp": 698,
      "cce": 699,
      "gb": 700,
      "nc": 701,
      "tre": 702,
      "inst": 703,
      "...": 704,
      "content": 705,
      "ger": 706,
      "so": 707,
      "org": 708,
      "max": 709,
      "run": 710,
      "ruction": 711,
      "instruction": 712,
      "bg": 713,
      "cri": 714,
      "led": 715,
      "wh": 716,
      "was": 717,
      "sec": 718,
      "ten": 719,
      "celed": 720,
      "sing": 721,
      "trand": 722,
      "befo": 723,
      "succe": 724,
      "sortrand": 725,
      "canceled": 726,
      "weibo": 727,
      "completion": 728,
      "attempting": 729,
      "before": 730,
      "apa": 731,
      "cr": 732,
      "cre": 733,
      "ir": 734,
      "med": 735,
      "sp": 736,
      "xml": 737,
      "renew": 738,
      "ort": 739,
      "ads": 740,
      "bdir": 741,
      "subdir": 742,
      "follo": 743,
      "login": 744,
      "version": 745,
      "os": 746,
      "sid": 747,
      "quorumserver": 748,
      "quorumpeer": 749,
      "bgl": 750,
      "apache": 751,
      "follower": 752,
      "**": 753,
      "./": 754,
      "ate": 755,
      "are": 756,
      "ur": 757,
      "tive": 758,
      "mar": 759,
      "pipe": 760,
      "api": 761,
      "ly": 762,
      "ning": 763,
      "sh": 764,
      "xe": 765,
      "table": 766,
      "conf": 767,
      "interrupt": 768,
      "sohu": 769,
      "bi": 770,
      "bro": 771,
      "hdfs": 772,
      "js": 773,
      "lr": 774,
      "teo": 775,
      "regi": 776,
      "ffffe": 777,
      "nel": 778,
      "active": 779,
      "............": 780,
      "dir": 781,
      "criteo": 782,
      "register": 783,
      "ah": 784,
      "fee": 785,
      "xer": 786,
      "ype": 787,
      "timg": 788,
      "tag": 789,
      "curi": 790,
      "symbol": 791,
      "exis": 792,
      "chang": 793,
      "receiver": 794,
      "csdn": 795,
      "ding": 796,
      "eblock": 797,
      "put": 798,
      "tro": 799,
      "xc": 800,
      "eds": 801,
      "sen": 802,
      "input": 803,
      "ctr": 804,
      "channel": 805,
      "being": 806,
      "usercontent": 807,
      "receiveblock": 808,
      "rectable": 809,
      "correctable": 810,
      "fication": 811,
      "apis": 812,
      "(/": 813,
      ":-": 814,
      "cxid": 815,
      "ho": 816,
      "ph": 817,
      "qpath": 818,
      "ron": 819,
      "rror": 820,
      "un": 821,
      "xin": 822,
      "yah": 823,
      "revalid": 824,
      "reqpath": 825,
      "nodeexis": 826,
      "ine": 827,
      "serted": 828,
      "ntype": 829,
      "this": 830,
      "ang": 831,
      "asserted": 832,
      "fea": 833,
      "chdir": 834,
      "got": 835,
      "good": 836,
      "leve": 837,
      "mail": 838,
      "processing": 839,
      "txntype": 840,
      "keeperexception": 841,
      "keepererror": 842,
      "manhu": 843,
      "tree": 844,
      "when": 845,
      "create": 846,
      "yahoo": 847,
      "revalidating": 848,
      "nodeexists": 849,
      "level": 850,
      "keepererrorcode": 851,
      "bffe": 852,
      "mn": 853,
      "off": 854,
      "ue": 855,
      "contro": 856,
      "errors": 857,
      "stre": 858,
      "ffffffe": 859,
      "viron": 860,
      "fdmn": 861,
      "weixin": 862,
      "environ": 863,
      "sinaimg": 864,
      "success": 865,
      "offset": 866,
      "environment": 867,
      "ager": 868,
      "bcommand": 869,
      "don": 870,
      "grep": 871,
      "ity": 872,
      "pin": 873,
      "tr": 874,
      "ube": 875,
      "wa": 876,
      "yin": 877,
      "yout": 878,
      "zhi": 879,
      "edram": 880,
      "nex": 881,
      "nez": 882,
      "fefff": 883,
      "confi": 884,
      "parity": 885,
      "subcommand": 886,
      "avatar": 887,
      "manager": 888,
      "mesos": 889,
      "stream": 890,
      "done": 891,
      "pinyin": 892,
      "youtube": 893,
      "config": 894,
      "subcommands": 895,
      "bit": 896,
      "dis": 897,
      "ication": 898,
      "lesy": 899,
      "mor": 900,
      "unex": 901,
      "vol": 902,
      "cent": 903,
      "memor": 904,
      "chine": 905,
      "pected": 906,
      "rank": 907,
      "clients": 908,
      "machine": 909,
      "googlesy": 910,
      "googleapis": 911,
      "ndication": 912,
      "manhua": 913,
      "unexpected": 914,
      "memory": 915,
      "googlesyndication": 916,
      "bug": 917,
      "ele": 918,
      "gn": 919,
      "jtag": 920,
      "nb": 921,
      "pt": 922,
      "pan": 923,
      "spe": 924,
      "sage": 925,
      "xa": 926,
      "xf": 927,
      "ytimg": 928,
      "zz": 929,
      "inni": 930,
      "thres": 931,
      "test": 932,
      "system": 933,
      "gen": 934,
      "cnzz": 935,
      "responding": 936,
      "message": 937,
      "hold": 938,
      "election": 939,
      "innity": 940,
      "threshold": 941,
      "eo": 942,
      "fan": 943,
      "gstatic": 944,
      "ic": 945,
      "jar": 946,
      "latch": 947,
      "my": 948,
      "mid": 949,
      "texception": 950,
      "tal": 951,
      "fexception": 952,
      "mapr": 953,
      "mini": 954,
      "terminating": 955,
      "scip": 956,
      "bel": 957,
      "ndm": 958,
      "ambi": 959,
      "doublemax": 960,
      "completed": 961,
      "plan": 962,
      "bolt": 963,
      "alicdn": 964,
      "tencent": 965,
      "share": 966,
      "control": 967,
      "zhihu": 968,
      "eofexception": 969,
      "midplan": 970,
      "mapred": 971,
      "ambient": 972,
      "bee": 973,
      "ber": 974,
      "cnt": 975,
      "gg": 976,
      "halt": 977,
      "hang": 978,
      "nf": 979,
      "nch": 980,
      "ux": 981,
      "wcnt": 982,
      "yan": 983,
      "retransmi": 984,
      "propo": 985,
      "cache": 986,
      "feaa": 987,
      "conn": 988,
      "cdndm": 989,
      "gige": 990,
      "bcast": 991,
      "........................": 992,
      "veri": 993,
      "snapshotting": 994,
      "running": 995,
      "changyan": 996,
      "sender": 997,
      "configur": 998,
      "panic": 999,
      "retransmission": 1000,
      "proposed": 1001,
      "cas": 1002,
      "dr": 1003,
      "ev": 1004,
      "gq": 1005,
      "pas": 1006,
      "ra": 1007,
      "sup": 1008,
      "tw": 1009,
      "tcp": 1010,
      "vgq": 1011,
      "war": 1012,
      "adc": 1013,
      "ile": 1014,
      "memb": 1015,
      "random": 1016,
      "reading": 1017,
      "number": 1018,
      "googleusercontent": 1019,
      "baidustatic": 1020,
      "func": 1021,
      "grammar": 1022,
      "fully": 1023,
      "runtime": 1024,
      "tenmax": 1025,
      "sport": 1026,
      "pht": 1027,
      "midplane": 1028,
      "been": 1029,
      "ggpht": 1030,
      "configured": 1031,
      "event": 1032,
      "passport": 1033,
      "tcpconn": 1034,
      "warning": 1035,
      "member": 1036,
      "grammarly": 1037,
      "ation": 1038,
      "ave": 1039,
      "bfe": 1040,
      "ena": 1041,
      "end": 1042,
      "mo": 1043,
      "obe": 1044,
      "por": 1045,
      "ris": 1046,
      "rst": 1047,
      "sa": 1048,
      "tp": 1049,
      "wx": 1050,
      "you": 1051,
      "ytic": 1052,
      "timed": 1053,
      "tification": 1054,
      "notification": 1055,
      "adobe": 1056,
      "anal": 1057,
      "byinterrup": 1058,
      "ido": 1059,
      "dao": 1060,
      "date": 1061,
      "pic": 1062,
      "pixe": 1063,
      "nio": 1064,
      "closedbyinterrup": 1065,
      "googleads": 1066,
      "bdimg": 1067,
      "linux": 1068,
      "itc": 1069,
      "....................": 1070,
      "interrupted": 1071,
      "pos": 1072,
      "attempt": 1073,
      "align": 1074,
      "trello": 1075,
      "succeeded": 1076,
      "broadc": 1077,
      "channels": 1078,
      "successfully": 1079,
      "speeds": 1080,
      "verification": 1081,
      "risboot": 1082,
      "youdao": 1083,
      "ytics": 1084,
      "analytics": 1085,
      "pixel": 1086,
      "closedbyinterruptexception": 1087,
      "alignment": 1088,
      "broadcast": 1089,
      "/.": 1090,
      "av": 1091,
      "asi": 1092,
      "dmp": 1093,
      "dstatic": 1094,
      "ewer": 1095,
      "fl": 1096,
      "ges": 1097,
      "have": 1098,
      "ie": 1099,
      "im": 1100,
      "ken": 1101,
      "knez": 1102,
      "mer": 1103,
      "nx": 1104,
      "pub": 1105,
      "pgood": 1106,
      "red": 1107,
      "ues": 1108,
      "xb": 1109,
      "ydstatic": 1110,
      "edge": 1111,
      "secu": 1112,
      "send": 1113,
      "team": 1114,
      "oni": 1115,
      "tin": 1116,
      "debug": 1117,
      "clock": 1118,
      "steer": 1119,
      "meta": 1120,
      "stack": 1121,
      "contin": 1122,
      "serviceaction": 1123,
      "ters": 1124,
      "master": 1125,
      "update": 1126,
      "exceeds": 1127,
      "mpgood": 1128,
      "viewer": 1129,
      "userfunc": 1130,
      "arch": 1131,
      "exceptions": 1132,
      "aeger": 1133,
      "writer": 1134,
      "abort": 1135,
      "plus": 1136,
      "fbcdn": 1137,
      "githubusercontent": 1138,
      "****": 1139,
      "broken": 1140,
      "ffffeffe": 1141,
      "changing": 1142,
      "wait": 1143,
      "volt": 1144,
      "draeger": 1145,
      "rail": 1146,
      "enable": 1147,
      "endserviceaction": 1148,
      "teamviewer": 1149,
      "ay": 1150,
      "dl": 1151,
      "emp": 1152,
      "gm": 1153,
      "hum": 1154,
      "ial": 1155,
      "lb": 1156,
      "last": 1157,
      "mu": 1158,
      "oba": 1159,
      "pp": 1160,
      "sto": 1161,
      "ssl": 1162,
      "vm": 1163,
      "xx": 1164,
      "search": 1165,
      "occur": 1166,
      "insta": 1167,
      "taoba": 1168,
      "cle": 1169,
      "hkg": 1170,
      "ishu": 1171,
      "caf": 1172,
      "cal": 1173,
      "capt": 1174,
      "fec": 1175,
      "fetch": 1176,
      "randa": 1177,
      "sync": 1178,
      "eeeeeeee": 1179,
      "page": 1180,
      "get": 1181,
      "miranda": 1182,
      "services": 1183,
      "replication": 1184,
      "hui": 1185,
      "setting": 1186,
      "aler": 1187,
      "fffffffc": 1188,
      "book": 1189,
      "news": 1190,
      "perfor": 1191,
      "core": 1192,
      "facebook": 1193,
      "failing": 1194,
      "bfb": 1195,
      "first": 1196,
      "sogoucdn": 1197,
      "power": 1198,
      "play": 1199,
      "sinajs": 1200,
      "while": 1201,
      "...............": 1202,
      "uncorrectable": 1203,
      "avatars": 1204,
      "disable": 1205,
      "gener": 1206,
      "belnez": 1207,
      "suppor": 1208,
      "empty": 1209,
      "hummer": 1210,
      "occurred": 1211,
      "install": 1212,
      "taobao": 1213,
      "ishuhui": 1214,
      "capture": 1215,
      "pagead": 1216,
      "supporters": 1217,
      "=/": 1218,
      "aw": 1219,
      "ade": 1220,
      "ant": 1221,
      "ale": 1222,
      "cro": 1223,
      "cpro": 1224,
      "dsk": 1225,
      "fde": 1226,
      "flo": 1227,
      "gr": 1228,
      "ia": 1229,
      "ib": 1230,
      "lcom": 1231,
      "mm": 1232,
      "mtal": 1233,
      "moni": 1234,
      "oimage": 1235,
      "sof": 1236,
      "ume": 1237,
      "upon": 1238,
      "xd": 1239,
      "xues": 1240,
      "yt": 1241,
      "ying": 1242,
      "blog": 1243,
      "blockinfo": 1244,
      "total": 1245,
      "rema": 1246,
      "nos": 1247,
      "999999999999999999999999": 1248,
      "serial": 1249,
      "orted": 1250,
      "proble": 1251,
      "addmember": 1252,
      "gemini": 1253,
      "micro": 1254,
      "outs": 1255,
      "clusteraddmember": 1256,
      "there": 1257,
      "acce": 1258,
      "socks": 1259,
      "prefetch": 1260,
      ".........": 1261,
      "quant": 1262,
      "interval": 1263,
      "bench": 1264,
      "count": 1265,
      "ddcmd": 1266,
      "bootgen": 1267,
      "ipaddress": 1268,
      "welcom": 1269,
      "aborted": 1270,
      "app": 1271,
      "mark": 1272,
      "phy": 1273,
      "trying": 1274,
      "volume": 1275,
      "hangouts": 1276,
      "vgqsen": 1277,
      "notifications": 1278,
      "store": 1279,
      "vmunix": 1280,
      "clear": 1281,
      "performed": 1282,
      "mtalk": 1283,
      "monitor": 1284,
      "xueshu": 1285,
      "remain": 1286,
      "serialnumber": 1287,
      "problem": 1288,
      "benchmark": 1289,
      "bootgenvmunix": 1290,
      "welcome": 1291,
      "volumemap": 1292,
      "ace": 1293,
      "acon": 1294,
      "ama": 1295,
      "affe": 1296,
      "bu": 1297,
      "bfffe": 1298,
      "css": 1299,
      "doc": 1300,
      "dni": 1301,
      "dcd": 1302,
      "dri": 1303,
      "dffe": 1304,
      "fbffff": 1305,
      "glo": 1306,
      "hm": 1307,
      "ji": 1308,
      "jp": 1309,
      "kd": 1310,
      "mpi": 1311,
      "mook": 1312,
      "over": 1313,
      "pm": 1314,
      "pad": 1315,
      "pch": 1316,
      "ping": 1317,
      "pur": 1318,
      "rta": 1319,
      "web": 1320,
      "xt": 1321,
      "sele": 1322,
      "fffc": 1323,
      "ffbffe": 1324,
      "tech": 1325,
      "text": 1326,
      "tition": 1327,
      "tical": 1328,
      "tanx": 1329,
      "clou": 1330,
      "ffffbffe": 1331,
      "assets": 1332,
      "cau": 1333,
      "tests": 1334,
      "live": 1335,
      "name": 1336,
      "serve": 1337,
      "serving": 1338,
      "sys": 1339,
      "synch": 1340,
      "exe": 1341,
      "mit": 1342,
      "pending": 1343,
      "mal": 1344,
      "ready": 1345,
      "partition": 1346,
      "already": 1347,
      "expired": 1348,
      "beacon": 1349,
      "bdstatic": 1350,
      "rip": 1351,
      "line": 1352,
      "linkerror": 1353,
      "ccf": 1354,
      ".................": 1355,
      "bffffd": 1356,
      "write": 1357,
      "plb": 1358,
      "csdni": 1359,
      "critical": 1360,
      "media": 1361,
      ".............": 1362,
      "unexpectedly": 1363,
      "beln": 1364,
      "mode": 1365,
      "same": 1366,
      "tpc": 1367,
      "steering": 1368,
      "continue": 1369,
      "replicationmonitor": 1370,
      "generating": 1371,
      "soft": 1372,
      "quantserve": 1373,
      "drive": 1374,
      "fbfffffe": 1375,
      "mookie": 1376,
      "pchome": 1377,
      "rtax": 1378,
      "select": 1379,
      "pendingreplicationmonitor": 1380,
      "csdnimg": 1381,
      "ao": 1382,
      "au": 1383,
      "br": 1384,
      "bffffffe": 1385,
      "ctor": 1386,
      "cbfb": 1387,
      "dsp": 1388,
      "due": 1389,
      "el": 1390,
      "eed": 1391,
      "eca": 1392,
      "ever": 1393,
      "eue": 1394,
      "fg": 1395,
      "fres": 1396,
      "fcm": 1397,
      "gh": 1398,
      "gre": 1399,
      "hne": 1400,
      "hack": 1401,
      "ik": 1402,
      "iting": 1403,
      "imp": 1404,
      "kit": 1405,
      "lle": 1406,
      "qa": 1407,
      "qbox": 1408,
      "rt": 1409,
      "rap": 1410,
      "rmal": 1411,
      "sw": 1412,
      "sug": 1413,
      "scontent": 1414,
      "tc": 1415,
      "tva": 1416,
      "uo": 1417,
      "uba": 1418,
      "uve": 1419,
      "win": 1420,
      "wang": 1421,
      "xffffffff": 1422,
      "ygi": 1423,
      "zed": 1424,
      "zon": 1425,
      "edn": 1426,
      "ffer": 1427,
      "fffdfe": 1428,
      "blocked": 1429,
      "tool": 1430,
      "refres": 1431,
      "del": 1432,
      "deni": 1433,
      "note": 1434,
      "normal": 1435,
      "rou": 1436,
      "cee": 1437,
      "int": 1438,
      "adz": 1439,
      "ssible": 1440,
      "byte": 1441,
      "cacaf": 1442,
      "fefe": 1443,
      "lit": 1444,
      "limit": 1445,
      "addr": 1446,
      "daa": 1447,
      "exchange": 1448,
      "geo": 1449,
      "mission": 1450,
      "outbr": 1451,
      ".....": 1452,
      "......": 1453,
      "started": 1454,
      "repub": 1455,
      "replicas": 1456,
      "ogni": 1457,
      "party": 1458,
      "all": 1459,
      "typekit": 1460,
      "sockets": 1461,
      "queue": 1462,
      "ffffffbe": 1463,
      "beap": 1464,
      "stats": 1465,
      "arale": 1466,
      "ller": 1467,
      "cdc": 1468,
      "fffffc": 1469,
      "recogni": 1470,
      "permission": 1471,
      "colle": 1472,
      "low": 1473,
      "..................": 1474,
      "://": 1475,
      "knl": 1476,
      "githuba": 1477,
      "cpu": 1478,
      "creating": 1479,
      "split": 1480,
      "..............": 1481,
      "registers": 1482,
      "unrecogni": 1483,
      "treeaddr": 1484,
      "waiting": 1485,
      "testqbox": 1486,
      ".........................": 1487,
      "...........................": 1488,
      ".....................": 1489,
      "avd": 1490,
      "asia": 1491,
      "asic": 1492,
      "gestion": 1493,
      "pubads": 1494,
      "secure": 1495,
      "securepub": 1496,
      "stackexchange": 1497,
      "alert": 1498,
      "aws": 1499,
      "fdee": 1500,
      "floating": 1501,
      "nosdn": 1502,
      "microsoft": 1503,
      "vgqsenes": 1504,
      "amazon": 1505,
      "buffer": 1506,
      "doctor": 1507,
      "eland": 1508,
      "evernote": 1509,
      "fgygi": 1510,
      "fcmatch": 1511,
      "ikuo": 1512,
      "raptor": 1513,
      "swl": 1514,
      "suggestion": 1515,
      "window": 1516,
      "tools": 1517,
      "refresh": 1518,
      "denied": 1519,
      "cacafly": 1520,
      "outbrain": 1521,
      "aralego": 1522,
      "collector": 1523,
      "githubapp": 1524,
      "unrecognized": 1525,
      "testqboxhang": 1526,
      "securepubads": 1527,
      "amazonaws": 1528,
      "):": 1529,
      "ag": 1530,
      "afd": 1531,
      "aae": 1532,
      "atanx": 1533,
      "bp": 1534,
      "bs": 1535,
      "bde": 1536,
      "cj": 1537,
      "ced": 1538,
      "cde": 1539,
      "cid": 1540,
      "cda": 1541,
      "cbb": 1542,
      "dm": 1543,
      "dbl": 1544,
      "dat": 1545,
      "dfffffe": 1546,
      "eas": 1547,
      "ebe": 1548,
      "eclick": 1549,
      "fm": 1550,
      "fp": 1551,
      "fon": 1552,
      "ga": 1553,
      "gv": 1554,
      "gate": 1555,
      "iti": 1556,
      "ian": 1557,
      "ime": 1558,
      "kne": 1559,
      "lti": 1560,
      "lish": 1561,
      "lac": 1562,
      "md": 1563,
      "mba": 1564,
      "mcm": 1565,
      "mdn": 1566,
      "oper": 1567,
      "ople": 1568,
      "pk": 1569,
      "pu": 1570,
      "pth": 1571,
      "port": 1572,
      "qb": 1573,
      "qs": 1574,
      "qhi": 1575,
      "rm": 1576,
      "sli": 1577,
      "sch": 1578,
      "sma": 1579,
      "sum": 1580,
      "sclick": 1581,
      "td": 1582,
      "tri": 1583,
      "ui": 1584,
      "uation": 1585,
      "wn": 1586,
      "wsing": 1587,
      "yread": 1588,
      "ffa": 1589,
      "ochi": 1590,
      "ties": 1591,
      "recom": 1592,
      "def": 1593,
      "depth": 1594,
      "nosl": 1595,
      "robyte": 1596,
      "simba": 1597,
      "eec": 1598,
      "eep": 1599,
      "inte": 1600,
      "initi": 1601,
      "tach": 1602,
      "adnx": 1603,
      "ther": 1604,
      "erk": 1605,
      "ffffeb": 1606,
      "compare": 1607,
      "promp": 1608,
      "proper": 1609,
      "attach": 1610,
      "idos": 1611,
      "idochi": 1612,
      "ille": 1613,
      "mend": 1614,
      "cab": 1615,
      "cae": 1616,
      "caugh": 1617,
      "timeou": 1618,
      "feffff": 1619,
      "febro": 1620,
      "chat": 1621,
      "chip": 1622,
      "ngine": 1623,
      "people": 1624,
      "closing": 1625,
      "dac": 1626,
      "zerobyte": 1627,
      "replac": 1628,
      "ogs": 1629,
      "unable": 1630,
      "acc": 1631,
      "hiclou": 1632,
      "high": 1633,
      "strip": 1634,
      "sockettimeou": 1635,
      "srm": 1636,
      "ecc": 1637,
      "ecf": 1638,
      "googletag": 1639,
      "...........": 1640,
      "qulish": 1641,
      "fffffff": 1642,
      "iostate": 1643,
      "bef": 1644,
      "ush": 1645,
      "consider": 1646,
      "fdfffdfe": 1647,
      "temphigh": 1648,
      "ndy": 1649,
      "amd": 1650,
      "cdd": 1651,
      "fffffbfe": 1652,
      "give": 1653,
      "bcc": 1654,
      "logo": 1655,
      "fdaa": 1656,
      "ipv": 1657,
      "aef": 1658,
      "olar": 1659,
      "ccb": 1660,
      "fier": 1661,
      "ubmcm": 1662,
      "ssp": 1663,
      "point": 1664,
      "aliz": 1665,
      "cpc": 1666,
      "cpmd": 1667,
      "contentrecom": 1668,
      "crea": 1669,
      "sppm": 1670,
      "bgla": 1671,
      "bglmaster": 1672,
      "bglidochi": 1673,
      "aren": 1674,
      "mary": 1675,
      "short": 1676,
      "biz": 1677,
      "symbols": 1678,
      "host": 1679,
      "manhuaren": 1680,
      "controller": 1681,
      "zhimg": 1682,
      "gnu": 1683,
      "safebro": 1684,
      "adobelogin": 1685,
      "fls": 1686,
      "flush": 1687,
      "debugger": 1688,
      "continuation": 1689,
      "gmt": 1690,
      "multi": 1691,
      "mundy": 1692,
      "alerts": 1693,
      "gravatar": 1694,
      "ibm": 1695,
      "mmstat": 1696,
      "accessible": 1697,
      "glosli": 1698,
      "kdpic": 1699,
      "purge": 1700,
      "bffffdfe": 1701,
      "adzerk": 1702,
      "windows": 1703,
      "cjmundy": 1704,
      "cidian": 1705,
      "dblp": 1706,
      "easyread": 1707,
      "fonts": 1708,
      "gvt": 1709,
      "operation": 1710,
      "qhimg": 1711,
      "scholar": 1712,
      "summary": 1713,
      "trier": 1714,
      "nosleep": 1715,
      "initializ": 1716,
      "adnxs": 1717,
      "ffffebfe": 1718,
      "prompt": 1719,
      "properties": 1720,
      "attachment": 1721,
      "caught": 1722,
      "zerobytebug": 1723,
      "replacing": 1724,
      "hicloud": 1725,
      "sockettimeoutexception": 1726,
      "qulishi": 1727,
      "ubmcmm": 1728,
      "contentrecommend": 1729,
      "bglidochip": 1730,
      "safebrowsing": 1731,
      "multiple": 1732,
      "()": 1733,
      "::": 1734,
      "ase": 1735,
      "aff": 1736,
      "aad": 1737,
      "ates": 1738,
      "aran": 1739,
      "abf": 1740,
      "bh": 1741,
      "bj": 1742,
      "bce": 1743,
      "bin": 1744,
      "ban": 1745,
      "bid": 1746,
      "bbe": 1747,
      "brand": 1748,
      "bfc": 1749,
      "bcdc": 1750,
      "ci": 1751,
      "csi": 1752,
      "cta": 1753,
      "cat": 1754,
      "cfe": 1755,
      "cfd": 1756,
      "cbd": 1757,
      "cgi": 1758,
      "cbf": 1759,
      "cffffffe": 1760,
      "ds": 1761,
      "dff": 1762,
      "din": 1763,
      "dup": 1764,
      "dbc": 1765,
      "dcount": 1766,
      "dpm": 1767,
      "eno": 1768,
      "ece": 1769,
      "ead": 1770,
      "ect": 1771,
      "eac": 1772,
      "ebd": 1773,
      "efc": 1774,
      "engine": 1775,
      "fy": 1776,
      "foc": 1777,
      "fre": 1778,
      "fce": 1779,
      "fca": 1780,
      "fac": 1781,
      "fbd": 1782,
      "gt": 1783,
      "gu": 1784,
      "gna": 1785,
      "gal": 1786,
      "gtimg": 1787,
      "gmail": 1788,
      "hn": 1789,
      "hpd": 1790,
      "hfm": 1791,
      "iz": 1792,
      "ies": 1793,
      "ird": 1794,
      "icache": 1795,
      "iji": 1796,
      "jy": 1797,
      "jor": 1798,
      "jni": 1799,
      "ject": 1800,
      "kk": 1801,
      "kcdn": 1802,
      "knel": 1803,
      "lh": 1804,
      "lp": 1805,
      "ls": 1806,
      "lock": 1807,
      "lce": 1808,
      "lsn": 1809,
      "lcr": 1810,
      "lang": 1811,
      "mde": 1812,
      "mis": 1813,
      "mct": 1814,
      "ming": 1815,
      "mob": 1816,
      "mhfm": 1817,
      "noc": 1818,
      "nction": 1819,
      "nsl": 1820,
      "nsion": 1821,
      "op": 1822,
      "ow": 1823,
      "ore": 1824,
      "pv": 1825,
      "pll": 1826,
      "qd": 1827,
      "qi": 1828,
      "qpic": 1829,
      "qlogo": 1830,
      "qlsn": 1831,
      "rce": 1832,
      "ral": 1833,
      "ratch": 1834,
      "rss": 1835,
      "rts": 1836,
      "rating": 1837,
      "sb": 1838,
      "sti": 1839,
      "sou": 1840,
      "spa": 1841,
      "sstats": 1842,
      "txy": 1843,
      "tter": 1844,
      "tserver": 1845,
      "twi": 1846,
      "tlb": 1847,
      "tui": 1848,
      "use": 1849,
      "uch": 1850,
      "uedu": 1851,
      "uter": 1852,
      "ual": 1853,
      "vr": 1854,
      "ving": 1855,
      "vec": 1856,
      "wal": 1857,
      "wpad": 1858,
      "wrating": 1859,
      "xbb": 1860,
      "yes": 1861,
      "yms": 1862,
      "yimg": 1863,
      "yap": 1864,
      "yupdate": 1865,
      "ybp": 1866,
      "yates": 1867,
      "yuedu": 1868,
      "zkcdn": 1869,
      "blac": 1870,
      "blue": 1871,
      "edd": 1872,
      "edbb": 1873,
      "edra": 1874,
      "ses": 1875,
      "seng": 1876,
      "sestat": 1877,
      "ffd": 1878,
      "teed": 1879,
      "tema": 1880,
      "tease": 1881,
      "ocsp": 1882,
      "tiva": 1883,
      "tivec": 1884,
      "topurge": 1885,
      "touch": 1886,
      "reopen": 1887,
      "restarting": 1888,
      "remo": 1889,
      "research": 1890,
      "den": 1891,
      "desc": 1892,
      "debcc": 1893,
      "demde": 1894,
      "noavatar": 1895,
      "nozerobytebug": 1896,
      "cec": 1897,
      "simg": 1898,
      "sical": 1899,
      "sitema": 1900,
      "init": 1901,
      "tabo": 1902,
      "tapad": 1903,
      "omm": 1904,
      "eswitch": 1905,
      "clg": 1906,
      "ordin": 1907,
      "adf": 1908,
      "adsr": 1909,
      "admaster": 1910,
      "adservices": 1911,
      "adtd": 1912,
      "thun": 1913,
      "third": 1914,
      "anad": 1915,
      "ery": 1916,
      "ffffca": 1917,
      "comment": 1918,
      "project": 1919,
      "sessiontimeout": 1920,
      "issu": 1921,
      "needed": 1922,
      "neos": 1923,
      "netease": 1924,
      "ill": 1925,
      "ilyupdate": 1926,
      "mekn": 1927,
      "mension": 1928,
      "cac": 1929,
      "capi": 1930,
      "camo": 1931,
      "formi": 1932,
      "reception": 1933,
      "feff": 1934,
      "feng": 1935,
      "adding": 1936,
      "addthis": 1937,
      "conso": 1938,
      "conproject": 1939,
      "dailyupdate": 1940,
      "pai": 1941,
      "exter": 1942,
      "exten": 1943,
      "cardresearch": 1944,
      "psu": 1945,
      "miao": 1946,
      "clientservices": 1947,
      ".......": 1948,
      "maps": 1949,
      "matic": 1950,
      "major": 1951,
      "upload": 1952,
      "ogues": 1953,
      "wix": 1954,
      "wifi": 1955,
      "account": 1956,
      "activa": 1957,
      "msn": 1958,
      "download": 1959,
      "presta": 1960,
      "preci": 1961,
      "fab": 1962,
      "fae": 1963,
      "sram": 1964,
      "googleadservices": 1965,
      "score": 1966,
      "scratch": 1967,
      "quali": 1968,
      "query": 1969,
      "fffffffa": 1970,
      "bae": 1971,
      "baiji": 1972,
      "bayms": 1973,
      "bos": 1974,
      "fdc": 1975,
      "fdf": 1976,
      "fdfffe": 1977,
      "bdd": 1978,
      "wordcount": 1979,
      "worker": 1980,
      "dfc": 1981,
      "allocate": 1982,
      "ared": 1983,
      "amanad": 1984,
      "cdfffe": 1985,
      "newsimg": 1986,
      "newmaps": 1987,
      "lines": 1988,
      "sort": 1989,
      "sorter": 1990,
      "edefb": 1991,
      "dict": 1992,
      "dicta": 1993,
      "dimension": 1994,
      "eaa": 1995,
      "eaf": 1996,
      "skn": 1997,
      "skype": 1998,
      "slb": 1999,
      "slf": 2000,
      "ddc": 2001,
      "ddd": 2002,
      "afb": 2003,
      "coordin": 2004,
      "function": 2005,
      "failure": 2006,
      "odr": 2007,
      "ola": 2008,
      "rubi": 2009,
      "images": 2010,
      "...................": 2011,
      "imgur": 2012,
      "imgcache": 2013,
      "qqmail": 2014,
      "bffffa": 2015,
      "dropboxapi": 2016,
      "sso": 2017,
      "ssum": 2018,
      "complete": 2019,
      "efde": 2020,
      "pose": 2021,
      "dns": 2022,
      "messeng": 2023,
      "alitui": 2024,
      "bglv": 2025,
      "url": 2026,
      "mart": 2027,
      "show": 2028,
      "shared": 2029,
      "biparty": 2030,
      "ahao": 2031,
      "curioni": 2032,
      "existing": 2033,
      "trouter": 2034,
      "mailbox": 2035,
      "grepb": 2036,
      "trc": 2037,
      "trace": 2038,
      "way": 2039,
      "central": 2040,
      "ptlogin": 2041,
      "spelce": 2042,
      "midplaneswitch": 2043,
      "verify": 2044,
      "casale": 2045,
      "vgqs": 2046,
      "vgqskn": 2047,
      "adobeid": 2048,
      "avp": 2049,
      "impreci": 2050,
      "pubs": 2051,
      "pubmatic": 2052,
      "sending": 2053,
      "stackover": 2054,
      "replications": 2055,
      "flow": 2056,
      "mmcs": 2057,
      "oimagea": 2058,
      "oimageb": 2059,
      "oimagec": 2060,
      "microad": 2061,
      "access": 2062,
      "ddcmdbglv": 2063,
      "physical": 2064,
      "vgqsenee": 2065,
      "glob": 2066,
      "kdcl": 2067,
      "mpits": 2068,
      "purpose": 2069,
      "cloudf": 2070,
      "caused": 2071,
      "causing": 2072,
      "riptor": 2073,
      "auth": 2074,
      "autopurge": 2075,
      "grepa": 2076,
      "greeno": 2077,
      "impservice": 2078,
      "tvax": 2079,
      "wangwang": 2080,
      "route": 2081,
      "round": 2082,
      "fefefeff": 2083,
      "daabe": 2084,
      "agkn": 2085,
      "gather": 2086,
      "gateway": 2087,
      "illegal": 2088,
      "cabot": 2089,
      "googletagmanager": 2090,
      "creativec": 2091,
      "gmtdmp": 2092,
      "initializing": 2093,
      "aranteed": 2094,
      "bcebos": 2095,
      "bank": 2096,
      "bidswitch": 2097,
      "focus": 2098,
      "gtms": 2099,
      "guaranteed": 2100,
      "gnar": 2101,
      "hnedn": 2102,
      "lsf": 2103,
      "miscompare": 2104,
      "mobile": 2105,
      "nocomm": 2106,
      "source": 2107,
      "space": 2108,
      "txyz": 2109,
      "twitter": 2110,
      "ualdn": 2111,
      "blacs": 2112,
      "edrams": 2113,
      "removing": 2114,
      "descriptor": 2115,
      "demdex": 2116,
      "sitemaji": 2117,
      "taboola": 2118,
      "adsrvr": 2119,
      "adtdp": 2120,
      "thunder": 2121,
      "thirdparty": 2122,
      "issues": 2123,
      "neededreplications": 2124,
      "neosmart": 2125,
      "mekned": 2126,
      "console": 2127,
      "external": 2128,
      "extension": 2129,
      "miaopai": 2130,
      "oguesnsl": 2131,
      "accounts": 2132,
      "activating": 2133,
      "scorecardresearch": 2134,
      "quality": 2135,
      "baijiahao": 2136,
      "baymsgr": 2137,
      "dictapp": 2138,
      "coordinate": 2139,
      "functional": 2140,
      "rubiconproject": 2141,
      "messenger": 2142,
      "bipartyz": 2143,
      "midplaneswitchcontroller": 2144,
      "casalemedia": 2145,
      "imprecise": 2146,
      "stackoverflow": 2147,
      "creativecdn": 2148,
      ").......": 2149,
      "/./": 2150,
      "=<": 2151,
      "ak": 2152,
      "ato": 2153,
      "ata": 2154,
      "ame": 2155,
      "aca": 2156,
      "afe": 2157,
      "aac": 2158,
      "aec": 2159,
      "aba": 2160,
      "aaf": 2161,
      "aeb": 2162,
      "abb": 2163,
      "ader": 2164,
      "ative": 2165,
      "agg": 2166,
      "aux": 2167,
      "ages": 2168,
      "asearch": 2169,
      "acle": 2170,
      "afec": 2171,
      "bm": 2172,
      "bt": 2173,
      "bx": 2174,
      "bz": 2175,
      "bed": 2176,
      "bad": 2177,
      "bec": 2178,
      "bba": 2179,
      "bus": 2180,
      "bfd": 2181,
      "bcd": 2182,
      "bbc": 2183,
      "bwal": 2184,
      "btrace": 2185,
      "cv": 2186,
      "cff": 2187,
      "cti": 2188,
      "cca": 2189,
      "cbe": 2190,
      "cdf": 2191,
      "ccd": 2192,
      "catch": 2193,
      "cfff": 2194,
      "cial": 2195,
      "ctools": 2196,
      "dg": 2197,
      "dj": 2198,
      "dk": 2199,
      "dw": 2200,
      "ded": 2201,
      "dde": 2202,
      "dca": 2203,
      "dfe": 2204,
      "dna": 2205,
      "dcu": 2206,
      "dps": 2207,
      "dge": 2208,
      "dbd": 2209,
      "dede": 2210,
      "dbf": 2211,
      "dfffe": 2212,
      "dsh": 2213,
      "dtr": 2214,
      "dslb": 2215,
      "efe": 2216,
      "eof": 2217,
      "efa": 2218,
      "eld": 2219,
      "ello": 2220,
      "fs": 2221,
      "fin": 2222,
      "fcd": 2223,
      "fbc": 2224,
      "fclick": 2225,
      "fcaf": 2226,
      "gd": 2227,
      "ged": 2228,
      "gto": 2229,
      "gct": 2230,
      "ging": 2231,
      "gice": 2232,
      "gma": 2233,
      "gslb": 2234,
      "ground": 2235,
      "hd": 2236,
      "hj": 2237,
      "hid": 2238,
      "hres": 2239,
      "hstatic": 2240,
      "hpt": 2241,
      "hello": 2242,
      "if": 2243,
      "iv": 2244,
      "iwi": 2245,
      "ieee": 2246,
      "ims": 2247,
      "iar": 2248,
      "irec": 2249,
      "iary": 2250,
      "icb": 2251,
      "icau": 2252,
      "iden": 2253,
      "ifeng": 2254,
      "ihd": 2255,
      "jl": 2256,
      "jre": 2257,
      "jng": 2258,
      "jvm": 2259,
      "jline": 2260,
      "jfm": 2261,
      "jdk": 2262,
      "ke": 2263,
      "kr": 2264,
      "kle": 2265,
      "kod": 2266,
      "ktest": 2267,
      "kill": 2268,
      "kiwi": 2269,
      "lg": 2270,
      "les": 2271,
      "lis": 2272,
      "lloc": 2273,
      "lare": 2274,
      "lxf": 2275,
      "lative": 2276,
      "mbl": 2277,
      "mmb": 2278,
      "mjy": 2279,
      "nh": 2280,
      "nu": 2281,
      "non": 2282,
      "ntion": 2283,
      "nter": 2284,
      "nsclick": 2285,
      "nmjy": 2286,
      "osi": 2287,
      "oadz": 2288,
      "pj": 2289,
      "pz": 2290,
      "pil": 2291,
      "pco": 2292,
      "pted": 2293,
      "phot": 2294,
      "ppl": 2295,
      "qw": 2296,
      "qum": 2297,
      "qlr": 2298,
      "qhm": 2299,
      "qrt": 2300,
      "qhres": 2301,
      "rs": 2302,
      "rack": 2303,
      "rary": 2304,
      "rther": 2305,
      "scom": 2306,
      "spar": 2307,
      "sdoc": 2308,
      "sall": 2309,
      "sqrt": 2310,
      "tj": 2311,
      "tn": 2312,
      "tst": 2313,
      "tten": 2314,
      "tur": 2315,
      "tjs": 2316,
      "uy": 2317,
      "uan": 2318,
      "used": 2319,
      "ures": 2320,
      "usync": 2321,
      "vjp": 2322,
      "wf": 2323,
      "wk": 2324,
      "ws": 2325,
      "wan": 2326,
      "wpe": 2327,
      "wing": 2328,
      "wup": 2329,
      "watch": 2330,
      "wbp": 2331,
      "wtd": 2332,
      "wosi": 2333,
      "xff": 2334,
      "xad": 2335,
      "xing": 2336,
      "xae": 2337,
      "xbf": 2338,
      "xfee": 2339,
      "xdr": 2340,
      "xgr": 2341,
      "xdaabe": 2342,
      "xuan": 2343,
      "yre": 2344,
      "yun": 2345,
      "yndm": 2346,
      "yvjp": 2347,
      "zhstatic": 2348,
      "zjfm": 2349,
      "zsall": 2350,
      "bled": 2351,
      "blast": 2352,
      "blime": 2353,
      "edb": 2354,
      "edfe": 2355,
      "edba": 2356,
      "securi": 2357,
      "seille": 2358,
      "sembl": 2359,
      "ffb": 2360,
      "ffde": 2361,
      "ffce": 2362,
      "ffeeee": 2363,
      "fffa": 2364,
      "tel": 2365,
      "ocdn": 2366,
      "timi": 2367,
      "tick": 2368,
      "tifier": 2369,
      "blocks": 2370,
      "too": 2371,
      "topo": 2372,
      "toho": 2373,
      "reconnect": 2374,
      "rexception": 2375,
      "retag": 2376,
      "remer": 2377,
      "restarted": 2378,
      "regct": 2379,
      "deb": 2380,
      "deed": 2381,
      "noroute": 2382,
      "rome": 2383,
      "robe": 2384,
      "rows": 2385,
      "cea": 2386,
      "ceb": 2387,
      "cesi": 2388,
      "cecc": 2389,
      "cecf": 2390,
      "ceab": 2391,
      "siwf": 2392,
      "sixgr": 2393,
      "eea": 2394,
      "eeb": 2395,
      "infor": 2396,
      "ingo": 2397,
      "infer": 2398,
      "incount": 2399,
      "tau": 2400,
      "taim": 2401,
      "taincount": 2402,
      "serapis": 2403,
      "clk": 2404,
      "clas": 2405,
      "order": 2406,
      "oracle": 2407,
      "adb": 2408,
      "adtech": 2409,
      "adingo": 2410,
      "ancom": 2411,
      "stell": 2412,
      "stexception": 2413,
      "fffffd": 2414,
      "ffffbc": 2415,
      "ash": 2416,
      "assembl": 2417,
      "commit": 2418,
      "compil": 2419,
      "proxydb": 2420,
      "ssive": 2421,
      "bye": 2422,
      "nett": 2423,
      "ilt": 2424,
      "iliary": 2425,
      "mehu": 2426,
      "cach": 2427,
      "cases": 2428,
      "force": 2429,
      "stand": 2430,
      "testing": 2431,
      "fead": 2432,
      "feaf": 2433,
      "feffe": 2434,
      "feeds": 2435,
      "fefffc": 2436,
      "ligh": 2437,
      "tingyun": 2438,
      "ouji": 2439,
      "cution": 2440,
      "culative": 2441,
      "oking": 2442,
      "okie": 2443,
      "synd": 2444,
      "symcd": 2445,
      "daf": 2446,
      "daac": 2447,
      "daea": 2448,
      "dacb": 2449,
      "pact": 2450,
      "pages": 2451,
      "exit": 2452,
      "psg": 2453,
      "gene": 2454,
      "tories": 2455,
      "ctld": 2456,
      "openx": 2457,
      "opening": 2458,
      "openjdk": 2459,
      "outstand": 2460,
      "http": 2461,
      "gov": 2462,
      "connected": 2463,
      "stateexception": 2464,
      "len": 2465,
      "lement": 2466,
      "leav": 2467,
      "leader": 2468,
      "servicemailbox": 2469,
      "mation": 2470,
      "make": 2471,
      "upmobile": 2472,
      "excessive": 2473,
      "doe": 2474,
      "dog": 2475,
      "priv": 2476,
      "serverdb": 2477,
      "processes": 2478,
      "ums": 2479,
      "parame": 2480,
      "parserapis": 2481,
      "hucdn": 2482,
      "blishing": 2483,
      "etc": 2484,
      "netdna": 2485,
      "minsessiontimeout": 2486,
      "acd": 2487,
      "msgto": 2488,
      "stun": 2489,
      "strobe": 2490,
      "niux": 2491,
      "prefi": 2492,
      "pressing": 2493,
      "pretaincount": 2494,
      "faef": 2495,
      "srkod": 2496,
      "ecd": 2497,
      "ecmb": 2498,
      "mpl": 2499,
      "mplement": 2500,
      "scancom": 2501,
      "longca": 2502,
      "qusixgr": 2503,
      "ffffffee": 2504,
      "baa": 2505,
      "baf": 2506,
      "base": 2507,
      "baff": 2508,
      "nodecards": 2509,
      "iolog": 2510,
      "beb": 2511,
      "wwbiz": 2512,
      "userinfo": 2513,
      "fdd": 2514,
      "ndor": 2515,
      "pdbg": 2516,
      "pdlxf": 2517,
      "bdb": 2518,
      "counter": 2519,
      "unit": 2520,
      "unication": 2521,
      "unimplement": 2522,
      "dfbb": 2523,
      "sublime": 2524,
      "lling": 2525,
      "llpo": 2526,
      "llcontrol": 2527,
      "communication": 2528,
      "cdcf": 2529,
      "vendor": 2530,
      "died": 2531,
      "diff": 2532,
      "digice": 2533,
      "cmdline": 2534,
      "eab": 2535,
      "slave": 2536,
      "ciostream": 2537,
      "afc": 2538,
      "cncdn": 2539,
      "ciodb": 2540,
      "dcb": 2541,
      "dcf": 2542,
      "dcbf": 2543,
      "background": 2544,
      "logfile": 2545,
      "logies": 2546,
      "loguserinfo": 2547,
      "cosy": 2548,
      "coproc": 2549,
      "further": 2550,
      "corrup": 2551,
      "corpor": 2552,
      "ebb": 2553,
      "ebf": 2554,
      "ebed": 2555,
      "ebde": 2556,
      "ebee": 2557,
      "ebda": 2558,
      "ebba": 2559,
      "ebbd": 2560,
      "failures": 2561,
      "bcb": 2562,
      "bccf": 2563,
      "itz": 2564,
      "looking": 2565,
      "directories": 2566,
      "bbac": 2567,
      "bbbb": 2568,
      "fcb": 2569,
      "fcc": 2570,
      "fcf": 2571,
      "fcde": 2572,
      "fcca": 2573,
      "zookeeperserver": 2574,
      "aefe": 2575,
      "ccbc": 2576,
      "cccc": 2577,
      "ccsame": 2578,
      "ccyndm": 2579,
      "rules": 2580,
      "....................................": 2581,
      ".............................": 2582,
      "imgsrc": 2583,
      "imgtn": 2584,
      "qqweb": 2585,
      "imageplus": 2586,
      "cfg": 2587,
      "dropping": 2588,
      "cdnjs": 2589,
      "field": 2590,
      "written": 2591,
      "dbg": 2592,
      "dbproperties": 2593,
      "dbremer": 2594,
      "snapretaincount": 2595,
      "linkcards": 2596,
      "interrupting": 2597,
      "interrupts": 2598,
      "currently": 2599,
      "packages": 2600,
      "internalapi": 2601,
      "efed": 2602,
      "modulo": 2603,
      "popt": 2604,
      "possible": 2605,
      "pollcontrol": 2606,
      "tmpdir": 2607,
      "apu": 2608,
      "cbjs": 2609,
      "cbrt": 2610,
      "tsch": 2611,
      "library": 2612,
      "fffffefe": 2613,
      "sinaapp": 2614,
      "fbde": 2615,
      "fbca": 2616,
      "csm": 2617,
      "fffbccf": 2618,
      "contention": 2619,
      "trelloc": 2620,
      "instr": 2621,
      "soon": 2622,
      "sopt": 2623,
      "maxbug": 2624,
      "maxsessiontimeout": 2625,
      "apac": 2626,
      "crc": 2627,
      "crl": 2628,
      "medal": 2629,
      "xmlparserapis": 2630,
      "following": 2631,
      "bglscratch": 2632,
      "***": 2633,
      "ursdoc": 2634,
      "marseille": 2635,
      "lyjl": 2636,
      "shouji": 2637,
      "xequsixgr": 2638,
      "confpu": 2639,
      "big": 2640,
      "xercesi": 2641,
      "timgsa": 2642,
      "tagr": 2643,
      "sensor": 2644,
      "ront": 2645,
      "unpk": 2646,
      "goodbye": 2647,
      "controlling": 2648,
      "streitz": 2649,
      "train": 2650,
      "track": 2651,
      "trap": 2652,
      "trapp": 2653,
      "wave": 2654,
      "nexage": 2655,
      "configfile": 2656,
      "bits": 2657,
      "disconnected": 2658,
      "jtagid": 2659,
      "special": 2660,
      "speculative": 2661,
      "xafd": 2662,
      "systemcontroller": 2663,
      "miniga": 2664,
      "bertsch": 2665,
      "hangtest": 2666,
      "nfs": 2667,
      "..........................": 2668,
      "configuration": 2669,
      "drv": 2670,
      "supdate": 2671,
      "suppressing": 2672,
      "tware": 2673,
      "ileged": 2674,
      "functests": 2675,
      "tenmaximg": 2676,
      "enabled": 2677,
      "portion": 2678,
      "idoproxydb": 2679,
      "......................": 2680,
      ".......................": 2681,
      "avn": 2682,
      "flagg": 2683,
      "flash": 2684,
      "imtt": 2685,
      "impr": 2686,
      "impact": 2687,
      "redirec": 2688,
      "sendworker": 2689,
      "sendmsgto": 2690,
      "sendtrain": 2691,
      "********": 2692,
      "*******": 2693,
      "enableflush": 2694,
      "pping": 2695,
      "stopping": 2696,
      "getting": 2697,
      "getdropbox": 2698,
      "newsapp": 2699,
      "performing": 2700,
      "general": 2701,
      "generic": 2702,
      "awqi": 2703,
      "fdead": 2704,
      "iao": 2705,
      "software": 2706,
      "ytnh": 2707,
      "accepted": 2708,
      "prefetches": 2709,
      "prefetching": 2710,
      "quantcount": 2711,
      "amaihd": 2712,
      "built": 2713,
      "execution": 2714,
      "malloc": 2715,
      "writelog": 2716,
      "eedc": 2717,
      "ecaa": 2718,
      "rtb": 2719,
      "intf": 2720,
      "allgather": 2721,
      "asiamax": 2722,
      "windowsupdate": 2723,
      "refreshes": 2724,
      "agent": 2725,
      "dmw": 2726,
      "pki": 2727,
      "puui": 2728,
      "qbwup": 2729,
      "rmw": 2730,
      "small": 2731,
      "smaller": 2732,
      "smaato": 2733,
      "interexception": 2734,
      "accad": 2735,
      "googletagservices": 2736,
      "logos": 2737,
      "creative": 2738,
      "flushing": 2739,
      "purgeinterval": 2740,
      "nosleepyes": 2741,
      "nosleepnocomm": 2742,
      "initialization": 2743,
      "affaa": 2744,
      "bind": 2745,
      "cfdddc": 2746,
      "ebdb": 2747,
      "free": 2748,
      "freed": 2749,
      "izxequsixgr": 2750,
      "jyb": 2751,
      "kkk": 2752,
      "mingxing": 2753,
      "optimi": 2754,
      "optaim": 2755,
      "qdun": 2756,
      "qihucdn": 2757,
      "rssgov": 2758,
      "stir": 2759,
      "still": 2760,
      "walk": 2761,
      "xbbhj": 2762,
      "yeszerobytebug": 2763,
      "yuedust": 2764,
      "blueligh": 2765,
      "bluegene": 2766,
      "edbbb": 2767,
      "iller": 2768,
      "fengnet": 2769,
      "scratchpad": 2770,
      "showxml": 2771,
      "mailboxmonitor": 2772,
      "global": 2773,
      "cloudflare": 2774,
      "cloudfront": 2775,
      "gathering": 2776,
      "illegalstateexception": 2777,
      "mobilem": 2778,
      "nocommnosleep": 2779,
      "descriptors": 2780,
      "consoleip": 2781,
      "consoleport": 2782,
      "akamaihd": 2783,
      "atabase": 2784,
      "auxiliary": 2785,
      "afecda": 2786,
      "bmiller": 2787,
      "bzclk": 2788,
      "bwallen": 2789,
      "ctips": 2790,
      "catchup": 2791,
      "dgtest": 2792,
      "dcaaf": 2793,
      "dgemm": 2794,
      "dshytnh": 2795,
      "dtrp": 2796,
      "efaea": 2797,
      "find": 2798,
      "hidden": 2799,
      "hptqlr": 2800,
      "ieeeconfpu": 2801,
      "icbi": 2802,
      "icauh": 2803,
      "identifier": 2804,
      "ifengimg": 2805,
      "krcom": 2806,
      "kiwihk": 2807,
      "list": 2808,
      "mmbiz": 2809,
      "nullpo": 2810,
      "nmjylyjl": 2811,
      "pcookie": 2812,
      "photocdn": 2813,
      "pplv": 2814,
      "qumccyndm": 2815,
      "scomerror": 2816,
      "sparing": 2817,
      "turn": 2818,
      "uykle": 2819,
      "usedatabase": 2820,
      "wpengine": 2821,
      "watchdog": 2822,
      "wbpctips": 2823,
      "wtdtjs": 2824,
      "wosign": 2825,
      "xdrpj": 2826,
      "xuanfengnet": 2827,
      "yrexdrpj": 2828,
      "security": 2829,
      "ffeeeefe": 2830,
      "ticktime": 2831,
      "topologies": 2832,
      "tohostexception": 2833,
      "retagging": 2834,
      "regctl": 2835,
      "noroutetohostexception": 2836,
      "information": 2837,
      "inferno": 2838,
      "class": 2839,
      "ordering": 2840,
      "stella": 2841,
      "assembly": 2842,
      "compiler": 2843,
      "netty": 2844,
      "mehul": 2845,
      "caching": 2846,
      "syndrome": 2847,
      "exited": 2848,
      "ctldl": 2849,
      "outstanding": 2850,
      "leaving": 2851,
      "servicemailboxes": 2852,
      "privileged": 2853,
      "parameters": 2854,
      "niuxiao": 2855,
      "prefix": 2856,
      "srkodhptqlr": 2857,
      "wwbizapi": 2858,
      "unimplemented": 2859,
      "sublimetext": 2860,
      "digicert": 2861,
      "corrupt": 2862,
      "corporation": 2863,
      "ccsamef": 2864,
      "pollcontroldescriptors": 2865,
      "trellocdn": 2866,
      "ursdoccdn": 2867,
      "marseillebgl": 2868,
      "xercesimpl": 2869,
      "unpkg": 2870,
      "trapped": 2871,
      "minigame": 2872,
      "flagging": 2873,
      "redirector": 2874,
      "sendmsgtodebugger": 2875,
      "awqiizxequsixgr": 2876,
      "nosleepyescomm": 2877,
      "optimix": 2878,
      "xbbhjxc": 2879,
      "bluelight": 2880,
      "ieeeconfpublishing": 2881,
      "nullpointerexception": 2882,
      "nmjylyjluykle": 2883,
      "qumccyndmsiwf": 2884,
      "srkodhptqlryvjp": 2885
    },
    "merges": [
      "9 9",
      "99 99",
      "99 9",
      "9999 9999",
      "b l",
      "e d",
      "9999 9",
      "s e",
      "f f",
      "t e",
      "o c",
      "o n",
      "oc k",
      "t i",
      "bl ock",
      "t o",
      "r e",
      "d e",
      "n o",
      "r o",
      "99999999 99999999",
      "c e",
      "bl k",
      "no de",
      "s i",
      "e e",
      "i n",
      "t a",
      "se r",
      "o m",
      "e s",
      "n t",
      "c l",
      "o r",
      "a d",
      "v ed",
      "t h",
      "a n",
      "s te",
      "e r",
      "ff ff",
      "a s",
      "c om",
      "p ro",
      "h k",
      "a t",
      "x y",
      "pro xy",
      "s si",
      "ssi on",
      "b y",
      "se ssion",
      "i d",
      "i s",
      "n e",
      "ti on",
      "9999999999999999 999",
      ". .",
      "i l",
      "m e",
      "c a",
      "f or",
      "re ce",
      "es y",
      "ste m",
      "rece i",
      "s ta",
      "esy stem",
      "te s",
      "as k",
      "by tes",
      "ti me",
      "f e",
      "k b",
      "l i",
      "o f",
      "e nt",
      "recei ved",
      "n a",
      "c h",
      "n g",
      ") ,",
      "p e",
      "ti ng",
      "ad d",
      "o u",
      "ser v",
      "t t",
      "cl o",
      "r an",
      "c u",
      "9999 99",
      "c on",
      "9999999999999999 99",
      "ed u",
      "o k",
      "9999 999",
      "s y",
      "ser ved",
      "sy m",
      "f il",
      "t ran",
      "c se",
      "cu hk",
      "d a",
      "m ask",
      "c tion",
      "ee ee",
      "p a",
      "tran s",
      "z e",
      "si ze",
      "e x",
      "r d",
      "ca rd",
      "u g",
      "v a",
      "cl i",
      "p s",
      "ug h",
      "ro ugh",
      "th rough",
      "g e",
      "m i",
      "to r",
      "c t",
      "pe n",
      "cli ent",
      "o pen",
      "fil esystem",
      "ou t",
      "h tt",
      "htt ps",
      "m esystem",
      "se nt",
      "na mesystem",
      "clo se",
      "fe time",
      "li fetime",
      "g o",
      "s ed",
      "in g",
      ".. ..",
      "da ta",
      "at ed",
      "time out",
      "session id",
      "con ne",
      "m l",
      "i ce",
      "sta te",
      "l e",
      "serv ice",
      "te r",
      "m a",
      "o t",
      "99999999 99",
      "p on",
      "d om",
      "s tor",
      "sta r",
      "a in",
      "ro r",
      "dom ain",
      "re ad",
      "u p",
      "re p",
      "bl e",
      "er ror",
      "9999999999999999 9",
      "ed block",
      "add stor",
      "star ting",
      "addstor edblock",
      "rep li",
      "repli ca",
      "ste r",
      "f er",
      "th read",
      "com pon",
      "trans fer",
      "data node",
      "replica te",
      "compon ent",
      "conne ction",
      "w id",
      "ex ce",
      "u ster",
      "cl uster",
      "d o",
      "p r",
      "no t",
      "serv er",
      "o g",
      "w i",
      "add ed",
      "pr oc",
      "proc es",
      "ee e",
      "u m",
      "eeee eee",
      "pa r",
      "a ble",
      "h u",
      "p i",
      "ffff ffff",
      "il able",
      "va ilable",
      "cluster filesystem",
      "ch an",
      "par t",
      "se t",
      "wi th",
      "t y",
      "an d",
      "is h",
      "bl ish",
      "ta blish",
      "es tablish",
      "th e",
      "e t",
      "trans mi",
      "h ad",
      "99999999 999",
      "ne t",
      "chan ge",
      "u na",
      "m in",
      "ro ot",
      "ma p",
      "tt ed",
      "transmi tted",
      "una vailable",
      "a c",
      "a l",
      "do w",
      "m s",
      "ed ed",
      "a ction",
      "h i",
      "ter min",
      "dow n",
      "termin a",
      "s t",
      "n i",
      "proces sed",
      "ex pi",
      "ty pe",
      "expi r",
      "d ated",
      "s ock",
      "block map",
      "clo sed",
      "up dated",
      "f ro",
      "exce eded",
      "fro m",
      "p re",
      "s hu",
      "establish ed",
      "shu t",
      "ti ated",
      "ne go",
      "termina tion",
      "expir ing",
      "nego tiated",
      "f a",
      "n um",
      "sock et",
      "server filesystem",
      "s r",
      "pa re",
      "for service",
      "pre pare",
      "prepare forservice",
      ") )",
      "m card",
      "9999999999999999 99999999999",
      "ser num",
      "ct n",
      "ml ctn",
      "mcard sernum",
      "e c",
      "w hi",
      "whi ch",
      "99999999 999999",
      "m type",
      "mi p",
      "ml p",
      "go og",
      "shut ting",
      "re s",
      "goog le",
      "m p",
      "s c",
      "sr c",
      "l on",
      "lon g",
      "de st",
      ".... ....",
      "q u",
      "h wid",
      "ffff ff",
      "ct ed",
      "b a",
      "b o",
      "node card",
      "in ter",
      "- -",
      "i o",
      "w wid",
      "sc si",
      "v i",
      "ta r",
      "b e",
      "l oc",
      "u s",
      "long er",
      "w w",
      "tar ge",
      "p tion",
      "va l",
      "set s",
      "u ser",
      "ffffff fe",
      "con si",
      "te block",
      "node sets",
      "in consi",
      "ste nt",
      "val id",
      "inconsi stent",
      "f d",
      "te mp",
      "fil e",
      "l d",
      "n d",
      "p d",
      "recei v",
      "b d",
      "w or",
      "in valid",
      "c ou",
      "v pd",
      "de le",
      "wor k",
      "net work",
      "99999999 9",
      "te cted",
      "de tected",
      "cou ld",
      "u ni",
      "99999999 9999",
      "sta t",
      "d f",
      "node s",
      "domain s",
      "al loc",
      "targe ting",
      "alloc a",
      "a r",
      "s u",
      "alloca teblock",
      "uni x",
      "a m",
      "add res",
      "addres s",
      "99999999 9999999",
      "conne ct",
      "h w",
      "exce ption",
      "stat us",
      "l l",
      "com m",
      "comm and",
      "c d",
      "ffff f",
      "ne w",
      "re qu",
      "es t",
      "requ est",
      "c m",
      "r i",
      "v e",
      "l in",
      "- [",
      "s or",
      "ni ff",
      "receiv ing",
      "dele te",
      "tor y",
      "a va",
      "ed e",
      "invalid set",
      "d i",
      "s n",
      "de o",
      "vi deo",
      "at ch",
      "id u",
      "ba idu",
      "-- -",
      "cm d",
      "c k",
      "re c",
      "fa a",
      "lin k",
      "e a",
      "f o",
      "s k",
      "ed faa",
      "google video",
      "m g",
      "s l",
      "ac k",
      "d d",
      "ww w",
      "c io",
      "j ava",
      "a f",
      "c n",
      "cio d",
      "d c",
      "h as",
      "b ack",
      "p er",
      "r am",
      "or um",
      "ch ec",
      "qu orum",
      "chec k",
      "ar y",
      "back up",
      "g i",
      "l og",
      "c o",
      "ta sk",
      "or ary",
      "temp orary",
      "f u",
      "99999999 99999",
      "fa ce",
      "c or",
      "f ou",
      "fou nd",
      "e b",
      "proces sor",
      "fa il",
      "bo ot",
      "c an",
      "b c",
      "i t",
      "m atch",
      "l o",
      "ec id",
      "inter face",
      "sl ot",
      "f da",
      "o ok",
      "vi a",
      "al t",
      "i p",
      "o o",
      "ti c",
      "ran d",
      "g ram",
      "o b",
      "di rec",
      "b b",
      "direc tory",
      "f c",
      "j ob",
      "z ook",
      "ee per",
      "fu ll",
      "fail ed",
      "zook eeper",
      "o d",
      "a e",
      "m b",
      "o l",
      "co de",
      "c c",
      "b f",
      "r u",
      "su ch",
      "bo x",
      "df s",
      "i ma",
      "x id",
      "re cted",
      "pro gram",
      "sta tic",
      "........ ........",
      "cor rected",
      "i mg",
      "n da",
      "q q",
      "r edu",
      "ima ge",
      "nda nt",
      "redu ndant",
      "b ffff",
      "w e",
      "fd fe",
      "a vailable",
      "c f",
      "d ro",
      "d ou",
      "t x",
      "t ed",
      "de r",
      "cu r",
      "dro p",
      "dou ble",
      "u t",
      "cd n",
      "drop box",
      "a a",
      "f i",
      "t ch",
      "ff e",
      "lo ad",
      "a ge",
      "m nt",
      "w ri",
      "had oo",
      "hadoo p",
      "a b",
      "p le",
      "u b",
      "d b",
      "h ot",
      "s na",
      "v er",
      "x ce",
      "om e",
      "res pon",
      "link card",
      "dc r",
      "ps hot",
      "loc al",
      "can not",
      "we i",
      "sna pshot",
      "xce ption",
      "r up",
      "ssi ng",
      "load ing",
      "e n",
      "re nt",
      "na l",
      "mi ssing",
      "inter rup",
      "cur rent",
      "s s",
      "u re",
      "wi tch",
      "h ome",
      "s og",
      "com ple",
      "pa ck",
      "inter nal",
      "targe t",
      "sog ou",
      "e f",
      "m od",
      "s witch",
      "w er",
      "pack et",
      "mod u",
      "p o",
      "t mp",
      "cli ck",
      "io exception",
      "modu le",
      "a p",
      "c b",
      "h is",
      "p ee",
      "pa th",
      "log s",
      "his tory",
      "pee r",
      ": /",
      "d n",
      "k n",
      "t s",
      "z xid",
      "in fo",
      "il d",
      "ch ild",
      "va r",
      "k ee",
      "at temp",
      "li b",
      "ch e",
      "pe re",
      "res ol",
      "dele ting",
      "ll o",
      "gi th",
      "kee pere",
      "resol ve",
      "p l",
      "ff fe",
      "ffff fe",
      "ca tion",
      "a ting",
      "m an",
      "x fffffffe",
      "si na",
      "stor age",
      "fda e",
      "tx t",
      "wri teblock",
      "u sr",
      "er at",
      "me nt",
      "bo l",
      "inter connect",
      "temp erat",
      "rand txt",
      "respon der",
      "packet responder",
      "temperat ure",
      "b ut",
      "f b",
      "m es",
      "dd r",
      "double click",
      "gith ub",
      "c s",
      "an y",
      "tor us",
      "do es",
      "be long",
      "fd b",
      "fda f",
      "a li",
      "ff f",
      "re set",
      "si on",
      "as t",
      "con te",
      "star t",
      "shut down",
      "c p",
      "c ce",
      "g b",
      "n c",
      "t re",
      "in st",
      ".. .",
      "conte nt",
      "g er",
      "s o",
      "or g",
      "ma x",
      "ru n",
      "ru ction",
      "inst ruction",
      "b g",
      "c ri",
      "l ed",
      "w h",
      "w as",
      "se c",
      "te n",
      "ce led",
      "si ng",
      "tran d",
      "be fo",
      "su cce",
      "sor trand",
      "can celed",
      "wei bo",
      "comple tion",
      "attemp ting",
      "befo re",
      "a pa",
      "c r",
      "c re",
      "i r",
      "m ed",
      "s p",
      "x ml",
      "re new",
      "or t",
      "ad s",
      "bd ir",
      "su bdir",
      "fo llo",
      "log in",
      "ver sion",
      "o s",
      "si d",
      "quorum server",
      "quorum peer",
      "bg l",
      "apa che",
      "follo wer",
      "* *",
      ". /",
      "a te",
      "a re",
      "u r",
      "ti ve",
      "ma r",
      "pi pe",
      "a pi",
      "l y",
      "n ing",
      "s h",
      "x e",
      "ta ble",
      "con f",
      "interrup t",
      "so hu",
      "b i",
      "b ro",
      "h dfs",
      "j s",
      "l r",
      "te o",
      "re gi",
      "ffff e",
      "ne l",
      "ac tive",
      "........ ....",
      "di r",
      "cri teo",
      "regi ster",
      "a h",
      "f ee",
      "x er",
      "y pe",
      "ti mg",
      "ta g",
      "cu ri",
      "sym bol",
      "ex is",
      "chan g",
      "receiv er",
      "cs dn",
      "d ing",
      "e block",
      "p ut",
      "t ro",
      "x c",
      "ed s",
      "se n",
      "in put",
      "ct r",
      "chan nel",
      "be ing",
      "user content",
      "receiv eblock",
      "rec table",
      "cor rectable",
      "fi cation",
      "ap is",
      "( /",
      ": -",
      "c xid",
      "h o",
      "p h",
      "q path",
      "r on",
      "r ror",
      "u n",
      "x in",
      "y ah",
      "re valid",
      "re qpath",
      "node exis",
      "in e",
      "ser ted",
      "nt ype",
      "th is",
      "an g",
      "as serted",
      "fe a",
      "ch dir",
      "go t",
      "go od",
      "le ve",
      "ma il",
      "proces sing",
      "tx ntype",
      "keepere xception",
      "keepere rror",
      "man hu",
      "tre e",
      "wh en",
      "cre ate",
      "yah oo",
      "revalid ating",
      "nodeexis ts",
      "leve l",
      "keepererror code",
      "b ffe",
      "m n",
      "o ff",
      "u e",
      "con tro",
      "error s",
      "st re",
      "ffffff e",
      "vi ron",
      "fd mn",
      "wei xin",
      "en viron",
      "sina img",
      "succe ss",
      "off set",
      "environ ment",
      "a ger",
      "b command",
      "d on",
      "g rep",
      "i ty",
      "p in",
      "t r",
      "u be",
      "w a",
      "y in",
      "y out",
      "z hi",
      "ed ram",
      "ne x",
      "ne z",
      "fe fff",
      "con fi",
      "par ity",
      "su bcommand",
      "ava tar",
      "man ager",
      "mes os",
      "stre am",
      "don e",
      "pin yin",
      "yout ube",
      "confi g",
      "subcommand s",
      "b it",
      "d is",
      "i cation",
      "l esy",
      "m or",
      "u nex",
      "v ol",
      "ce nt",
      "me mor",
      "ch ine",
      "pe cted",
      "ran k",
      "client s",
      "ma chine",
      "goog lesy",
      "google apis",
      "nd ication",
      "manhu a",
      "unex pected",
      "memor y",
      "googlesy ndication",
      "b ug",
      "e le",
      "g n",
      "j tag",
      "n b",
      "p t",
      "p an",
      "s pe",
      "s age",
      "x a",
      "x f",
      "y timg",
      "z z",
      "in ni",
      "th res",
      "tes t",
      "sy stem",
      "ge n",
      "cn zz",
      "respon ding",
      "mes sage",
      "ho ld",
      "ele ction",
      "inni ty",
      "thres hold",
      "e o",
      "f an",
      "g static",
      "i c",
      "j ar",
      "l atch",
      "m y",
      "m id",
      "te xception",
      "ta l",
      "fe xception",
      "ma pr",
      "min i",
      "termina ting",
      "sc ip",
      "be l",
      "nd m",
      "am bi",
      "double max",
      "comple ted",
      "pl an",
      "bol t",
      "ali cdn",
      "ten cent",
      "sh are",
      "contro l",
      "zhi hu",
      "eo fexception",
      "mid plan",
      "mapr ed",
      "ambi ent",
      "b ee",
      "b er",
      "c nt",
      "g g",
      "h alt",
      "h ang",
      "n f",
      "n ch",
      "u x",
      "w cnt",
      "y an",
      "re transmi",
      "pro po",
      "ca che",
      "fe aa",
      "con n",
      "cd ndm",
      "gi ge",
      "bc ast",
      "................ ........",
      "ver i",
      "snapshot ting",
      "run ning",
      "chang yan",
      "sen der",
      "config ur",
      "pan ic",
      "retransmi ssion",
      "propo sed",
      "c as",
      "d r",
      "e v",
      "g q",
      "p as",
      "r a",
      "s up",
      "t w",
      "t cp",
      "v gq",
      "w ar",
      "ad c",
      "il e",
      "me mb",
      "ran dom",
      "read ing",
      "num ber",
      "google usercontent",
      "baidu static",
      "fu nc",
      "gram mar",
      "full y",
      "run time",
      "ten max",
      "sp ort",
      "ph t",
      "midplan e",
      "bee n",
      "gg pht",
      "configur ed",
      "ev ent",
      "pas sport",
      "tcp conn",
      "war ning",
      "memb er",
      "grammar ly",
      "a tion",
      "a ve",
      "b fe",
      "e na",
      "e nd",
      "m o",
      "o be",
      "p or",
      "r is",
      "r st",
      "s a",
      "t p",
      "w x",
      "y ou",
      "y tic",
      "ti med",
      "ti fication",
      "no tification",
      "ad obe",
      "an al",
      "by interrup",
      "id o",
      "da o",
      "da te",
      "pi c",
      "pi xe",
      "ni o",
      "closed byinterrup",
      "google ads",
      "bd img",
      "lin ux",
      "it c",
      "................ ....",
      "interrup ted",
      "po s",
      "attemp t",
      "ali gn",
      "tre llo",
      "succe eded",
      "bro adc",
      "channel s",
      "success fully",
      "spe eds",
      "veri fication",
      "ris boot",
      "you dao",
      "ytic s",
      "anal ytics",
      "pixe l",
      "closedbyinterrup texception",
      "align ment",
      "broadc ast",
      "/ .",
      "a v",
      "a si",
      "d mp",
      "d static",
      "e wer",
      "f l",
      "g es",
      "h ave",
      "i e",
      "i m",
      "k en",
      "k nez",
      "m er",
      "n x",
      "p ub",
      "p good",
      "r ed",
      "u es",
      "x b",
      "y dstatic",
      "ed ge",
      "se cu",
      "se nd",
      "te am",
      "on i",
      "ti n",
      "de bug",
      "cl ock",
      "ste er",
      "me ta",
      "sta ck",
      "con tin",
      "service action",
      "ter s",
      "ma ster",
      "up date",
      "exce eds",
      "mp good",
      "vi ewer",
      "user func",
      "ar ch",
      "exception s",
      "ae ger",
      "wri ter",
      "ab ort",
      "pl us",
      "fb cdn",
      "github usercontent",
      "** **",
      "bro ken",
      "ffffe ffe",
      "chang ing",
      "wa it",
      "vol t",
      "dr aeger",
      "ra il",
      "ena ble",
      "end serviceaction",
      "team viewer",
      "a y",
      "d l",
      "e mp",
      "g m",
      "h um",
      "i al",
      "l b",
      "l ast",
      "m u",
      "o ba",
      "p p",
      "s to",
      "s sl",
      "v m",
      "x x",
      "se arch",
      "oc cur",
      "in sta",
      "ta oba",
      "cl e",
      "hk g",
      "is hu",
      "ca f",
      "ca l",
      "ca pt",
      "fe c",
      "fe tch",
      "ran da",
      "sy nc",
      "eeee eeee",
      "pa ge",
      "ge t",
      "mi randa",
      "service s",
      "replica tion",
      "hu i",
      "set ting",
      "al er",
      "ffffff fc",
      "bo ok",
      "new s",
      "per for",
      "co re",
      "face book",
      "fail ing",
      "bf b",
      "fi rst",
      "sogou cdn",
      "po wer",
      "pl ay",
      "sina js",
      "wh ile",
      "............ ...",
      "un correctable",
      "avatar s",
      "dis able",
      "gen er",
      "bel nez",
      "sup por",
      "emp ty",
      "hum mer",
      "occur red",
      "insta ll",
      "taoba o",
      "ishu hui",
      "capt ure",
      "page ad",
      "suppor ters",
      "= /",
      "a w",
      "a de",
      "a nt",
      "a le",
      "c ro",
      "c pro",
      "d sk",
      "f de",
      "f lo",
      "g r",
      "i a",
      "i b",
      "l com",
      "m m",
      "m tal",
      "m oni",
      "o image",
      "s of",
      "u me",
      "u pon",
      "x d",
      "x ues",
      "y t",
      "y ing",
      "bl og",
      "block info",
      "to tal",
      "re ma",
      "no s",
      "9999999999999999 99999999",
      "ser ial",
      "or ted",
      "pro ble",
      "add member",
      "ge mini",
      "mi cro",
      "out s",
      "cluster addmember",
      "the re",
      "ac ce",
      "sock s",
      "pre fetch",
      "........ .",
      "qu ant",
      "inter val",
      "be nch",
      "cou nt",
      "dd cmd",
      "boot gen",
      "ip address",
      "we lcom",
      "ab orted",
      "ap p",
      "mar k",
      "ph y",
      "tr ying",
      "vol ume",
      "hang outs",
      "vgq sen",
      "notification s",
      "sto re",
      "vm unix",
      "cle ar",
      "perfor med",
      "mtal k",
      "moni tor",
      "xues hu",
      "rema in",
      "serial number",
      "proble m",
      "bench mark",
      "bootgen vmunix",
      "welcom e",
      "volume map",
      "a ce",
      "a con",
      "a ma",
      "a ffe",
      "b u",
      "b fffe",
      "c ss",
      "d oc",
      "d ni",
      "d cd",
      "d ri",
      "d ffe",
      "f bffff",
      "g lo",
      "h m",
      "j i",
      "j p",
      "k d",
      "m pi",
      "m ook",
      "o ver",
      "p m",
      "p ad",
      "p ch",
      "p ing",
      "p ur",
      "r ta",
      "w eb",
      "x t",
      "se le",
      "ff fc",
      "ff bffe",
      "te ch",
      "te xt",
      "ti tion",
      "ti cal",
      "ta nx",
      "cl ou",
      "ffff bffe",
      "as sets",
      "ca u",
      "tes ts",
      "li ve",
      "na me",
      "serv e",
      "serv ing",
      "sy s",
      "sy nch",
      "ex e",
      "mi t",
      "pen ding",
      "ma l",
      "read y",
      "par tition",
      "al ready",
      "expir ed",
      "be acon",
      "bd static",
      "ri p",
      "lin e",
      "link error",
      "cc f",
      "................ .",
      "bffff d",
      "wri te",
      "pl b",
      "cs dni",
      "cri tical",
      "med ia",
      "............ .",
      "unexpected ly",
      "bel n",
      "mo de",
      "sa me",
      "tp c",
      "steer ing",
      "contin ue",
      "replication monitor",
      "gener ating",
      "sof t",
      "quant serve",
      "dri ve",
      "fbffff fe",
      "mook ie",
      "pch ome",
      "rta x",
      "sele ct",
      "pending replicationmonitor",
      "csdni mg",
      "a o",
      "a u",
      "b r",
      "b ffffffe",
      "c tor",
      "c bfb",
      "d sp",
      "d ue",
      "e l",
      "e ed",
      "e ca",
      "e ver",
      "e ue",
      "f g",
      "f res",
      "f cm",
      "g h",
      "g re",
      "h ne",
      "h ack",
      "i k",
      "i ting",
      "i mp",
      "k it",
      "l le",
      "q a",
      "q box",
      "r t",
      "r ap",
      "r mal",
      "s w",
      "s ug",
      "s content",
      "t c",
      "t va",
      "u o",
      "u ba",
      "u ve",
      "w in",
      "w ang",
      "x ffffffff",
      "y gi",
      "z ed",
      "z on",
      "ed n",
      "ff er",
      "ff fdfe",
      "block ed",
      "to ol",
      "re fres",
      "de l",
      "de ni",
      "no te",
      "no rmal",
      "ro u",
      "ce e",
      "in t",
      "ad z",
      "ssi ble",
      "by te",
      "ca caf",
      "fe fe",
      "li t",
      "li mit",
      "add r",
      "da a",
      "ex change",
      "ge o",
      "mi ssion",
      "out br",
      ".... .",
      ".... ..",
      "star ted",
      "rep ub",
      "repli cas",
      "og ni",
      "part y",
      "al l",
      "type kit",
      "socket s",
      "qu eue",
      "ffffff be",
      "be ap",
      "stat s",
      "ar ale",
      "ll er",
      "cd c",
      "fffff c",
      "rec ogni",
      "per mission",
      "co lle",
      "lo w",
      "................ ..",
      ":/ /",
      "kn l",
      "gith uba",
      "cp u",
      "cre ating",
      "sp lit",
      "............ ..",
      "register s",
      "un recogni",
      "tree addr",
      "wa iting",
      "test qbox",
      "........................ .",
      "........................ ...",
      ".................... .",
      "av d",
      "asi a",
      "asi c",
      "ges tion",
      "pub ads",
      "secu re",
      "secu repub",
      "stack exchange",
      "aler t",
      "aw s",
      "fde e",
      "flo ating",
      "nos dn",
      "micro soft",
      "vgqsen es",
      "ama zon",
      "bu ffer",
      "doc tor",
      "el and",
      "ever note",
      "fg ygi",
      "fcm atch",
      "ik uo",
      "rap tor",
      "sw l",
      "sug gestion",
      "win dow",
      "tool s",
      "refres h",
      "deni ed",
      "cacaf ly",
      "outbr ain",
      "arale go",
      "colle ctor",
      "githuba pp",
      "unrecogni zed",
      "testqbox hang",
      "securepub ads",
      "amazon aws",
      ") :",
      "a g",
      "a fd",
      "a ae",
      "a tanx",
      "b p",
      "b s",
      "b de",
      "c j",
      "c ed",
      "c de",
      "c id",
      "c da",
      "c bb",
      "d m",
      "d bl",
      "d at",
      "d fffffe",
      "e as",
      "e be",
      "e click",
      "f m",
      "f p",
      "f on",
      "g a",
      "g v",
      "g ate",
      "i ti",
      "i an",
      "i me",
      "k ne",
      "l ti",
      "l ish",
      "l ac",
      "m d",
      "m ba",
      "m cm",
      "m dn",
      "o per",
      "o ple",
      "p k",
      "p u",
      "p th",
      "p ort",
      "q b",
      "q s",
      "q hi",
      "r m",
      "s li",
      "s ch",
      "s ma",
      "s um",
      "s click",
      "t d",
      "t ri",
      "u i",
      "u ation",
      "w n",
      "w sing",
      "y read",
      "ff a",
      "oc hi",
      "ti es",
      "re com",
      "de f",
      "de pth",
      "no sl",
      "ro byte",
      "si mba",
      "ee c",
      "ee p",
      "in te",
      "in iti",
      "ta ch",
      "ad nx",
      "th er",
      "er k",
      "ffff eb",
      "com pare",
      "pro mp",
      "pro per",
      "at tach",
      "id os",
      "id ochi",
      "il le",
      "me nd",
      "ca b",
      "ca e",
      "ca ugh",
      "time ou",
      "fe ffff",
      "fe bro",
      "ch at",
      "ch ip",
      "ng ine",
      "pe ople",
      "clo sing",
      "da c",
      "ze robyte",
      "rep lac",
      "og s",
      "una ble",
      "ac c",
      "hi clou",
      "hi gh",
      "st rip",
      "socket timeou",
      "sr m",
      "ec c",
      "ec f",
      "google tag",
      "........ ...",
      "qu lish",
      "ffffff f",
      "io state",
      "be f",
      "us h",
      "consi der",
      "fd fffdfe",
      "temp high",
      "nd y",
      "am d",
      "cd d",
      "fffff bfe",
      "gi ve",
      "bc c",
      "lo go",
      "fda a",
      "ip v",
      "ae f",
      "ol ar",
      "cc b",
      "fi er",
      "ub mcm",
      "ss p",
      "po int",
      "ali z",
      "cp c",
      "cp md",
      "content recom",
      "cre a",
      "sp pm",
      "bgl a",
      "bgl master",
      "bgl idochi",
      "are n",
      "mar y",
      "sh ort",
      "bi z",
      "symbol s",
      "ho st",
      "manhu aren",
      "contro ller",
      "zhi mg",
      "gn u",
      "sa febro",
      "adobe login",
      "fl s",
      "fl ush",
      "debug ger",
      "contin uation",
      "gm t",
      "mu lti",
      "mu ndy",
      "aler ts",
      "gr avatar",
      "ib m",
      "mm stat",
      "acce ssible",
      "glo sli",
      "kd pic",
      "pur ge",
      "bffffd fe",
      "adz erk",
      "window s",
      "cj mundy",
      "cid ian",
      "dbl p",
      "eas yread",
      "fon ts",
      "gv t",
      "oper ation",
      "qhi mg",
      "sch olar",
      "sum mary",
      "tri er",
      "nosl eep",
      "initi aliz",
      "adnx s",
      "ffffeb fe",
      "promp t",
      "proper ties",
      "attach ment",
      "caugh t",
      "zerobyte bug",
      "replac ing",
      "hiclou d",
      "sockettimeou texception",
      "qulish i",
      "ubmcm m",
      "contentrecom mend",
      "bglidochi p",
      "safebro wsing",
      "multi ple",
      "( )",
      ": :",
      "a se",
      "a ff",
      "a ad",
      "a tes",
      "a ran",
      "a bf",
      "b h",
      "b j",
      "b ce",
      "b in",
      "b an",
      "b id",
      "b be",
      "b rand",
      "b fc",
      "b cdc",
      "c i",
      "c si",
      "c ta",
      "c at",
      "c fe",
      "c fd",
      "c bd",
      "c gi",
      "c bf",
      "c ffffffe",
      "d s",
      "d ff",
      "d in",
      "d up",
      "d bc",
      "d count",
      "d pm",
      "e no",
      "e ce",
      "e ad",
      "e ct",
      "e ac",
      "e bd",
      "e fc",
      "e ngine",
      "f y",
      "f oc",
      "f re",
      "f ce",
      "f ca",
      "f ac",
      "f bd",
      "g t",
      "g u",
      "g na",
      "g al",
      "g timg",
      "g mail",
      "h n",
      "h pd",
      "h fm",
      "i z",
      "i es",
      "i rd",
      "i cache",
      "i ji",
      "j y",
      "j or",
      "j ni",
      "j ect",
      "k k",
      "k cdn",
      "k nel",
      "l h",
      "l p",
      "l s",
      "l ock",
      "l ce",
      "l sn",
      "l cr",
      "l ang",
      "m de",
      "m is",
      "m ct",
      "m ing",
      "m ob",
      "m hfm",
      "n oc",
      "n ction",
      "n sl",
      "n sion",
      "o p",
      "o w",
      "o re",
      "p v",
      "p ll",
      "q d",
      "q i",
      "q pic",
      "q logo",
      "q lsn",
      "r ce",
      "r al",
      "r atch",
      "r ss",
      "r ts",
      "r ating",
      "s b",
      "s ti",
      "s ou",
      "s pa",
      "s stats",
      "t xy",
      "t ter",
      "t server",
      "t wi",
      "t lb",
      "t ui",
      "u se",
      "u ch",
      "u edu",
      "u ter",
      "u al",
      "v r",
      "v ing",
      "v ec",
      "w al",
      "w pad",
      "w rating",
      "x bb",
      "y es",
      "y ms",
      "y img",
      "y ap",
      "y update",
      "y bp",
      "y ates",
      "y uedu",
      "z kcdn",
      "bl ac",
      "bl ue",
      "ed d",
      "ed bb",
      "ed ra",
      "se s",
      "se ng",
      "se stat",
      "ff d",
      "te ed",
      "te ma",
      "te ase",
      "oc sp",
      "ti va",
      "ti vec",
      "to purge",
      "to uch",
      "re open",
      "re starting",
      "re mo",
      "re search",
      "de n",
      "de sc",
      "de bcc",
      "de mde",
      "no avatar",
      "no zerobytebug",
      "ce c",
      "si mg",
      "si cal",
      "si tema",
      "in it",
      "ta bo",
      "ta pad",
      "om m",
      "es witch",
      "cl g",
      "or din",
      "ad f",
      "ad sr",
      "ad master",
      "ad services",
      "ad td",
      "th un",
      "th ird",
      "an ad",
      "er y",
      "ffff ca",
      "com ment",
      "pro ject",
      "session timeout",
      "is su",
      "ne eded",
      "ne os",
      "ne tease",
      "il l",
      "il yupdate",
      "me kn",
      "me nsion",
      "ca c",
      "ca pi",
      "ca mo",
      "for mi",
      "rece ption",
      "fe ff",
      "fe ng",
      "add ing",
      "add this",
      "con so",
      "con project",
      "da ilyupdate",
      "pa i",
      "ex ter",
      "ex ten",
      "card research",
      "ps u",
      "mi ao",
      "client services",
      ".... ...",
      "ma ps",
      "ma tic",
      "ma jor",
      "up load",
      "og ues",
      "wi x",
      "wi fi",
      "ac count",
      "ac tiva",
      "ms n",
      "down load",
      "pre sta",
      "pre ci",
      "fa b",
      "fa e",
      "sr am",
      "google adservices",
      "sc ore",
      "sc ratch",
      "qu ali",
      "qu ery",
      "ffffff fa",
      "ba e",
      "ba iji",
      "ba yms",
      "bo s",
      "fd c",
      "fd f",
      "fd fffe",
      "bd d",
      "wor dcount",
      "work er",
      "df c",
      "alloca te",
      "ar ed",
      "am anad",
      "cd fffe",
      "new simg",
      "new maps",
      "lin es",
      "sor t",
      "sor ter",
      "ede fb",
      "di ct",
      "di cta",
      "di mension",
      "ea a",
      "ea f",
      "sk n",
      "sk ype",
      "sl b",
      "sl f",
      "dd c",
      "dd d",
      "af b",
      "co ordin",
      "fu nction",
      "fail ure",
      "od r",
      "ol a",
      "ru bi",
      "ima ges",
      "................ ...",
      "img ur",
      "img cache",
      "qq mail",
      "bffff a",
      "dropbox api",
      "ss o",
      "ss um",
      "comple te",
      "ef de",
      "po se",
      "dn s",
      "mes seng",
      "ali tui",
      "bgl v",
      "ur l",
      "mar t",
      "sh ow",
      "sh ared",
      "bi party",
      "ah ao",
      "curi oni",
      "exis ting",
      "tro uter",
      "mail box",
      "grep b",
      "tr c",
      "tr ace",
      "wa y",
      "cent ral",
      "pt login",
      "spe lce",
      "midplan eswitch",
      "veri fy",
      "cas ale",
      "vgq s",
      "vgq skn",
      "adobe id",
      "av p",
      "im preci",
      "pub s",
      "pub matic",
      "send ing",
      "stack over",
      "replication s",
      "flo w",
      "mm cs",
      "oimage a",
      "oimage b",
      "oimage c",
      "micro ad",
      "acce ss",
      "ddcmd bglv",
      "phy sical",
      "vgqsen ee",
      "glo b",
      "kd cl",
      "mpi ts",
      "pur pose",
      "clou df",
      "cau sed",
      "cau sing",
      "rip tor",
      "au th",
      "au topurge",
      "gre pa",
      "gre eno",
      "imp service",
      "tva x",
      "wang wang",
      "rou te",
      "rou nd",
      "fefe feff",
      "daa be",
      "ag kn",
      "ga ther",
      "gate way",
      "ille gal",
      "cab ot",
      "googletag manager",
      "crea tivec",
      "gmt dmp",
      "initializ ing",
      "aran teed",
      "bce bos",
      "ban k",
      "bid switch",
      "foc us",
      "gt ms",
      "gu aranteed",
      "gna r",
      "hn edn",
      "ls f",
      "mis compare",
      "mob ile",
      "noc omm",
      "sou rce",
      "spa ce",
      "txy z",
      "twi tter",
      "ual dn",
      "blac s",
      "edra ms",
      "remo ving",
      "desc riptor",
      "demde x",
      "sitema ji",
      "tabo ola",
      "adsr vr",
      "adtd p",
      "thun der",
      "third party",
      "issu es",
      "needed replications",
      "neos mart",
      "mekn ed",
      "conso le",
      "exter nal",
      "exten sion",
      "miao pai",
      "ogues nsl",
      "account s",
      "activa ting",
      "score cardresearch",
      "quali ty",
      "baiji ahao",
      "bayms gr",
      "dicta pp",
      "coordin ate",
      "function al",
      "rubi conproject",
      "messeng er",
      "biparty z",
      "midplaneswitch controller",
      "casale media",
      "impreci se",
      "stackover flow",
      "creativec dn",
      ") .......",
      "/ ./",
      "= <",
      "a k",
      "a to",
      "a ta",
      "a me",
      "a ca",
      "a fe",
      "a ac",
      "a ec",
      "a ba",
      "a af",
      "a eb",
      "a bb",
      "a der",
      "a tive",
      "a gg",
      "a ux",
      "a ges",
      "a search",
      "a cle",
      "a fec",
      "b m",
      "b t",
      "b x",
      "b z",
      "b ed",
      "b ad",
      "b ec",
      "b ba",
      "b us",
      "b fd",
      "b cd",
      "b bc",
      "b wal",
      "b trace",
      "c v",
      "c ff",
      "c ti",
      "c ca",
      "c be",
      "c df",
      "c cd",
      "c atch",
      "c fff",
      "c ial",
      "c tools",
      "d g",
      "d j",
      "d k",
      "d w",
      "d ed",
      "d de",
      "d ca",
      "d fe",
      "d na",
      "d cu",
      "d ps",
      "d ge",
      "d bd",
      "d ede",
      "d bf",
      "d fffe",
      "d sh",
      "d tr",
      "d slb",
      "e fe",
      "e of",
      "e fa",
      "e ld",
      "e llo",
      "f s",
      "f in",
      "f cd",
      "f bc",
      "f click",
      "f caf",
      "g d",
      "g ed",
      "g to",
      "g ct",
      "g ing",
      "g ice",
      "g ma",
      "g slb",
      "g round",
      "h d",
      "h j",
      "h id",
      "h res",
      "h static",
      "h pt",
      "h ello",
      "i f",
      "i v",
      "i wi",
      "i eee",
      "i ms",
      "i ar",
      "i rec",
      "i ary",
      "i cb",
      "i cau",
      "i den",
      "i feng",
      "i hd",
      "j l",
      "j re",
      "j ng",
      "j vm",
      "j line",
      "j fm",
      "j dk",
      "k e",
      "k r",
      "k le",
      "k od",
      "k test",
      "k ill",
      "k iwi",
      "l g",
      "l es",
      "l is",
      "l loc",
      "l are",
      "l xf",
      "l ative",
      "m bl",
      "m mb",
      "m jy",
      "n h",
      "n u",
      "n on",
      "n tion",
      "n ter",
      "n sclick",
      "n mjy",
      "o si",
      "o adz",
      "p j",
      "p z",
      "p il",
      "p co",
      "p ted",
      "p hot",
      "p pl",
      "q w",
      "q um",
      "q lr",
      "q hm",
      "q rt",
      "q hres",
      "r s",
      "r ack",
      "r ary",
      "r ther",
      "s com",
      "s par",
      "s doc",
      "s all",
      "s qrt",
      "t j",
      "t n",
      "t st",
      "t ten",
      "t ur",
      "t js",
      "u y",
      "u an",
      "u sed",
      "u res",
      "u sync",
      "v jp",
      "w f",
      "w k",
      "w s",
      "w an",
      "w pe",
      "w ing",
      "w up",
      "w atch",
      "w bp",
      "w td",
      "w osi",
      "x ff",
      "x ad",
      "x ing",
      "x ae",
      "x bf",
      "x fee",
      "x dr",
      "x gr",
      "x daabe",
      "x uan",
      "y re",
      "y un",
      "y ndm",
      "y vjp",
      "z hstatic",
      "z jfm",
      "z sall",
      "bl ed",
      "bl ast",
      "bl ime",
      "ed b",
      "ed fe",
      "ed ba",
      "se curi",
      "se ille",
      "se mbl",
      "ff b",
      "ff de",
      "ff ce",
      "ff eeee",
      "ff fa",
      "te l",
      "oc dn",
      "ti mi",
      "ti ck",
      "ti fier",
      "block s",
      "to o",
      "to po",
      "to ho",
      "re connect",
      "re xception",
      "re tag",
      "re mer",
      "re started",
      "re gct",
      "de b",
      "de ed",
      "no route",
      "ro me",
      "ro be",
      "ro ws",
      "ce a",
      "ce b",
      "ce si",
      "ce cc",
      "ce cf",
      "ce ab",
      "si wf",
      "si xgr",
      "ee a",
      "ee b",
      "in for",
      "in go",
      "in fer",
      "in count",
      "ta u",
      "ta im",
      "ta incount",
      "ser apis",
      "cl k",
      "cl as",
      "or der",
      "or acle",
      "ad b",
      "ad tech",
      "ad ingo",
      "an com",
      "ste ll",
      "ste xception",
      "ffff fd",
      "ffff bc",
      "as h",
      "as sembl",
      "com mit",
      "com pil",
      "proxy db",
      "ssi ve",
      "by e",
      "ne tt",
      "il t",
      "il iary",
      "me hu",
      "ca ch",
      "ca ses",
      "for ce",
      "sta nd",
      "tes ting",
      "fe ad",
      "fe af",
      "fe ffe",
      "fe eds",
      "fe fffc",
      "li gh",
      "ting yun",
      "ou ji",
      "cu tion",
      "cu lative",
      "ok ing",
      "ok ie",
      "sy nd",
      "sym cd",
      "da f",
      "da ac",
      "da ea",
      "da cb",
      "pa ct",
      "pa ges",
      "ex it",
      "ps g",
      "ge ne",
      "tor ies",
      "ct ld",
      "open x",
      "open ing",
      "open jdk",
      "out stand",
      "htt p",
      "go v",
      "conne cted",
      "state exception",
      "le n",
      "le ment",
      "le av",
      "le ader",
      "service mailbox",
      "ma tion",
      "ma ke",
      "up mobile",
      "exce ssive",
      "do e",
      "do g",
      "pr iv",
      "server db",
      "proces ses",
      "um s",
      "par ame",
      "par serapis",
      "hu cdn",
      "blish ing",
      "et c",
      "net dna",
      "min sessiontimeout",
      "ac d",
      "ms gto",
      "st un",
      "st robe",
      "ni ux",
      "pre fi",
      "pre ssing",
      "pre taincount",
      "fa ef",
      "sr kod",
      "ec d",
      "ec mb",
      "mp l",
      "mp lement",
      "sc ancom",
      "long ca",
      "qu sixgr",
      "ffffff ee",
      "ba a",
      "ba f",
      "ba se",
      "ba ff",
      "nodecard s",
      "io log",
      "be b",
      "ww biz",
      "user info",
      "fd d",
      "nd or",
      "pd bg",
      "pd lxf",
      "bd b",
      "cou nter",
      "uni t",
      "uni cation",
      "uni mplement",
      "df bb",
      "su blime",
      "ll ing",
      "ll po",
      "ll control",
      "comm unication",
      "cd cf",
      "ve ndor",
      "di ed",
      "di ff",
      "di gice",
      "cmd line",
      "ea b",
      "sl ave",
      "cio stream",
      "af c",
      "cn cdn",
      "ciod b",
      "dc b",
      "dc f",
      "dc bf",
      "back ground",
      "log file",
      "log ies",
      "log userinfo",
      "co sy",
      "co proc",
      "fu rther",
      "cor rup",
      "cor por",
      "eb b",
      "eb f",
      "eb ed",
      "eb de",
      "eb ee",
      "eb da",
      "eb ba",
      "eb bd",
      "fail ures",
      "bc b",
      "bc cf",
      "it z",
      "lo oking",
      "direc tories",
      "bb ac",
      "bb bb",
      "fc b",
      "fc c",
      "fc f",
      "fc de",
      "fc ca",
      "zookeeper server",
      "ae fe",
      "cc bc",
      "cc cc",
      "cc same",
      "cc yndm",
      "ru les",
      "................ ....................",
      "................ .............",
      "img src",
      "img tn",
      "qq web",
      "image plus",
      "cf g",
      "drop ping",
      "cdn js",
      "fi eld",
      "wri tten",
      "db g",
      "db properties",
      "db remer",
      "sna pretaincount",
      "linkcard s",
      "interrup ting",
      "interrup ts",
      "current ly",
      "pack ages",
      "internal api",
      "ef ed",
      "modu lo",
      "po pt",
      "po ssible",
      "po llcontrol",
      "tmp dir",
      "ap u",
      "cb js",
      "cb rt",
      "ts ch",
      "lib rary",
      "fffffe fe",
      "sina app",
      "fb de",
      "fb ca",
      "cs m",
      "fff bccf",
      "conte ntion",
      "tre lloc",
      "inst r",
      "so on",
      "so pt",
      "max bug",
      "max sessiontimeout",
      "apa c",
      "cr c",
      "cr l",
      "med al",
      "xml parserapis",
      "follo wing",
      "bgl scratch",
      "** *",
      "ur sdoc",
      "mar seille",
      "ly jl",
      "sh ouji",
      "xe qusixgr",
      "conf pu",
      "bi g",
      "xer cesi",
      "timg sa",
      "tag r",
      "sen sor",
      "ron t",
      "un pk",
      "good bye",
      "contro lling",
      "stre itz",
      "tr ain",
      "tr ack",
      "tr ap",
      "tr app",
      "wa ve",
      "nex age",
      "config file",
      "bit s",
      "dis connected",
      "jtag id",
      "spe cial",
      "spe culative",
      "xa fd",
      "system controller",
      "mini ga",
      "ber tsch",
      "hang test",
      "nf s",
      "........................ ..",
      "configur ation",
      "dr v",
      "sup date",
      "sup pressing",
      "tw are",
      "ile ged",
      "func tests",
      "tenmax img",
      "ena bled",
      "por tion",
      "ido proxydb",
      ".................... ..",
      ".................... ...",
      "av n",
      "fl agg",
      "fl ash",
      "im tt",
      "im pr",
      "im pact",
      "red irec",
      "send worker",
      "send msgto",
      "send train",
      "**** ****",
      "**** ***",
      "enable flush",
      "pp ing",
      "sto pping",
      "get ting",
      "get dropbox",
      "news app",
      "perfor ming",
      "gener al",
      "gener ic",
      "aw qi",
      "fde ad",
      "ia o",
      "sof tware",
      "yt nh",
      "acce pted",
      "prefetch es",
      "prefetch ing",
      "quant count",
      "ama ihd",
      "bu ilt",
      "exe cution",
      "mal loc",
      "write log",
      "eed c",
      "eca a",
      "rt b",
      "int f",
      "all gather",
      "asia max",
      "window supdate",
      "refresh es",
      "ag ent",
      "dm w",
      "pk i",
      "pu ui",
      "qb wup",
      "rm w",
      "sma ll",
      "sma ller",
      "sma ato",
      "inte rexception",
      "acc ad",
      "googletag services",
      "logo s",
      "crea tive",
      "flush ing",
      "purge interval",
      "nosleep yes",
      "nosleep nocomm",
      "initializ ation",
      "aff aa",
      "bin d",
      "cfd ddc",
      "ebd b",
      "fre e",
      "fre ed",
      "iz xequsixgr",
      "jy b",
      "kk k",
      "ming xing",
      "op timi",
      "op taim",
      "qd un",
      "qi hucdn",
      "rss gov",
      "sti r",
      "sti ll",
      "wal k",
      "xbb hj",
      "yes zerobytebug",
      "yuedu st",
      "blue ligh",
      "blue gene",
      "edbb b",
      "ill er",
      "feng net",
      "scratch pad",
      "show xml",
      "mailbox monitor",
      "glob al",
      "cloudf lare",
      "cloudf ront",
      "gather ing",
      "illegal stateexception",
      "mobile m",
      "nocomm nosleep",
      "descriptor s",
      "console ip",
      "console port",
      "ak amaihd",
      "ata base",
      "aux iliary",
      "afec da",
      "bm iller",
      "bz clk",
      "bwal len",
      "cti ps",
      "catch up",
      "dg test",
      "dca af",
      "dge mm",
      "dsh ytnh",
      "dtr p",
      "efa ea",
      "fin d",
      "hid den",
      "hpt qlr",
      "ieee confpu",
      "icb i",
      "icau h",
      "iden tifier",
      "ifeng img",
      "kr com",
      "kiwi hk",
      "lis t",
      "mmb iz",
      "nu llpo",
      "nmjy lyjl",
      "pco okie",
      "phot ocdn",
      "ppl v",
      "qum ccyndm",
      "scom error",
      "spar ing",
      "tur n",
      "uy kle",
      "used atabase",
      "wpe ngine",
      "watch dog",
      "wbp ctips",
      "wtd tjs",
      "wosi gn",
      "xdr pj",
      "xuan fengnet",
      "yre xdrpj",
      "securi ty",
      "ffeeee fe",
      "tick time",
      "topo logies",
      "toho stexception",
      "retag ging",
      "regct l",
      "noroute tohostexception",
      "infor mation",
      "infer no",
      "clas s",
      "order ing",
      "stell a",
      "assembl y",
      "compil er",
      "nett y",
      "mehu l",
      "cach ing",
      "synd rome",
      "exit ed",
      "ctld l",
      "outstand ing",
      "leav ing",
      "servicemailbox es",
      "priv ileged",
      "parame ters",
      "niux iao",
      "prefi x",
      "srkod hptqlr",
      "wwbiz api",
      "unimplement ed",
      "sublime text",
      "digice rt",
      "corrup t",
      "corpor ation",
      "ccsame f",
      "pollcontrol descriptors",
      "trelloc dn",
      "ursdoc cdn",
      "marseille bgl",
      "xercesi mpl",
      "unpk g",
      "trapp ed",
      "miniga me",
      "flagg ing",
      "redirec tor",
      "sendmsgto debugger",
      "awqi izxequsixgr",
      "nosleepyes comm",
      "optimi x",
      "xbbhj xc",
      "blueligh t",
      "ieeeconfpu blishing",
      "nullpo interexception",
      "nmjylyjl uykle",
      "qumccyndm siwf",
      "srkodhptqlr yvjp"
    ]
  }
}