{
  "version": "1.0",
  "truncation": null,
  "padding": null,
  "added_tokens": [
    {
      "id": 0,
      "content": "<pad>",
      "single_word": false,
      "lstrip": false,
      "rstrip": false,
      "normalized": false,
      "special": true
    },
    {
      "id": 1,
      "content": "<unk>",
      "single_word": false,
      "lstrip": false,
      "rstrip": false,
      "normalized": false,
      "special": true
    },
    {
      "id": 2,
      "content": " ",
      "single_word": false,
      "lstrip": false,
      "rstrip": false,
      "normalized": false,
      "special": true
    }
  ],
  "normalizer": {
    "type": "Sequence",
    "normalizers": [
      {
        "type": "NFKC"
      },
      {
        "type": "Lowercase"
      }
    ]
  },
  "pre_tokenizer": {
    "type": "Sequence",
    "pretokenizers": [
      {
        "type": "Whitespace"
      },
      {
        "type": "ByteLevel",
        "add_prefix_space": false,
        "trim_offsets": true,
        "use_regex": true
      }
    ]
  },
  "post_processor": {
    "type": "ByteLevel",
    "add_prefix_space": true,
    "trim_offsets": false,
    "use_regex": true
  },
  "decoder": null,
  "model": {
    "type": "BPE",
    "dropout": null,
    "unk_token": null,
    "continuing_subword_prefix": null,
    "end_of_word_suffix": null,
    "fuse_unk": false,
    "byte_fallback": false,
    "ignore_merges": false,
    "vocab": {
      "<pad>": 0,
      "<unk>": 1,
      " ": 2,
      "!": 3,
      "$": 4,
      "(": 5,
      ")": 6,
      "*": 7,
      "+": 8,
      ",": 9,
      "-": 10,
      ".": 11,
      "/": 12,
      "9": 13,
      ":": 14,
      ";": 15,
      "<": 16,
      "=": 17,
      ">": 18,
      "@": 19,
      "[": 20,
      "\\": 21,
      "]": 22,
      "_": 23,
      "a": 24,
      "b": 25,
      "c": 26,
      "d": 27,
      "e": 28,
      "f": 29,
      "g": 30,
      "h": 31,
      "i": 32,
      "j": 33,
      "k": 34,
      "l": 35,
      "m": 36,
      "n": 37,
      "o": 38,
      "p": 39,
      "q": 40,
      "r": 41,
      "s": 42,
      "t": 43,
      "u": 44,
      "v": 45,
      "w": 46,
      "x": 47,
      "y": 48,
      "z": 49,
      "99": 50,
      "9999": 51,
      "99999999": 52,
      "999": 53,
      "in": 54,
      "ro": 55,
      "te": 56,
      "se": 57,
      "re": 58,
      "bl": 59,
      "ed": 60,
      "on": 61,
      "hk": 62,
      "er": 63,
      "en": 64,
      "ti": 65,
      "ing": 66,
      "ck": 67,
      "pro": 68,
      "99999": 69,
      "xy": 70,
      "proxy": 71,
      "ce": 72,
      "ock": 73,
      "or": 74,
      "block": 75,
      "le": 76,
      "cu": 77,
      "9999999999999999": 78,
      "blk": 79,
      "me": 80,
      "at": 81,
      "ter": 82,
      "co": 83,
      "9999999999999999999": 84,
      "cse": 85,
      "edu": 86,
      "cuhk": 87,
      "by": 88,
      "de": 89,
      "al": 90,
      "tes": 91,
      "iv": 92,
      "bytes": 93,
      "rece": 94,
      "receiv": 95,
      "ad": 96,
      "tion": 97,
      "st": 98,
      "th": 99,
      "nt": 100,
      "inter": 101,
      "received": 102,
      "ne": 103,
      "con": 104,
      "cl": 105,
      "up": 106,
      "ror": 107,
      "error": 108,
      "ent": 109,
      "op": 110,
      "id": 111,
      "for": 112,
      "time": 113,
      "com": 114,
      "ar": 115,
      "tem": 116,
      "ating": 117,
      "ction": 118,
      "to": 119,
      "if": 120,
      "ted": 121,
      "open": 122,
      "no": 123,
      "si": 124,
      "ma": 125,
      "ug": 126,
      "ps": 127,
      "is": 128,
      "rup": 129,
      "interrup": 130,
      "conne": 131,
      "ugh": 132,
      "mes": 133,
      "add": 134,
      "ue": 135,
      "clo": 136,
      "tt": 137,
      "ile": 138,
      "close": 139,
      "rough": 140,
      "through": 141,
      "nd": 142,
      "htt": 143,
      "https": 144,
      "ex": 145,
      "sent": 146,
      "etime": 147,
      "lif": 148,
      "ting": 149,
      "lifetime": 150,
      "..": 151,
      "connection": 152,
      "kb": 153,
      "ys": 154,
      "ystem": 155,
      "red": 156,
      "core": 157,
      "gen": 158,
      "gener": 159,
      "wor": 160,
      "work": 161,
      "sp": 162,
      "of": 163,
      "generating": 164,
      "ge": 165,
      "val": 166,
      "na": 167,
      "que": 168,
      "ser": 169,
      "mesystem": 170,
      "namesystem": 171,
      "ch": 172,
      "ze": 173,
      "size": 174,
      "an": 175,
      "ient": 176,
      "ai": 177,
      "ou": 178,
      "send": 179,
      "node": 180,
      "file": 181,
      "added": 182,
      "lin": 183,
      "worker": 184,
      "am": 185,
      "pi": 186,
      "dele": 187,
      "link": 188,
      "9999999999": 189,
      "et": 190,
      "od": 191,
      "**": 192,
      "go": 193,
      "wh": 194,
      "as": 195,
      "interrupt": 196,
      "cep": 197,
      "expi": 198,
      "age": 199,
      "lo": 200,
      "av": 201,
      "while": 202,
      "ated": 203,
      "ev": 204,
      "serv": 205,
      "dat": 206,
      "data": 207,
      "....": 208,
      "fro": 209,
      "event": 210,
      "999999999999": 211,
      "min": 212,
      "interval": 213,
      "from": 214,
      "linkerror": 215,
      "expired": 216,
      "ception": 217,
      "di": 218,
      "wi": 219,
      "exception": 220,
      "wai": 221,
      "reque": 222,
      "request": 223,
      "pa": 224,
      "tic": 225,
      "resp": 226,
      "ond": 227,
      "respond": 228,
      "termin": 229,
      "ic": 230,
      "sage": 231,
      "message": 232,
      "pack": 233,
      "sion": 234,
      "packet": 235,
      "og": 236,
      "ub": 237,
      "cur": 238,
      "map": 239,
      "sto": 240,
      "ning": 241,
      "rent": 242,
      "current": 243,
      "ig": 244,
      "upd": 245,
      "sr": 246,
      "blockmap": 247,
      "addsto": 248,
      "redblock": 249,
      "updated": 250,
      "addstoredblock": 251,
      "had": 252,
      "temp": 253,
      "interrupted": 254,
      "queue": 255,
      "waiting": 256,
      "responder": 257,
      "terminating": 258,
      "packetresponder": 259,
      "ssion": 260,
      "client": 261,
      "bro": 262,
      "src": 263,
      "bient": 264,
      "ambient": 265,
      "read": 266,
      "my": 267,
      "receiving": 268,
      "ot": 269,
      "ct": 270,
      "ble": 271,
      "cr": 272,
      "dest": 273,
      "valid": 274,
      "ken": 275,
      "broken": 276,
      "df": 277,
      "invalid": 278,
      "not": 279,
      "dir": 280,
      "sta": 281,
      "set": 282,
      "mnt": 283,
      "oop": 284,
      "session": 285,
      "deleting": 286,
      "hadoop": 287,
      "dfs": 288,
      "iar": 289,
      "goog": 290,
      "google": 291,
      "interrupting": 292,
      "sendworker": 293,
      "thread": 294,
      "sub": 295,
      "leav": 296,
      "leaving": 297,
      "ds": 298,
      "subdir": 299,
      "secon": 300,
      "seconds": 301,
      "ut": 302,
      "999999": 303,
      "cri": 304,
      "cted": 305,
      "ca": 306,
      "dear": 307,
      "mod": 308,
      "swi": 309,
      "tch": 310,
      "ule": 311,
      "tical": 312,
      "critical": 313,
      "module": 314,
      "switch": 315,
      "mic": 316,
      "micro": 317,
      "gr": 318,
      "nm": 319,
      "microseconds": 320,
      "net": 321,
      "put": 322,
      "input": 323,
      "out": 324,
      "nment": 325,
      "interrupts": 326,
      "delete": 327,
      "atu": 328,
      "alig": 329,
      "invalidset": 330,
      "alignment": 331,
      "exceptions": 332,
      "bo": 333,
      "un": 334,
      "the": 335,
      "war": 336,
      "warning": 337,
      "and": 338,
      "ci": 339,
      "ww": 340,
      "sec": 341,
      "files": 342,
      "9999999": 343,
      "999999999999999999": 344,
      "server": 345,
      "mal": 346,
      "network": 347,
      "nor": 348,
      "ss": 349,
      "normal": 350,
      "ail": 351,
      "tal": 352,
      "um": 353,
      "filesystem": 354,
      "ciod": 355,
      "total": 356,
      "able": 357,
      "par": 358,
      "main": 359,
      "****": 360,
      "ba": 361,
      "comma": 362,
      "command": 363,
      "tected": 364,
      "detected": 365,
      "int": 366,
      "gi": 367,
      "user": 368,
      "ace": 369,
      "po": 370,
      "root": 371,
      "........": 372,
      "gram": 373,
      "do": 374,
      "ress": 375,
      "sock": 376,
      "ation": 377,
      "vi": 378,
      "idu": 379,
      "baidu": 380,
      "cor": 381,
      "corre": 382,
      "can": 383,
      "ld": 384,
      "address": 385,
      "sing": 386,
      "inst": 387,
      "eratu": 388,
      "connect": 389,
      "temperatu": 390,
      "temperature": 391,
      "ff": 392,
      "it": 393,
      "dro": 394,
      "run": 395,
      "drop": 396,
      "sy": 397,
      "max": 398,
      "dou": 399,
      "program": 400,
      "spent": 401,
      "double": 402,
      "ee": 403,
      "has": 404,
      "chan": 405,
      "point": 406,
      "socket": 407,
      "nel": 408,
      "running": 409,
      "bg": 410,
      "flo": 411,
      "floating": 412,
      "bgl": 413,
      "dd": 414,
      "iff": 415,
      "ish": 416,
      "niff": 417,
      "ask": 418,
      "hum": 419,
      "mer": 420,
      "rand": 421,
      "blish": 422,
      "domain": 423,
      "hummer": 424,
      "ac": 425,
      "esta": 426,
      "served": 427,
      "static": 428,
      "establish": 429,
      "spe": 430,
      "loca": 431,
      "part": 432,
      "us": 433,
      "sym": 434,
      "task": 435,
      "teblock": 436,
      "orar": 437,
      "alloca": 438,
      "temporar": 439,
      "allocateblock": 440,
      "temporary": 441,
      "mgr": 442,
      "timeout": 443,
      "www": 444,
      "ailable": 445,
      "im": 446,
      "cannot": 447,
      "be": 448,
      "ll": 449,
      "channel": 450,
      "statu": 451,
      "status": 452,
      "face": 453,
      "fan": 454,
      "conf": 455,
      "mas": 456,
      "ok": 457,
      "ort": 458,
      "ran": 459,
      "interface": 460,
      "via": 461,
      "config": 462,
      "mask": 463,
      "eds": 464,
      "asser": 465,
      "ap": 466,
      "available": 467,
      "serverfilesystem": 468,
      "ele": 469,
      "ima": 470,
      "with": 471,
      "election": 472,
      "image": 473,
      "ring": 474,
      "speeds": 475,
      "configu": 476,
      "got": 477,
      "gige": 478,
      "clus": 479,
      "box": 480,
      "cluster": 481,
      "serving": 482,
      "dropbox": 483,
      "sessionid": 484,
      "instr": 485,
      "mis": 486,
      "stre": 487,
      "ication": 488,
      "corrected": 489,
      "pre": 490,
      "cou": 491,
      "ddr": 492,
      "configured": 493,
      "uction": 494,
      "clusterfilesystem": 495,
      "instruction": 496,
      "attemp": 497,
      "could": 498,
      "ix": 499,
      "su": 500,
      "sog": 501,
      "sogou": 502,
      "che": 503,
      "clients": 504,
      "boot": 505,
      "fail": 506,
      "was": 507,
      "load": 508,
      "stream": 509,
      "pe": 510,
      "ts": 511,
      "interconnect": 512,
      "sport": 513,
      "wait": 514,
      "qq": 515,
      "rce": 516,
      "sou": 517,
      "orage": 518,
      "storage": 519,
      "errors": 520,
      "idot": 521,
      "ransport": 522,
      "assert": 523,
      "source": 524,
      "idotransport": 525,
      "idotransportmgr": 526,
      "cal": 527,
      "new": 528,
      "ve": 529,
      "failed": 530,
      "mo": 531,
      "thub": 532,
      "github": 533,
      "ger": 534,
      "ity": 535,
      "gn": 536,
      "comp": 537,
      "lb": 538,
      "eded": 539,
      "ceeded": 540,
      "sign": 541,
      "signal": 542,
      "),": 543,
      "fo": 544,
      "missing": 545,
      "loading": 546,
      "per": 547,
      "tlb": 548,
      "sh": 549,
      "tif": 550,
      "proce": 551,
      "alt": 552,
      "responding": 553,
      "--": 554,
      "notif": 555,
      "state": 556,
      "notification": 557,
      "sed": 558,
      "remain": 559,
      "ctor": 560,
      "correct": 561,
      "established": 562,
      "ls": 563,
      "oud": 564,
      "attempting": 565,
      "cn": 566,
      "tiated": 567,
      "nego": 568,
      "cache": 569,
      "negotiated": 570,
      "fun": 571,
      "calls": 572,
      "mode": 573,
      "function": 574,
      "ler": 575,
      "closed": 576,
      "parity": 577,
      "bs": 578,
      "cp": 579,
      "du": 580,
      "ho": 581,
      "hand": 582,
      "old": 583,
      "rbs": 584,
      "get": 585,
      "ance": 586,
      "good": 587,
      "cepted": 588,
      "single": 589,
      "instance": 590,
      "maxim": 591,
      "accepted": 592,
      "correctable": 593,
      "during": 594,
      "handler": 595,
      "maximum": 596,
      "lon": 597,
      "ms": 598,
      "rts": 599,
      "tr": 600,
      "proces": 601,
      "fu": 602,
      "we": 603,
      "tent": 604,
      "ido": 605,
      "log": 606,
      "apps": 607,
      "home": 608,
      "processed": 609,
      "db": 610,
      "fc": 611,
      "end": 612,
      "exceeded": 613,
      "expiring": 614,
      "termination": 615,
      "ib": 616,
      "ich": 617,
      "tx": 618,
      "999999999": 619,
      "rector": 620,
      "ught": 621,
      "line": 622,
      "which": 623,
      "director": 624,
      "caught": 625,
      "ffff": 626,
      "dropp": 627,
      "such": 628,
      "comple": 629,
      "directory": 630,
      "dc": 631,
      "dn": 632,
      "gstatic": 633,
      "content": 634,
      "will": 635,
      "trace": 636,
      "txt": 637,
      "dropped": 638,
      "cm": 639,
      "bol": 640,
      "randtxt": 641,
      "full": 642,
      "ef": 643,
      "sw": 644,
      "usercontent": 645,
      "fe": 646,
      "ver": 647,
      "................": 648,
      "*)": 649,
      "*,": 650,
      "::": 651,
      "api": 652,
      "hit": 653,
      "lp": 654,
      "pmgr": 655,
      "proxydb": 656,
      "condi": 657,
      "idoud": 658,
      "expre": 659,
      "sendpacket": 660,
      "avtrace": 661,
      "ctlp": 662,
      "there": 663,
      "bglctlp": 664,
      "suc": 665,
      "cpp": 666,
      "longer": 667,
      "idoproxydb": 668,
      "condition": 669,
      "idoudpmgr": 670,
      "expression": 671,
      "bglctlpavtrace": 672,
      "bd": 673,
      "car": 674,
      "ec": 675,
      "llo": 676,
      "man": 677,
      "card": 678,
      "aa": 679,
      "io": 680,
      "ol": 681,
      "pl": 682,
      "tre": 683,
      "code": 684,
      "generated": 685,
      "spas": 686,
      "spasm": 687,
      "wup": 688,
      "deo": 689,
      "video": 690,
      "swl": 691,
      "cf": 692,
      "hw": 693,
      "pin": 694,
      "pgood": 695,
      "yin": 696,
      "ten": 697,
      "reset": 698,
      "atch": 699,
      "pref": 700,
      "cmd": 701,
      "pinyin": 702,
      "tor": 703,
      "tive": 704,
      "star": 705,
      "......": 706,
      "active": 707,
      "il": 708,
      "ick": 709,
      "mb": 710,
      "ostream": 711,
      "sn": 712,
      "click": 713,
      "googlevideo": 714,
      "ciostream": 715,
      "---": 716,
      "prefix": 717,
      "led": 718,
      "ede": 719,
      "celed": 720,
      "canceled": 721,
      "befo": 722,
      "apis": 723,
      "attempt": 724,
      "ixin": 725,
      "weixin": 726,
      "completion": 727,
      "before": 728,
      "dstatic": 729,
      "oimage": 730,
      "ydstatic": 731,
      "99999999999999999": 732,
      "ader": 733,
      "reading": 734,
      "cau": 735,
      "ddcmd": 736,
      "action": 737,
      "ta": 738,
      "tar": 739,
      "ine": 740,
      "asserted": 741,
      "start": 742,
      "are": 743,
      "gis": 744,
      "ip": 745,
      "ly": 746,
      "latch": 747,
      "mg": 748,
      "ype": 749,
      "regis": 750,
      "unix": 751,
      "rank": 752,
      "mission": 753,
      "pla": 754,
      "register": 755,
      "den": 756,
      "ea": 757,
      "gb": 758,
      "hu": 759,
      "ie": 760,
      "ied": 761,
      "mpi": 762,
      "type": 763,
      "test": 764,
      "baidustatic": 765,
      "permission": 766,
      "login": 767,
      "fully": 768,
      "denied": 769,
      "af": 770,
      "cc": 771,
      "dcr": 772,
      "faa": 773,
      "mtal": 774,
      "edfaa": 775,
      "onent": 776,
      "ification": 777,
      "mach": 778,
      "chdir": 779,
      "minib": 780,
      "symbol": 781,
      "check": 782,
      "githubusercontent": 783,
      "component": 784,
      "follo": 785,
      "verification": 786,
      "succeeded": 787,
      "tree": 788,
      "mtalk": 789,
      "machine": 790,
      "miniben": 791,
      "(/": 792,
      "bwup": 793,
      "mar": 794,
      "qbwup": 795,
      "ur": 796,
      "res": 797,
      "forman": 798,
      "googleapis": 799,
      ".........": 800,
      "grammar": 801,
      "imtt": 802,
      "performan": 803,
      "bolt": 804,
      "tag": 805,
      "grammarly": 806,
      "performance": 807,
      "ao": 808,
      "bit": 809,
      "lce": 810,
      "pd": 811,
      "une": 812,
      "xpe": 813,
      "youd": 814,
      "blocked": 815,
      "bye": 816,
      "***": 817,
      "look": 818,
      "store": 819,
      "googleusercontent": 820,
      "********": 821,
      "*******": 822,
      "dow": 823,
      "spelce": 824,
      "been": 825,
      "goodbye": 826,
      "ibm": 827,
      "olve": 828,
      "resolve": 829,
      "unexpe": 830,
      "youdao": 831,
      "looking": 832,
      "unexpected": 833,
      "//": 834,
      "cs": 835,
      "cdn": 836,
      "ker": 837,
      "mat": 838,
      "ook": 839,
      "ph": 840,
      "xf": 841,
      "zook": 842,
      "seve": 843,
      "cess": 844,
      "all": 845,
      "format": 846,
      "exec": 847,
      "local": 848,
      "eeper": 849,
      "csdn": 850,
      "kernel": 851,
      "zookeeper": 852,
      "severed": 853,
      "jtag": 854,
      "kn": 855,
      "mpgood": 856,
      "pm": 857,
      "pr": 858,
      "rno": 859,
      "rail": 860,
      "uce": 861,
      "usr": 862,
      "vol": 863,
      "xid": 864,
      "erno": 865,
      "errno": 866,
      "leader": 867,
      "conn": 868,
      "clock": 869,
      "psr": 870,
      "exten": 871,
      "reduce": 872,
      "sppm": 873,
      "utdow": 874,
      "umt": 875,
      "img": 876,
      "german": 877,
      "short": 878,
      "share": 879,
      "shutdow": 880,
      "functional": 881,
      "success": 882,
      "causing": 883,
      "play": 884,
      "allreduce": 885,
      "volt": 886,
      "extension": 887,
      "germann": 888,
      "shutdown": 889,
      "eb": 890,
      "jav": 891,
      "lh": 892,
      "pt": 893,
      "sa": 894,
      "ste": 895,
      "sca": 896,
      "zxid": 897,
      "letest": 898,
      "atar": 899,
      "avatar": 900,
      "everno": 901,
      ".....": 902,
      "ssl": 903,
      "synd": 904,
      "doubleclick": 905,
      "change": 906,
      "tenc": 907,
      "torus": 908,
      "target": 909,
      "java": 910,
      "scaletest": 911,
      "avatars": 912,
      "evernote": 913,
      "ae": 914,
      "bdi": 915,
      "fon": 916,
      "hp": 917,
      "mou": 918,
      "qu": 919,
      "sti": 920,
      "sof": 921,
      "und": 922,
      "info": 923,
      "pic": 924,
      "bglio": 925,
      "process": 926,
      "wei": 927,
      "completed": 928,
      "trello": 929,
      "oimagea": 930,
      "followup": 931,
      "successfully": 932,
      "bdimg": 933,
      "fonts": 934,
      "hpcc": 935,
      "mount": 936,
      "still": 937,
      ":/": 938,
      "csi": 939,
      "ged": 940,
      "gent": 941,
      "ice": 942,
      "over": 943,
      "sl": 944,
      "so": 945,
      "sin": 946,
      "sid": 947,
      "sna": 948,
      "una": 949,
      "vailable": 950,
      "zh": 951,
      "secur": 952,
      "enable": 953,
      "demo": 954,
      "aler": 955,
      "service": 956,
      "app": 957,
      "long": 958,
      "urgent": 959,
      "processor": 960,
      "weibo": 961,
      "unavailable": 962,
      "security": 963,
      "bug": 964,
      "cd": 965,
      "cle": 966,
      "dl": 967,
      "fs": 968,
      "ihu": 969,
      "jar": 970,
      "lu": 971,
      "pu": 972,
      "pee": 973,
      "qpic": 974,
      "rap": 975,
      "sup": 976,
      "sort": 977,
      "vnm": 978,
      "vpd": 979,
      "ronment": 980,
      "round": 981,
      "repo": 982,
      "envi": 983,
      "cont": 984,
      "geting": 985,
      "nodes": 986,
      "dict": 987,
      "cast": 988,
      "domains": 989,
      "feaa": 990,
      "hwid": 991,
      "caused": 992,
      "targeting": 993,
      "after": 994,
      "sohu": 995,
      "snaps": 996,
      "clear": 997,
      "lustre": 998,
      "peerepo": 999,
      "raptor": 1000,
      "sortrand": 1001,
      "environment": 1002,
      "peerepoch": 1003,
      "au": 1004,
      "ate": 1005,
      "asi": 1006,
      "bc": 1007,
      "bf": 1008,
      "cpro": 1009,
      "fd": 1010,
      "glo": 1011,
      "lr": 1012,
      "ping": 1013,
      "ration": 1014,
      "stion": 1015,
      "sug": 1016,
      "tc": 1017,
      "ui": 1018,
      "wsing": 1019,
      "xffff": 1020,
      "99999999999": 1021,
      "inte": 1022,
      "rol": 1023,
      "sear": 1024,
      "debug": 1025,
      "ive": 1026,
      "receiver": 1027,
      "ads": 1028,
      "mail": 1029,
      "gestion": 1030,
      "chip": 1031,
      "mini": 1032,
      "browsing": 1033,
      "sets": 1034,
      "theader": 1035,
      "doctor": 1036,
      "bglv": 1037,
      "configuration": 1038,
      "sogoucdn": 1039,
      "febrowsing": 1040,
      "bdstatic": 1041,
      "phy": 1042,
      "csdnimg": 1043,
      "safebrowsing": 1044,
      "tencent": 1045,
      "softheader": 1046,
      "sli": 1047,
      "zhihu": 1048,
      "services": 1049,
      "puui": 1050,
      "control": 1051,
      "glosli": 1052,
      "suggestion": 1053,
      "search": 1054,
      "-[": 1055,
      "ates": 1056,
      "cting": 1057,
      "dup": 1058,
      "eclick": 1059,
      "gg": 1060,
      "gal": 1061,
      "hot": 1062,
      "la": 1063,
      "lim": 1064,
      "mc": 1065,
      "mid": 1066,
      "tcp": 1067,
      "xc": 1068,
      "yates": 1069,
      "zz": 1070,
      "inste": 1071,
      "rome": 1072,
      "sele": 1073,
      "reas": 1074,
      "tition": 1075,
      "ckup": 1076,
      "legal": 1077,
      "ath": 1078,
      "cop": 1079,
      "alic": 1080,
      "comm": 1081,
      "expe": 1082,
      "...": 1083,
      "pixf": 1084,
      "etch": 1085,
      "low": 1086,
      "terminated": 1087,
      "partition": 1088,
      "backup": 1089,
      ".............": 1090,
      "prep": 1091,
      "peer": 1092,
      "cnzz": 1093,
      "illegal": 1094,
      "oimageb": 1095,
      "plane": 1096,
      "follow": 1097,
      "pht": 1098,
      "prxf": 1099,
      "syndrome": 1100,
      "snapshot": 1101,
      "asic": 1102,
      "integer": 1103,
      "ggpht": 1104,
      "limit": 1105,
      "midplane": 1106,
      "tcpconn": 1107,
      "instead": 1108,
      "select": 1109,
      "reason": 1110,
      "alicdn": 1111,
      "expecting": 1112,
      "bin": 1113,
      "cre": 1114,
      "chk": 1115,
      "cid": 1116,
      "ian": 1117,
      "ild": 1118,
      "live": 1119,
      "mbl": 1120,
      "mcm": 1121,
      "pub": 1122,
      "ud": 1123,
      "ure": 1124,
      "wx": 1125,
      "xb": 1126,
      "yt": 1127,
      "yout": 1128,
      "infor": 1129,
      "sembl": 1130,
      "orum": 1131,
      "ivile": 1132,
      "adcast": 1133,
      "stat": 1134,
      "nez": 1135,
      "ople": 1136,
      "mation": 1137,
      "psu": 1138,
      "tting": 1139,
      "name": 1140,
      "child": 1141,
      "aimg": 1142,
      "assembl": 1143,
      "ube": 1144,
      "ubmcm": 1145,
      "broadcast": 1146,
      "googlesynd": 1147,
      "cise": 1148,
      "base": 1149,
      "fffe": 1150,
      "eep": 1151,
      "impre": 1152,
      "bel": 1153,
      "lla": 1154,
      "images": 1155,
      "failure": 1156,
      "people": 1157,
      "notifications": 1158,
      "fffff": 1159,
      "dcbf": 1160,
      "sweep": 1161,
      "ddcmdbglv": 1162,
      "urge": 1163,
      "privile": 1164,
      "stella": 1165,
      "quorum": 1166,
      "sinaimg": 1167,
      "alerts": 1168,
      "supp": 1169,
      "following": 1170,
      "chkpt": 1171,
      "cidian": 1172,
      "pubads": 1173,
      "youtube": 1174,
      "information": 1175,
      "assembly": 1176,
      "ubmcmm": 1177,
      "googlesyndication": 1178,
      "imprecise": 1179,
      "privileged": 1180,
      "abl": 1181,
      "bil": 1182,
      "dj": 1183,
      "fp": 1184,
      "fou": 1185,
      "fie": 1186,
      "fetch": 1187,
      "hpl": 1188,
      "ir": 1189,
      "iz": 1190,
      "js": 1191,
      "kin": 1192,
      "lle": 1193,
      "mp": 1194,
      "match": 1195,
      "nch": 1196,
      "pv": 1197,
      "ptor": 1198,
      "rth": 1199,
      "rip": 1200,
      "slo": 1201,
      "scri": 1202,
      "sclick": 1203,
      "tmp": 1204,
      "var": 1205,
      "xil": 1206,
      "ytic": 1207,
      "sestat": 1208,
      "resh": 1209,
      "ering": 1210,
      "eration": 1211,
      "enabl": 1212,
      "proble": 1213,
      "lead": 1214,
      "colle": 1215,
      "descri": 1216,
      "alytic": 1217,
      "strip": 1218,
      "thresh": 1219,
      "operation": 1220,
      "cloud": 1221,
      "space": 1222,
      "analytic": 1223,
      "odr": 1224,
      "assets": 1225,
      "pakin": 1226,
      "stabil": 1227,
      "iary": 1228,
      "ressing": 1229,
      "socks": 1230,
      "synch": 1231,
      "changed": 1232,
      "imp": 1233,
      "okie": 1234,
      "news": 1235,
      "mookie": 1236,
      "githubapp": 1237,
      "furth": 1238,
      "version": 1239,
      "..................": 1240,
      "......................": 1241,
      ".........................": 1242,
      "ecid": 1243,
      "starting": 1244,
      ".......": 1245,
      "oimagec": 1246,
      "pdt": 1247,
      "same": 1248,
      "tency": 1249,
      "sina": 1250,
      "alert": 1251,
      "auxil": 1252,
      "xfffffffe": 1253,
      "latency": 1254,
      "comment": 1255,
      "creating": 1256,
      "suppressing": 1257,
      "found": 1258,
      "slot": 1259,
      "enabled": 1260,
      "problem": 1261,
      "leading": 1262,
      "collector": 1263,
      "descriptor": 1264,
      "threshold": 1265,
      "analytics": 1266,
      "stability": 1267,
      "further": 1268,
      "auxiliary": 1269,
      ").......": 1270,
      "./": 1271,
      "ag": 1272,
      "aut": 1273,
      "bi": 1274,
      "bt": 1275,
      "bcast": 1276,
      "cv": 1277,
      "dr": 1278,
      "dis": 1279,
      "efc": 1280,
      "fdf": 1281,
      "gine": 1282,
      "gath": 1283,
      "hm": 1284,
      "knez": 1285,
      "lib": 1286,
      "mi": 1287,
      "men": 1288,
      "os": 1289,
      "pan": 1290,
      "page": 1291,
      "path": 1292,
      "rm": 1293,
      "sle": 1294,
      "stent": 1295,
      "xe": 1296,
      "xx": 1297,
      "yun": 1298,
      "zt": 1299,
      "zer": 1300,
      "incon": 1301,
      "into": 1302,
      "inser": 1303,
      "secu": 1304,
      "revalid": 1305,
      "renew": 1306,
      "edge": 1307,
      "engine": 1308,
      "tim": 1309,
      "xyzt": 1310,
      "ceeds": 1311,
      "tests": 1312,
      "adzer": 1313,
      "opt": 1314,
      "opurge": 1315,
      "sistent": 1316,
      "exe": 1317,
      "exceeds": 1318,
      "nodesets": 1319,
      "pipe": 1320,
      "database": 1321,
      "front": 1322,
      "died": 1323,
      "icbi": 1324,
      "ogs": 1325,
      "clientservices": 1326,
      "sessiontimeout": 1327,
      "googletag": 1328,
      "microsof": 1329,
      "book": 1330,
      "pos": 1331,
      "poll": 1332,
      "bec": 1333,
      "facebook": 1334,
      "pes": 1335,
      "vel": 1336,
      "getdropbox": 1337,
      "web": 1338,
      "ffffffff": 1339,
      ".................": 1340,
      "ccfc": 1341,
      "unexpectedly": 1342,
      "///": 1343,
      "fdae": 1344,
      "debugger": 1345,
      "controldescriptor": 1346,
      "beln": 1347,
      "field": 1348,
      "cloudfront": 1349,
      "agkn": 1350,
      "autopurge": 1351,
      "disable": 1352,
      "fdfe": 1353,
      "gathering": 1354,
      "panic": 1355,
      "pagead": 1356,
      "inconsistent": 1357,
      "inserted": 1358,
      "secure": 1359,
      "revalidating": 1360,
      "adzerk": 1361,
      "microsoft": 1362,
      "pollcontroldescriptor": 1363,
      "pollcontroldescriptors": 1364,
      "):": 1365,
      "/.": 1366,
      "=/": 1367,
      "aw": 1368,
      "acon": 1369,
      "aug": 1370,
      "ache": 1371,
      "bb": 1372,
      "bad": 1373,
      "band": 1374,
      "bffff": 1375,
      "btrace": 1376,
      "bcdn": 1377,
      "bbc": 1378,
      "bjs": 1379,
      "cgi": 1380,
      "cbjs": 1381,
      "da": 1382,
      "due": 1383,
      "dun": 1384,
      "fm": 1385,
      "fbcdn": 1386,
      "gm": 1387,
      "gq": 1388,
      "gt": 1389,
      "gu": 1390,
      "gy": 1391,
      "gmail": 1392,
      "gbglv": 1393,
      "he": 1394,
      "han": 1395,
      "hav": 1396,
      "halt": 1397,
      "hfm": 1398,
      "ier": 1399,
      "kee": 1400,
      "mk": 1401,
      "ml": 1402,
      "munix": 1403,
      "mmi": 1404,
      "mhfm": 1405,
      "nfs": 1406,
      "oba": 1407,
      "pc": 1408,
      "purge": 1409,
      "qa": 1410,
      "qdun": 1411,
      "ram": 1412,
      "rund": 1413,
      "sys": 1414,
      "scr": 1415,
      "sci": 1416,
      "tran": 1417,
      "tpc": 1418,
      "ux": 1419,
      "uch": 1420,
      "vgq": 1421,
      "vmunix": 1422,
      "win": 1423,
      "wer": 1424,
      "wid": 1425,
      "xa": 1426,
      "xin": 1427,
      "xer": 1428,
      "xue": 1429,
      "ying": 1430,
      "teed": 1431,
      "ses": 1432,
      "sene": 1433,
      "retr": 1434,
      "blog": 1435,
      "edram": 1436,
      "hkg": 1437,
      "timg": 1438,
      "ckex": 1439,
      "ckpt": 1440,
      "ord": 1441,
      "org": 1442,
      "lemen": 1443,
      "cution": 1444,
      "memb": 1445,
      "byte": 1446,
      "devel": 1447,
      "adservices": 1448,
      "stop": 1449,
      "thu": 1450,
      "aran": 1451,
      "too": 1452,
      "took": 1453,
      "touch": 1454,
      "sim": 1455,
      "addr": 1456,
      "addmemb": 1457,
      "ndm": 1458,
      "tingyun": 1459,
      "genvmunix": 1460,
      "getting": 1461,
      "linpack": 1462,
      "linux": 1463,
      "pixe": 1464,
      "minsessiontimeout": 1465,
      "wire": 1466,
      "ical": 1467,
      "icate": 1468,
      "icache": 1469,
      "curi": 1470,
      "update": 1471,
      "stackex": 1472,
      "googleads": 1473,
      "googleadservices": 1474,
      "unit": 1475,
      "unimp": 1476,
      "..............": 1477,
      "eee": 1478,
      "changy": 1479,
      "sockets": 1480,
      "rando": 1481,
      "location": 1482,
      "imb": 1483,
      "beacon": 1484,
      "master": 1485,
      "clusteraddmemb": 1486,
      "count": 1487,
      "bootgenvmunix": 1488,
      "pere": 1489,
      "qqweb": 1490,
      "perf": 1491,
      "sho": 1492,
      "shu": 1493,
      "cpc": 1494,
      "hotting": 1495,
      "complete": 1496,
      "dcd": 1497,
      "efd": 1498,
      ".............................": 1499,
      "ioexception": 1500,
      "plus": 1501,
      "prefetch": 1502,
      "ddcmdgbglv": 1503,
      "taoba": 1504,
      "dows": 1505,
      "zookeeperserver": 1506,
      "knl": 1507,
      "slf": 1508,
      "cdndm": 1509,
      "dictapp": 1510,
      "snapshotting": 1511,
      "fdaf": 1512,
      "xffffffff": 1513,
      "belnez": 1514,
      "ized": 1515,
      "impservice": 1516,
      "drive": 1517,
      "slept": 1518,
      "timed": 1519,
      "execution": 1520,
      "googletagservices": 1521,
      "securepubads": 1522,
      "bandwid": 1523,
      "gtms": 1524,
      "guaran": 1525,
      "hang": 1526,
      "have": 1527,
      "keepere": 1528,
      "purgeinterval": 1529,
      "rundir": 1530,
      "scratch": 1531,
      "scip": 1532,
      "trans": 1533,
      "vgqsene": 1534,
      "windows": 1535,
      "xueshu": 1536,
      "retrying": 1537,
      "lemented": 1538,
      "stopping": 1539,
      "pixel": 1540,
      "stackexchange": 1541,
      "unimplemented": 1542,
      "changyan": 1543,
      "clusteraddmember": 1544,
      "taobao": 1545,
      "bandwidth": 1546,
      "guaranteed": 1547,
      ":-": 1548,
      "ab": 1549,
      "ax": 1550,
      "ay": 1551,
      "ain": 1552,
      "ant": 1553,
      "ama": 1554,
      "apa": 1555,
      "aff": 1556,
      "bu": 1557,
      "bw": 1558,
      "bx": 1559,
      "ber": 1560,
      "bde": 1561,
      "bub": 1562,
      "big": 1563,
      "bot": 1564,
      "brand": 1565,
      "bbe": 1566,
      "bfc": 1567,
      "ccur": 1568,
      "ccr": 1569,
      "css": 1570,
      "cdc": 1571,
      "ccess": 1572,
      "cxid": 1573,
      "cxx": 1574,
      "cpes": 1575,
      "dbl": 1576,
      "diff": 1577,
      "dac": 1578,
      "dpart": 1579,
      "dbec": 1580,
      "ep": 1581,
      "es": 1582,
      "ecm": 1583,
      "essl": 1584,
      "ewer": 1585,
      "fa": 1586,
      "fl": 1587,
      "fr": 1588,
      "fer": 1589,
      "fee": 1590,
      "fish": 1591,
      "fclick": 1592,
      "fpr": 1593,
      "ferno": 1594,
      "fir": 1595,
      "gre": 1596,
      "gun": 1597,
      "gate": 1598,
      "hi": 1599,
      "hpd": 1600,
      "himg": 1601,
      "ist": 1602,
      "ired": 1603,
      "iiz": 1604,
      "ieee": 1605,
      "ji": 1606,
      "ju": 1607,
      "jline": 1608,
      "ki": 1609,
      "ky": 1610,
      "kne": 1611,
      "lt": 1612,
      "lco": 1613,
      "lds": 1614,
      "lish": 1615,
      "lts": 1616,
      "lxf": 1617,
      "licate": 1618,
      "mm": 1619,
      "mu": 1620,
      "ment": 1621,
      "mps": 1622,
      "mdc": 1623,
      "mmb": 1624,
      "nf": 1625,
      "num": 1626,
      "nger": 1627,
      "obe": 1628,
      "occur": 1629,
      "pw": 1630,
      "por": 1631,
      "pad": 1632,
      "pas": 1633,
      "pur": 1634,
      "pki": 1635,
      "qs": 1636,
      "qbox": 1637,
      "qls": 1638,
      "qihu": 1639,
      "qpath": 1640,
      "qhimg": 1641,
      "qiiz": 1642,
      "rs": 1643,
      "rror": 1644,
      "ris": 1645,
      "rss": 1646,
      "rfish": 1647,
      "rky": 1648,
      "sb": 1649,
      "sc": 1650,
      "sat": 1651,
      "score": 1652,
      "sod": 1653,
      "smal": 1654,
      "scal": 1655,
      "scsi": 1656,
      "tv": 1657,
      "tun": 1658,
      "trun": 1659,
      "taddr": 1660,
      "uve": 1661,
      "uhu": 1662,
      "wn": 1663,
      "wan": 1664,
      "way": 1665,
      "xl": 1666,
      "xception": 1667,
      "xgr": 1668,
      "xml": 1669,
      "yms": 1670,
      "ytimg": 1671,
      "yes": 1672,
      "zon": 1673,
      "inue": 1674,
      "inate": 1675,
      "incount": 1676,
      "inferno": 1677,
      "robyte": 1678,
      "team": 1679,
      "sep": 1680,
      "sequ": 1681,
      "setting": 1682,
      "selt": 1683,
      "senger": 1684,
      "rel": 1685,
      "reco": 1686,
      "resu": 1687,
      "repl": 1688,
      "requ": 1689,
      "research": 1690,
      "recomm": 1691,
      "retrans": 1692,
      "reqpath": 1693,
      "blue": 1694,
      "blas": 1695,
      "edc": 1696,
      "edfe": 1697,
      "one": 1698,
      "onical": 1699,
      "eno": 1700,
      "enti": 1701,
      "entif": 1702,
      "tick": 1703,
      "propo": 1704,
      "ceec": 1705,
      "cesim": 1706,
      "orter": 1707,
      "orted": 1708,
      "level": 1709,
      "cus": 1710,
      "9999999999999999999999999999": 1711,
      "meam": 1712,
      "atta": 1713,
      "coord": 1714,
      "dev": 1715,
      "devi": 1716,
      "iver": 1717,
      "admaster": 1718,
      "adobe": 1719,
      "stud": 1720,
      "thir": 1721,
      "ntype": 1722,
      "nett": 1723,
      "conten": 1724,
      "clas": 1725,
      "upload": 1726,
      "optim": 1727,
      "identif": 1728,
      "force": 1729,
      "noze": 1730,
      "nosle": 1731,
      "sic": 1732,
      "sical": 1733,
      "simg": 1734,
      "sixgr": 1735,
      "maps": 1736,
      "mana": 1737,
      "maccess": 1738,
      "mesos": 1739,
      "messenger": 1740,
      "closing": 1741,
      "exist": 1742,
      "gene": 1743,
      "valone": 1744,
      "serapis": 1745,
      "chat": 1746,
      "chment": 1747,
      "ouji": 1748,
      "sender": 1749,
      "sending": 1750,
      "nodecard": 1751,
      "nodeexist": 1752,
      "etc": 1753,
      "gov": 1754,
      "when": 1755,
      "ash": 1756,
      "loc": 1757,
      "serve": 1758,
      "datanode": 1759,
      "minus": 1760,
      "dimen": 1761,
      "icau": 1762,
      "mapfile": 1763,
      "mapping": 1764,
      "ctr": 1765,
      "crl": 1766,
      "subcommand": 1767,
      "cac": 1768,
      "cate": 1769,
      "capi": 1770,
      "cases": 1771,
      "cabot": 1772,
      "outs": 1773,
      "output": 1774,
      "uni": 1775,
      "unreco": 1776,
      "cial": 1777,
      "wwid": 1778,
      "malloc": 1779,
      "normalized": 1780,
      "parserapis": 1781,
      "bayms": 1782,
      "pose": 1783,
      "power": 1784,
      "............": 1785,
      "...............": 1786,
      "viewer": 1787,
      "canonical": 1788,
      "ffea": 1789,
      "itc": 1790,
      "runtime": 1791,
      "maxsessiontimeout": 1792,
      "nels": 1793,
      "bglscratch": 1794,
      "ishuhu": 1795,
      "randa": 1796,
      "blishing": 1797,
      "account": 1798,
      "special": 1799,
      "partad": 1800,
      "confpu": 1801,
      "preta": 1802,
      "qqmail": 1803,
      "newcomp": 1804,
      "newsimg": 1805,
      "newmaps": 1806,
      "gnized": 1807,
      "focus": 1808,
      "shock": 1809,
      "shouji": 1810,
      "cpm": 1811,
      "cpu": 1812,
      "host": 1813,
      "trap": 1814,
      "trier": 1815,
      "train": 1816,
      "processes": 1817,
      "welco": 1818,
      "logical": 1819,
      "dbd": 1820,
      "dbsr": 1821,
      "dbcr": 1822,
      "fcc": 1823,
      "txntype": 1824,
      "fffffffe": 1825,
      "dropping": 1826,
      "contentrecomm": 1827,
      "efe": 1828,
      ".....................": 1829,
      "llow": 1830,
      "cardresearch": 1831,
      "ilt": 1832,
      "registers": 1833,
      "mpits": 1834,
      "testqbox": 1835,
      "testcases": 1836,
      "treeaddr": 1837,
      "pdlxf": 1838,
      "allen": 1839,
      "imgsrc": 1840,
      "aeger": 1841,
      "quant": 1842,
      "qulish": 1843,
      "qusixgr": 1844,
      "processing": 1845,
      "snapreta": 1846,
      "zhstatic": 1847,
      "zhimg": 1848,
      "continue": 1849,
      "auth": 1850,
      "auselt": 1851,
      "asia": 1852,
      "bfa": 1853,
      "xffffd": 1854,
      "physical": 1855,
      "duplicate": 1856,
      "last": 1857,
      "lapack": 1858,
      "follower": 1859,
      "create": 1860,
      "wxml": 1861,
      "baseline": 1862,
      "quorumserver": 1863,
      "quorumpeer": 1864,
      "supporter": 1865,
      "fields": 1866,
      "sinajs": 1867,
      "draeger": 1868,
      "efcbc": 1869,
      "miranda": 1870,
      "xequsixgr": 1871,
      "yunsic": 1872,
      "googletagmana": 1873,
      "aws": 1874,
      "awqiiz": 1875,
      "gmt": 1876,
      "header": 1877,
      "hellow": 1878,
      "syscalls": 1879,
      "xercesim": 1880,
      "ordering": 1881,
      "develf": 1882,
      "develop": 1883,
      "tools": 1884,
      "simba": 1885,
      "random": 1886,
      "randomaccess": 1887,
      "show": 1888,
      "showxml": 1889,
      "hangouts": 1890,
      "keepererror": 1891,
      "keeperexception": 1892,
      "scratchpad": 1893,
      "transfer": 1894,
      "vgqsenee": 1895,
      "vgqsenes": 1896,
      "aborted": 1897,
      "amazon": 1898,
      "apache": 1899,
      "built": 1900,
      "bwallen": 1901,
      "buber": 1902,
      "dblp": 1903,
      "dacc": 1904,
      "dparty": 1905,
      "epyes": 1906,
      "ecmb": 1907,
      "flash": 1908,
      "fri": 1909,
      "first": 1910,
      "greeno": 1911,
      "gunnels": 1912,
      "gateway": 1913,
      "hicloud": 1914,
      "ieeeconfpu": 1915,
      "jul": 1916,
      "mmstat": 1917,
      "mdcask": 1918,
      "mmbiz": 1919,
      "number": 1920,
      "occurred": 1921,
      "pwd": 1922,
      "portion": 1923,
      "passport": 1924,
      "purpose": 1925,
      "qlsn": 1926,
      "qihucdn": 1927,
      "risboot": 1928,
      "rssgov": 1929,
      "rfisher": 1930,
      "scorecardresearch": 1931,
      "sodscal": 1932,
      "smaller": 1933,
      "tvax": 1934,
      "tuned": 1935,
      "truncate": 1936,
      "taddriver": 1937,
      "wanted": 1938,
      "xmlparserapis": 1939,
      "robytebug": 1940,
      "teamviewer": 1941,
      "sequenti": 1942,
      "results": 1943,
      "replicate": 1944,
      "required": 1945,
      "retransmission": 1946,
      "bluegene": 1947,
      "ticktime": 1948,
      "proposed": 1949,
      "attachment": 1950,
      "coordinate": 1951,
      "device": 1952,
      "adobelogin": 1953,
      "study": 1954,
      "thirdparty": 1955,
      "netty": 1956,
      "contention": 1957,
      "class": 1958,
      "optimix": 1959,
      "identifier": 1960,
      "nozerobytebug": 1961,
      "nosleepyes": 1962,
      "nodeexists": 1963,
      "dimension": 1964,
      "icauh": 1965,
      "subcommands": 1966,
      "unrecognized": 1967,
      "baymsgr": 1968,
      "ishuhui": 1969,
      "accounts": 1970,
      "training": 1971,
      "welcome": 1972,
      "contentrecommend": 1973,
      "testqboxhang": 1974,
      "quantserve": 1975,
      "qulishi": 1976,
      "snapretaincount": 1977,
      "auselton": 1978,
      "supporters": 1979,
      "googletagmanager": 1980,
      "awqiizxequsixgr": 1981,
      "xercesimpl": 1982,
      "keepererrorcode": 1983,
      "amazonaws": 1984,
      "ieeeconfpublishing": 1985,
      "sodscaling": 1986,
      "sequential": 1987,
      "nosleepyescomm": 1988
    },
    "merges": [
      "9 9",
      "99 99",
      "9999 9999",
      "99 9",
      "i n",
      "r o",
      "t e",
      "s e",
      "r e",
      "b l",
      "e d",
      "o n",
      "h k",
      "e r",
      "e n",
      "t i",
      "in g",
      "c k",
      "p ro",
      "9999 9",
      "x y",
      "pro xy",
      "c e",
      "o ck",
      "o r",
      "bl ock",
      "l e",
      "c u",
      "99999999 99999999",
      "bl k",
      "m e",
      "a t",
      "te r",
      "c o",
      "9999999999999999 999",
      "c se",
      "ed u",
      "cu hk",
      "b y",
      "d e",
      "a l",
      "te s",
      "i v",
      "by tes",
      "re ce",
      "rece iv",
      "a d",
      "ti on",
      "s t",
      "t h",
      "n t",
      "in ter",
      "receiv ed",
      "n e",
      "c on",
      "c l",
      "u p",
      "ro r",
      "er ror",
      "en t",
      "o p",
      "i d",
      "f or",
      "ti me",
      "co m",
      "a r",
      "te m",
      "at ing",
      "c tion",
      "t o",
      "i f",
      "te d",
      "op en",
      "n o",
      "s i",
      "m a",
      "u g",
      "p s",
      "i s",
      "r up",
      "inter rup",
      "con ne",
      "ug h",
      "me s",
      "ad d",
      "u e",
      "cl o",
      "t t",
      "i le",
      "clo se",
      "ro ugh",
      "th rough",
      "n d",
      "h tt",
      "htt ps",
      "e x",
      "se nt",
      "e time",
      "l if",
      "t ing",
      "lif etime",
      ". .",
      "conne ction",
      "k b",
      "y s",
      "ys tem",
      "re d",
      "co re",
      "g en",
      "gen er",
      "w or",
      "wor k",
      "s p",
      "o f",
      "gener ating",
      "g e",
      "v al",
      "n a",
      "q ue",
      "se r",
      "mes ystem",
      "na mesystem",
      "c h",
      "z e",
      "si ze",
      "a n",
      "i ent",
      "a i",
      "o u",
      "se nd",
      "no de",
      "f ile",
      "add ed",
      "l in",
      "work er",
      "a m",
      "p i",
      "de le",
      "lin k",
      "99999999 99",
      "e t",
      "o d",
      "* *",
      "g o",
      "w h",
      "a s",
      "interrup t",
      "ce p",
      "ex pi",
      "a ge",
      "l o",
      "a v",
      "wh ile",
      "a ted",
      "e v",
      "ser v",
      "d at",
      "dat a",
      ".. ..",
      "f ro",
      "ev ent",
      "99999999 9999",
      "m in",
      "inter val",
      "fro m",
      "link error",
      "expi red",
      "cep tion",
      "d i",
      "w i",
      "ex ception",
      "w ai",
      "re que",
      "reque st",
      "p a",
      "ti c",
      "re sp",
      "on d",
      "resp ond",
      "ter min",
      "i c",
      "s age",
      "mes sage",
      "pa ck",
      "si on",
      "pack et",
      "o g",
      "u b",
      "cu r",
      "ma p",
      "st o",
      "n ing",
      "re nt",
      "cur rent",
      "i g",
      "up d",
      "s r",
      "block map",
      "add sto",
      "red block",
      "upd ated",
      "addsto redblock",
      "h ad",
      "tem p",
      "interrup ted",
      "que ue",
      "wai ting",
      "respond er",
      "termin ating",
      "packet responder",
      "s sion",
      "cl ient",
      "b ro",
      "sr c",
      "b ient",
      "am bient",
      "re ad",
      "m y",
      "receiv ing",
      "o t",
      "c t",
      "bl e",
      "c r",
      "de st",
      "val id",
      "k en",
      "bro ken",
      "d f",
      "in valid",
      "no t",
      "di r",
      "st a",
      "se t",
      "m nt",
      "o op",
      "se ssion",
      "dele ting",
      "had oop",
      "df s",
      "i ar",
      "go og",
      "goog le",
      "interrup ting",
      "send worker",
      "th read",
      "s ub",
      "le av",
      "leav ing",
      "d s",
      "sub dir",
      "se con",
      "secon ds",
      "u t",
      "9999 99",
      "cr i",
      "c ted",
      "c a",
      "de ar",
      "m od",
      "s wi",
      "t ch",
      "u le",
      "tic al",
      "cri tical",
      "mod ule",
      "swi tch",
      "m ic",
      "mic ro",
      "g r",
      "n m",
      "micro seconds",
      "ne t",
      "p ut",
      "in put",
      "ou t",
      "nm ent",
      "interrupt s",
      "dele te",
      "at u",
      "al ig",
      "invalid set",
      "alig nment",
      "exception s",
      "b o",
      "u n",
      "th e",
      "w ar",
      "war ning",
      "a nd",
      "c i",
      "w w",
      "se c",
      "file s",
      "9999 999",
      "9999999999999999 99",
      "serv er",
      "m al",
      "net work",
      "n or",
      "s s",
      "nor mal",
      "ai l",
      "t al",
      "u m",
      "files ystem",
      "ci od",
      "to tal",
      "a ble",
      "p ar",
      "ma in",
      "** **",
      "b a",
      "com ma",
      "comma nd",
      "te cted",
      "de tected",
      "in t",
      "g i",
      "u ser",
      "a ce",
      "p o",
      "ro ot",
      ".... ....",
      "gr am",
      "d o",
      "re ss",
      "s ock",
      "a tion",
      "v i",
      "id u",
      "ba idu",
      "c or",
      "cor re",
      "c an",
      "l d",
      "add ress",
      "s ing",
      "in st",
      "er atu",
      "conne ct",
      "temp eratu",
      "temperatu re",
      "f f",
      "i t",
      "d ro",
      "r un",
      "dro p",
      "s y",
      "ma x",
      "d ou",
      "pro gram",
      "sp ent",
      "dou ble",
      "e e",
      "h as",
      "ch an",
      "po int",
      "sock et",
      "ne l",
      "run ning",
      "b g",
      "f lo",
      "flo ating",
      "bg l",
      "d d",
      "if f",
      "is h",
      "n iff",
      "as k",
      "h um",
      "m er",
      "r and",
      "bl ish",
      "do main",
      "hum mer",
      "a c",
      "e sta",
      "serv ed",
      "sta tic",
      "esta blish",
      "sp e",
      "lo ca",
      "par t",
      "u s",
      "sy m",
      "t ask",
      "te block",
      "or ar",
      "al loca",
      "temp orar",
      "alloca teblock",
      "temporar y",
      "m gr",
      "time out",
      "ww w",
      "ail able",
      "i m",
      "can not",
      "b e",
      "l l",
      "chan nel",
      "st atu",
      "statu s",
      "f ace",
      "f an",
      "con f",
      "ma s",
      "o k",
      "or t",
      "r an",
      "inter face",
      "vi a",
      "conf ig",
      "mas k",
      "ed s",
      "as ser",
      "a p",
      "av ailable",
      "server filesystem",
      "e le",
      "i ma",
      "wi th",
      "ele ction",
      "ima ge",
      "r ing",
      "spe eds",
      "config u",
      "go t",
      "gi ge",
      "cl us",
      "bo x",
      "clus ter",
      "serv ing",
      "drop box",
      "session id",
      "inst r",
      "m is",
      "st re",
      "ic ation",
      "corre cted",
      "p re",
      "co u",
      "dd r",
      "configu red",
      "u ction",
      "cluster filesystem",
      "instr uction",
      "at temp",
      "cou ld",
      "i x",
      "s u",
      "s og",
      "sog ou",
      "ch e",
      "client s",
      "bo ot",
      "f ail",
      "w as",
      "lo ad",
      "stre am",
      "p e",
      "t s",
      "inter connect",
      "sp ort",
      "wai t",
      "q q",
      "r ce",
      "s ou",
      "or age",
      "st orage",
      "error s",
      "id ot",
      "ran sport",
      "asser t",
      "sou rce",
      "idot ransport",
      "idotransport mgr",
      "c al",
      "ne w",
      "v e",
      "fail ed",
      "m o",
      "th ub",
      "gi thub",
      "g er",
      "it y",
      "g n",
      "com p",
      "l b",
      "ed ed",
      "ce eded",
      "si gn",
      "sign al",
      ") ,",
      "f o",
      "mis sing",
      "load ing",
      "p er",
      "t lb",
      "s h",
      "ti f",
      "pro ce",
      "al t",
      "respond ing",
      "- -",
      "no tif",
      "sta te",
      "notif ication",
      "se d",
      "re main",
      "ct or",
      "corre ct",
      "establish ed",
      "l s",
      "ou d",
      "attemp ting",
      "c n",
      "ti ated",
      "ne go",
      "ca che",
      "nego tiated",
      "f un",
      "cal ls",
      "mo de",
      "fun ction",
      "l er",
      "close d",
      "par ity",
      "b s",
      "c p",
      "d u",
      "h o",
      "h and",
      "o ld",
      "r bs",
      "ge t",
      "an ce",
      "go od",
      "cep ted",
      "sing le",
      "inst ance",
      "max im",
      "ac cepted",
      "correct able",
      "du ring",
      "hand ler",
      "maxim um",
      "l on",
      "m s",
      "r ts",
      "t r",
      "proce s",
      "f u",
      "w e",
      "te nt",
      "id o",
      "lo g",
      "ap ps",
      "ho me",
      "proces sed",
      "d b",
      "f c",
      "en d",
      "ex ceeded",
      "expi ring",
      "termin ation",
      "i b",
      "i ch",
      "t x",
      "99999999 9",
      "re ctor",
      "ugh t",
      "lin e",
      "wh ich",
      "di rector",
      "ca ught",
      "ff ff",
      "drop p",
      "su ch",
      "comp le",
      "director y",
      "d c",
      "d n",
      "g static",
      "con tent",
      "wi ll",
      "tr ace",
      "tx t",
      "dropp ed",
      "c m",
      "bo l",
      "rand txt",
      "fu ll",
      "e f",
      "s w",
      "user content",
      "f e",
      "v er",
      "........ ........",
      "* )",
      "* ,",
      ": :",
      "a pi",
      "h it",
      "l p",
      "p mgr",
      "proxy db",
      "con di",
      "id oud",
      "ex pre",
      "send packet",
      "av trace",
      "ct lp",
      "the re",
      "bgl ctlp",
      "su c",
      "cp p",
      "lon ger",
      "ido proxydb",
      "condi tion",
      "idoud pmgr",
      "expre ssion",
      "bglctlp avtrace",
      "b d",
      "c ar",
      "e c",
      "l lo",
      "ma n",
      "car d",
      "a a",
      "i o",
      "o l",
      "p l",
      "t re",
      "co de",
      "gener ated",
      "sp as",
      "spas m",
      "w up",
      "de o",
      "vi deo",
      "sw l",
      "c f",
      "h w",
      "p in",
      "p good",
      "y in",
      "te n",
      "re set",
      "at ch",
      "pre f",
      "cm d",
      "pin yin",
      "t or",
      "ti ve",
      "st ar",
      ".... ..",
      "ac tive",
      "i l",
      "i ck",
      "m b",
      "o stream",
      "s n",
      "cl ick",
      "google video",
      "ci ostream",
      "-- -",
      "pref ix",
      "l ed",
      "ed e",
      "ce led",
      "can celed",
      "be fo",
      "ap is",
      "attemp t",
      "ix in",
      "we ixin",
      "comple tion",
      "befo re",
      "d static",
      "o image",
      "y dstatic",
      "9999999999999999 9",
      "ad er",
      "read ing",
      "ca u",
      "dd cmd",
      "a ction",
      "t a",
      "t ar",
      "in e",
      "asser ted",
      "star t",
      "a re",
      "g is",
      "i p",
      "l y",
      "l atch",
      "m g",
      "y pe",
      "re gis",
      "un ix",
      "ran k",
      "mis sion",
      "pl a",
      "regis ter",
      "d en",
      "e a",
      "g b",
      "h u",
      "i e",
      "i ed",
      "m pi",
      "t ype",
      "tes t",
      "baidu static",
      "per mission",
      "log in",
      "full y",
      "den ied",
      "a f",
      "c c",
      "d cr",
      "f aa",
      "m tal",
      "ed faa",
      "on ent",
      "if ication",
      "ma ch",
      "ch dir",
      "min ib",
      "sym bol",
      "che ck",
      "github usercontent",
      "comp onent",
      "fo llo",
      "ver ification",
      "suc ceeded",
      "tre e",
      "mtal k",
      "mach ine",
      "minib en",
      "( /",
      "b wup",
      "m ar",
      "q bwup",
      "u r",
      "re s",
      "for man",
      "google apis",
      "........ .",
      "gram mar",
      "im tt",
      "per forman",
      "bol t",
      "ta g",
      "grammar ly",
      "performan ce",
      "a o",
      "b it",
      "l ce",
      "p d",
      "u ne",
      "x pe",
      "y oud",
      "block ed",
      "by e",
      "** *",
      "lo ok",
      "sto re",
      "google usercontent",
      "**** ****",
      "**** ***",
      "do w",
      "spe lce",
      "be en",
      "good bye",
      "ib m",
      "ol ve",
      "res olve",
      "une xpe",
      "youd ao",
      "look ing",
      "unexpe cted",
      "/ /",
      "c s",
      "c dn",
      "k er",
      "m at",
      "o ok",
      "p h",
      "x f",
      "z ook",
      "se ve",
      "ce ss",
      "al l",
      "for mat",
      "ex ec",
      "lo cal",
      "ee per",
      "cs dn",
      "ker nel",
      "zook eeper",
      "seve red",
      "j tag",
      "k n",
      "m pgood",
      "p m",
      "p r",
      "r no",
      "r ail",
      "u ce",
      "u sr",
      "v ol",
      "x id",
      "er no",
      "er rno",
      "le ader",
      "con n",
      "cl ock",
      "ps r",
      "ex ten",
      "red uce",
      "sp pm",
      "ut dow",
      "um t",
      "im g",
      "ger man",
      "sh ort",
      "sh are",
      "sh utdow",
      "function al",
      "suc cess",
      "cau sing",
      "pla y",
      "all reduce",
      "vol t",
      "exten sion",
      "german n",
      "shutdow n",
      "e b",
      "j av",
      "l h",
      "p t",
      "s a",
      "s te",
      "s ca",
      "z xid",
      "le test",
      "at ar",
      "av atar",
      "ev erno",
      ".... .",
      "ss l",
      "sy nd",
      "double click",
      "chan ge",
      "ten c",
      "tor us",
      "tar get",
      "jav a",
      "sca letest",
      "avatar s",
      "everno te",
      "a e",
      "b di",
      "f on",
      "h p",
      "m ou",
      "q u",
      "s ti",
      "s of",
      "u nd",
      "in fo",
      "pi c",
      "bgl io",
      "proce ss",
      "we i",
      "comple ted",
      "tre llo",
      "oimage a",
      "follo wup",
      "success fully",
      "bdi mg",
      "fon ts",
      "hp cc",
      "mou nt",
      "sti ll",
      ": /",
      "c si",
      "g ed",
      "g ent",
      "i ce",
      "o ver",
      "s l",
      "s o",
      "s in",
      "s id",
      "s na",
      "u na",
      "v ailable",
      "z h",
      "se cur",
      "en able",
      "de mo",
      "al er",
      "serv ice",
      "ap p",
      "lon g",
      "ur gent",
      "process or",
      "wei bo",
      "una vailable",
      "secur ity",
      "b ug",
      "c d",
      "c le",
      "d l",
      "f s",
      "i hu",
      "j ar",
      "l u",
      "p u",
      "p ee",
      "q pic",
      "r ap",
      "s up",
      "s ort",
      "v nm",
      "v pd",
      "ro nment",
      "ro und",
      "re po",
      "en vi",
      "con t",
      "ge ting",
      "node s",
      "di ct",
      "ca st",
      "domain s",
      "fe aa",
      "hw id",
      "cau sed",
      "tar geting",
      "af ter",
      "so hu",
      "sna ps",
      "cle ar",
      "lu stre",
      "pee repo",
      "rap tor",
      "sort rand",
      "envi ronment",
      "peerepo ch",
      "a u",
      "a te",
      "a si",
      "b c",
      "b f",
      "c pro",
      "f d",
      "g lo",
      "l r",
      "p ing",
      "r ation",
      "s tion",
      "s ug",
      "t c",
      "u i",
      "w sing",
      "x ffff",
      "99999999 999",
      "in te",
      "ro l",
      "se ar",
      "de bug",
      "iv e",
      "receiv er",
      "ad s",
      "ma il",
      "ge stion",
      "ch ip",
      "min i",
      "bro wsing",
      "set s",
      "the ader",
      "do ctor",
      "bgl v",
      "configu ration",
      "sogou cdn",
      "fe browsing",
      "bd static",
      "ph y",
      "csdn img",
      "sa febrowsing",
      "tenc ent",
      "sof theader",
      "sl i",
      "zh ihu",
      "service s",
      "pu ui",
      "cont rol",
      "glo sli",
      "sug gestion",
      "sear ch",
      "- [",
      "a tes",
      "c ting",
      "d up",
      "e click",
      "g g",
      "g al",
      "h ot",
      "l a",
      "l im",
      "m c",
      "m id",
      "t cp",
      "x c",
      "y ates",
      "z z",
      "in ste",
      "ro me",
      "se le",
      "re as",
      "ti tion",
      "ck up",
      "le gal",
      "at h",
      "co p",
      "al ic",
      "com m",
      "ex pe",
      ".. .",
      "pi xf",
      "et ch",
      "lo w",
      "termin ated",
      "par tition",
      "ba ckup",
      "........ .....",
      "pre p",
      "pe er",
      "cn zz",
      "il legal",
      "oimage b",
      "pla ne",
      "follo w",
      "ph t",
      "pr xf",
      "synd rome",
      "snaps hot",
      "asi c",
      "inte ger",
      "gg pht",
      "lim it",
      "mid plane",
      "tcp conn",
      "inste ad",
      "sele ct",
      "reas on",
      "alic dn",
      "expe cting",
      "b in",
      "c re",
      "c hk",
      "c id",
      "i an",
      "i ld",
      "l ive",
      "m bl",
      "m cm",
      "p ub",
      "u d",
      "u re",
      "w x",
      "x b",
      "y t",
      "y out",
      "in for",
      "se mbl",
      "or um",
      "iv ile",
      "ad cast",
      "st at",
      "ne z",
      "op le",
      "ma tion",
      "ps u",
      "tt ing",
      "na me",
      "ch ild",
      "ai mg",
      "as sembl",
      "ub e",
      "ub mcm",
      "bro adcast",
      "google synd",
      "ci se",
      "ba se",
      "ff fe",
      "ee p",
      "im pre",
      "be l",
      "ll a",
      "image s",
      "fail ure",
      "pe ople",
      "notification s",
      "ffff f",
      "dc bf",
      "sw eep",
      "ddcmd bglv",
      "ur ge",
      "pr ivile",
      "ste lla",
      "qu orum",
      "sin aimg",
      "aler ts",
      "sup p",
      "follow ing",
      "chk pt",
      "cid ian",
      "pub ads",
      "yout ube",
      "infor mation",
      "assembl y",
      "ubmcm m",
      "googlesynd ication",
      "impre cise",
      "privile ged",
      "a bl",
      "b il",
      "d j",
      "f p",
      "f ou",
      "f ie",
      "f etch",
      "h pl",
      "i r",
      "i z",
      "j s",
      "k in",
      "l le",
      "m p",
      "m atch",
      "n ch",
      "p v",
      "p tor",
      "r th",
      "r ip",
      "s lo",
      "s cri",
      "s click",
      "t mp",
      "v ar",
      "x il",
      "y tic",
      "se stat",
      "re sh",
      "er ing",
      "er ation",
      "en abl",
      "pro ble",
      "le ad",
      "co lle",
      "de scri",
      "al ytic",
      "st rip",
      "th resh",
      "op eration",
      "clo ud",
      "sp ace",
      "an alytic",
      "od r",
      "as sets",
      "pa kin",
      "sta bil",
      "iar y",
      "ress ing",
      "sock s",
      "sy nch",
      "chan ged",
      "im p",
      "ok ie",
      "new s",
      "mo okie",
      "github app",
      "fu rth",
      "ver sion",
      "................ ..",
      "................ ......",
      "................ .........",
      "ec id",
      "star ting",
      "...... .",
      "oimage c",
      "pd t",
      "sa me",
      "tenc y",
      "sin a",
      "aler t",
      "au xil",
      "xffff fffe",
      "la tency",
      "comm ent",
      "cre ating",
      "supp ressing",
      "fou nd",
      "slo t",
      "enabl ed",
      "proble m",
      "lead ing",
      "colle ctor",
      "descri ptor",
      "thresh old",
      "analytic s",
      "stabil ity",
      "furth er",
      "auxil iary",
      ") .......",
      ". /",
      "a g",
      "a ut",
      "b i",
      "b t",
      "b cast",
      "c v",
      "d r",
      "d is",
      "e fc",
      "f df",
      "g ine",
      "g ath",
      "h m",
      "k nez",
      "l ib",
      "m i",
      "m en",
      "o s",
      "p an",
      "p age",
      "p ath",
      "r m",
      "s le",
      "s tent",
      "x e",
      "x x",
      "y un",
      "z t",
      "z er",
      "in con",
      "in to",
      "in ser",
      "se cu",
      "re valid",
      "re new",
      "ed ge",
      "en gine",
      "ti m",
      "xy zt",
      "ce eds",
      "tes ts",
      "ad zer",
      "op t",
      "op urge",
      "si stent",
      "ex e",
      "ex ceeds",
      "node sets",
      "pi pe",
      "data base",
      "fro nt",
      "di ed",
      "ic bi",
      "og s",
      "client services",
      "session timeout",
      "google tag",
      "micro sof",
      "bo ok",
      "po s",
      "po ll",
      "be c",
      "face book",
      "pe s",
      "ve l",
      "get dropbox",
      "we b",
      "ffff ffff",
      "................ .",
      "cc fc",
      "unexpected ly",
      "// /",
      "fd ae",
      "debug ger",
      "control descriptor",
      "bel n",
      "fie ld",
      "cloud front",
      "ag kn",
      "aut opurge",
      "dis able",
      "fdf e",
      "gath ering",
      "pan ic",
      "page ad",
      "incon sistent",
      "inser ted",
      "secu re",
      "revalid ating",
      "adzer k",
      "microsof t",
      "poll controldescriptor",
      "pollcontroldescriptor s",
      ") :",
      "/ .",
      "= /",
      "a w",
      "a con",
      "a ug",
      "a che",
      "b b",
      "b ad",
      "b and",
      "b ffff",
      "b trace",
      "b cdn",
      "b bc",
      "b js",
      "c gi",
      "c bjs",
      "d a",
      "d ue",
      "d un",
      "f m",
      "f bcdn",
      "g m",
      "g q",
      "g t",
      "g u",
      "g y",
      "g mail",
      "g bglv",
      "h e",
      "h an",
      "h av",
      "h alt",
      "h fm",
      "i er",
      "k ee",
      "m k",
      "m l",
      "m unix",
      "m mi",
      "m hfm",
      "n fs",
      "o ba",
      "p c",
      "p urge",
      "q a",
      "q dun",
      "r am",
      "r und",
      "s ys",
      "s cr",
      "s ci",
      "t ran",
      "t pc",
      "u x",
      "u ch",
      "v gq",
      "v munix",
      "w in",
      "w er",
      "w id",
      "x a",
      "x in",
      "x er",
      "x ue",
      "y ing",
      "te ed",
      "se s",
      "se ne",
      "re tr",
      "bl og",
      "ed ram",
      "hk g",
      "ti mg",
      "ck ex",
      "ck pt",
      "or d",
      "or g",
      "le men",
      "cu tion",
      "me mb",
      "by te",
      "de vel",
      "ad services",
      "st op",
      "th u",
      "ar an",
      "to o",
      "to ok",
      "to uch",
      "si m",
      "add r",
      "add memb",
      "nd m",
      "ting yun",
      "gen vmunix",
      "ge tting",
      "lin pack",
      "lin ux",
      "pi xe",
      "min sessiontimeout",
      "wi re",
      "ic al",
      "ic ate",
      "ic ache",
      "cur i",
      "upd ate",
      "sta ckex",
      "google ads",
      "google adservices",
      "un it",
      "un imp",
      "........ ......",
      "ee e",
      "chan gy",
      "socket s",
      "rand o",
      "loca tion",
      "im b",
      "be acon",
      "mas ter",
      "cluster addmemb",
      "cou nt",
      "boot genvmunix",
      "pe re",
      "qq web",
      "per f",
      "sh o",
      "sh u",
      "cp c",
      "ho tting",
      "comple te",
      "dc d",
      "ef d",
      "................ .............",
      "io exception",
      "pl us",
      "pref etch",
      "ddcmd gbglv",
      "ta oba",
      "dow s",
      "zookeeper server",
      "kn l",
      "sl f",
      "cd ndm",
      "dict app",
      "snaps hotting",
      "fd af",
      "xffff ffff",
      "bel nez",
      "iz ed",
      "imp service",
      "dr ive",
      "sle pt",
      "tim ed",
      "exe cution",
      "googletag services",
      "secure pubads",
      "band wid",
      "gt ms",
      "gu aran",
      "han g",
      "hav e",
      "kee pere",
      "purge interval",
      "rund ir",
      "scr atch",
      "sci p",
      "tran s",
      "vgq sene",
      "win dows",
      "xue shu",
      "retr ying",
      "lemen ted",
      "stop ping",
      "pixe l",
      "stackex change",
      "unimp lemented",
      "changy an",
      "clusteraddmemb er",
      "taoba o",
      "bandwid th",
      "guaran teed",
      ": -",
      "a b",
      "a x",
      "a y",
      "a in",
      "a nt",
      "a ma",
      "a pa",
      "a ff",
      "b u",
      "b w",
      "b x",
      "b er",
      "b de",
      "b ub",
      "b ig",
      "b ot",
      "b rand",
      "b be",
      "b fc",
      "c cur",
      "c cr",
      "c ss",
      "c dc",
      "c cess",
      "c xid",
      "c xx",
      "c pes",
      "d bl",
      "d iff",
      "d ac",
      "d part",
      "d bec",
      "e p",
      "e s",
      "e cm",
      "e ssl",
      "e wer",
      "f a",
      "f l",
      "f r",
      "f er",
      "f ee",
      "f ish",
      "f click",
      "f pr",
      "f erno",
      "f ir",
      "g re",
      "g un",
      "g ate",
      "h i",
      "h pd",
      "h img",
      "i st",
      "i red",
      "i iz",
      "i eee",
      "j i",
      "j u",
      "j line",
      "k i",
      "k y",
      "k ne",
      "l t",
      "l co",
      "l ds",
      "l ish",
      "l ts",
      "l xf",
      "l icate",
      "m m",
      "m u",
      "m ent",
      "m ps",
      "m dc",
      "m mb",
      "n f",
      "n um",
      "n ger",
      "o be",
      "o ccur",
      "p w",
      "p or",
      "p ad",
      "p as",
      "p ur",
      "p ki",
      "q s",
      "q box",
      "q ls",
      "q ihu",
      "q path",
      "q himg",
      "q iiz",
      "r s",
      "r ror",
      "r is",
      "r ss",
      "r fish",
      "r ky",
      "s b",
      "s c",
      "s at",
      "s core",
      "s od",
      "s mal",
      "s cal",
      "s csi",
      "t v",
      "t un",
      "t run",
      "t addr",
      "u ve",
      "u hu",
      "w n",
      "w an",
      "w ay",
      "x l",
      "x ception",
      "x gr",
      "x ml",
      "y ms",
      "y timg",
      "y es",
      "z on",
      "in ue",
      "in ate",
      "in count",
      "in ferno",
      "ro byte",
      "te am",
      "se p",
      "se qu",
      "se tting",
      "se lt",
      "se nger",
      "re l",
      "re co",
      "re su",
      "re pl",
      "re qu",
      "re search",
      "re comm",
      "re trans",
      "re qpath",
      "bl ue",
      "bl as",
      "ed c",
      "ed fe",
      "on e",
      "on ical",
      "en o",
      "en ti",
      "en tif",
      "ti ck",
      "pro po",
      "ce ec",
      "ce sim",
      "or ter",
      "or ted",
      "le vel",
      "cu s",
      "9999999999999999 999999999999",
      "me am",
      "at ta",
      "co ord",
      "de v",
      "de vi",
      "iv er",
      "ad master",
      "ad obe",
      "st ud",
      "th ir",
      "nt ype",
      "ne tt",
      "con ten",
      "cl as",
      "up load",
      "op tim",
      "id entif",
      "for ce",
      "no ze",
      "no sle",
      "si c",
      "si cal",
      "si mg",
      "si xgr",
      "ma ps",
      "ma na",
      "ma ccess",
      "mes os",
      "mes senger",
      "clo sing",
      "ex ist",
      "gen e",
      "val one",
      "ser apis",
      "ch at",
      "ch ment",
      "ou ji",
      "send er",
      "send ing",
      "node card",
      "node exist",
      "et c",
      "go v",
      "wh en",
      "as h",
      "lo c",
      "serv e",
      "data node",
      "min us",
      "di men",
      "ic au",
      "map file",
      "map ping",
      "ct r",
      "cr l",
      "sub command",
      "ca c",
      "ca te",
      "ca pi",
      "ca ses",
      "ca bot",
      "out s",
      "out put",
      "un i",
      "un reco",
      "ci al",
      "ww id",
      "mal loc",
      "normal ized",
      "par serapis",
      "ba yms",
      "po se",
      "po wer",
      "........ ....",
      "........ .......",
      "vi ewer",
      "can onical",
      "ff ea",
      "it c",
      "run time",
      "max sessiontimeout",
      "nel s",
      "bgl scratch",
      "ish uhu",
      "rand a",
      "blish ing",
      "ac count",
      "spe cial",
      "part ad",
      "conf pu",
      "pre ta",
      "qq mail",
      "new comp",
      "new simg",
      "new maps",
      "gn ized",
      "fo cus",
      "sh ock",
      "sh ouji",
      "cp m",
      "cp u",
      "ho st",
      "tr ap",
      "tr ier",
      "tr ain",
      "proces ses",
      "we lco",
      "log ical",
      "db d",
      "db sr",
      "db cr",
      "fc c",
      "tx ntype",
      "ffff fffe",
      "dropp ing",
      "content recomm",
      "ef e",
      "................ .....",
      "llo w",
      "card research",
      "il t",
      "register s",
      "mpi ts",
      "test qbox",
      "test cases",
      "tree addr",
      "pd lxf",
      "all en",
      "img src",
      "ae ger",
      "qu ant",
      "qu lish",
      "qu sixgr",
      "process ing",
      "sna preta",
      "zh static",
      "zh img",
      "cont inue",
      "au th",
      "au selt",
      "asi a",
      "bf a",
      "xffff d",
      "phy sical",
      "dup licate",
      "la st",
      "la pack",
      "follow er",
      "cre ate",
      "wx ml",
      "base line",
      "quorum server",
      "quorum peer",
      "supp orter",
      "fie lds",
      "sina js",
      "dr aeger",
      "efc bc",
      "mi randa",
      "xe qusixgr",
      "yun sic",
      "googletag mana",
      "aw s",
      "aw qiiz",
      "gm t",
      "he ader",
      "he llow",
      "sys calls",
      "xer cesim",
      "ord ering",
      "devel f",
      "devel op",
      "too ls",
      "sim ba",
      "rando m",
      "rando maccess",
      "sho w",
      "sho wxml",
      "hang outs",
      "keepere rror",
      "keepere xception",
      "scratch pad",
      "trans fer",
      "vgqsene e",
      "vgqsene s",
      "ab orted",
      "ama zon",
      "apa che",
      "bu ilt",
      "bw allen",
      "bub er",
      "dbl p",
      "dac c",
      "dpart y",
      "ep yes",
      "ecm b",
      "fl ash",
      "fr i",
      "fir st",
      "gre eno",
      "gun nels",
      "gate way",
      "hi cloud",
      "ieee confpu",
      "ju l",
      "mm stat",
      "mdc ask",
      "mmb iz",
      "num ber",
      "occur red",
      "pw d",
      "por tion",
      "pas sport",
      "pur pose",
      "qls n",
      "qihu cdn",
      "ris boot",
      "rss gov",
      "rfish er",
      "score cardresearch",
      "sod scal",
      "smal ler",
      "tv ax",
      "tun ed",
      "trun cate",
      "taddr iver",
      "wan ted",
      "xml parserapis",
      "robyte bug",
      "team viewer",
      "sequ enti",
      "resu lts",
      "repl icate",
      "requ ired",
      "retrans mission",
      "blue gene",
      "tick time",
      "propo sed",
      "atta chment",
      "coord inate",
      "devi ce",
      "adobe login",
      "stud y",
      "thir dparty",
      "nett y",
      "conten tion",
      "clas s",
      "optim ix",
      "identif ier",
      "noze robytebug",
      "nosle epyes",
      "nodeexist s",
      "dimen sion",
      "icau h",
      "subcommand s",
      "unreco gnized",
      "bayms gr",
      "ishuhu i",
      "account s",
      "train ing",
      "welco me",
      "contentrecomm end",
      "testqbox hang",
      "quant serve",
      "qulish i",
      "snapreta incount",
      "auselt on",
      "supporter s",
      "googletagmana ger",
      "awqiiz xequsixgr",
      "xercesim pl",
      "keepererror code",
      "amazon aws",
      "ieeeconfpu blishing",
      "sodscal ing",
      "sequenti al",
      "nosleepyes comm"
    ]
  }
}