{
  "version": "1.0",
  "truncation": null,
  "padding": null,
  "added_tokens": [
    {
      "id": 0,
      "content": "<pad>",
      "single_word": false,
      "lstrip": false,
      "rstrip": false,
      "normalized": false,
      "special": true
    },
    {
      "id": 1,
      "content": "<unk>",
      "single_word": false,
      "lstrip": false,
      "rstrip": false,
      "normalized": false,
      "special": true
    },
    {
      "id": 2,
      "content": " ",
      "single_word": false,
      "lstrip": false,
      "rstrip": false,
      "normalized": false,
      "special": true
    }
  ],
  "normalizer": {
    "type": "Sequence",
    "normalizers": [
      {
        "type": "NFKC"
      },
      {
        "type": "Lowercase"
      }
    ]
  },
  "pre_tokenizer": {
    "type": "Sequence",
    "pretokenizers": [
      {
        "type": "Whitespace"
      },
      {
        "type": "ByteLevel",
        "add_prefix_space": false,
        "trim_offsets": true,
        "use_regex": true
      }
    ]
  },
  "post_processor": {
    "type": "ByteLevel",
    "add_prefix_space": true,
    "trim_offsets": false,
    "use_regex": true
  },
  "decoder": null,
  "model": {
    "type": "BPE",
    "dropout": null,
    "unk_token": null,
    "continuing_subword_prefix": null,
    "end_of_word_suffix": null,
    "fuse_unk": false,
    "byte_fallback": false,
    "ignore_merges": false,
    "vocab": {
      "<pad>": 0,
      "<unk>": 1,
      " ": 2,
      "!": 3,
      "#": 4,
      "$": 5,
      "%": 6,
      "&": 7,
      "'": 8,
      "(": 9,
      ")": 10,
      "*": 11,
      "+": 12,
      ",": 13,
      "-": 14,
      ".": 15,
      "/": 16,
      "9": 17,
      ":": 18,
      ";": 19,
      "<": 20,
      "=": 21,
      ">": 22,
      "?": 23,
      "@": 24,
      "[": 25,
      "]": 26,
      "_": 27,
      "`": 28,
      "a": 29,
      "b": 30,
      "c": 31,
      "d": 32,
      "e": 33,
      "f": 34,
      "g": 35,
      "h": 36,
      "i": 37,
      "j": 38,
      "k": 39,
      "l": 40,
      "m": 41,
      "n": 42,
      "o": 43,
      "p": 44,
      "q": 45,
      "r": 46,
      "s": 47,
      "t": 48,
      "u": 49,
      "v": 50,
      "w": 51,
      "x": 52,
      "y": 53,
      "z": 54,
      "|": 55,
      "99": 56,
      "9999": 57,
      "99999999": 58,
      "ff": 59,
      "999": 60,
      "ar": 61,
      "de": 62,
      "se": 63,
      "in": 64,
      "99999": 65,
      "no": 66,
      "ce": 67,
      "car": 68,
      "card": 69,
      "at": 70,
      "9999999999999999": 71,
      "ch": 72,
      "or": 73,
      "node": 74,
      "ser": 75,
      "ec": 76,
      "),": 77,
      "pr": 78,
      "do": 79,
      "lo": 80,
      "ffff": 81,
      "ed": 82,
      "pd": 83,
      "vpd": 84,
      "ip": 85,
      "ss": 86,
      "pro": 87,
      "on": 88,
      "as": 89,
      "to": 90,
      "serv": 91,
      "ou": 92,
      "id": 93,
      "ct": 94,
      "ee": 95,
      "par": 96,
      "ion": 97,
      "ml": 98,
      "ice": 99,
      "service": 100,
      "nd": 101,
      "fffff": 102,
      "999999999999999999999999": 103,
      "dear": 104,
      "iar": 105,
      "proce": 106,
      "999999": 107,
      "not": 108,
      "th": 109,
      "process": 110,
      "eck": 111,
      "check": 112,
      "processor": 113,
      "ing": 114,
      "ecid": 115,
      "slo": 116,
      "slot": 117,
      "atch": 118,
      "ound": 119,
      "found": 120,
      "match": 121,
      "ck": 122,
      "ne": 123,
      "ted": 124,
      "for": 125,
      "ab": 126,
      "lock": 127,
      "block": 128,
      "sy": 129,
      "pe": 130,
      "re": 131,
      "of": 132,
      "ask": 133,
      "dat": 134,
      "er": 135,
      "tt": 136,
      "ad": 137,
      "bl": 138,
      "st": 139,
      "the": 140,
      "blk": 141,
      "sym": 142,
      "sh": 143,
      "mask": 144,
      "um": 145,
      "ase": 146,
      "ido": 147,
      "new": 148,
      "serted": 149,
      "chip": 150,
      "ty": 151,
      "into": 152,
      "abase": 153,
      "database": 154,
      "inserted": 155,
      "ction": 156,
      "num": 157,
      "part": 158,
      "pre": 159,
      "efor": 160,
      "type": 161,
      "999999999999999999999999999": 162,
      "parefor": 163,
      "preparefor": 164,
      "prepareforservice": 165,
      "))": 166,
      "mcard": 167,
      "sernum": 168,
      "ctn": 169,
      "mlctn": 170,
      "mcardsernum": 171,
      "mip": 172,
      "mtype": 173,
      "mlp": 174,
      "action": 175,
      "shu": 176,
      "tting": 177,
      "wn": 178,
      "down": 179,
      "shutting": 180,
      "9999999999999999999999999999": 181,
      "..": 182,
      "li": 183,
      "99999999999999": 184,
      "me": 185,
      "ea": 186,
      "te": 187,
      "nt": 188,
      "ra": 189,
      "ssion": 190,
      "xy": 191,
      "hk": 192,
      "proxy": 193,
      "ti": 194,
      "bffff": 195,
      "om": 196,
      "iv": 197,
      "session": 198,
      "9999999": 199,
      "rece": 200,
      "receiv": 201,
      "le": 202,
      "dc": 203,
      "by": 204,
      "nodecard": 205,
      "eeee": 206,
      "9999999999999999999": 207,
      "cc": 208,
      "al": 209,
      "time": 210,
      "tes": 211,
      "bytes": 212,
      "err": 213,
      "received": 214,
      "kb": 215,
      "com": 216,
      "fe": 217,
      "cd": 218,
      "ffffffff": 219,
      "....": 220,
      "dd": 221,
      "error": 222,
      "is": 223,
      "fc": 224,
      "ma": 225,
      "da": 226,
      "con": 227,
      "ran": 228,
      "db": 229,
      "fpr": 230,
      "df": 231,
      "io": 232,
      "mi": 233,
      "ac": 234,
      "cu": 235,
      "clo": 236,
      "ba": 237,
      "close": 238,
      "bc": 239,
      "si": 240,
      "edu": 241,
      "add": 242,
      "ect": 243,
      "ex": 244,
      "be": 245,
      "999999999999999999": 246,
      "tran": 247,
      "trans": 248,
      "ae": 249,
      "ected": 250,
      "ir": 251,
      "ate": 252,
      "cse": 253,
      "cuhk": 254,
      "na": 255,
      "bf": 256,
      "cio": 257,
      "ated": 258,
      "ent": 259,
      "ps": 260,
      "ciod": 261,
      "ze": 262,
      "size": 263,
      "gh": 264,
      "fi": 265,
      "bd": 266,
      "eee": 267,
      "ca": 268,
      "oo": 269,
      "rou": 270,
      "throu": 271,
      "through": 272,
      "cf": 273,
      "ded": 274,
      "ope": 275,
      "eeeeeee": 276,
      "open": 277,
      "file": 278,
      "cli": 279,
      "bb": 280,
      "client": 281,
      "htt": 282,
      "lin": 283,
      "https": 284,
      "ge": 285,
      "out": 286,
      "data": 287,
      "em": 288,
      "cor": 289,
      "sessionid": 290,
      "aa": 291,
      "syst": 292,
      "system": 293,
      "cate": 294,
      "name": 295,
      "ef": 296,
      "af": 297,
      "sent": 298,
      "namesystem": 299,
      "served": 300,
      "timeout": 301,
      "life": 302,
      "lifetime": 303,
      "link": 304,
      "cb": 305,
      "ting": 306,
      "9999999999999": 307,
      "map": 308,
      "read": 309,
      "linkcard": 310,
      "rep": 311,
      "conn": 312,
      "exce": 313,
      "star": 314,
      "ram": 315,
      "connect": 316,
      "99999999999999999": 317,
      "stor": 318,
      "repli": 319,
      "fer": 320,
      "starting": 321,
      "so": 322,
      "datanode": 323,
      "replicate": 324,
      "thread": 325,
      "transfer": 326,
      "dir": 327,
      "det": 328,
      "fa": 329,
      "detected": 330,
      "est": 331,
      "edblock": 332,
      "........": 333,
      "addstor": 334,
      "addstoredblock": 335,
      "gram": 336,
      "us": 337,
      "et": 338,
      "pt": 339,
      "wi": 340,
      "ter": 341,
      "cket": 342,
      "corr": 343,
      "program": 344,
      "and": 345,
      "rom": 346,
      "ation": 347,
      "from": 348,
      "connection": 349,
      "hi": 350,
      "addre": 351,
      "transmi": 352,
      "address": 353,
      "added": 354,
      "ds": 355,
      "eb": 356,
      "corrected": 357,
      "with": 358,
      "ver": 359,
      "ssing": 360,
      "missing": 361,
      "min": 362,
      "su": 363,
      "gl": 364,
      "val": 365,
      "xffffffff": 366,
      "fd": 367,
      "goo": 368,
      "secon": 369,
      "seconds": 370,
      "dcr": 371,
      "go": 372,
      "valid": 373,
      "lish": 374,
      "ms": 375,
      "ablish": 376,
      "establish": 377,
      "mp": 378,
      "sed": 379,
      "cr": 380,
      "invalid": 381,
      "termin": 382,
      "proces": 383,
      "whi": 384,
      "closed": 385,
      "processed": 386,
      "tted": 387,
      "transmitted": 388,
      "socket": 389,
      "sr": 390,
      "bgl": 391,
      "ory": 392,
      "termination": 393,
      "eded": 394,
      "over": 395,
      "which": 396,
      "il": 397,
      "had": 398,
      "direct": 399,
      "src": 400,
      "pir": 401,
      "expir": 402,
      "exceeded": 403,
      "directory": 404,
      "expiring": 405,
      "established": 406,
      "co": 407,
      "upd": 408,
      "nego": 409,
      "tiated": 410,
      "negotiated": 411,
      "blockmap": 412,
      "updated": 413,
      "999999999": 414,
      "such": 415,
      "--": 416,
      "pa": 417,
      "fb": 418,
      "per": 419,
      "stat": 420,
      "roo": 421,
      "root": 422,
      "qu": 423,
      "99999999999": 424,
      "ption": 425,
      "gle": 426,
      "sw": 427,
      "google": 428,
      "tor": 429,
      "ome": 430,
      "ima": 431,
      "dest": 432,
      "load": 433,
      "log": 434,
      "image": 435,
      "home": 436,
      "torus": 437,
      "ol": 438,
      "un": 439,
      "loading": 440,
      "fee": 441,
      "cal": 442,
      "fail": 443,
      "core": 444,
      "gene": 445,
      "ut": 446,
      "test": 447,
      "ts": 448,
      "files": 449,
      "user": 450,
      "gener": 451,
      "receiver": 452,
      "fea": 453,
      "generated": 454,
      "der": 455,
      "this": 456,
      "being": 457,
      "an": 458,
      "nc": 459,
      "ww": 460,
      "done": 461,
      "code": 462,
      "failed": 463,
      "exception": 464,
      "ddr": 465,
      "nf": 466,
      "nb": 467,
      "ru": 468,
      "lr": 469,
      "ic": 470,
      "av": 471,
      "set": 472,
      "inst": 473,
      "put": 474,
      "sp": 475,
      "fff": 476,
      "net": 477,
      "mpi": 478,
      "input": 479,
      "ls": 480,
      "swl": 481,
      "ap": 482,
      "cou": 483,
      "allo": 484,
      "server": 485,
      "ld": 486,
      "999999999999": 487,
      "status": 488,
      "allocate": 489,
      "dele": 490,
      "could": 491,
      "allocateblock": 492,
      "ruction": 493,
      "instruction": 494,
      "ctr": 495,
      "login": 496,
      "xer": 497,
      "requ": 498,
      "................": 499,
      "temp": 500,
      "calls": 501,
      "ede": 502,
      "pip": 503,
      "tr": 504,
      "999999999999999": 505,
      "pipe": 506,
      "(/": 507,
      "chdir": 508,
      "edf": 509,
      "rand": 510,
      "sys": 511,
      "int": 512,
      "nal": 513,
      "state": 514,
      "jav": 515,
      "java": 516,
      "ddc": 517,
      "gb": 518,
      "kee": 519,
      "receiving": 520,
      "ating": 521,
      "gi": 522,
      "im": 523,
      "op": 524,
      "9999999999": 525,
      "vi": 526,
      "delete": 527,
      "up": 528,
      "alle": 529,
      "packet": 530,
      "request": 531,
      "idu": 532,
      "baidu": 533,
      "bo": 534,
      "ary": 535,
      "en": 536,
      "edfaa": 537,
      "cn": 538,
      "pl": 539,
      "able": 540,
      "invalidset": 541,
      "sn": 542,
      "eep": 543,
      "age": 544,
      "ber": 545,
      "ni": 546,
      "ri": 547,
      "deo": 548,
      "sweep": 549,
      "ddcm": 550,
      "video": 551,
      "---": 552,
      "ve": 553,
      "orum": 554,
      "good": 555,
      "quorum": 556,
      "bol": 557,
      "fun": 558,
      "googlevideo": 559,
      "apps": 560,
      "case": 561,
      "ffe": 562,
      "tempor": 563,
      "cases": 564,
      "sen": 565,
      "www": 566,
      "interr": 567,
      "cac": 568,
      "fcc": 569,
      "it": 570,
      "task": 571,
      "temporary": 572,
      "cre": 573,
      "cec": 574,
      "ssage": 575,
      "message": 576,
      "es": 577,
      "static": 578,
      "fda": 579,
      "number": 580,
      "mc": 581,
      "ob": 582,
      "spe": 583,
      "mpits": 584,
      "ial": 585,
      "nch": 586,
      "nel": 587,
      "sig": 588,
      "sender": 589,
      "bw": 590,
      "ta": 591,
      "ced": 592,
      "retransmi": 593,
      "symbol": 594,
      "tree": 595,
      "allen": 596,
      "bwallen": 597,
      "retransmission": 598,
      "pm": 599,
      "po": 600,
      "efc": 601,
      "job": 602,
      "ker": 603,
      "tx": 604,
      "zoo": 605,
      "rank": 606,
      "can": 607,
      "keeper": 608,
      "signal": 609,
      "zookeeper": 610,
      "ubl": 611,
      "ort": 612,
      "serial": 613,
      "ipaddress": 614,
      "get": 615,
      "serialnumber": 616,
      "hu": 617,
      "kin": 618,
      "scr": 619,
      "doubl": 620,
      "pakin": 621,
      "dr": 622,
      "ev": 623,
      "sion": 624,
      "xid": 625,
      "synch": 626,
      "regi": 627,
      "ster": 628,
      "function": 629,
      "event": 630,
      "register": 631,
      "sof": 632,
      "tal": 633,
      "ur": 634,
      "ffb": 635,
      "low": 636,
      "cur": 637,
      "testcases": 638,
      "box": 639,
      "fcd": 640,
      "ger": 641,
      "ll": 642,
      "upt": 643,
      "feea": 644,
      "kernel": 645,
      "ali": 646,
      "we": 647,
      "xc": 648,
      "deni": 649,
      "mission": 650,
      "permission": 651,
      "img": 652,
      "pla": 653,
      "interrupt": 654,
      "functional": 655,
      "denied": 656,
      "act": 657,
      "ant": 658,
      "bm": 659,
      "mb": 660,
      "ph": 661,
      "xce": 662,
      "total": 663,
      "sho": 664,
      "dfs": 665,
      "line": 666,
      "xception": 667,
      "wri": 668,
      "ffc": 669,
      "asm": 670,
      "eer": 671,
      "bglscr": 672,
      "spasm": 673,
      "ddcmd": 674,
      "bglscratch": 675,
      "fce": 676,
      "ha": 677,
      "ime": 678,
      "ibm": 679,
      "med": 680,
      "redu": 681,
      "rts": 682,
      "inf": 683,
      "rent": 684,
      "ccc": 685,
      "ccd": 686,
      "feaa": 687,
      "syscalls": 688,
      "current": 689,
      "ader": 690,
      "mid": 691,
      "arget": 692,
      "lce": 693,
      "ng": 694,
      "qq": 695,
      "target": 696,
      "ffa": 697,
      "ffd": 698,
      "theader": 699,
      "man": 700,
      "micr": 701,
      "creating": 702,
      "spelce": 703,
      "drop": 704,
      "softheader": 705,
      "./": 706,
      "ndant": 707,
      "plane": 708,
      "redundant": 709,
      "midplane": 710,
      "micro": 711,
      "dropbox": 712,
      "fol": 713,
      "long": 714,
      "ada": 715,
      "adb": 716,
      "adc": 717,
      "max": 718,
      "activ": 719,
      "ub": 720,
      "xa": 721,
      "ath": 722,
      "...": 723,
      "logs": 724,
      "follow": 725,
      ":/": 726,
      "bfe": 727,
      "efe": 728,
      "fdb": 729,
      "mnt": 730,
      "path": 731,
      "sna": 732,
      "inter": 733,
      "doop": 734,
      "perfor": 735,
      "ang": 736,
      "wei": 737,
      "hadoop": 738,
      "cs": 739,
      "psho": 740,
      "peer": 741,
      "xe": 742,
      "dec": 743,
      "edram": 744,
      "txt": 745,
      "snapsho": 746,
      "bff": 747,
      "dn": 748,
      "pere": 749,
      "adf": 750,
      "ment": 751,
      "errno": 752,
      "keepere": 753,
      "gooding": 754,
      "cannot": 755,
      "info": 756,
      "internal": 757,
      "end": 758,
      "kn": 759,
      "ue": 760,
      "che": 761,
      "lick": 762,
      "cdn": 763,
      "ioexception": 764,
      "cri": 765,
      "sppm": 766,
      "tag": 767,
      "phy": 768,
      "cdc": 769,
      "gou": 770,
      "zxid": 771,
      "eclick": 772,
      "eds": 773,
      "lib": 774,
      "rapt": 775,
      "sol": 776,
      "sogou": 777,
      "write": 778,
      "microseconds": 779,
      "raptor": 780,
      "am": 781,
      "bu": 782,
      "ord": 783,
      "edc": 784,
      "serviceaction": 785,
      "stre": 786,
      "xyz": 787,
      "cda": 788,
      "cdf": 789,
      "exceeds": 790,
      "story": 791,
      "history": 792,
      "ication": 793,
      "endserviceaction": 794,
      "aec": 795,
      "bi": 796,
      "bin": 797,
      "but": 798,
      "hp": 799,
      "ly": 800,
      "correct": 801,
      "randtxt": 802,
      "gith": 803,
      "xyzt": 804,
      "hpcc": 805,
      "eec": 806,
      "fl": 807,
      "nsion": 808,
      "ok": 809,
      "sin": 810,
      "rando": 811,
      "bfb": 812,
      "upon": 813,
      "fdae": 814,
      "doubleclick": 815,
      "performed": 816,
      "sina": 817,
      "bee": 818,
      "eff": 819,
      "jtag": 820,
      "mg": 821,
      "vn": 822,
      "xf": 823,
      "resol": 824,
      "cdb": 825,
      "correctable": 826,
      "random": 827,
      "resolve": 828,
      "cce": 829,
      "dime": 830,
      "ure": 831,
      "was": 832,
      "are": 833,
      "inate": 834,
      "onder": 835,
      "pes": 836,
      "reset": 837,
      "resp": 838,
      "tem": 839,
      "sical": 840,
      "coord": 841,
      "tests": 842,
      "packetresp": 843,
      "snapshot": 844,
      "physical": 845,
      "github": 846,
      "dimension": 847,
      "coordinate": 848,
      "packetresponder": 849,
      "bad": 850,
      "bfc": 851,
      "cp": 852,
      "cad": 853,
      "cation": 854,
      "glo": 855,
      "mk": 856,
      "edb": 857,
      "tent": 858,
      "content": 859,
      "dbgl": 860,
      "bfd": 861,
      "mini": 862,
      "deleting": 863,
      "ddcmdbgl": 864,
      "ddcmdbglv": 865,
      "gn": 866,
      "ler": 867,
      "mo": 868,
      "mmi": 869,
      "port": 870,
      "run": 871,
      "does": 872,
      "abc": 873,
      "comm": 874,
      "belong": 875,
      "ght": 876,
      "............": 877,
      "any": 878,
      "vel": 879,
      "writeblock": 880,
      "big": 881,
      "bec": 882,
      "cde": 883,
      "fdf": 884,
      "sli": 885,
      "sort": 886,
      "wer": 887,
      "xb": 888,
      "ceb": 889,
      "org": 890,
      "ecc": 891,
      "ash": 892,
      "paralle": 893,
      "comp": 894,
      "failing": 895,
      "flash": 896,
      "glosli": 897,
      "parallel": 898,
      "ade": 899,
      "apa": 900,
      "br": 901,
      "fdc": 902,
      "ity": 903,
      "pj": 904,
      "ine": 905,
      "cee": 906,
      "attemp": 907,
      "res": 908,
      "ccb": 909,
      "cdd": 910,
      "bfa": 911,
      "fdaf": 912,
      "commun": 913,
      "comple": 914,
      "attempting": 915,
      "ace": 916,
      "aea": 917,
      "el": 918,
      "lts": 919,
      "mar": 920,
      "pp": 921,
      "yti": 922,
      "cart": 923,
      "chine": 924,
      "resu": 925,
      "machine": 926,
      "aeb": 927,
      "bdir": 928,
      "mccart": 929,
      "double": 930,
      "active": 931,
      "csdn": 932,
      "stream": 933,
      "sortrand": 934,
      "pjmccart": 935,
      "results": 936,
      "bea": 937,
      "gent": 938,
      "has": 939,
      "ist": 940,
      "sid": 941,
      "tch": 942,
      "xffff": 943,
      "xml": 944,
      "dev": 945,
      "sec": 946,
      "ature": 947,
      "ecf": 948,
      "eea": 949,
      "parity": 950,
      "nex": 951,
      "ads": 952,
      "ccf": 953,
      "fefff": 954,
      "fcf": 955,
      "ired": 956,
      "efb": 957,
      "version": 958,
      "perature": 959,
      "required": 960,
      "quorumserver": 961,
      "quorumpeer": 962,
      "follower": 963,
      "weibo": 964,
      "temperature": 965,
      "apache": 966,
      "hdfs": 967,
      "latch": 968,
      "tion": 969,
      "asserted": 970,
      "ount": 971,
      "abd": 972,
      "renew": 973,
      "umm": 974,
      "dac": 975,
      "contr": 976,
      "acb": 977,
      "subdir": 978,
      "........................": 979,
      "env": 980,
      "urgent": 981,
      "align": 982,
      "control": 983,
      "aed": 984,
      "aee": 985,
      "acc": 986,
      "eblock": 987,
      "js": 988,
      "led": 989,
      "var": 990,
      "vol": 991,
      "vpes": 992,
      "wh": 993,
      "ffea": 994,
      "ffaa": 995,
      "ffffffe": 996,
      "receiveblock": 997,
      "level": 998,
      "cca": 999,
      "curi": 1000,
      "exist": 1001,
      "cau": 1002,
      "efd": 1003,
      "afb": 1004,
      "ille": 1005,
      "usercontent": 1006,
      "imb": 1007,
      "interrup": 1008,
      "german": 1009,
      "vnm": 1010,
      "alignment": 1011,
      "germann": 1012,
      ":-": 1013,
      "::": 1014,
      "aab": 1015,
      "bg": 1016,
      "cxid": 1017,
      "flo": 1018,
      "ik": 1019,
      "ntype": 1020,
      "opt": 1021,
      "pected": 1022,
      "qpath": 1023,
      "rr": 1024,
      "unex": 1025,
      "chan": 1026,
      "orcode": 1027,
      "nodeexist": 1028,
      "doe": 1029,
      "proper": 1030,
      "eef": 1031,
      "processing": 1032,
      "reqpath": 1033,
      "stab": 1034,
      "tical": 1035,
      "ties": 1036,
      "aef": 1037,
      "efa": 1038,
      "dirs": 1039,
      "got": 1040,
      "cop": 1041,
      "coll": 1042,
      "api": 1043,
      "func": 1044,
      "create": 1045,
      "power": 1046,
      "txntype": 1047,
      "interrupts": 1048,
      "keeperexception": 1049,
      "keepererr": 1050,
      "critical": 1051,
      "communication": 1052,
      "when": 1053,
      "unexpected": 1054,
      "nodeexists": 1055,
      "properties": 1056,
      "keepererrorcode": 1057,
      "bde": 1058,
      "befor": 1059,
      "cab": 1060,
      "cfc": 1061,
      "cpm": 1062,
      "gal": 1063,
      "lang": 1064,
      "off": 1065,
      "rec": 1066,
      "use": 1067,
      "celed": 1068,
      "synd": 1069,
      "eac": 1070,
      "ten": 1071,
      "teo": 1072,
      "mail": 1073,
      "conf": 1074,
      "usr": 1075,
      "enable": 1076,
      "spent": 1077,
      "canceled": 1078,
      "registers": 1079,
      "followup": 1080,
      "criteo": 1081,
      "sinaimg": 1082,
      "been": 1083,
      "completion": 1084,
      "illegal": 1085,
      "before": 1086,
      "ah": 1087,
      "bcc": 1088,
      "bdf": 1089,
      "eof": 1090,
      "ebc": 1091,
      "fbc": 1092,
      "my": 1093,
      "mmc": 1094,
      "mount": 1095,
      "ube": 1096,
      "wor": 1097,
      "xin": 1098,
      "yout": 1099,
      "yah": 1100,
      "cea": 1101,
      "eca": 1102,
      "too": 1103,
      "eeb": 1104,
      "eexception": 1105,
      "rel": 1106,
      "blue": 1107,
      "prep": 1108,
      "mem": 1109,
      "dcc": 1110,
      "dcd": 1111,
      "all": 1112,
      "mirand": 1113,
      "afa": 1114,
      "stateexception": 1115,
      "exceptions": 1116,
      "currently": 1117,
      "manhu": 1118,
      "bug": 1119,
      "device": 1120,
      "caught": 1121,
      "illegalstateexception": 1122,
      "mmcs": 1123,
      "youtube": 1124,
      "yahoo": 1125,
      "miranda": 1126,
      "()": 1127,
      "**": 1128,
      "acd": 1129,
      "afc": 1130,
      "bs": 1131,
      "bbc": 1132,
      "bit": 1133,
      "clock": 1134,
      "cle": 1135,
      "cbc": 1136,
      "cable": 1137,
      "grep": 1138,
      "ili": 1139,
      "iti": 1140,
      "ifi": 1141,
      "sram": 1142,
      "swi": 1143,
      "ux": 1144,
      "zhi": 1145,
      "deactiv": 1146,
      "initi": 1147,
      "atar": 1148,
      "chang": 1149,
      "eda": 1150,
      "edd": 1151,
      "abe": 1152,
      "umt": 1153,
      "lio": 1154,
      "meso": 1155,
      "aler": 1156,
      "errors": 1157,
      "fcb": 1158,
      "baa": 1159,
      "ates": 1160,
      "reading": 1161,
      "sohu": 1162,
      "googlesynd": 1163,
      "point": 1164,
      "weixin": 1165,
      "bglio": 1166,
      "stabili": 1167,
      "clear": 1168,
      "switch": 1169,
      "deactivated": 1170,
      "mesos": 1171,
      "googlesyndication": 1172,
      "stability": 1173,
      "bba": 1174,
      "dad": 1175,
      "fec": 1176,
      "fab": 1177,
      "ij": 1178,
      "jar": 1179,
      "pi": 1180,
      "pin": 1181,
      "pgood": 1182,
      "sing": 1183,
      "yin": 1184,
      "yates": 1185,
      "inni": 1186,
      "ecd": 1187,
      "onment": 1188,
      "revalid": 1189,
      "share": 1190,
      "typ": 1191,
      "eae": 1192,
      "rail": 1193,
      "tested": 1194,
      "ection": 1195,
      "ironment": 1196,
      "ook": 1197,
      "clients": 1198,
      "aaa": 1199,
      "mpgood": 1200,
      "while": 1201,
      "perf": 1202,
      "aliz": 1203,
      "doublemax": 1204,
      "environment": 1205,
      "controller": 1206,
      "volt": 1207,
      "cpmd": 1208,
      "ification": 1209,
      "initializ": 1210,
      "pinyin": 1211,
      "innity": 1212,
      "revalidating": 1213,
      "aac": 1214,
      "beck": 1215,
      "bdc": 1216,
      "bda": 1217,
      "bac": 1218,
      "cm": 1219,
      "cbb": 1220,
      "dis": 1221,
      "fdd": 1222,
      "fac": 1223,
      "fae": 1224,
      "gr": 1225,
      "summ": 1226,
      "cent": 1227,
      "orbeck": 1228,
      "ffffff": 1229,
      "aba": 1230,
      "../": 1231,
      "texception": 1232,
      "mana": 1233,
      "dbc": 1234,
      "aca": 1235,
      "bcb": 1236,
      "started": 1237,
      "old": 1238,
      "ance": 1239,
      "avatar": 1240,
      "....................": 1241,
      "bolt": 1242,
      "midplaneswitch": 1243,
      "election": 1244,
      "ytimg": 1245,
      "work": 1246,
      "memory": 1247,
      "manhua": 1248,
      "zhihu": 1249,
      "summary": 1250,
      "manager": 1251,
      "midplaneswitchcontroller": 1252,
      "dce": 1253,
      "dur": 1254,
      "ebf": 1255,
      "fde": 1256,
      "fbb": 1257,
      "gg": 1258,
      "hand": 1259,
      "hpl": 1260,
      "ia": 1261,
      "lp": 1262,
      "lu": 1263,
      "mu": 1264,
      "mdc": 1265,
      "pis": 1266,
      "rce": 1267,
      "rbs": 1268,
      "sle": 1269,
      "ull": 1270,
      "xd": 1271,
      "xx": 1272,
      "ying": 1273,
      "zz": 1274,
      "debug": 1275,
      "cecc": 1276,
      "pred": 1277,
      "fffffff": 1278,
      "ssl": 1279,
      "ast": 1280,
      "ource": 1281,
      "nez": 1282,
      "resh": 1283,
      "str": 1284,
      "eapis": 1285,
      "tech": 1286,
      "ntime": 1287,
      "fef": 1288,
      "mapred": 1289,
      "acf": 1290,
      "bef": 1291,
      "linux": 1292,
      "sock": 1293,
      "gleapis": 1294,
      "googleapis": 1295,
      "runtime": 1296,
      "instance": 1297,
      "trying": 1298,
      "imum": 1299,
      "cnzz": 1300,
      "plus": 1301,
      "maximum": 1302,
      "offset": 1303,
      "eofexception": 1304,
      "single": 1305,
      "initializing": 1306,
      "during": 1307,
      "handler": 1308,
      "mdcask": 1309,
      "/.": 1310,
      "//": 1311,
      "aw": 1312,
      "ame": 1313,
      "aae": 1314,
      "ams": 1315,
      "bce": 1316,
      "bbe": 1317,
      "cas": 1318,
      "cbe": 1319,
      "cbf": 1320,
      "cmc": 1321,
      "dra": 1322,
      "ece": 1323,
      "eba": 1324,
      "ebe": 1325,
      "ebd": 1326,
      "eger": 1327,
      "full": 1328,
      "gq": 1329,
      "gstatic": 1330,
      "lb": 1331,
      "lt": 1332,
      "lli": 1333,
      "rfi": 1334,
      "tw": 1335,
      "tra": 1336,
      "trel": 1337,
      "ulr": 1338,
      "vgq": 1339,
      "deb": 1340,
      "des": 1341,
      "send": 1342,
      "cef": 1343,
      "propo": 1344,
      "asser": 1345,
      "nels": 1346,
      "sta": 1347,
      "sher": 1348,
      "light": 1349,
      "reception": 1350,
      "dca": 1351,
      "cccc": 1352,
      "alyti": 1353,
      "feff": 1354,
      "fca": 1355,
      "mand": 1356,
      "addr": 1357,
      "exe": 1358,
      "caf": 1359,
      "willi": 1360,
      "terminating": 1361,
      "copro": 1362,
      "googleads": 1363,
      "googleusercontent": 1364,
      "analyti": 1365,
      "baidustatic": 1366,
      "pht": 1367,
      "mode": 1368,
      "brdes": 1369,
      "floating": 1370,
      "ike": 1371,
      "tencent": 1372,
      "ggpht": 1373,
      "draeger": 1374,
      "rfisher": 1375,
      "trello": 1376,
      "ulrike": 1377,
      "proposed": 1378,
      "williams": 1379,
      "analytics": 1380,
      "aad": 1381,
      "afe": 1382,
      "bdb": 1383,
      "cba": 1384,
      "cae": 1385,
      "dff": 1386,
      "dfc": 1387,
      "eed": 1388,
      "eab": 1389,
      "esr": 1390,
      "fps": 1391,
      "fbd": 1392,
      "hn": 1393,
      "mon": 1394,
      "mas": 1395,
      "nio": 1396,
      "nect": 1397,
      "pty": 1398,
      "tp": 1399,
      "tcp": 1400,
      "wx": 1401,
      "yan": 1402,
      "zer": 1403,
      "arch": 1404,
      "dea": 1405,
      "dee": 1406,
      "def": 1407,
      "sel": 1408,
      "onnect": 1409,
      "ndm": 1410,
      "abb": 1411,
      "blocks": 1412,
      "ofdir": 1413,
      "steer": 1414,
      "omme": 1415,
      "byinterrup": 1416,
      "ccce": 1417,
      "cccd": 1418,
      "cdndm": 1419,
      "fcac": 1420,
      "daa": 1421,
      "acce": 1422,
      "bae": 1423,
      "cache": 1424,
      "cfd": 1425,
      "empty": 1426,
      "afd": 1427,
      "grammar": 1428,
      "verification": 1429,
      "succe": 1430,
      "msr": 1431,
      "closedbyinterrup": 1432,
      "page": 1433,
      "untested": 1434,
      "ave": 1435,
      "itc": 1436,
      "alicdn": 1437,
      "snapshotting": 1438,
      "oken": 1439,
      "githubusercontent": 1440,
      "...............": 1441,
      "broken": 1442,
      "interrupted": 1443,
      "channels": 1444,
      "reconnect": 1445,
      "bluelight": 1446,
      "changyan": 1447,
      "alert": 1448,
      "lustre": 1449,
      "fpscr": 1450,
      "master": 1451,
      "tcpconn": 1452,
      "zero": 1453,
      "ofdirty": 1454,
      "grammarly": 1455,
      "succeeded": 1456,
      "closedbyinterruptexception": 1457,
      "ale": 1458,
      "ause": 1459,
      "bcd": 1460,
      "bdd": 1461,
      "cat": 1462,
      "cnt": 1463,
      "dl": 1464,
      "dmp": 1465,
      "dstatic": 1466,
      "fba": 1467,
      "humm": 1468,
      "ie": 1469,
      "ishu": 1470,
      "itor": 1471,
      "jeff": 1472,
      "kpt": 1473,
      "knez": 1474,
      "og": 1475,
      "ration": 1476,
      "sl": 1477,
      "sto": 1478,
      "source": 1479,
      "uo": 1480,
      "va": 1481,
      "wcnt": 1482,
      "xl": 1483,
      "xfffff": 1484,
      "you": 1485,
      "ydstatic": 1486,
      "zed": 1487,
      "infer": 1488,
      "cedc": 1489,
      "chkpt": 1490,
      "orter": 1491,
      "ssport": 1492,
      "probl": 1493,
      "thresh": 1494,
      "idoproxy": 1495,
      "news": 1496,
      "eaa": 1497,
      "eam": 1498,
      "ive": 1499,
      "ccdc": 1500,
      "cdfc": 1501,
      "cdbc": 1502,
      "dda": 1503,
      "ddb": 1504,
      "dao": 1505,
      "dbproperties": 1506,
      "iolog": 1507,
      "mit": 1508,
      "bdimg": 1509,
      "operation": 1510,
      "bbb": 1511,
      "aaf": 1512,
      "efdc": 1513,
      "start": 1514,
      "faceb": 1515,
      "wires": 1516,
      "going": 1517,
      "passport": 1518,
      "hui": 1519,
      "xel": 1520,
      "ikuo": 1521,
      "usedatabase": 1522,
      "pixel": 1523,
      "avatars": 1524,
      "lton": 1525,
      "ulrikey": 1526,
      "monitor": 1527,
      "select": 1528,
      "pagead": 1529,
      "auselton": 1530,
      "hummer": 1531,
      "ishuhui": 1532,
      "youdao": 1533,
      "inferno": 1534,
      "problem": 1535,
      "threshold": 1536,
      "facebook": 1537,
      "adec": 1538,
      "bed": 1539,
      "bmi": 1540,
      "bbd": 1541,
      "blog": 1542,
      "cl": 1543,
      "cfe": 1544,
      "cada": 1545,
      "cxx": 1546,
      "dde": 1547,
      "dbl": 1548,
      "dtyp": 1549,
      "ewer": 1550,
      "fad": 1551,
      "fbe": 1552,
      "gm": 1553,
      "hang": 1554,
      "have": 1555,
      "imp": 1556,
      "ky": 1557,
      "pic": 1558,
      "pur": 1559,
      "same": 1560,
      "team": 1561,
      "ul": 1562,
      "wr": 1563,
      "win": 1564,
      "ffca": 1565,
      "descr": 1566,
      "devel": 1567,
      "secu": 1568,
      "search": 1569,
      "non": 1570,
      "cebc": 1571,
      "cecb": 1572,
      "attem": 1573,
      "edge": 1574,
      "iptor": 1575,
      "asic": 1576,
      "tomand": 1577,
      "eeno": 1578,
      "form": 1579,
      "abf": 1580,
      "ste": 1581,
      "prefi": 1582,
      "limit": 1583,
      "eaf": 1584,
      "timed": 1585,
      "ccfc": 1586,
      "fetch": 1587,
      "......": 1588,
      "ddd": 1589,
      "ddf": 1590,
      "ddbc": 1591,
      "may": 1592,
      "dae": 1593,
      "dahn": 1594,
      "bcf": 1595,
      "exec": 1596,
      "bench": 1597,
      "bfdc": 1598,
      "ciostream": 1599,
      "caa": 1600,
      "cacc": 1601,
      "cfa": 1602,
      "opening": 1603,
      "lines": 1604,
      "gemini": 1605,
      "efcd": 1606,
      "mapfile": 1607,
      "store": 1608,
      "replication": 1609,
      "sods": 1610,
      "dsmc": 1611,
      "pap": 1612,
      "caling": 1613,
      "caltech": 1614,
      "antyp": 1615,
      "nfs": 1616,
      ".................": 1617,
      "viewer": 1618,
      "plb": 1619,
      "pos": 1620,
      "ller": 1621,
      "play": 1622,
      "shock": 1623,
      "writer": 1624,
      "mance": 1625,
      "performance": 1626,
      "buber": 1627,
      "sinajs": 1628,
      ".............": 1629,
      "complete": 1630,
      "mark": 1631,
      "parityalignment": 1632,
      ".........................": 1633,
      "channel": 1634,
      "tenmax": 1635,
      "bluegene": 1636,
      "disable": 1637,
      "greeno": 1638,
      "socks": 1639,
      "assert": 1640,
      "stack": 1641,
      "steering": 1642,
      "access": 1643,
      "bmiller": 1644,
      "teamviewer": 1645,
      "descriptor": 1646,
      "attempt": 1647,
      "tomandjeff": 1648,
      "prefix": 1649,
      "benchmark": 1650,
      "sodscaling": 1651,
      "antypas": 1652,
      "=/": 1653,
      "ag": 1654,
      "au": 1655,
      "ado": 1656,
      "cj": 1657,
      "cpro": 1658,
      "cdec": 1659,
      "dup": 1660,
      "ebb": 1661,
      "emap": 1662,
      "fbf": 1663,
      "hm": 1664,
      "hw": 1665,
      "homme": 1666,
      "iwhich": 1667,
      "jul": 1668,
      "last": 1669,
      "md": 1670,
      "mm": 1671,
      "mook": 1672,
      "pk": 1673,
      "ping": 1674,
      "pub": 1675,
      "pwr": 1676,
      "rky": 1677,
      "sca": 1678,
      "scat": 1679,
      "tdown": 1680,
      "wa": 1681,
      "xt": 1682,
      "xue": 1683,
      "yt": 1684,
      "ffer": 1685,
      "ffbc": 1686,
      "dedc": 1687,
      "setting": 1688,
      "nos": 1689,
      "cece": 1690,
      "cardsto": 1691,
      "ecb": 1692,
      "ffffc": 1693,
      "serving": 1694,
      "ndy": 1695,
      "blockinfo": 1696,
      "sync": 1697,
      "retrying": 1698,
      "tten": 1699,
      "umemap": 1700,
      "prefetch": 1701,
      "shutdown": 1702,
      "live": 1703,
      "meta": 1704,
      "text": 1705,
      "ral": 1706,
      "letest": 1707,
      "dcf": 1708,
      "dcfc": 1709,
      "feb": 1710,
      "cddc": 1711,
      "cdac": 1712,
      "daf": 1713,
      "confi": 1714,
      "acdc": 1715,
      "clou": 1716,
      "bel": 1717,
      "ben": 1718,
      "bdstatic": 1719,
      "efdf": 1720,
      ".........": 1721,
      "romio": 1722,
      "supp": 1723,
      "fdfc": 1724,
      "crc": 1725,
      "ild": 1726,
      "update": 1727,
      "pack": 1728,
      "fbcdn": 1729,
      "quant": 1730,
      "uncorrectable": 1731,
      "testing": 1732,
      "tsch": 1733,
      "userfunc": 1734,
      "icating": 1735,
      "apc": 1736,
      "app": 1737,
      "serverdb": 1738,
      "..................": 1739,
      "tri": 1740,
      "ages": 1741,
      "bertsch": 1742,
      "caca": 1743,
      "ition": 1744,
      "soft": 1745,
      "lla": 1746,
      "written": 1747,
      "buffer": 1748,
      "mgr": 1749,
      "miniben": 1750,
      "mod": 1751,
      "communicating": 1752,
      "ppc": 1753,
      "csdnimg": 1754,
      "xffffc": 1755,
      "...........................": 1756,
      "volumemap": 1757,
      "****": 1758,
      "changing": 1759,
      "mundy": 1760,
      "sles": 1761,
      "slept": 1762,
      "debugger": 1763,
      "feffed": 1764,
      "orters": 1765,
      "idoproxydb": 1766,
      "format": 1767,
      "stella": 1768,
      "adobe": 1769,
      "cjmundy": 1770,
      "iwhichcardsto": 1771,
      "mookie": 1772,
      "pwroff": 1773,
      "scaletest": 1774,
      "scatter": 1775,
      "xueshu": 1776,
      "config": 1777,
      "supporters": 1778,
      "iwhichcardstopwroff": 1779,
      "/)": 1780,
      "/../": 1781,
      "==": 1782,
      "ama": 1783,
      "aver": 1784,
      "bis": 1785,
      "bffc": 1786,
      "cff": 1787,
      "css": 1788,
      "cbd": 1789,
      "cbfb": 1790,
      "cabc": 1791,
      "di": 1792,
      "dfe": 1793,
      "dcec": 1794,
      "ddec": 1795,
      "ewe": 1796,
      "eue": 1797,
      "essl": 1798,
      "fm": 1799,
      "fp": 1800,
      "fed": 1801,
      "fir": 1802,
      "faa": 1803,
      "fcec": 1804,
      "flow": 1805,
      "gge": 1806,
      "hne": 1807,
      "if": 1808,
      "jp": 1809,
      "ject": 1810,
      "jgh": 1811,
      "ku": 1812,
      "kmap": 1813,
      "lco": 1814,
      "mps": 1815,
      "os": 1816,
      "oba": 1817,
      "pu": 1818,
      "qbox": 1819,
      "rt": 1820,
      "tun": 1821,
      "table": 1822,
      "tue": 1823,
      "taddr": 1824,
      "ush": 1825,
      "uve": 1826,
      "vt": 1827,
      "vx": 1828,
      "ws": 1829,
      "web": 1830,
      "word": 1831,
      "xbf": 1832,
      "xaa": 1833,
      "xhpl": 1834,
      "yun": 1835,
      "ffdc": 1836,
      "fffc": 1837,
      "ffac": 1838,
      "decd": 1839,
      "deac": 1840,
      "ses": 1841,
      "sene": 1842,
      "sets": 1843,
      "incomplete": 1844,
      "location": 1845,
      "loewe": 1846,
      "ong": 1847,
      "serve": 1848,
      "pare": 1849,
      "services": 1850,
      "nding": 1851,
      "notification": 1852,
      "pending": 1853,
      "rever": 1854,
      "addc": 1855,
      "adcc": 1856,
      "adac": 1857,
      "adbc": 1858,
      "stion": 1859,
      "idos": 1860,
      "idochip": 1861,
      "partad": 1862,
      "tel": 1863,
      "rain": 1864,
      "hkg": 1865,
      "timg": 1866,
      "iver": 1867,
      "dcb": 1868,
      "dccc": 1869,
      "cccb": 1870,
      "compare": 1871,
      "fcmatch": 1872,
      "fcbe": 1873,
      "maj": 1874,
      "dbb": 1875,
      "dbf": 1876,
      "baker": 1877,
      "bca": 1878,
      "sic": 1879,
      "ector": 1880,
      "bfec": 1881,
      "linpack": 1882,
      "efec": 1883,
      "efea": 1884,
      "efcc": 1885,
      "efda": 1886,
      "ready": 1887,
      "replicas": 1888,
      "sod": 1889,
      "dsp": 1890,
      "vers": 1891,
      "minus": 1892,
      "sugge": 1893,
      "bglidochip": 1894,
      "ill": 1895,
      "-->": 1896,
      "queue": 1897,
      "under": 1898,
      "unrec": 1899,
      "testqbox": 1900,
      "anx": 1901,
      "avd": 1902,
      "apis": 1903,
      "count": 1904,
      "...................": 1905,
      "bota": 1906,
      "nized": 1907,
      "fccc": 1908,
      "taoba": 1909,
      "treeaddr": 1910,
      "pose": 1911,
      "drive": 1912,
      "ality": 1913,
      "welco": 1914,
      "linear": 1915,
      "hack": 1916,
      "media": 1917,
      "microsoft": 1918,
      "://": 1919,
      "knl": 1920,
      "cdcc": 1921,
      "solvers": 1922,
      "sogoucdn": 1923,
      "flush": 1924,
      "cpu": 1925,
      "fdfa": 1926,
      "bro": 1927,
      "pping": 1928,
      "beap": 1929,
      "unexpectedly": 1930,
      "mailbox": 1931,
      "alerts": 1932,
      ".....................": 1933,
      "strong": 1934,
      "fully": 1935,
      "fulltest": 1936,
      "trace": 1937,
      "vgqsene": 1938,
      "dcache": 1939,
      "tpc": 1940,
      "ofdirtydbl": 1941,
      "ofdirtylines": 1942,
      "ognized": 1943,
      "purpose": 1944,
      "windo": 1945,
      "develf": 1946,
      "secure": 1947,
      "replicationmonitor": 1948,
      "nosdn": 1949,
      "quantserve": 1950,
      "averages": 1951,
      "first": 1952,
      "kubota": 1953,
      "tuned": 1954,
      "taddriver": 1955,
      "yunsic": 1956,
      "pendingreplicationmonitor": 1957,
      "reverse": 1958,
      "suggestion": 1959,
      "unrecognized": 1960,
      "taobao": 1961,
      "welcome": 1962,
      "vgqsenes": 1963,
      "ofdirtydblword": 1964,
      ")........................": 1965,
      "acec": 1966,
      "bp": 1967,
      "bri": 1968,
      "ci": 1969,
      "cv": 1970,
      "cid": 1971,
      "cadc": 1972,
      "dm": 1973,
      "dp": 1974,
      "dpm": 1975,
      "dition": 1976,
      "ep": 1977,
      "eas": 1978,
      "ead": 1979,
      "efff": 1980,
      "effb": 1981,
      "effa": 1982,
      "eedc": 1983,
      "fg": 1984,
      "fr": 1985,
      "fon": 1986,
      "faf": 1987,
      "fls": 1988,
      "fced": 1989,
      "fresh": 1990,
      "gra": 1991,
      "gate": 1992,
      "gvt": 1993,
      "ho": 1994,
      "hy": 1995,
      "ibl": 1996,
      "ile": 1997,
      "ian": 1998,
      "jag": 1999,
      "kit": 2000,
      "lare": 2001,
      "mf": 2002,
      "mba": 2003,
      "mtal": 2004,
      "nk": 2005,
      "nl": 2006,
      "oc": 2007,
      "ot": 2008,
      "own": 2009,
      "oima": 2010,
      "pch": 2011,
      "pas": 2012,
      "pth": 2013,
      "pcount": 2014,
      "qb": 2015,
      "round": 2016,
      "rma": 2017,
      "sm": 2018,
      "scli": 2019,
      "tc": 2020,
      "tin": 2021,
      "tur": 2022,
      "tlb": 2023,
      "tva": 2024,
      "uba": 2025,
      "uation": 2026,
      "ues": 2027,
      "wid": 2028,
      "xda": 2029,
      "xbb": 2030,
      "xfa": 2031,
      "yu": 2032,
      "yread": 2033,
      "ygi": 2034,
      "zon": 2035,
      "ffcc": 2036,
      "fffe": 2037,
      "ffcd": 2038,
      "ffae": 2039,
      "aren": 2040,
      "arale": 2041,
      "dede": 2042,
      "decc": 2043,
      "dedd": 2044,
      "debc": 2045,
      "deve": 2046,
      "depth": 2047,
      "sequ": 2048,
      "inex": 2049,
      "norma": 2050,
      "cedd": 2051,
      "cefc": 2052,
      "ceac": 2053,
      "cebf": 2054,
      "atta": 2055,
      "char": 2056,
      "chat": 2057,
      "chment": 2058,
      "child": 2059,
      "chown": 2060,
      "order": 2061,
      "doct": 2062,
      "lop": 2063,
      "logo": 2064,
      "ffffca": 2065,
      "edn": 2066,
      "ipv": 2067,
      "asia": 2068,
      "assets": 2069,
      "eeec": 2070,
      "parmd": 2071,
      "ndir": 2072,
      "ndwid": 2073,
      "fffffe": 2074,
      "thunder": 2075,
      "ckpt": 2076,
      "abcc": 2077,
      "abfc": 2078,
      "abac": 2079,
      "refresh": 2080,
      "ers": 2081,
      "ttime": 2082,
      "adfc": 2083,
      "stir": 2084,
      "short": 2085,
      "ump": 2086,
      "pression": 2087,
      "presta": 2088,
      "typekit": 2089,
      "lit": 2090,
      "lized": 2091,
      "rack": 2092,
      "byte": 2093,
      "allr": 2094,
      "already": 2095,
      "errstr": 2096,
      "command": 2097,
      ".....": 2098,
      ".......": 2099,
      "ddfc": 2100,
      "fcde": 2101,
      "fcce": 2102,
      "fcdc": 2103,
      "fcbc": 2104,
      "main": 2105,
      "dace": 2106,
      "dacb": 2107,
      "condition": 2108,
      "contin": 2109,
      "dbd": 2110,
      "dbe": 2111,
      "dbg": 2112,
      "dfed": 2113,
      "dfbc": 2114,
      "iostate": 2115,
      "acac": 2116,
      "acbc": 2117,
      "baf": 2118,
      "bandwid": 2119,
      "simba": 2120,
      "educe": 2121,
      "expression": 2122,
      "beb": 2123,
      "bfea": 2124,
      "bfbb": 2125,
      "caec": 2126,
      "cacd": 2127,
      "cafc": 2128,
      "capt": 2129,
      "cfb": 2130,
      "geo": 2131,
      "getting": 2132,
      "getel": 2133,
      "efde": 2134,
      "efce": 2135,
      "efee": 2136,
      "efdd": 2137,
      "efbc": 2138,
      "efbf": 2139,
      "cbea": 2140,
      "hit": 2141,
      "hiclou": 2142,
      "verif": 2143,
      "gov": 2144,
      "processes": 2145,
      "bglmaster": 2146,
      "overflow": 2147,
      "pan": 2148,
      "papi": 2149,
      "fbbc": 2150,
      "percl": 2151,
      "googletag": 2152,
      "unable": 2153,
      "failure": 2154,
      "general": 2155,
      "generating": 2156,
      "codes": 2157,
      "rundir": 2158,
      "spec": 2159,
      "split": 2160,
      "network": 2161,
      "mpich": 2162,
      "................................": 2163,
      "ddcc": 2164,
      "impr": 2165,
      "vicar": 2166,
      "niel": 2167,
      "rich": 2168,
      "cacf": 2169,
      "fccf": 2170,
      "creat": 2171,
      "mcmm": 2172,
      "sign": 2173,
      "efca": 2174,
      "efcb": 2175,
      "efcf": 2176,
      "fcda": 2177,
      "fcdd": 2178,
      "llnl": 2179,
      "fceb": 2180,
      "fcee": 2181,
      "reduce": 2182,
      "activating": 2183,
      "ubmcmm": 2184,
      "bfeb": 2185,
      "efef": 2186,
      "amd": 2187,
      "biz": 2188,
      "githuba": 2189,
      "jtagid": 2190,
      "cpc": 2191,
      "cpp": 2192,
      "contention": 2193,
      "contentrec": 2194,
      "gnu": 2195,
      "..............": 2196,
      "beca": 2197,
      "fdcc": 2198,
      "resource": 2199,
      "eland": 2200,
      "streamtri": 2201,
      "flopcount": 2202,
      "collector": 2203,
      "cabf": 2204,
      "cabot": 2205,
      "manhuaren": 2206,
      "fffffffc": 2207,
      ".......................": 2208,
      "socke": 2209,
      "aws": 2210,
      "vgqs": 2211,
      "sending": 2212,
      "assertion": 2213,
      "bdbb": 2214,
      "ommend": 2215,
      "xfffffe": 2216,
      "fady": 2217,
      "gmt": 2218,
      "accessibl": 2219,
      "hwstab": 2220,
      "hommes": 2221,
      "pubads": 2222,
      "belnez": 2223,
      "modu": 2224,
      "amazon": 2225,
      "notifications": 2226,
      "major": 2227,
      "testqboxhang": 2228,
      "windows": 2229,
      "brian": 2230,
      "cidian": 2231,
      "epstreamtri": 2232,
      "easyread": 2233,
      "fgygi": 2234,
      "fonts": 2235,
      "host": 2236,
      "hypercl": 2237,
      "mtalk": 2238,
      "oimag": 2239,
      "pchome": 2240,
      "pasci": 2241,
      "sclick": 2242,
      "aralego": 2243,
      "develop": 2244,
      "inexact": 2245,
      "normalized": 2246,
      "attachment": 2247,
      "doctor": 2248,
      "allreduce": 2249,
      "continuation": 2250,
      "bandwidth": 2251,
      "capture": 2252,
      "hicloud": 2253,
      "verify": 2254,
      "nielsen": 2255,
      "githubapp": 2256,
      "contentrecommend": 2257,
      "flopcounters": 2258,
      "accessible": 2259,
      "amazonaws": 2260,
      "epstreamtriad": 2261,
      "hyperclaw": 2262,
      "):": 2263,
      ")...": 2264,
      "*)": 2265,
      "aff": 2266,
      "ail": 2267,
      "accc": 2268,
      "aada": 2269,
      "aadc": 2270,
      "bh": 2271,
      "bj": 2272,
      "bip": 2273,
      "bid": 2274,
      "bab": 2275,
      "base": 2276,
      "brand": 2277,
      "bffe": 2278,
      "bcec": 2279,
      "bffd": 2280,
      "badc": 2281,
      "bdec": 2282,
      "babc": 2283,
      "brain": 2284,
      "csi": 2285,
      "ccec": 2286,
      "cpes": 2287,
      "caeb": 2288,
      "cabd": 2289,
      "dw": 2290,
      "dab": 2291,
      "div": 2292,
      "due": 2293,
      "dabc": 2294,
      "ek": 2295,
      "ever": 2296,
      "effe": 2297,
      "effc": 2298,
      "effd": 2299,
      "fo": 2300,
      "fadc": 2301,
      "gs": 2302,
      "gt": 2303,
      "gu": 2304,
      "gbgl": 2305,
      "han": 2306,
      "ib": 2307,
      "iz": 2308,
      "ide": 2309,
      "ise": 2310,
      "iss": 2311,
      "ite": 2312,
      "iap": 2313,
      "ies": 2314,
      "jni": 2315,
      "ke": 2316,
      "kk": 2317,
      "kne": 2318,
      "kdc": 2319,
      "ken": 2320,
      "knel": 2321,
      "kcdn": 2322,
      "lh": 2323,
      "lac": 2324,
      "late": 2325,
      "lapa": 2326,
      "mde": 2327,
      "ming": 2328,
      "mer": 2329,
      "mob": 2330,
      "mdn": 2331,
      "nx": 2332,
      "nee": 2333,
      "ode": 2334,
      "oimage": 2335,
      "odr": 2336,
      "pps": 2337,
      "qa": 2338,
      "qi": 2339,
      "qs": 2340,
      "qx": 2341,
      "qhi": 2342,
      "qpic": 2343,
      "qlogo": 2344,
      "rm": 2345,
      "ro": 2346,
      "rw": 2347,
      "rss": 2348,
      "ring": 2349,
      "rome": 2350,
      "rta": 2351,
      "rflo": 2352,
      "sb": 2353,
      "sch": 2354,
      "son": 2355,
      "smi": 2356,
      "spa": 2357,
      "score": 2358,
      "ssen": 2359,
      "sam": 2360,
      "safe": 2361,
      "sorter": 2362,
      "tz": 2363,
      "twi": 2364,
      "tanx": 2365,
      "ui": 2366,
      "uch": 2367,
      "una": 2368,
      "ubgl": 2369,
      "vr": 2370,
      "ving": 2371,
      "vis": 2372,
      "vatar": 2373,
      "wal": 2374,
      "wsing": 2375,
      "xad": 2376,
      "xfc": 2377,
      "xca": 2378,
      "xef": 2379,
      "xaf": 2380,
      "yx": 2381,
      "yms": 2382,
      "yes": 2383,
      "ybp": 2384,
      "zkcdn": 2385,
      "fft": 2386,
      "ffde": 2387,
      "ffce": 2388,
      "ffec": 2389,
      "ffab": 2390,
      "ffda": 2391,
      "ffdb": 2392,
      "ffadd": 2393,
      "ffcf": 2394,
      "ffbb": 2395,
      "ffcb": 2396,
      "ffbfb": 2397,
      "ffaeb": 2398,
      "ffafb": 2399,
      "ffafa": 2400,
      "ared": 2401,
      "arty": 2402,
      "aril": 2403,
      "aran": 2404,
      "dece": 2405,
      "deec": 2406,
      "deed": 2407,
      "defc": 2408,
      "demo": 2409,
      "debcc": 2410,
      "demde": 2411,
      "sever": 2412,
      "seille": 2413,
      "seek": 2414,
      "inte": 2415,
      "init": 2416,
      "inity": 2417,
      "noio": 2418,
      "nosl": 2419,
      "ceec": 2420,
      "ceab": 2421,
      "cecd": 2422,
      "cedb": 2423,
      "cebd": 2424,
      "cecf": 2425,
      "ceeb": 2426,
      "cards": 2427,
      "cardre": 2428,
      "atic": 2429,
      "atanx": 2430,
      "cham": 2431,
      "chmod": 2432,
      "ecce": 2433,
      "ecbc": 2434,
      "ecdn": 2435,
      "ecise": 2436,
      "lost": 2437,
      "local": 2438,
      "edde": 2439,
      "edfc": 2440,
      "edump": 2441,
      "iple": 2442,
      "ssp": 2443,
      "project": 2444,
      "tool": 2445,
      "token": 2446,
      "touch": 2447,
      "outexception": 2448,
      "ctl": 2449,
      "ctapp": 2450,
      "eebea": 2451,
      "parame": 2452,
      "ioni": 2453,
      "servicemailbox": 2454,
      "servicenetwork": 2455,
      "note": 2456,
      "ther": 2457,
      "ckap": 2458,
      "neos": 2459,
      "force": 2460,
      "abec": 2461,
      "abdc": 2462,
      "abdb": 2463,
      "abbc": 2464,
      "abled": 2465,
      "peop": 2466,
      "reopen": 2467,
      "restarting": 2468,
      "remo": 2469,
      "ery": 2470,
      "erist": 2471,
      "tter": 2472,
      "adv": 2473,
      "adbe": 2474,
      "adsr": 2475,
      "admaster": 2476,
      "adnx": 2477,
      "blac": 2478,
      "still": 2479,
      "shared": 2480,
      "idotrans": 2481,
      "idoclient": 2482,
      "idoms": 2483,
      "idomar": 2484,
      "newma": 2485,
      "partition": 2486,
      "present": 2487,
      "preqx": 2488,
      "download": 2489,
      "mekn": 2490,
      "meam": 2491,
      "messen": 2492,
      "eaae": 2493,
      "teed": 2494,
      "tension": 2495,
      "rai": 2496,
      "bffffa": 2497,
      "bffffd": 2498,
      "ivecdn": 2499,
      "receivet": 2500,
      "dcdc": 2501,
      "dcdd": 2502,
      "dcac": 2503,
      "dcbc": 2504,
      "dcbf": 2505,
      "dcount": 2506,
      "dcode": 2507,
      "ccdd": 2508,
      "ccda": 2509,
      "ccba": 2510,
      "ccbf": 2511,
      "errhan": 2512,
      "comms": 2513,
      "feffff": 2514,
      "fefffff": 2515,
      "fefe": 2516,
      "febc": 2517,
      "febf": 2518,
      "fefab": 2519,
      "cdadc": 2520,
      "cdfffe": 2521,
      "ddff": 2522,
      "dddc": 2523,
      "ddmd": 2524,
      "fcff": 2525,
      "fcab": 2526,
      "fcfc": 2527,
      "fcbf": 2528,
      "fcaf": 2529,
      "fcffe": 2530,
      "fcbea": 2531,
      "daec": 2532,
      "dacc": 2533,
      "dacd": 2534,
      "dafc": 2535,
      "daac": 2536,
      "conc": 2537,
      "consi": 2538,
      "conso": 2539,
      "conproject": 2540,
      "dba": 2541,
      "dbfd": 2542,
      "dfa": 2543,
      "dfb": 2544,
      "dfcc": 2545,
      "acfc": 2546,
      "acbf": 2547,
      "acbb": 2548,
      "cus": 2549,
      "cupps": 2550,
      "baab": 2551,
      "baac": 2552,
      "baij": 2553,
      "bank": 2554,
      "bayms": 2555,
      "bcdc": 2556,
      "bcast": 2557,
      "addthis": 2558,
      "exter": 2559,
      "exchan": 2560,
      "extension": 2561,
      "beab": 2562,
      "bebd": 2563,
      "aefe": 2564,
      "bfed": 2565,
      "bfee": 2566,
      "bfdea": 2567,
      "ential": 2568,
      "fier": 2569,
      "fiel": 2570,
      "bdab": 2571,
      "caee": 2572,
      "caac": 2573,
      "camo": 2574,
      "capi": 2575,
      "cfaf": 2576,
      "dedreplication": 2577,
      "bbde": 2578,
      "bbab": 2579,
      "bbac": 2580,
      "clientservices": 2581,
      "linadv": 2582,
      "outs": 2583,
      "output": 2584,
      "outbrain": 2585,
      "coredump": 2586,
      "aaac": 2587,
      "efed": 2588,
      "efdb": 2589,
      "efac": 2590,
      "efbe": 2591,
      "efbd": 2592,
      "efbb": 2593,
      "efaa": 2594,
      "efccb": 2595,
      "efaea": 2596,
      "efdcd": 2597,
      "afbb": 2598,
      "after": 2599,
      "cbec": 2600,
      "cbdc": 2601,
      "cbcc": 2602,
      "cbfc": 2603,
      "cbac": 2604,
      "mapfiles": 2605,
      "repub": 2606,
      "replac": 2607,
      "storage": 2608,
      "detail": 2609,
      "face": 2610,
      "faec": 2611,
      "fafc": 2612,
      "...........": 2613,
      "ters": 2614,
      "ebee": 2615,
      "ebea": 2616,
      "ebda": 2617,
      "ebdb": 2618,
      "suite": 2619,
      "fdff": 2620,
      "fddc": 2621,
      "msn": 2622,
      "sockets": 2623,
      "bglerr": 2624,
      "bglcode": 2625,
      "ilable": 2626,
      "fbab": 2627,
      "fbac": 2628,
      "fbba": 2629,
      "person": 2630,
      "stats": 2631,
      "quality": 2632,
      "query": 2633,
      "loguser": 2634,
      "olar": 2635,
      "oldcode": 2636,
      "uni": 2637,
      "uncate": 2638,
      "unsign": 2639,
      "testsuite": 2640,
      "feaf": 2641,
      "ncy": 2642,
      "ddrsize": 2643,
      "rubi": 2644,
      "ics": 2645,
      "avp": 2646,
      "allocation": 2647,
      "ctrs": 2648,
      "............................": 2649,
      "edea": 2650,
      "edef": 2651,
      "truncate": 2652,
      "upload": 2653,
      "bos": 2654,
      "enabled": 2655,
      "temporaril": 2656,
      "senee": 2657,
      "fccff": 2658,
      "fccbf": 2659,
      "object": 2660,
      "symbols": 2661,
      "efcfc": 2662,
      "efcbc": 2663,
      "efcbd": 2664,
      "efcfd": 2665,
      "softw": 2666,
      "url": 2667,
      "uration": 2668,
      "ffbff": 2669,
      "ffbdf": 2670,
      "curioni": 2671,
      "fcdb": 2672,
      "fcdf": 2673,
      "fcdbf": 2674,
      "llap": 2675,
      "imgur": 2676,
      "acterist": 2677,
      "bmatic": 2678,
      "shots": 2679,
      "ddcmdgbgl": 2680,
      "fcea": 2681,
      "fcef": 2682,
      "fcebd": 2683,
      "fcecb": 2684,
      "hao": 2685,
      "infinity": 2686,
      "microad": 2687,
      "dropboxapi": 2688,
      "adcast": 2689,
      "efeb": 2690,
      "csar": 2691,
      "declare": 2692,
      "edrams": 2693,
      "dns": 2694,
      "build": 2695,
      "eecc": 2696,
      "glob": 2697,
      "gnar": 2698,
      "portmgr": 2699,
      "runs": 2700,
      "aeac": 2701,
      "mart": 2702,
      "marseille": 2703,
      "bdirect": 2704,
      "beacon": 2705,
      "xffffb": 2706,
      "xffffff": 2707,
      "xfffffff": 2708,
      "next": 2709,
      "ounts": 2710,
      "accounts": 2711,
      "ffaaa": 2712,
      "caused": 2713,
      "aaba": 2714,
      "float": 2715,
      "cabe": 2716,
      "syndrome": 2717,
      "enableflush": 2718,
      "bdfa": 2719,
      "fbca": 2720,
      "wordcount": 2721,
      "grepa": 2722,
      "grepb": 2723,
      "zhimg": 2724,
      "central": 2725,
      "......................": 2726,
      "iahao": 2727,
      "mult": 2728,
      "strip": 2729,
      "bcebos": 2730,
      "vgqsenee": 2731,
      "ulriketests": 2732,
      "hnedn": 2733,
      "zerobyte": 2734,
      "ogs": 2735,
      "slf": 2736,
      "stopping": 2737,
      "vailable": 2738,
      "problems": 2739,
      "clg": 2740,
      "dblp": 2741,
      "hangouts": 2742,
      "impservice": 2743,
      "purge": 2744,
      "winerr": 2745,
      "securepub": 2746,
      "stackoverflow": 2747,
      "stackexchan": 2748,
      "agkn": 2749,
      "aug": 2750,
      "pkt": 2751,
      "pubs": 2752,
      "way": 2753,
      "wait": 2754,
      "cloudf": 2755,
      "beln": 2756,
      "efdfd": 2757,
      "trier": 2758,
      "adobelogin": 2759,
      "configuration": 2760,
      "/../../": 2761,
      "dictapp": 2762,
      "pubmatic": 2763,
      "browsing": 2764,
      "broadcast": 2765,
      "mailboxmonitor": 2766,
      "cvs": 2767,
      "fraction": 2768,
      "gravatar": 2769,
      "gateway": 2770,
      "ocsp": 2771,
      "small": 2772,
      "turbdirect": 2773,
      "tvax": 2774,
      "yuedu": 2775,
      "sequential": 2776,
      "characterist": 2777,
      "ordered": 2778,
      "parmdg": 2779,
      "ttimeoutexception": 2780,
      "stirturbdirect": 2781,
      "panic": 2782,
      "googletagmanager": 2783,
      "special": 2784,
      "imprecise": 2785,
      "creativecdn": 2786,
      "sockettimeoutexception": 2787,
      "vgqskn": 2788,
      "gmtdmp": 2789,
      "module": 2790,
      "oimagea": 2791,
      "biparty": 2792,
      "bidswitch": 2793,
      "evernote": 2794,
      "focus": 2795,
      "gtms": 2796,
      "guaran": 2797,
      "issues": 2798,
      "kdcl": 2799,
      "latency": 2800,
      "lapack": 2801,
      "mobile": 2802,
      "neededreplication": 2803,
      "oimageb": 2804,
      "qhimg": 2805,
      "rtax": 2806,
      "rflomp": 2807,
      "scholar": 2808,
      "smith": 2809,
      "space": 2810,
      "scorecardre": 2811,
      "samrai": 2812,
      "safebrowsing": 2813,
      "tzyx": 2814,
      "twitter": 2815,
      "unavailable": 2816,
      "visus": 2817,
      "walk": 2818,
      "demdex": 2819,
      "severed": 2820,
      "nosleep": 2821,
      "tools": 2822,
      "parameters": 2823,
      "servicemailboxes": 2824,
      "servicenetworkcharacterist": 2825,
      "ckapfer": 2826,
      "neosmart": 2827,
      "people": 2828,
      "removing": 2829,
      "adsrvr": 2830,
      "adnxs": 2831,
      "blacs": 2832,
      "idotransportmgr": 2833,
      "idoclientmgr": 2834,
      "idomarsh": 2835,
      "newmaps": 2836,
      "mekned": 2837,
      "messenger": 2838,
      "receivetrain": 2839,
      "fefefeff": 2840,
      "consider": 2841,
      "console": 2842,
      "baijiahao": 2843,
      "baymsgr": 2844,
      "external": 2845,
      "fields": 2846,
      "replacing": 2847,
      "detailed": 2848,
      "personality": 2849,
      "loguserinfo": 2850,
      "unsigned": 2851,
      "rubiconproject": 2852,
      "temporarily": 2853,
      "software": 2854,
      "ddcmdgbglv": 2855,
      "declareservicenetworkcharacterist": 2856,
      "marseillebgl": 2857,
      "multiple": 2858,
      "zerobytebug": 2859,
      "securepubads": 2860,
      "stackexchange": 2861,
      "bipartyz": 2862,
      "guaranteed": 2863,
      "neededreplications": 2864,
      "scorecardresearch": 2865,
      "declareservicenetworkcharacteristics": 2866,
      "!(": 2867,
      "&)": 2868,
      "&,": 2869,
      ")'": 2870,
      ")...........................": 2871,
      ").......": 2872,
      ").......................": 2873,
      ")......................": 2874,
      "*,": 2875,
      "*&)": 2876,
      "->": 2877,
      "/./": 2878,
      "=<": 2879,
      "=!(": 2880,
      "?/": 2881,
      "ak": 2882,
      "ao": 2883,
      "ay": 2884,
      "ass": 2885,
      "aeee": 2886,
      "aim": 2887,
      "affd": 2888,
      "aman": 2889,
      "aedc": 2890,
      "acda": 2891,
      "aabc": 2892,
      "agent": 2893,
      "aux": 2894,
      "agg": 2895,
      "afffffff": 2896,
      "bt": 2897,
      "batch": 2898,
      "bne": 2899,
      "bio": 2900,
      "bbf": 2901,
      "bus": 2902,
      "bfff": 2903,
      "bffb": 2904,
      "bedc": 2905,
      "bcda": 2906,
      "bccb": 2907,
      "bacb": 2908,
      "bates": 2909,
      "bdbc": 2910,
      "btrace": 2911,
      "cw": 2912,
      "cgi": 2913,
      "cadb": 2914,
      "cffea": 2915,
      "ctools": 2916,
      "dg": 2917,
      "dh": 2918,
      "dj": 2919,
      "dk": 2920,
      "dpar": 2921,
      "dsh": 2922,
      "dna": 2923,
      "dge": 2924,
      "dram": 2925,
      "dtr": 2926,
      "dline": 2927,
      "dffc": 2928,
      "dffd": 2929,
      "dada": 2930,
      "dadf": 2931,
      "dfcf": 2932,
      "dabd": 2933,
      "dfffffff": 2934,
      "dlb": 2935,
      "dabb": 2936,
      "dpic": 2937,
      "dabf": 2938,
      "dump": 2939,
      "eld": 2940,
      "eadf": 2941,
      "eabc": 2942,
      "ecee": 2943,
      "ebfa": 2944,
      "eabd": 2945,
      "estart": 2946,
      "ether": 2947,
      "fs": 2948,
      "fin": 2949,
      "fre": 2950,
      "ftest": 2951,
      "fur": 2952,
      "fdec": 2953,
      "fedc": 2954,
      "fbfb": 2955,
      "ftests": 2956,
      "fabc": 2957,
      "fecc": 2958,
      "faef": 2959,
      "fafa": 2960,
      "fbef": 2961,
      "fchown": 2962,
      "fchmod": 2963,
      "ftruncate": 2964,
      "gd": 2965,
      "gp": 2966,
      "gin": 2967,
      "ged": 2968,
      "gto": 2969,
      "gid": 2970,
      "gice": 2971,
      "ging": 2972,
      "gum": 2973,
      "gcc": 2974,
      "gun": 2975,
      "gapps": 2976,
      "gath": 2977,
      "gmail": 2978,
      "game": 2979,
      "gtimg": 2980,
      "gctl": 2981,
      "hd": 2982,
      "hj": 2983,
      "har": 2984,
      "hpd": 2985,
      "hid": 2986,
      "hstatic": 2987,
      "hpm": 2988,
      "hres": 2989,
      "hel": 2990,
      "hfm": 2991,
      "ix": 2992,
      "ior": 2993,
      "ited": 2994,
      "ish": 2995,
      "ife": 2996,
      "ieee": 2997,
      "icb": 2998,
      "iting": 2999,
      "iet": 3000,
      "iwi": 3001,
      "ical": 3002,
      "icau": 3003,
      "icache": 3004,
      "ieeec": 3005,
      "ihd": 3006,
      "ji": 3007,
      "jv": 3008,
      "jre": 3009,
      "jline": 3010,
      "jng": 3011,
      "jection": 3012,
      "jfm": 3013,
      "jdk": 3014,
      "ko": 3015,
      "kr": 3016,
      "keb": 3017,
      "ktest": 3018,
      "kill": 3019,
      "kdpic": 3020,
      "kiwi": 3021,
      "la": 3022,
      "lg": 3023,
      "lar": 3024,
      "ling": 3025,
      "lea": 3026,
      "lti": 3027,
      "lbe": 3028,
      "lcr": 3029,
      "lstat": 3030,
      "lxf": 3031,
      "lnk": 3032,
      "lchown": 3033,
      "lseek": 3034,
      "mct": 3035,
      "mbl": 3036,
      "merr": 3037,
      "mis": 3038,
      "mallo": 3039,
      "mmb": 3040,
      "mmu": 3041,
      "mhfm": 3042,
      "nh": 3043,
      "nm": 3044,
      "np": 3045,
      "ning": 3046,
      "nted": 3047,
      "nle": 3048,
      "nded": 3049,
      "nms": 3050,
      "ngi": 3051,
      "nve": 3052,
      "null": 3053,
      "nsclick": 3054,
      "oid": 3055,
      "oad": 3056,
      "obe": 3057,
      "option": 3058,
      "osign": 3059,
      "pv": 3060,
      "pz": 3061,
      "por": 3062,
      "pid": 3063,
      "pted": 3064,
      "pad": 3065,
      "ppre": 3066,
      "pnet": 3067,
      "pop": 3068,
      "pux": 3069,
      "qd": 3070,
      "qw": 3071,
      "qlr": 3072,
      "qhm": 3073,
      "qrt": 3074,
      "qhres": 3075,
      "rs": 3076,
      "ry": 3077,
      "red": 3078,
      "ron": 3079,
      "rst": 3080,
      "rary": 3081,
      "roc": 3082,
      "rfft": 3083,
      "sa": 3084,
      "sor": 3085,
      "sdo": 3086,
      "spar": 3087,
      "scom": 3088,
      "sma": 3089,
      "scan": 3090,
      "scontent": 3091,
      "sall": 3092,
      "sky": 3093,
      "sses": 3094,
      "sgs": 3095,
      "sqrt": 3096,
      "tj": 3097,
      "tn": 3098,
      "tat": 3099,
      "tab": 3100,
      "tst": 3101,
      "trou": 3102,
      "tmp": 3103,
      "tap": 3104,
      "txyz": 3105,
      "tdp": 3106,
      "tui": 3107,
      "tlbe": 3108,
      "uff": 3109,
      "uid": 3110,
      "umask": 3111,
      "ual": 3112,
      "utime": 3113,
      "ugh": 3114,
      "usync": 3115,
      "udpm": 3116,
      "vaddr": 3117,
      "vbuffer": 3118,
      "vjp": 3119,
      "vtrace": 3120,
      "void": 3121,
      "wk": 3122,
      "war": 3123,
      "wed": 3124,
      "watch": 3125,
      "wpe": 3126,
      "wra": 3127,
      "wsu": 3128,
      "wan": 3129,
      "wxml": 3130,
      "wave": 3131,
      "wbp": 3132,
      "wosign": 3133,
      "wpad": 3134,
      "xff": 3135,
      "xde": 3136,
      "xed": 3137,
      "xing": 3138,
      "xab": 3139,
      "xdc": 3140,
      "xfe": 3141,
      "xcd": 3142,
      "xdb": 3143,
      "xac": 3144,
      "xbc": 3145,
      "xbe": 3146,
      "xae": 3147,
      "xfb": 3148,
      "xfee": 3149,
      "xdr": 3150,
      "xfcd": 3151,
      "xffd": 3152,
      "xbfe": 3153,
      "xbfa": 3154,
      "xgr": 3155,
      "xabb": 3156,
      "xafd": 3157,
      "xfffe": 3158,
      "yre": 3159,
      "yap": 3160,
      "yimg": 3161,
      "yvjp": 3162,
      "zhstatic": 3163,
      "zjfm": 3164,
      "zsall": 3165,
      "||": 3166,
      "ffee": 3167,
      "ffba": 3168,
      "ffbe": 3169,
      "ffbd": 3170,
      "ffaf": 3171,
      "fffb": 3172,
      "ffcec": 3173,
      "ffced": 3174,
      "ffada": 3175,
      "ffadb": 3176,
      "ffadc": 3177,
      "ffcdf": 3178,
      "ffbfd": 3179,
      "ffcee": 3180,
      "ffbfa": 3181,
      "ffacb": 3182,
      "ffdcc": 3183,
      "ffbaa": 3184,
      "ffaca": 3185,
      "ffbcb": 3186,
      "fftw": 3187,
      "ffcef": 3188,
      "ffbae": 3189,
      "ffdda": 3190,
      "ffbbb": 3191,
      "ffdbf": 3192,
      "ffbaf": 3193,
      "arest": 3194,
      "argum": 3195,
      "den": 3196,
      "deab": 3197,
      "defe": 3198,
      "dedf": 3199,
      "debf": 3200,
      "debd": 3201,
      "debb": 3202,
      "deeb": 3203,
      "defb": 3204,
      "deeca": 3205,
      "denormalized": 3206,
      "seti": 3207,
      "sestat": 3208,
      "securi": 3209,
      "sembl": 3210,
      "inform": 3211,
      "injection": 3212,
      "nop": 3213,
      "nopr": 3214,
      "noni": 3215,
      "nocomm": 3216,
      "noavatar": 3217,
      "nova": 3218,
      "nozerobytebug": 3219,
      "cer": 3220,
      "ceda": 3221,
      "cesi": 3222,
      "cebe": 3223,
      "ceca": 3224,
      "cebb": 3225,
      "cefd": 3226,
      "ato": 3227,
      "atall": 3228,
      "ative": 3229,
      "ching": 3230,
      "chem": 3231,
      "chcham": 3232,
      "orac": 3233,
      "ories": 3234,
      "serapis": 3235,
      "ecff": 3236,
      "ecab": 3237,
      "ecad": 3238,
      "eccc": 3239,
      "ecfe": 3240,
      "ecda": 3241,
      "ecac": 3242,
      "ecba": 3243,
      "ecae": 3244,
      "ecbb": 3245,
      "ecaa": 3246,
      "ecfa": 3247,
      "ecmb": 3248,
      "ecccc": 3249,
      "ecvbuffer": 3250,
      "priv": 3251,
      "dog": 3252,
      "domain": 3253,
      "loor": 3254,
      "lone": 3255,
      "loader": 3256,
      "look": 3257,
      "ffffe": 3258,
      "ffffffc": 3259,
      "ffffffd": 3260,
      "eddc": 3261,
      "eddf": 3262,
      "edac": 3263,
      "edba": 3264,
      "edbc": 3265,
      "edca": 3266,
      "edbb": 3267,
      "edaa": 3268,
      "edfa": 3269,
      "edbbb": 3270,
      "pdate": 3271,
      "pdbg": 3272,
      "pdlxf": 3273,
      "ips": 3274,
      "sso": 3275,
      "ssum": 3276,
      "ssive": 3277,
      "sstat": 3278,
      "prof": 3279,
      "only": 3280,
      "onfp": 3281,
      "onix": 3282,
      "ason": 3283,
      "assembl": 3284,
      "topo": 3285,
      "topurge": 3286,
      "towar": 3287,
      "ouji": 3288,
      "idx": 3289,
      "idmp": 3290,
      "ctld": 3291,
      "ctips": 3292,
      "eece": 3293,
      "eeba": 3294,
      "eebc": 3295,
      "eeae": 3296,
      "eebf": 3297,
      "eebd": 3298,
      "eebb": 3299,
      "parserapis": 3300,
      "ndor": 3301,
      "fffffc": 3302,
      "fffffd": 3303,
      "fffffefa": 3304,
      "iary": 3305,
      "thir": 3306,
      "cktime": 3307,
      "ckgr": 3308,
      "nett": 3309,
      "nete": 3310,
      "nearest": 3311,
      "formi": 3312,
      "abed": 3313,
      "abea": 3314,
      "abef": 3315,
      "readd": 3316,
      "rename": 3317,
      "reserved": 3318,
      "renc": 3319,
      "rexception": 3320,
      "retag": 3321,
      "restarted": 3322,
      "resets": 3323,
      "remer": 3324,
      "regctl": 3325,
      "reason": 3326,
      "ofda": 3327,
      "ering": 3328,
      "adce": 3329,
      "adda": 3330,
      "adcb": 3331,
      "adfa": 3332,
      "adtech": 3333,
      "adtdp": 3334,
      "bll": 3335,
      "blas": 3336,
      "blime": 3337,
      "blast": 3338,
      "stand": 3339,
      "stun": 3340,
      "stuff": 3341,
      "symcd": 3342,
      "shouji": 3343,
      "ums": 3344,
      "asearch": 3345,
      "idoudpm": 3346,
      "newsi": 3347,
      "newmpi": 3348,
      "newkernel": 3349,
      "newhack": 3350,
      "partsn": 3351,
      "list": 3352,
      "licate": 3353,
      "mehu": 3354,
      "mented": 3355,
      "eade": 3356,
      "eace": 3357,
      "eaec": 3358,
      "eafc": 3359,
      "eaca": 3360,
      "eapp": 3361,
      "temaj": 3362,
      "ntifi": 3363,
      "ntry": 3364,
      "ranova": 3365,
      "tig": 3366,
      "timer": 3367,
      "ticktime": 3368,
      "sessiontimeout": 3369,
      "les": 3370,
      "lemented": 3371,
      "dcu": 3372,
      "dcda": 3373,
      "dcdb": 3374,
      "dcdf": 3375,
      "dcae": 3376,
      "dcbd": 3377,
      "dccf": 3378,
      "dcaf": 3379,
      "dcaee": 3380,
      "dcaaf": 3381,
      "bye": 3382,
      "ccr": 3383,
      "ccab": 3384,
      "ccdb": 3385,
      "ccac": 3386,
      "ccbc": 3387,
      "ccbe": 3388,
      "ccbd": 3389,
      "ccca": 3390,
      "cccf": 3391,
      "ccaf": 3392,
      "ccfa": 3393,
      "ccsame": 3394,
      "alerr": 3395,
      "aller": 3396,
      "aleam": 3397,
      "times": 3398,
      "commit": 3399,
      "feec": 3400,
      "feab": 3401,
      "fead": 3402,
      "fefc": 3403,
      "febd": 3404,
      "feffe": 3405,
      "fefcd": 3406,
      "feeds": 3407,
      "fefcf": 3408,
      "fefeb": 3409,
      "cdde": 3410,
      "cdbe": 3411,
      "cdfbab": 3412,
      "ddab": 3413,
      "ddac": 3414,
      "ddaf": 3415,
      "ddabe": 3416,
      "iso": 3417,
      "fcba": 3418,
      "fcded": 3419,
      "fcfd": 3420,
      "fcfff": 3421,
      "fcfcc": 3422,
      "fcfda": 3423,
      "fcfcd": 3424,
      "fcbfe": 3425,
      "fcdec": 3426,
      "fcbff": 3427,
      "fclick": 3428,
      "fcbfb": 3429,
      "fcbec": 3430,
      "fcceb": 3431,
      "fcbfa": 3432,
      "fcbde": 3433,
      "fccea": 3434,
      "fcdcd": 3435,
      "fcfcb": 3436,
      "fcbaa": 3437,
      "fcdeb": 3438,
      "fcdca": 3439,
      "fcbbb": 3440,
      "fcbcf": 3441,
      "fcdcf": 3442,
      "macce": 3443,
      "make": 3444,
      "makeb": 3445,
      "daea": 3446,
      "dacf": 3447,
      "daaf": 3448,
      "dafdc": 3449,
      "daabd": 3450,
      "daabe": 3451,
      "dafca": 3452,
      "const": 3453,
      "contig": 3454,
      "dbde": 3455,
      "dbec": 3456,
      "dbea": 3457,
      "dbdc": 3458,
      "dbcc": 3459,
      "dbdd": 3460,
      "dbfc": 3461,
      "dbbc": 3462,
      "dbcr": 3463,
      "dbsr": 3464,
      "dbaaf": 3465,
      "dbremer": 3466,
      "dfd": 3467,
      "dfec": 3468,
      "dfdc": 3469,
      "dfac": 3470,
      "dfae": 3471,
      "dfbb": 3472,
      "dfdac": 3473,
      "dfafa": 3474,
      "mib": 3475,
      "miao": 3476,
      "miranova": 3477,
      "acaf": 3478,
      "acfa": 3479,
      "accec": 3480,
      "baff": 3481,
      "baec": 3482,
      "bacc": 3483,
      "bafc": 3484,
      "baeb": 3485,
      "backgr": 3486,
      "bcab": 3487,
      "bcac": 3488,
      "bcbc": 3489,
      "bcbe": 3490,
      "bcbf": 3491,
      "bcaa": 3492,
      "sixgr": 3493,
      "sitemaj": 3494,
      "adding": 3495,
      "exit": 3496,
      "exited": 3497,
      "bead": 3498,
      "beba": 3499,
      "bebc": 3500,
      "bebf": 3501,
      "bebb": 3502,
      "befb": 3503,
      "bebfdc": 3504,
      "begin": 3505,
      "aede": 3506,
      "aeec": 3507,
      "aefc": 3508,
      "aebf": 3509,
      "aebd": 3510,
      "aebb": 3511,
      "aeffa": 3512,
      "irq": 3513,
      "irector": 3514,
      "nan": 3515,
      "bfab": 3516,
      "bfcc": 3517,
      "bfda": 3518,
      "bfac": 3519,
      "bfbf": 3520,
      "bfaa": 3521,
      "bfaf": 3522,
      "bfdac": 3523,
      "bfcefc": 3524,
      "bfbaf": 3525,
      "ciodb": 3526,
      "psg": 3527,
      "ghdr": 3528,
      "field": 3529,
      "bdfe": 3530,
      "bdfc": 3531,
      "cade": 3532,
      "cace": 3533,
      "caea": 3534,
      "caaa": 3535,
      "caus": 3536,
      "caeeb": 3537,
      "canoni": 3538,
      "caching": 3539,
      "oola": 3540,
      "rounded": 3541,
      "cfg": 3542,
      "cfde": 3543,
      "cfee": 3544,
      "cfbc": 3545,
      "cfecf": 3546,
      "cflu": 3547,
      "cfdddc": 3548,
      "cfloor": 3549,
      "openx": 3550,
      "openjdk": 3551,
      "filesystem": 3552,
      "bbec": 3553,
      "bbdc": 3554,
      "bbdb": 3555,
      "bbbb": 3556,
      "bbdee": 3557,
      "bbadbe": 3558,
      "http": 3559,
      "gen": 3560,
      "getr": 3561,
      "gettime": 3562,
      "outstand": 3563,
      "corpor": 3564,
      "aaee": 3565,
      "aacc": 3566,
      "aacd": 3567,
      "aafc": 3568,
      "aaaf": 3569,
      "aaabc": 3570,
      "aaecab": 3571,
      "systemcontroller": 3572,
      "efad": 3573,
      "efba": 3574,
      "efddc": 3575,
      "efccd": 3576,
      "efbfe": 3577,
      "efadf": 3578,
      "efedc": 3579,
      "efcda": 3580,
      "efcdf": 3581,
      "efedb": 3582,
      "efbfd": 3583,
      "efecf": 3584,
      "efcca": 3585,
      "efafb": 3586,
      "efeef": 3587,
      "efeca": 3588,
      "efeeb": 3589,
      "efdcc": 3590,
      "efedd": 3591,
      "efbaa": 3592,
      "efecd": 3593,
      "efdbc": 3594,
      "efbcb": 3595,
      "efbef": 3596,
      "efdeb": 3597,
      "efcef": 3598,
      "efdea": 3599,
      "efdef": 3600,
      "efdaa": 3601,
      "efeaa": 3602,
      "efdda": 3603,
      "efddb": 3604,
      "efddd": 3605,
      "efddf": 3606,
      "efecb": 3607,
      "efdaf": 3608,
      "efdbb": 3609,
      "efdbe": 3610,
      "efbaf": 3611,
      "afde": 3612,
      "afcc": 3613,
      "afdb": 3614,
      "afbc": 3615,
      "afbe": 3616,
      "afly": 3617,
      "afabf": 3618,
      "cbde": 3619,
      "cbad": 3620,
      "cbdd": 3621,
      "cbba": 3622,
      "cbbc": 3623,
      "cbjs": 3624,
      "cbrt": 3625,
      "mapping": 3626,
      "readv": 3627,
      "readblock": 3628,
      "readlink": 3629,
      "connected": 3630,
      "excessive": 3631,
      "sopt": 3632,
      "fade": 3633,
      "faad": 3634,
      "facc": 3635,
      "facee": 3636,
      "usage": 3637,
      "etc": 3638,
      "ptlogin": 3639,
      "ptarget": 3640,
      "ptance": 3641,
      "ptqlr": 3642,
      "wifi": 3643,
      "corrupt": 3644,
      "high": 3645,
      "addresses": 3646,
      "dslb": 3647,
      "ebde": 3648,
      "ebce": 3649,
      "ebed": 3650,
      "ebba": 3651,
      "ebbc": 3652,
      "ebbd": 3653,
      "verbo": 3654,
      "minsessiontimeout": 3655,
      "subne": 3656,
      "suppre": 3657,
      "sublime": 3658,
      "glp": 3659,
      "values": 3660,
      "fdfffff": 3661,
      "fdffc": 3662,
      "fdffffe": 3663,
      "validate": 3664,
      "lishi": 3665,
      "msgto": 3666,
      "mpl": 3667,
      "mpxl": 3668,
      "mpill": 3669,
      "crl": 3670,
      "terminated": 3671,
      "srko": 3672,
      "bglc": 3673,
      "bglsys": 3674,
      "bglctl": 3675,
      "bglpersonality": 3676,
      "ilt": 3677,
      "iler": 3678,
      "iliary": 3679,
      "directories": 3680,
      "cosy": 3681,
      "pai": 3682,
      "pavtrace": 3683,
      "fbde": 3684,
      "fbdc": 3685,
      "fbcc": 3686,
      "fbcd": 3687,
      "fbfc": 3688,
      "fbda": 3689,
      "fbbe": 3690,
      "fbbae": 3691,
      "quiet": 3692,
      "qusixgr": 3693,
      "qulishi": 3694,
      "glen": 3695,
      "torestart": 3696,
      "logfile": 3697,
      "logies": 3698,
      "logical": 3699,
      "images": 3700,
      "unlink": 3701,
      "unit": 3702,
      "unimp": 3703,
      "unpk": 3704,
      "feeb": 3705,
      "feeaa": 3706,
      "ution": 3707,
      "testlong": 3708,
      "feac": 3709,
      "wwbiz": 3710,
      "rules": 3711,
      "icbcast": 3712,
      "avn": 3713,
      "instr": 3714,
      "install": 3715,
      "netdna": 3716,
      "mpihpm": 3717,
      "apac": 3718,
      "xercesi": 3719,
      "....................................": 3720,
      "...............................": 3721,
      ".................................": 3722,
      ".............................": 3723,
      "edefb": 3724,
      "trc": 3725,
      "intf": 3726,
      "ddca": 3727,
      "ddcb": 3728,
      "ddcd": 3729,
      "upmobile": 3730,
      "encer": 3731,
      "cnk": 3732,
      "cnvt": 3733,
      "snsl": 3734,
      "niux": 3735,
      "vendor": 3736,
      "goodbye": 3737,
      "sensor": 3738,
      "cacb": 3739,
      "cacafly": 3740,
      "fcca": 3741,
      "fccb": 3742,
      "fccd": 3743,
      "fccde": 3744,
      "fccce": 3745,
      "fccab": 3746,
      "fccfe": 3747,
      "fccdf": 3748,
      "fccba": 3749,
      "fcccf": 3750,
      "fccbb": 3751,
      "fccaa": 3752,
      "fccaf": 3753,
      "fccfa": 3754,
      "fccfb": 3755,
      "itz": 3756,
      "cecfc": 3757,
      "fdac": 3758,
      "fdaea": 3759,
      "pointe": 3760,
      "efcfe": 3761,
      "efcbe": 3762,
      "efcaa": 3763,
      "efcaf": 3764,
      "efcfb": 3765,
      "efcbad": 3766,
      "ublish": 3767,
      "getdropbox": 3768,
      "getcw": 3769,
      "getgid": 3770,
      "getpid": 3771,
      "getuid": 3772,
      "hucdn": 3773,
      "ursdo": 3774,
      "ffbec": 3775,
      "ffbed": 3776,
      "ffbab": 3777,
      "ffbcc": 3778,
      "ffbfe": 3779,
      "ffbfc": 3780,
      "ffbdb": 3781,
      "ffbbc": 3782,
      "ffbbe": 3783,
      "ffbbf": 3784,
      "ffbbd": 3785,
      "ffbffbff": 3786,
      "fcdce": 3787,
      "fcdab": 3788,
      "fcddc": 3789,
      "fcdfe": 3790,
      "fcddd": 3791,
      "fcdae": 3792,
      "fcdaa": 3793,
      "fcdfd": 3794,
      "llseek": 3795,
      "alitui": 3796,
      "imgsrc": 3797,
      "imgcache": 3798,
      "imgtn": 3799,
      "showxml": 3800,
      "ffcde": 3801,
      "ffcbc": 3802,
      "ffcbf": 3803,
      "ffcbd": 3804,
      "ffcbb": 3805,
      "fceff": 3806,
      "fceec": 3807,
      "fceed": 3808,
      "fcead": 3809,
      "fcecc": 3810,
      "fcefe": 3811,
      "fcecd": 3812,
      "fceda": 3813,
      "fcedb": 3814,
      "fcebe": 3815,
      "fceae": 3816,
      "fcebf": 3817,
      "fceca": 3818,
      "fcebb": 3819,
      "fceaf": 3820,
      "medal": 3821,
      "ccdn": 3822,
      "ngine": 3823,
      "qqmail": 3824,
      "targetclose": 3825,
      "ffaff": 3826,
      "ffaec": 3827,
      "ffaed": 3828,
      "ffaee": 3829,
      "ffaab": 3830,
      "ffaea": 3831,
      "ffafe": 3832,
      "ffafc": 3833,
      "ffaac": 3834,
      "ffaae": 3835,
      "ffdce": 3836,
      "micron": 3837,
      "dropping": 3838,
      "microloader": 3839,
      "fold": 3840,
      "longca": 3841,
      "longlong": 3842,
      "maxbug": 3843,
      "xaed": 3844,
      "following": 3845,
      "efeff": 3846,
      "efeab": 3847,
      "efefe": 3848,
      "efebc": 3849,
      "efebd": 3850,
      "efebb": 3851,
      "efefd": 3852,
      "fdbc": 3853,
      "fdbdf": 3854,
      "fdbbf": 3855,
      "snan": 3856,
      "interval": 3857,
      "interface": 3858,
      "performing": 3859,
      "csm": 3860,
      "xequsixgr": 3861,
      "bffea": 3862,
      "bffac": 3863,
      "bffbc": 3864,
      "bffcf": 3865,
      "uesnsl": 3866,
      "cdnjs": 3867,
      "sppmopt": 3868,
      "tagr": 3869,
      "cdca": 3870,
      "libvisus": 3871,
      "library": 3872,
      "writelog": 3873,
      "busy": 3874,
      "built": 3875,
      "streitz": 3876,
      "bind": 3877,
      "eecb": 3878,
      "flagg": 3879,
      "randomacce": 3880,
      "bfbec": 3881,
      "bfbab": 3882,
      "beeb": 3883,
      "beeaab": 3884,
      "effbc": 3885,
      "effca": 3886,
      "effbb": 3887,
      "effaa": 3888,
      "effcb": 3889,
      "efffd": 3890,
      "xfed": 3891,
      "cceb": 3892,
      "cceea": 3893,
      "cceda": 3894,
      "bfca": 3895,
      "bfcb": 3896,
      "cpgra": 3897,
      "mkdir": 3898,
      "bfdab": 3899,
      "minigame": 3900,
      "mods": 3901,
      "running": 3902,
      "becb": 3903,
      "becd": 3904,
      "cdee": 3905,
      "fdfb": 3906,
      "fdfdb": 3907,
      "fdfdf": 3908,
      "fdfae": 3909,
      "compiler": 3910,
      "adea": 3911,
      "fdcff": 3912,
      "acef": 3913,
      "acebf": 3914,
      "pped": 3915,
      "ppcfloor": 3916,
      "beac": 3917,
      "xffffd": 3918,
      "xffffcb": 3919,
      "xffffffe": 3920,
      "xmlparserapis": 3921,
      "nexage": 3922,
      "fcfbe": 3923,
      "fcfbf": 3924,
      "fcfbd": 3925,
      "fcfaa": 3926,
      "efbcc": 3927,
      "efbcd": 3928,
      "efbda": 3929,
      "efbbc": 3930,
      "efbbe": 3931,
      "efbbd": 3932,
      "..........................": 3933,
      "aligned": 3934,
      "controlling": 3935,
      "accad": 3936,
      "ffeaeb": 3937,
      "ffaaf": 3938,
      "existing": 3939,
      "efdff": 3940,
      "efdce": 3941,
      "efdfe": 3942,
      "efdfc": 3943,
      "interrupting": 3944,
      "aabb": 3945,
      "aabf": 3946,
      "optaim": 3947,
      "bdea": 3948,
      "bdeb": 3949,
      "bdee": 3950,
      "bdef": 3951,
      "bdece": 3952,
      "bdecc": 3953,
      "bdeaa": 3954,
      "caba": 3955,
      "cfca": 3956,
      "bccac": 3957,
      "bdfea": 3958,
      "ebca": 3959,
      "worker": 3960,
      "memtest": 3961,
      "memmon": 3962,
      "()'": 3963,
      "***": 3964,
      "afcbf": 3965,
      "cbca": 3966,
      "initial": 3967,
      "alerio": 3968,
      "fcbce": 3969,
      "fcbab": 3970,
      "fcbdd": 3971,
      "fcbac": 3972,
      "clearport": 3973,
      "bbae": 3974,
      "bbade": 3975,
      "fecb": 3976,
      "fecfc": 3977,
      "fabf": 3978,
      "fabdd": 3979,
      "fabda": 3980,
      "initialization": 3981,
      "initializeapp": 3982,
      "bdcb": 3983,
      "bdae": 3984,
      "cmdline": 3985,
      "disconnected": 3986,
      "fffffffe": 3987,
      "fffffffa": 3988,
      "fffffffb": 3989,
      "oldkernel": 3990,
      "fdee": 3991,
      "fdef": 3992,
      "fdead": 3993,
      "iao": 3994,
      "luke": 3995,
      "multi": 3996,
      "strobe": 3997,
      "fefafa": 3998,
      "///": 3999,
      "awqi": 4000,
      "awrenc": 4001,
      "bbeb": 4002,
      "casale": 4003,
      "cbeb": 4004,
      "ebae": 4005,
      "trap": 4006,
      "train": 4007,
      "track": 4008,
      "trapping": 4009,
      "trapped": 4010,
      "sendpacket": 4011,
      "sendmsgto": 4012,
      "sendworker": 4013,
      "sendtrain": 4014,
      "cccccccd": 4015,
      "fefffc": 4016,
      "trellocdn": 4017,
      "afebf": 4018,
      "dffacb": 4019,
      "eabf": 4020,
      "eabea": 4021,
      "defbf": 4022,
      "selftest": 4023,
      "accepted": 4024,
      "acceptance": 4025,
      "jeffgreeno": 4026,
      "oguesnsl": 4027,
      "slave": 4028,
      "slawrenc": 4029,
      "valone": 4030,
      "xfffffdc": 4031,
      "xfffffef": 4032,
      "xfffffebc": 4033,
      "newsapp": 4034,
      "efdcb": 4035,
      "efdcf": 4036,
      "class": 4037,
      "hangtest": 4038,
      "impact": 4039,
      "ulative": 4040,
      "wrating": 4041,
      "noncontig": 4042,
      "stepping": 4043,
      "execution": 4044,
      "auth": 4045,
      "autopurge": 4046,
      "autorestart": 4047,
      "duplicate": 4048,
      "mmstat": 4049,
      "pki": 4050,
      "waiting": 4051,
      "ytnh": 4052,
      "prefetching": 4053,
      "prefetches": 4054,
      "efdfb": 4055,
      "packages": 4056,
      "quantcount": 4057,
      "********": 4058,
      "*******": 4059,
      "adobeid": 4060,
      "configfile": 4061,
      "amaihd": 4062,
      "bffcbf": 4063,
      "diff": 4064,
      "digice": 4065,
      "fmmods": 4066,
      "puui": 4067,
      "rtb": 4068,
      "xbfaeb": 4069,
      "xaade": 4070,
      "timgsa": 4071,
      "fcbeb": 4072,
      "underflow": 4073,
      "flushing": 4074,
      "windowsu": 4075,
      "dmw": 4076,
      "free": 4077,
      "ileged": 4078,
      "smaller": 4079,
      "turn": 4080,
      "xdaabe": 4081,
      "xbbhj": 4082,
      "yuri": 4083,
      "sequencer": 4084,
      "ordering": 4085,
      "logos": 4086,
      "asiamax": 4087,
      "refreshes": 4088,
      "googletagservices": 4089,
      "failures": 4090,
      "speculative": 4091,
      "creative": 4092,
      "socketexception": 4093,
      "modulo": 4094,
      "hostname": 4095,
      "oimagec": 4096,
      "verifystuff": 4097,
      "baseline": 4098,
      "bffebcbe": 4099,
      "bdecab": 4100,
      "dware": 4101,
      "divac": 4102,
      "divide": 4103,
      "gslb": 4104,
      "izxequsixgr": 4105,
      "identifi": 4106,
      "kkk": 4107,
      "mingxing": 4108,
      "qihucdn": 4109,
      "rmw": 4110,
      "rmdir": 4111,
      "rows": 4112,
      "rocflu": 4113,
      "rssgov": 4114,
      "xfcffd": 4115,
      "yescomm": 4116,
      "yeszerobytebug": 4117,
      "chamonix": 4118,
      "idomsg": 4119,
      "idomsghdr": 4120,
      "fefabb": 4121,
      "ddmdv": 4122,
      "fcbfabd": 4123,
      "bcastv": 4124,
      "bfeefe": 4125,
      "bbdeba": 4126,
      "global": 4127,
      "purgeinterval": 4128,
      "cloudflare": 4129,
      "cloudfron": 4130,
      "yuedust": 4131,
      "mobilem": 4132,
      "walkup": 4133,
      "nosleepyescomm": 4134,
      "idomarshalerr": 4135,
      "idomarshalerio": 4136,
      "consoleip": 4137,
      "consoleport": 4138,
      "akamaihd": 4139,
      "ayoo": 4140,
      "amanad": 4141,
      "auxiliary": 4142,
      "batchfiles": 4143,
      "dgtest": 4144,
      "dhptqlr": 4145,
      "dparty": 4146,
      "dshytnh": 4147,
      "dgemm": 4148,
      "dtrp": 4149,
      "ethernet": 4150,
      "find": 4151,
      "freed": 4152,
      "further": 4153,
      "gunnels": 4154,
      "gathering": 4155,
      "hardware": 4156,
      "hidden": 4157,
      "hello": 4158,
      "ifengi": 4159,
      "icbi": 4160,
      "icauh": 4161,
      "ieeeconfp": 4162,
      "jvm": 4163,
      "krcom": 4164,
      "kiwihk": 4165,
      "large": 4166,
      "leader": 4167,
      "lnkck": 4168,
      "miscompare": 4169,
      "malloc": 4170,
      "mmbiz": 4171,
      "nlev": 4172,
      "nmsglen": 4173,
      "nullpointe": 4174,
      "oadz": 4175,
      "redirector": 4176,
      "rocstar": 4177,
      "sparing": 4178,
      "scomerror": 4179,
      "smaato": 4180,
      "scancom": 4181,
      "skype": 4182,
      "taboola": 4183,
      "trouter": 4184,
      "tapad": 4185,
      "tlbentry": 4186,
      "ualdn": 4187,
      "watchdog": 4188,
      "wpengine": 4189,
      "wray": 4190,
      "wbpctips": 4191,
      "xedcb": 4192,
      "xdrpj": 4193,
      "xfffead": 4194,
      "yrexdrpj": 4195,
      "fffbccf": 4196,
      "ffddaff": 4197,
      "argument": 4198,
      "setitimer": 4199,
      "security": 4200,
      "information": 4201,
      "noprint": 4202,
      "nocommnosleep": 4203,
      "atallbegin": 4204,
      "chembio": 4205,
      "oracle": 4206,
      "privileged": 4207,
      "domains": 4208,
      "looking": 4209,
      "sstats": 4210,
      "assembly": 4211,
      "topologies": 4212,
      "toward": 4213,
      "ctldl": 4214,
      "thirdparty": 4215,
      "netty": 4216,
      "netease": 4217,
      "readdir": 4218,
      "retagging": 4219,
      "ofday": 4220,
      "idoudpmgr": 4221,
      "newsimg": 4222,
      "mehul": 4223,
      "ccsamef": 4224,
      "aleamr": 4225,
      "makebglp": 4226,
      "miaopai": 4227,
      "background": 4228,
      "sitemaji": 4229,
      "causing": 4230,
      "canonical": 4231,
      "getrusage": 4232,
      "gettimeofday": 4233,
      "outstanding": 4234,
      "corporation": 4235,
      "ptargetmgr": 4236,
      "verbose": 4237,
      "subnets": 4238,
      "suppressing": 4239,
      "sublimetext": 4240,
      "fdffcbe": 4241,
      "mpxlc": 4242,
      "srkodhptqlr": 4243,
      "bglctlpavtrace": 4244,
      "unimplemented": 4245,
      "unpkg": 4246,
      "wwbizapi": 4247,
      "xercesimpl": 4248,
      "niuxiao": 4249,
      "ublishing": 4250,
      "getcwd": 4251,
      "ursdoccdn": 4252,
      "flagging": 4253,
      "randomaccess": 4254,
      "beeaabff": 4255,
      "cpgraph": 4256,
      "initializeappmemory": 4257,
      "lukei": 4258,
      "awqiizxequsixgr": 4259,
      "casalemedia": 4260,
      "sendmsgtodebugger": 4261,
      "jeffgreenough": 4262,
      "digicert": 4263,
      "windowsupdate": 4264,
      "xbbhjxc": 4265,
      "identifier": 4266,
      "rocfluidmp": 4267,
      "cloudfront": 4268,
      "idomarshalerrecvbuffer": 4269,
      "ifengimg": 4270,
      "ieeeconfpublishing": 4271,
      "nullpointerexception": 4272,
      "srkodhptqlryvjp": 4273
    },
    "merges": [
      "9 9",
      "99 99",
      "9999 9999",
      "f f",
      "99 9",
      "a r",
      "d e",
      "s e",
      "i n",
      "9999 9",
      "n o",
      "c e",
      "c ar",
      "car d",
      "a t",
      "99999999 99999999",
      "c h",
      "o r",
      "no de",
      "se r",
      "e c",
      ") ,",
      "p r",
      "d o",
      "l o",
      "ff ff",
      "e d",
      "p d",
      "v pd",
      "i p",
      "s s",
      "pr o",
      "o n",
      "a s",
      "t o",
      "ser v",
      "o u",
      "i d",
      "c t",
      "e e",
      "p ar",
      "i on",
      "m l",
      "i ce",
      "serv ice",
      "n d",
      "ffff f",
      "9999999999999999 99999999",
      "de ar",
      "i ar",
      "pro ce",
      "9999 99",
      "no t",
      "t h",
      "proce ss",
      "ec k",
      "ch eck",
      "process or",
      "in g",
      "ec id",
      "s lo",
      "slo t",
      "at ch",
      "ou nd",
      "f ound",
      "m atch",
      "c k",
      "n e",
      "t ed",
      "f or",
      "a b",
      "lo ck",
      "b lock",
      "s y",
      "p e",
      "r e",
      "o f",
      "as k",
      "d at",
      "e r",
      "t t",
      "a d",
      "b l",
      "s t",
      "th e",
      "bl k",
      "sy m",
      "s h",
      "m ask",
      "u m",
      "a se",
      "i do",
      "ne w",
      "ser ted",
      "ch ip",
      "t y",
      "in to",
      "ab ase",
      "dat abase",
      "in serted",
      "ct ion",
      "n um",
      "par t",
      "pr e",
      "e for",
      "ty pe",
      "999999999999999999999999 999",
      "par efor",
      "pre parefor",
      "preparefor service",
      ") )",
      "m card",
      "ser num",
      "ct n",
      "ml ctn",
      "mcard sernum",
      "m ip",
      "m type",
      "ml p",
      "a ction",
      "sh u",
      "tt ing",
      "w n",
      "do wn",
      "shu tting",
      "999999999999999999999999 9999",
      ". .",
      "l i",
      "99999999 999999",
      "m e",
      "e a",
      "t e",
      "n t",
      "r a",
      "ss ion",
      "x y",
      "h k",
      "pro xy",
      "t i",
      "b ffff",
      "o m",
      "i v",
      "se ssion",
      "9999 999",
      "re ce",
      "rece iv",
      "l e",
      "d c",
      "b y",
      "node card",
      "ee ee",
      "9999999999999999 999",
      "c c",
      "a l",
      "ti me",
      "te s",
      "by tes",
      "er r",
      "receiv ed",
      "k b",
      "c om",
      "f e",
      "c d",
      "ffff ffff",
      ".. ..",
      "d d",
      "err or",
      "i s",
      "f c",
      "m a",
      "d a",
      "c on",
      "ra n",
      "d b",
      "f pr",
      "d f",
      "i o",
      "m i",
      "a c",
      "c u",
      "c lo",
      "b a",
      "clo se",
      "b c",
      "s i",
      "ed u",
      "ad d",
      "ec t",
      "e x",
      "b e",
      "9999999999999999 99",
      "t ran",
      "tran s",
      "a e",
      "ec ted",
      "i r",
      "at e",
      "c se",
      "cu hk",
      "n a",
      "b f",
      "c io",
      "at ed",
      "e nt",
      "p s",
      "cio d",
      "z e",
      "si ze",
      "g h",
      "f i",
      "b d",
      "ee e",
      "c a",
      "o o",
      "r ou",
      "th rou",
      "throu gh",
      "c f",
      "de d",
      "o pe",
      "eeee eee",
      "ope n",
      "fi le",
      "c li",
      "b b",
      "cli ent",
      "h tt",
      "l in",
      "htt ps",
      "g e",
      "ou t",
      "dat a",
      "e m",
      "c or",
      "session id",
      "a a",
      "sy st",
      "syst em",
      "c ate",
      "na me",
      "e f",
      "a f",
      "se nt",
      "name system",
      "serv ed",
      "time out",
      "li fe",
      "life time",
      "lin k",
      "c b",
      "t ing",
      "99999999 99999",
      "ma p",
      "re ad",
      "link card",
      "re p",
      "con n",
      "ex ce",
      "st ar",
      "ra m",
      "conn ect",
      "9999999999999999 9",
      "st or",
      "rep li",
      "f er",
      "star ting",
      "s o",
      "data node",
      "repli cate",
      "th read",
      "trans fer",
      "d ir",
      "de t",
      "f a",
      "det ected",
      "e st",
      "ed block",
      ".... ....",
      "add stor",
      "addstor edblock",
      "g ram",
      "u s",
      "e t",
      "p t",
      "w i",
      "t er",
      "ck et",
      "cor r",
      "pro gram",
      "a nd",
      "r om",
      "at ion",
      "f rom",
      "connect ion",
      "h i",
      "add re",
      "trans mi",
      "addre ss",
      "ad ded",
      "d s",
      "e b",
      "corr ected",
      "wi th",
      "v er",
      "ss ing",
      "mi ssing",
      "m in",
      "s u",
      "g l",
      "v al",
      "x ffffffff",
      "f d",
      "g oo",
      "se con",
      "secon ds",
      "dc r",
      "g o",
      "val id",
      "li sh",
      "m s",
      "ab lish",
      "est ablish",
      "m p",
      "se d",
      "c r",
      "in valid",
      "ter min",
      "proce s",
      "w hi",
      "close d",
      "proces sed",
      "t ted",
      "transmi tted",
      "so cket",
      "s r",
      "b gl",
      "or y",
      "termin ation",
      "e ded",
      "o ver",
      "whi ch",
      "i l",
      "h ad",
      "dir ect",
      "sr c",
      "p ir",
      "ex pir",
      "exce eded",
      "direct ory",
      "expir ing",
      "establish ed",
      "c o",
      "u pd",
      "ne go",
      "ti ated",
      "nego tiated",
      "block map",
      "upd ated",
      "99999999 9",
      "su ch",
      "- -",
      "p a",
      "f b",
      "pe r",
      "st at",
      "r oo",
      "roo t",
      "q u",
      "99999999 999",
      "pt ion",
      "g le",
      "s w",
      "goo gle",
      "t or",
      "o me",
      "i ma",
      "de st",
      "lo ad",
      "lo g",
      "ima ge",
      "h ome",
      "tor us",
      "o l",
      "u n",
      "load ing",
      "f ee",
      "c al",
      "fa il",
      "cor e",
      "ge ne",
      "u t",
      "te st",
      "t s",
      "file s",
      "u ser",
      "gene r",
      "receiv er",
      "f ea",
      "gener ated",
      "de r",
      "th is",
      "be ing",
      "a n",
      "n c",
      "w w",
      "do ne",
      "co de",
      "fail ed",
      "exce ption",
      "dd r",
      "n f",
      "n b",
      "r u",
      "l r",
      "i c",
      "a v",
      "se t",
      "in st",
      "p ut",
      "s p",
      "ff f",
      "ne t",
      "mp i",
      "in put",
      "l s",
      "sw l",
      "a p",
      "c ou",
      "al lo",
      "serv er",
      "l d",
      "99999999 9999",
      "stat us",
      "allo cate",
      "de le",
      "cou ld",
      "allocate block",
      "ru ction",
      "inst ruction",
      "ct r",
      "log in",
      "x er",
      "re qu",
      "........ ........",
      "te mp",
      "cal ls",
      "e de",
      "p ip",
      "t r",
      "99999999 9999999",
      "pip e",
      "( /",
      "ch dir",
      "ed f",
      "ra nd",
      "sy s",
      "in t",
      "n al",
      "st ate",
      "j av",
      "jav a",
      "d dc",
      "g b",
      "k ee",
      "receiv ing",
      "at ing",
      "g i",
      "i m",
      "o p",
      "99999999 99",
      "v i",
      "dele te",
      "u p",
      "al le",
      "pa cket",
      "requ est",
      "id u",
      "ba idu",
      "b o",
      "ar y",
      "e n",
      "edf aa",
      "c n",
      "p l",
      "ab le",
      "invalid set",
      "s n",
      "ee p",
      "a ge",
      "b er",
      "n i",
      "r i",
      "de o",
      "sw eep",
      "ddc m",
      "vi deo",
      "-- -",
      "v e",
      "or um",
      "goo d",
      "qu orum",
      "b ol",
      "f un",
      "google video",
      "ap ps",
      "c ase",
      "ff e",
      "temp or",
      "case s",
      "se n",
      "ww w",
      "int err",
      "c ac",
      "f cc",
      "i t",
      "t ask",
      "tempor ary",
      "c re",
      "ce c",
      "ss age",
      "me ssage",
      "e s",
      "stat ic",
      "f da",
      "num ber",
      "m c",
      "o b",
      "s pe",
      "mpi ts",
      "i al",
      "n ch",
      "ne l",
      "si g",
      "sen der",
      "b w",
      "t a",
      "ce d",
      "re transmi",
      "sym bol",
      "tr ee",
      "alle n",
      "bw allen",
      "retransmi ssion",
      "p m",
      "p o",
      "e fc",
      "j ob",
      "k er",
      "t x",
      "z oo",
      "ran k",
      "ca n",
      "kee per",
      "sig nal",
      "zoo keeper",
      "u bl",
      "or t",
      "ser ial",
      "ip address",
      "ge t",
      "serial number",
      "h u",
      "k in",
      "s cr",
      "do ubl",
      "pa kin",
      "d r",
      "e v",
      "s ion",
      "x id",
      "sy nch",
      "re gi",
      "st er",
      "fun ction",
      "ev ent",
      "regi ster",
      "s of",
      "t al",
      "u r",
      "ff b",
      "lo w",
      "cu r",
      "test cases",
      "bo x",
      "f cd",
      "g er",
      "l l",
      "u pt",
      "fee a",
      "ker nel",
      "a li",
      "w e",
      "x c",
      "de ni",
      "mi ssion",
      "per mission",
      "im g",
      "pl a",
      "interr upt",
      "function al",
      "deni ed",
      "a ct",
      "a nt",
      "b m",
      "m b",
      "p h",
      "x ce",
      "to tal",
      "sh o",
      "df s",
      "lin e",
      "xce ption",
      "w ri",
      "ff c",
      "as m",
      "ee r",
      "bgl scr",
      "sp asm",
      "ddcm d",
      "bglscr atch",
      "f ce",
      "h a",
      "i me",
      "i bm",
      "m ed",
      "r edu",
      "r ts",
      "in f",
      "re nt",
      "cc c",
      "cc d",
      "fea a",
      "sys calls",
      "cur rent",
      "a der",
      "m id",
      "ar get",
      "l ce",
      "n g",
      "q q",
      "t arget",
      "ff a",
      "ff d",
      "the ader",
      "ma n",
      "mi cr",
      "cre ating",
      "spe lce",
      "dr op",
      "sof theader",
      ". /",
      "nd ant",
      "pla ne",
      "redu ndant",
      "mid plane",
      "micr o",
      "drop box",
      "f ol",
      "lo ng",
      "ad a",
      "ad b",
      "ad c",
      "ma x",
      "act iv",
      "u b",
      "x a",
      "at h",
      ".. .",
      "log s",
      "fol low",
      ": /",
      "b fe",
      "e fe",
      "f db",
      "m nt",
      "p ath",
      "s na",
      "in ter",
      "do op",
      "per for",
      "an g",
      "we i",
      "ha doop",
      "c s",
      "p sho",
      "p eer",
      "x e",
      "de c",
      "ed ram",
      "tx t",
      "sna psho",
      "b ff",
      "d n",
      "pe re",
      "ad f",
      "me nt",
      "err no",
      "kee pere",
      "good ing",
      "can not",
      "inf o",
      "inter nal",
      "e nd",
      "k n",
      "u e",
      "ch e",
      "li ck",
      "cd n",
      "io exception",
      "cr i",
      "sp pm",
      "ta g",
      "ph y",
      "c dc",
      "g ou",
      "z xid",
      "ec lick",
      "ed s",
      "li b",
      "ra pt",
      "so l",
      "so gou",
      "wri te",
      "micro seconds",
      "rapt or",
      "a m",
      "b u",
      "or d",
      "ed c",
      "service action",
      "st re",
      "xy z",
      "cd a",
      "cd f",
      "exce eds",
      "stor y",
      "hi story",
      "ic ation",
      "end serviceaction",
      "a ec",
      "b i",
      "b in",
      "b ut",
      "h p",
      "l y",
      "corr ect",
      "rand txt",
      "gi th",
      "xyz t",
      "hp cc",
      "e ec",
      "f l",
      "n sion",
      "o k",
      "s in",
      "ran do",
      "bf b",
      "up on",
      "fda e",
      "doubl eclick",
      "perfor med",
      "sin a",
      "b ee",
      "e ff",
      "j tag",
      "m g",
      "v n",
      "x f",
      "re sol",
      "cd b",
      "correct able",
      "rando m",
      "resol ve",
      "c ce",
      "d ime",
      "u re",
      "w as",
      "ar e",
      "in ate",
      "on der",
      "pe s",
      "re set",
      "re sp",
      "te m",
      "si cal",
      "co ord",
      "test s",
      "packet resp",
      "snapsho t",
      "phy sical",
      "gith ub",
      "dime nsion",
      "coord inate",
      "packetresp onder",
      "b ad",
      "b fc",
      "c p",
      "c ad",
      "c ation",
      "g lo",
      "m k",
      "ed b",
      "te nt",
      "con tent",
      "db gl",
      "bf d",
      "min i",
      "dele ting",
      "ddcm dbgl",
      "ddcmdbgl v",
      "g n",
      "l er",
      "m o",
      "m mi",
      "p ort",
      "r un",
      "do es",
      "ab c",
      "com m",
      "be long",
      "gh t",
      "........ ....",
      "an y",
      "ve l",
      "write block",
      "bi g",
      "b ec",
      "c de",
      "f df",
      "s li",
      "s ort",
      "w er",
      "x b",
      "ce b",
      "or g",
      "ec c",
      "as h",
      "par alle",
      "com p",
      "fail ing",
      "fl ash",
      "glo sli",
      "paralle l",
      "a de",
      "a pa",
      "b r",
      "f dc",
      "i ty",
      "p j",
      "in e",
      "ce e",
      "at temp",
      "re s",
      "cc b",
      "cd d",
      "bf a",
      "fda f",
      "comm un",
      "comp le",
      "attemp ting",
      "a ce",
      "a ea",
      "e l",
      "l ts",
      "m ar",
      "p p",
      "y ti",
      "car t",
      "ch ine",
      "re su",
      "ma chine",
      "ae b",
      "bd ir",
      "mc cart",
      "doubl e",
      "activ e",
      "cs dn",
      "stre am",
      "sort rand",
      "pj mccart",
      "resu lts",
      "b ea",
      "g ent",
      "h as",
      "i st",
      "s id",
      "t ch",
      "x ffff",
      "x ml",
      "de v",
      "se c",
      "at ure",
      "ec f",
      "ee a",
      "par ity",
      "ne x",
      "ad s",
      "cc f",
      "fe fff",
      "fc f",
      "ir ed",
      "ef b",
      "ver sion",
      "per ature",
      "requ ired",
      "quorum server",
      "quorum peer",
      "follow er",
      "wei bo",
      "tem perature",
      "apa che",
      "h dfs",
      "l atch",
      "t ion",
      "as serted",
      "ou nt",
      "ab d",
      "re new",
      "um m",
      "da c",
      "con tr",
      "ac b",
      "su bdir",
      "................ ........",
      "en v",
      "ur gent",
      "ali gn",
      "contr ol",
      "a ed",
      "a ee",
      "a cc",
      "e block",
      "j s",
      "l ed",
      "v ar",
      "v ol",
      "v pes",
      "w h",
      "ff ea",
      "ff aa",
      "ffff ffe",
      "receiv eblock",
      "le vel",
      "cc a",
      "cu ri",
      "ex ist",
      "ca u",
      "ef d",
      "af b",
      "il le",
      "user content",
      "im b",
      "interr up",
      "ger man",
      "vn m",
      "align ment",
      "german n",
      ": -",
      ": :",
      "a ab",
      "b g",
      "c xid",
      "f lo",
      "i k",
      "n type",
      "o pt",
      "p ected",
      "q path",
      "r r",
      "u nex",
      "ch an",
      "or code",
      "node exist",
      "do e",
      "pro per",
      "ee f",
      "process ing",
      "re qpath",
      "st ab",
      "ti cal",
      "ti es",
      "ae f",
      "ef a",
      "dir s",
      "go t",
      "co p",
      "co ll",
      "ap i",
      "fun c",
      "cre ate",
      "po wer",
      "tx ntype",
      "interrupt s",
      "keepere xception",
      "keepere rr",
      "cri tical",
      "commun ication",
      "wh en",
      "unex pected",
      "nodeexist s",
      "proper ties",
      "keepererr orcode",
      "b de",
      "b efor",
      "c ab",
      "c fc",
      "c pm",
      "g al",
      "l ang",
      "o ff",
      "r ec",
      "u se",
      "ce led",
      "sy nd",
      "ea c",
      "te n",
      "te o",
      "ma il",
      "con f",
      "us r",
      "en able",
      "spe nt",
      "can celed",
      "register s",
      "follow up",
      "cri teo",
      "sina img",
      "bee n",
      "comple tion",
      "ille gal",
      "befor e",
      "a h",
      "b cc",
      "b df",
      "e of",
      "e bc",
      "f bc",
      "m y",
      "m mc",
      "m ount",
      "u be",
      "w or",
      "x in",
      "y out",
      "y ah",
      "ce a",
      "ec a",
      "to o",
      "ee b",
      "ee xception",
      "re l",
      "bl ue",
      "pre p",
      "me m",
      "dc c",
      "dc d",
      "al l",
      "mi rand",
      "af a",
      "stat eexception",
      "exception s",
      "current ly",
      "man hu",
      "bu g",
      "dev ice",
      "cau ght",
      "illegal stateexception",
      "mmc s",
      "yout ube",
      "yah oo",
      "mirand a",
      "( )",
      "* *",
      "a cd",
      "a fc",
      "b s",
      "b bc",
      "b it",
      "c lock",
      "c le",
      "c bc",
      "c able",
      "g rep",
      "i li",
      "i ti",
      "i fi",
      "s ram",
      "s wi",
      "u x",
      "z hi",
      "de activ",
      "in iti",
      "at ar",
      "ch ang",
      "ed a",
      "ed d",
      "ab e",
      "um t",
      "li o",
      "me so",
      "al er",
      "error s",
      "fc b",
      "ba a",
      "ate s",
      "read ing",
      "so hu",
      "google synd",
      "po int",
      "wei xin",
      "bg lio",
      "stab ili",
      "cle ar",
      "swi tch",
      "deactiv ated",
      "meso s",
      "googlesynd ication",
      "stabili ty",
      "b ba",
      "d ad",
      "f ec",
      "f ab",
      "i j",
      "j ar",
      "p i",
      "p in",
      "p good",
      "s ing",
      "y in",
      "y ates",
      "in ni",
      "ec d",
      "on ment",
      "re valid",
      "sh are",
      "ty p",
      "ea e",
      "ra il",
      "tes ted",
      "ect ion",
      "ir onment",
      "oo k",
      "client s",
      "aa a",
      "mp good",
      "whi le",
      "per f",
      "ali z",
      "double max",
      "env ironment",
      "control ler",
      "vol t",
      "cpm d",
      "ifi cation",
      "initi aliz",
      "pin yin",
      "inni ty",
      "revalid ating",
      "a ac",
      "b eck",
      "b dc",
      "b da",
      "b ac",
      "c m",
      "c bb",
      "d is",
      "f dd",
      "f ac",
      "f ae",
      "g r",
      "s umm",
      "ce nt",
      "or beck",
      "ffff ff",
      "ab a",
      ".. /",
      "te xception",
      "ma na",
      "db c",
      "ac a",
      "bc b",
      "star ted",
      "ol d",
      "an ce",
      "av atar",
      "................ ....",
      "bol t",
      "midplane switch",
      "el ection",
      "yti mg",
      "wor k",
      "mem ory",
      "manhu a",
      "zhi hu",
      "summ ary",
      "mana ger",
      "midplaneswitch controller",
      "d ce",
      "d ur",
      "e bf",
      "f de",
      "f bb",
      "g g",
      "h and",
      "h pl",
      "i a",
      "l p",
      "l u",
      "m u",
      "m dc",
      "p is",
      "r ce",
      "r bs",
      "s le",
      "u ll",
      "x d",
      "x x",
      "y ing",
      "z z",
      "de bug",
      "ce cc",
      "pr ed",
      "ffff fff",
      "ss l",
      "as t",
      "ou rce",
      "ne z",
      "re sh",
      "st r",
      "ea pis",
      "te ch",
      "nt ime",
      "fe f",
      "ma pred",
      "ac f",
      "be f",
      "lin ux",
      "so ck",
      "gl eapis",
      "goo gleapis",
      "ru ntime",
      "inst ance",
      "tr ying",
      "im um",
      "cn zz",
      "pl us",
      "max imum",
      "off set",
      "eof exception",
      "sing le",
      "initializ ing",
      "dur ing",
      "hand ler",
      "mdc ask",
      "/ .",
      "/ /",
      "a w",
      "a me",
      "a ae",
      "a ms",
      "b ce",
      "b be",
      "c as",
      "c be",
      "c bf",
      "c mc",
      "d ra",
      "e ce",
      "e ba",
      "e be",
      "e bd",
      "e ger",
      "f ull",
      "g q",
      "g static",
      "l b",
      "l t",
      "l li",
      "r fi",
      "t w",
      "t ra",
      "t rel",
      "u lr",
      "v gq",
      "de b",
      "de s",
      "se nd",
      "ce f",
      "pro po",
      "as ser",
      "ne ls",
      "st a",
      "sh er",
      "li ght",
      "rece ption",
      "dc a",
      "cc cc",
      "al yti",
      "fe ff",
      "fc a",
      "ma nd",
      "add r",
      "ex e",
      "ca f",
      "wi lli",
      "termin ating",
      "co pro",
      "google ads",
      "google usercontent",
      "an alyti",
      "baidu static",
      "ph t",
      "mo de",
      "br des",
      "flo ating",
      "ik e",
      "ten cent",
      "gg pht",
      "dra eger",
      "rfi sher",
      "trel lo",
      "ulr ike",
      "propo sed",
      "willi ams",
      "analyti cs",
      "a ad",
      "a fe",
      "b db",
      "c ba",
      "c ae",
      "d ff",
      "d fc",
      "e ed",
      "e ab",
      "e sr",
      "f ps",
      "f bd",
      "h n",
      "m on",
      "m as",
      "n io",
      "n ect",
      "p ty",
      "t p",
      "t cp",
      "w x",
      "y an",
      "z er",
      "ar ch",
      "de a",
      "de e",
      "de f",
      "se l",
      "on nect",
      "nd m",
      "ab b",
      "block s",
      "of dir",
      "st eer",
      "om me",
      "by interrup",
      "cc ce",
      "cc cd",
      "cd ndm",
      "fc ac",
      "da a",
      "ac ce",
      "ba e",
      "ca che",
      "cf d",
      "em pty",
      "af d",
      "gram mar",
      "ver ification",
      "su cce",
      "ms r",
      "closed byinterrup",
      "pa ge",
      "un tested",
      "av e",
      "it c",
      "ali cdn",
      "snapsho tting",
      "ok en",
      "github usercontent",
      "............ ...",
      "br oken",
      "interrup ted",
      "chan nels",
      "rec onnect",
      "blue light",
      "chang yan",
      "aler t",
      "lu stre",
      "fps cr",
      "mas ter",
      "tcp conn",
      "zer o",
      "ofdir ty",
      "grammar ly",
      "succe eded",
      "closedbyinterrup texception",
      "a le",
      "a use",
      "b cd",
      "b dd",
      "c at",
      "c nt",
      "d l",
      "d mp",
      "d static",
      "f ba",
      "h umm",
      "i e",
      "i shu",
      "i tor",
      "j eff",
      "k pt",
      "k nez",
      "o g",
      "r ation",
      "s l",
      "s to",
      "s ource",
      "u o",
      "v a",
      "w cnt",
      "x l",
      "x fffff",
      "y ou",
      "y dstatic",
      "z ed",
      "in fer",
      "ce dc",
      "ch kpt",
      "or ter",
      "ss port",
      "pro bl",
      "th resh",
      "ido proxy",
      "new s",
      "ea a",
      "ea m",
      "iv e",
      "cc dc",
      "cd fc",
      "cd bc",
      "dd a",
      "dd b",
      "da o",
      "db properties",
      "io log",
      "mi t",
      "bd img",
      "ope ration",
      "bb b",
      "aa f",
      "ef dc",
      "star t",
      "fa ceb",
      "wi res",
      "go ing",
      "pa ssport",
      "hu i",
      "xe l",
      "ik uo",
      "use database",
      "pi xel",
      "avatar s",
      "lt on",
      "ulrike y",
      "mon itor",
      "sel ect",
      "page ad",
      "ause lton",
      "humm er",
      "ishu hui",
      "you dao",
      "infer no",
      "probl em",
      "thresh old",
      "faceb ook",
      "a dec",
      "b ed",
      "b mi",
      "b bd",
      "b log",
      "c l",
      "c fe",
      "c ada",
      "c xx",
      "d de",
      "d bl",
      "d typ",
      "e wer",
      "f ad",
      "f be",
      "g m",
      "h ang",
      "h ave",
      "i mp",
      "k y",
      "p ic",
      "p ur",
      "s ame",
      "t eam",
      "u l",
      "w r",
      "w in",
      "ff ca",
      "de scr",
      "de vel",
      "se cu",
      "se arch",
      "no n",
      "ce bc",
      "ce cb",
      "at tem",
      "ed ge",
      "ip tor",
      "as ic",
      "to mand",
      "ee no",
      "for m",
      "ab f",
      "st e",
      "pre fi",
      "li mit",
      "ea f",
      "ti med",
      "cc fc",
      "fe tch",
      ".... ..",
      "dd d",
      "dd f",
      "dd bc",
      "ma y",
      "da e",
      "da hn",
      "bc f",
      "ex ec",
      "be nch",
      "bf dc",
      "cio stream",
      "ca a",
      "ca cc",
      "cf a",
      "open ing",
      "lin es",
      "ge mini",
      "ef cd",
      "map file",
      "stor e",
      "repli cation",
      "so ds",
      "ds mc",
      "pa p",
      "cal ing",
      "cal tech",
      "an typ",
      "nf s",
      "................ .",
      "vi ewer",
      "pl b",
      "po s",
      "ll er",
      "pla y",
      "sho ck",
      "wri ter",
      "man ce",
      "perfor mance",
      "bu ber",
      "sina js",
      "............ .",
      "comple te",
      "mar k",
      "parity alignment",
      "........................ .",
      "chan nel",
      "ten max",
      "blue gene",
      "dis able",
      "gr eeno",
      "sock s",
      "asser t",
      "sta ck",
      "steer ing",
      "acce ss",
      "bmi ller",
      "team viewer",
      "descr iptor",
      "attem pt",
      "tomand jeff",
      "prefi x",
      "bench mark",
      "sods caling",
      "antyp as",
      "= /",
      "a g",
      "a u",
      "a do",
      "c j",
      "c pro",
      "c dec",
      "d up",
      "e bb",
      "e map",
      "f bf",
      "h m",
      "h w",
      "h omme",
      "i which",
      "j ul",
      "l ast",
      "m d",
      "m m",
      "m ook",
      "p k",
      "p ing",
      "p ub",
      "p wr",
      "r ky",
      "s ca",
      "s cat",
      "t down",
      "w a",
      "x t",
      "x ue",
      "y t",
      "ff er",
      "ff bc",
      "de dc",
      "se tting",
      "no s",
      "ce ce",
      "card sto",
      "ec b",
      "ffff c",
      "serv ing",
      "nd y",
      "block info",
      "sy nc",
      "re trying",
      "tt en",
      "um emap",
      "pre fetch",
      "shu tdown",
      "li ve",
      "me ta",
      "te xt",
      "ra l",
      "le test",
      "dc f",
      "dc fc",
      "fe b",
      "cd dc",
      "cd ac",
      "da f",
      "con fi",
      "ac dc",
      "clo u",
      "be l",
      "be n",
      "bd static",
      "ef df",
      "........ .",
      "rom io",
      "su pp",
      "fd fc",
      "cr c",
      "il d",
      "upd ate",
      "pa ck",
      "fb cdn",
      "qu ant",
      "un correctable",
      "test ing",
      "ts ch",
      "user func",
      "ic ating",
      "ap c",
      "ap p",
      "server db",
      "................ ..",
      "tr i",
      "age s",
      "ber tsch",
      "cac a",
      "it ion",
      "sof t",
      "ll a",
      "wri tten",
      "bu ffer",
      "mg r",
      "mini ben",
      "mo d",
      "commun icating",
      "pp c",
      "csdn img",
      "xffff c",
      "........................ ...",
      "vol umemap",
      "** **",
      "chang ing",
      "mu ndy",
      "sle s",
      "sle pt",
      "debug ger",
      "feff ed",
      "orter s",
      "idoproxy db",
      "form at",
      "ste lla",
      "ado be",
      "cj mundy",
      "iwhich cardsto",
      "mook ie",
      "pwr off",
      "sca letest",
      "scat ter",
      "xue shu",
      "confi g",
      "supp orters",
      "iwhichcardsto pwroff",
      "/ )",
      "/ ../",
      "= =",
      "a ma",
      "a ver",
      "b is",
      "b ffc",
      "c ff",
      "c ss",
      "c bd",
      "c bfb",
      "c abc",
      "d i",
      "d fe",
      "d cec",
      "d dec",
      "e we",
      "e ue",
      "e ssl",
      "f m",
      "f p",
      "f ed",
      "f ir",
      "f aa",
      "f cec",
      "f low",
      "g ge",
      "h ne",
      "i f",
      "j p",
      "j ect",
      "j gh",
      "k u",
      "k map",
      "l co",
      "m ps",
      "o s",
      "o ba",
      "p u",
      "q box",
      "r t",
      "t un",
      "t able",
      "t ue",
      "t addr",
      "u sh",
      "u ve",
      "v t",
      "v x",
      "w s",
      "w eb",
      "w ord",
      "x bf",
      "x aa",
      "x hpl",
      "y un",
      "ff dc",
      "ff fc",
      "ff ac",
      "de cd",
      "de ac",
      "se s",
      "se ne",
      "se ts",
      "in complete",
      "lo cation",
      "lo ewe",
      "on g",
      "serv e",
      "par e",
      "service s",
      "nd ing",
      "not ification",
      "pe nding",
      "re ver",
      "ad dc",
      "ad cc",
      "ad ac",
      "ad bc",
      "st ion",
      "ido s",
      "ido chip",
      "part ad",
      "te l",
      "ra in",
      "hk g",
      "ti mg",
      "iv er",
      "dc b",
      "dc cc",
      "cc cb",
      "com pare",
      "fc match",
      "fc be",
      "ma j",
      "db b",
      "db f",
      "ba ker",
      "bc a",
      "si c",
      "ect or",
      "bf ec",
      "lin pack",
      "ef ec",
      "ef ea",
      "ef cc",
      "ef da",
      "read y",
      "repli cas",
      "so d",
      "ds p",
      "ver s",
      "min us",
      "su gge",
      "bgl idochip",
      "il l",
      "-- >",
      "qu eue",
      "un der",
      "un rec",
      "test qbox",
      "an x",
      "av d",
      "ap is",
      "cou nt",
      "................ ...",
      "bo ta",
      "ni zed",
      "fcc c",
      "ta oba",
      "tree addr",
      "po se",
      "dr ive",
      "ali ty",
      "we lco",
      "line ar",
      "ha ck",
      "med ia",
      "micro soft",
      ":/ /",
      "kn l",
      "cdc c",
      "sol vers",
      "sogou cdn",
      "fl ush",
      "cp u",
      "fdf a",
      "br o",
      "pp ing",
      "bea p",
      "unexpected ly",
      "mail box",
      "aler ts",
      ".................... .",
      "str ong",
      "full y",
      "full test",
      "tra ce",
      "vgq sene",
      "dca che",
      "tp c",
      "ofdirty dbl",
      "ofdirty lines",
      "og nized",
      "pur pose",
      "win do",
      "devel f",
      "secu re",
      "replication monitor",
      "nos dn",
      "quant serve",
      "aver ages",
      "fir st",
      "ku bota",
      "tun ed",
      "taddr iver",
      "yun sic",
      "pending replicationmonitor",
      "rever se",
      "sugge stion",
      "unrec ognized",
      "taoba o",
      "welco me",
      "vgqsene s",
      "ofdirtydbl word",
      ") ........................",
      "a cec",
      "b p",
      "b ri",
      "c i",
      "c v",
      "c id",
      "c adc",
      "d m",
      "d p",
      "d pm",
      "d ition",
      "e p",
      "e as",
      "e ad",
      "e fff",
      "e ffb",
      "e ffa",
      "e edc",
      "f g",
      "f r",
      "f on",
      "f af",
      "f ls",
      "f ced",
      "f resh",
      "g ra",
      "g ate",
      "g vt",
      "h o",
      "h y",
      "i bl",
      "i le",
      "i an",
      "j ag",
      "k it",
      "l are",
      "m f",
      "m ba",
      "m tal",
      "n k",
      "n l",
      "o c",
      "o t",
      "o wn",
      "o ima",
      "p ch",
      "p as",
      "p th",
      "p count",
      "q b",
      "r ound",
      "r ma",
      "s m",
      "s cli",
      "t c",
      "t in",
      "t ur",
      "t lb",
      "t va",
      "u ba",
      "u ation",
      "u es",
      "w id",
      "x da",
      "x bb",
      "x fa",
      "y u",
      "y read",
      "y gi",
      "z on",
      "ff cc",
      "ff fe",
      "ff cd",
      "ff ae",
      "ar en",
      "ar ale",
      "de de",
      "de cc",
      "de dd",
      "de bc",
      "de ve",
      "de pth",
      "se qu",
      "in ex",
      "no rma",
      "ce dd",
      "ce fc",
      "ce ac",
      "ce bf",
      "at ta",
      "ch ar",
      "ch at",
      "ch ment",
      "ch ild",
      "ch own",
      "or der",
      "do ct",
      "lo p",
      "lo go",
      "ffff ca",
      "ed n",
      "ip v",
      "as ia",
      "as sets",
      "ee ec",
      "par md",
      "nd ir",
      "nd wid",
      "fffff e",
      "th under",
      "ck pt",
      "ab cc",
      "ab fc",
      "ab ac",
      "re fresh",
      "er s",
      "tt ime",
      "ad fc",
      "st ir",
      "sh ort",
      "um p",
      "pre ssion",
      "pre sta",
      "type kit",
      "li t",
      "li zed",
      "ra ck",
      "by te",
      "al lr",
      "al ready",
      "err str",
      "com mand",
      ".... .",
      ".... ...",
      "dd fc",
      "fc de",
      "fc ce",
      "fc dc",
      "fc bc",
      "ma in",
      "da ce",
      "da cb",
      "con dition",
      "con tin",
      "db d",
      "db e",
      "db g",
      "df ed",
      "df bc",
      "io state",
      "ac ac",
      "ac bc",
      "ba f",
      "ba ndwid",
      "si mba",
      "edu ce",
      "ex pression",
      "be b",
      "bf ea",
      "bf bb",
      "ca ec",
      "ca cd",
      "ca fc",
      "ca pt",
      "cf b",
      "ge o",
      "ge tting",
      "ge tel",
      "ef de",
      "ef ce",
      "ef ee",
      "ef dd",
      "ef bc",
      "ef bf",
      "cb ea",
      "hi t",
      "hi clou",
      "ver if",
      "go v",
      "proces ses",
      "bgl master",
      "over flow",
      "pa n",
      "pa pi",
      "fb bc",
      "per cl",
      "google tag",
      "un able",
      "fail ure",
      "gene ral",
      "gener ating",
      "code s",
      "ru ndir",
      "sp ec",
      "sp lit",
      "net work",
      "mpi ch",
      "................ ................",
      "ddc c",
      "im pr",
      "vi car",
      "ni el",
      "ri ch",
      "cac f",
      "fcc f",
      "cre at",
      "mc mm",
      "sig n",
      "efc a",
      "efc b",
      "efc f",
      "fcd a",
      "fcd d",
      "ll nl",
      "fce b",
      "fce e",
      "redu ce",
      "activ ating",
      "ub mcmm",
      "bfe b",
      "efe f",
      "am d",
      "bi z",
      "gith uba",
      "jtag id",
      "cp c",
      "cp p",
      "content ion",
      "content rec",
      "gn u",
      "............ ..",
      "bec a",
      "fdc c",
      "res ource",
      "el and",
      "stream tri",
      "flo pcount",
      "coll ector",
      "cab f",
      "cab ot",
      "manhu aren",
      "ffffff fc",
      ".................... ...",
      "sock e",
      "aw s",
      "vgq s",
      "send ing",
      "asser tion",
      "bdb b",
      "omme nd",
      "xfffff e",
      "fad y",
      "gm t",
      "access ibl",
      "hw stab",
      "homme s",
      "pub ads",
      "bel nez",
      "mod u",
      "ama zon",
      "notification s",
      "maj or",
      "testqbox hang",
      "windo ws",
      "bri an",
      "cid ian",
      "ep streamtri",
      "eas yread",
      "fg ygi",
      "fon ts",
      "ho st",
      "hy percl",
      "mtal k",
      "oima g",
      "pch ome",
      "pas ci",
      "scli ck",
      "arale go",
      "deve lop",
      "inex act",
      "norma lized",
      "atta chment",
      "doct or",
      "allr educe",
      "contin uation",
      "bandwid th",
      "capt ure",
      "hiclou d",
      "verif y",
      "niel sen",
      "githuba pp",
      "contentrec ommend",
      "flopcount ers",
      "accessibl e",
      "amazon aws",
      "epstreamtri ad",
      "hypercl aw",
      ") :",
      ") ...",
      "* )",
      "a ff",
      "a il",
      "a ccc",
      "a ada",
      "a adc",
      "b h",
      "b j",
      "b ip",
      "b id",
      "b ab",
      "b ase",
      "b rand",
      "b ffe",
      "b cec",
      "b ffd",
      "b adc",
      "b dec",
      "b abc",
      "b rain",
      "c si",
      "c cec",
      "c pes",
      "c aeb",
      "c abd",
      "d w",
      "d ab",
      "d iv",
      "d ue",
      "d abc",
      "e k",
      "e ver",
      "e ffe",
      "e ffc",
      "e ffd",
      "f o",
      "f adc",
      "g s",
      "g t",
      "g u",
      "g bgl",
      "h an",
      "i b",
      "i z",
      "i de",
      "i se",
      "i ss",
      "i te",
      "i ap",
      "i es",
      "j ni",
      "k e",
      "k k",
      "k ne",
      "k dc",
      "k en",
      "k nel",
      "k cdn",
      "l h",
      "l ac",
      "l ate",
      "l apa",
      "m de",
      "m ing",
      "m er",
      "m ob",
      "m dn",
      "n x",
      "n ee",
      "o de",
      "o image",
      "o dr",
      "p ps",
      "q a",
      "q i",
      "q s",
      "q x",
      "q hi",
      "q pic",
      "q logo",
      "r m",
      "r o",
      "r w",
      "r ss",
      "r ing",
      "r ome",
      "r ta",
      "r flo",
      "s b",
      "s ch",
      "s on",
      "s mi",
      "s pa",
      "s core",
      "s sen",
      "s am",
      "s afe",
      "s orter",
      "t z",
      "t wi",
      "t anx",
      "u i",
      "u ch",
      "u na",
      "u bgl",
      "v r",
      "v ing",
      "v is",
      "v atar",
      "w al",
      "w sing",
      "x ad",
      "x fc",
      "x ca",
      "x ef",
      "x af",
      "y x",
      "y ms",
      "y es",
      "y bp",
      "z kcdn",
      "ff t",
      "ff de",
      "ff ce",
      "ff ec",
      "ff ab",
      "ff da",
      "ff db",
      "ff add",
      "ff cf",
      "ff bb",
      "ff cb",
      "ff bfb",
      "ff aeb",
      "ff afb",
      "ff afa",
      "ar ed",
      "ar ty",
      "ar il",
      "ar an",
      "de ce",
      "de ec",
      "de ed",
      "de fc",
      "de mo",
      "de bcc",
      "de mde",
      "se ver",
      "se ille",
      "se ek",
      "in te",
      "in it",
      "in ity",
      "no io",
      "no sl",
      "ce ec",
      "ce ab",
      "ce cd",
      "ce db",
      "ce bd",
      "ce cf",
      "ce eb",
      "card s",
      "card re",
      "at ic",
      "at anx",
      "ch am",
      "ch mod",
      "ec ce",
      "ec bc",
      "ec dn",
      "ec ise",
      "lo st",
      "lo cal",
      "ed de",
      "ed fc",
      "ed ump",
      "ip le",
      "ss p",
      "pro ject",
      "to ol",
      "to ken",
      "to uch",
      "ou texception",
      "ct l",
      "ct app",
      "ee bea",
      "par ame",
      "ion i",
      "service mailbox",
      "service network",
      "not e",
      "th er",
      "ck ap",
      "ne os",
      "for ce",
      "ab ec",
      "ab dc",
      "ab db",
      "ab bc",
      "ab led",
      "pe op",
      "re open",
      "re starting",
      "re mo",
      "er y",
      "er ist",
      "tt er",
      "ad v",
      "ad be",
      "ad sr",
      "ad master",
      "ad nx",
      "bl ac",
      "st ill",
      "sh ared",
      "ido trans",
      "ido client",
      "ido ms",
      "ido mar",
      "new ma",
      "part ition",
      "pre sent",
      "pre qx",
      "down load",
      "me kn",
      "me am",
      "me ssen",
      "ea ae",
      "te ed",
      "te nsion",
      "ra i",
      "bffff a",
      "bffff d",
      "iv ecdn",
      "receiv et",
      "dc dc",
      "dc dd",
      "dc ac",
      "dc bc",
      "dc bf",
      "dc ount",
      "dc ode",
      "cc dd",
      "cc da",
      "cc ba",
      "cc bf",
      "err han",
      "com ms",
      "fe ffff",
      "fe fffff",
      "fe fe",
      "fe bc",
      "fe bf",
      "fe fab",
      "cd adc",
      "cd fffe",
      "dd ff",
      "dd dc",
      "dd md",
      "fc ff",
      "fc ab",
      "fc fc",
      "fc bf",
      "fc af",
      "fc ffe",
      "fc bea",
      "da ec",
      "da cc",
      "da cd",
      "da fc",
      "da ac",
      "con c",
      "con si",
      "con so",
      "con project",
      "db a",
      "db fd",
      "df a",
      "df b",
      "df cc",
      "ac fc",
      "ac bf",
      "ac bb",
      "cu s",
      "cu pps",
      "ba ab",
      "ba ac",
      "ba ij",
      "ba nk",
      "ba yms",
      "bc dc",
      "bc ast",
      "add this",
      "ex ter",
      "ex chan",
      "ex tension",
      "be ab",
      "be bd",
      "ae fe",
      "bf ed",
      "bf ee",
      "bf dea",
      "ent ial",
      "fi er",
      "fi el",
      "bd ab",
      "ca ee",
      "ca ac",
      "ca mo",
      "ca pi",
      "cf af",
      "ded replication",
      "bb de",
      "bb ab",
      "bb ac",
      "client services",
      "lin adv",
      "out s",
      "out put",
      "out brain",
      "cor edump",
      "aa ac",
      "ef ed",
      "ef db",
      "ef ac",
      "ef be",
      "ef bd",
      "ef bb",
      "ef aa",
      "ef ccb",
      "ef aea",
      "ef dcd",
      "af bb",
      "af ter",
      "cb ec",
      "cb dc",
      "cb cc",
      "cb fc",
      "cb ac",
      "map files",
      "rep ub",
      "rep lac",
      "stor age",
      "det ail",
      "fa ce",
      "fa ec",
      "fa fc",
      "........ ...",
      "ter s",
      "eb ee",
      "eb ea",
      "eb da",
      "eb db",
      "su ite",
      "fd ff",
      "fd dc",
      "ms n",
      "socket s",
      "bgl err",
      "bgl code",
      "il able",
      "fb ab",
      "fb ac",
      "fb ba",
      "per son",
      "stat s",
      "qu ality",
      "qu ery",
      "log user",
      "ol ar",
      "ol dcode",
      "un i",
      "un cate",
      "un sign",
      "test suite",
      "fea f",
      "nc y",
      "ddr size",
      "ru bi",
      "ic s",
      "av p",
      "allo cation",
      "ctr s",
      "................ ............",
      "ede a",
      "ede f",
      "tr uncate",
      "up load",
      "bo s",
      "en abled",
      "tempor aril",
      "sen ee",
      "fcc ff",
      "fcc bf",
      "ob ject",
      "symbol s",
      "efc fc",
      "efc bc",
      "efc bd",
      "efc fd",
      "sof tw",
      "ur l",
      "ur ation",
      "ffb ff",
      "ffb df",
      "cur ioni",
      "fcd b",
      "fcd f",
      "fcd bf",
      "ll ap",
      "img ur",
      "act erist",
      "bm atic",
      "sho ts",
      "ddcmd gbgl",
      "fce a",
      "fce f",
      "fce bd",
      "fce cb",
      "ha o",
      "inf inity",
      "micro ad",
      "dropbox api",
      "adc ast",
      "efe b",
      "cs ar",
      "dec lare",
      "edram s",
      "dn s",
      "bu ild",
      "eec c",
      "glo b",
      "gn ar",
      "port mgr",
      "run s",
      "aea c",
      "mar t",
      "mar seille",
      "bdir ect",
      "bea con",
      "xffff b",
      "xffff ff",
      "xffff fff",
      "nex t",
      "ount s",
      "acc ounts",
      "ffaa a",
      "cau sed",
      "aab a",
      "flo at",
      "cab e",
      "synd rome",
      "enable flush",
      "bdf a",
      "fbc a",
      "wor dcount",
      "grep a",
      "grep b",
      "zhi mg",
      "cent ral",
      ".................... ..",
      "ia hao",
      "mu lt",
      "str ip",
      "bce bos",
      "vgq senee",
      "ulrike tests",
      "hn edn",
      "zero byte",
      "og s",
      "sl f",
      "sto pping",
      "va ilable",
      "problem s",
      "cl g",
      "dbl p",
      "hang outs",
      "imp service",
      "pur ge",
      "win err",
      "secu repub",
      "stack overflow",
      "stack exchan",
      "ag kn",
      "au g",
      "pk t",
      "pub s",
      "wa y",
      "wa it",
      "clou df",
      "bel n",
      "efdf d",
      "tri er",
      "adobe login",
      "config uration",
      "/../ ../",
      "di ctapp",
      "pu bmatic",
      "bro wsing",
      "bro adcast",
      "mailbox monitor",
      "cv s",
      "fr action",
      "gra vatar",
      "gate way",
      "oc sp",
      "sm all",
      "tur bdirect",
      "tva x",
      "yu edu",
      "sequ ential",
      "char acterist",
      "order ed",
      "parmd g",
      "ttime outexception",
      "stir turbdirect",
      "pan ic",
      "googletag manager",
      "spec ial",
      "impr ecise",
      "creat ivecdn",
      "socke ttimeoutexception",
      "vgqs kn",
      "gmt dmp",
      "modu le",
      "oimag ea",
      "bip arty",
      "bid switch",
      "ever note",
      "fo cus",
      "gt ms",
      "gu aran",
      "iss ues",
      "kdc l",
      "late ncy",
      "lapa ck",
      "mob ile",
      "nee dedreplication",
      "oimage b",
      "qhi mg",
      "rta x",
      "rflo mp",
      "sch olar",
      "smi th",
      "spa ce",
      "score cardre",
      "sam rai",
      "safe browsing",
      "tz yx",
      "twi tter",
      "una vailable",
      "vis us",
      "wal k",
      "demde x",
      "sever ed",
      "nosl eep",
      "tool s",
      "parame ters",
      "servicemailbox es",
      "servicenetwork characterist",
      "ckap fer",
      "neos mart",
      "peop le",
      "remo ving",
      "adsr vr",
      "adnx s",
      "blac s",
      "idotrans portmgr",
      "idoclient mgr",
      "idomar sh",
      "newma ps",
      "mekn ed",
      "messen ger",
      "receivet rain",
      "fefe feff",
      "consi der",
      "conso le",
      "baij iahao",
      "bayms gr",
      "exter nal",
      "fiel ds",
      "replac ing",
      "detail ed",
      "person ality",
      "loguser info",
      "unsign ed",
      "rubi conproject",
      "temporaril y",
      "softw are",
      "ddcmdgbgl v",
      "declare servicenetworkcharacterist",
      "marseille bgl",
      "mult iple",
      "zerobyte bug",
      "securepub ads",
      "stackexchan ge",
      "biparty z",
      "guaran teed",
      "neededreplication s",
      "scorecardre search",
      "declareservicenetworkcharacterist ics",
      "! (",
      "& )",
      "& ,",
      ") '",
      ") ...........................",
      ") .......",
      ") .......................",
      ") ......................",
      "* ,",
      "* &)",
      "- >",
      "/ ./",
      "= <",
      "= !(",
      "? /",
      "a k",
      "a o",
      "a y",
      "a ss",
      "a eee",
      "a im",
      "a ffd",
      "a man",
      "a edc",
      "a cda",
      "a abc",
      "a gent",
      "a ux",
      "a gg",
      "a fffffff",
      "b t",
      "b atch",
      "b ne",
      "b io",
      "b bf",
      "b us",
      "b fff",
      "b ffb",
      "b edc",
      "b cda",
      "b ccb",
      "b acb",
      "b ates",
      "b dbc",
      "b trace",
      "c w",
      "c gi",
      "c adb",
      "c ffea",
      "c tools",
      "d g",
      "d h",
      "d j",
      "d k",
      "d par",
      "d sh",
      "d na",
      "d ge",
      "d ram",
      "d tr",
      "d line",
      "d ffc",
      "d ffd",
      "d ada",
      "d adf",
      "d fcf",
      "d abd",
      "d fffffff",
      "d lb",
      "d abb",
      "d pic",
      "d abf",
      "d ump",
      "e ld",
      "e adf",
      "e abc",
      "e cee",
      "e bfa",
      "e abd",
      "e start",
      "e ther",
      "f s",
      "f in",
      "f re",
      "f test",
      "f ur",
      "f dec",
      "f edc",
      "f bfb",
      "f tests",
      "f abc",
      "f ecc",
      "f aef",
      "f afa",
      "f bef",
      "f chown",
      "f chmod",
      "f truncate",
      "g d",
      "g p",
      "g in",
      "g ed",
      "g to",
      "g id",
      "g ice",
      "g ing",
      "g um",
      "g cc",
      "g un",
      "g apps",
      "g ath",
      "g mail",
      "g ame",
      "g timg",
      "g ctl",
      "h d",
      "h j",
      "h ar",
      "h pd",
      "h id",
      "h static",
      "h pm",
      "h res",
      "h el",
      "h fm",
      "i x",
      "i or",
      "i ted",
      "i sh",
      "i fe",
      "i eee",
      "i cb",
      "i ting",
      "i et",
      "i wi",
      "i cal",
      "i cau",
      "i cache",
      "i eeec",
      "i hd",
      "j i",
      "j v",
      "j re",
      "j line",
      "j ng",
      "j ection",
      "j fm",
      "j dk",
      "k o",
      "k r",
      "k eb",
      "k test",
      "k ill",
      "k dpic",
      "k iwi",
      "l a",
      "l g",
      "l ar",
      "l ing",
      "l ea",
      "l ti",
      "l be",
      "l cr",
      "l stat",
      "l xf",
      "l nk",
      "l chown",
      "l seek",
      "m ct",
      "m bl",
      "m err",
      "m is",
      "m allo",
      "m mb",
      "m mu",
      "m hfm",
      "n h",
      "n m",
      "n p",
      "n ing",
      "n ted",
      "n le",
      "n ded",
      "n ms",
      "n gi",
      "n ve",
      "n ull",
      "n sclick",
      "o id",
      "o ad",
      "o be",
      "o ption",
      "o sign",
      "p v",
      "p z",
      "p or",
      "p id",
      "p ted",
      "p ad",
      "p pre",
      "p net",
      "p op",
      "p ux",
      "q d",
      "q w",
      "q lr",
      "q hm",
      "q rt",
      "q hres",
      "r s",
      "r y",
      "r ed",
      "r on",
      "r st",
      "r ary",
      "r oc",
      "r fft",
      "s a",
      "s or",
      "s do",
      "s par",
      "s com",
      "s ma",
      "s can",
      "s content",
      "s all",
      "s ky",
      "s ses",
      "s gs",
      "s qrt",
      "t j",
      "t n",
      "t at",
      "t ab",
      "t st",
      "t rou",
      "t mp",
      "t ap",
      "t xyz",
      "t dp",
      "t ui",
      "t lbe",
      "u ff",
      "u id",
      "u mask",
      "u al",
      "u time",
      "u gh",
      "u sync",
      "u dpm",
      "v addr",
      "v buffer",
      "v jp",
      "v trace",
      "v oid",
      "w k",
      "w ar",
      "w ed",
      "w atch",
      "w pe",
      "w ra",
      "w su",
      "w an",
      "w xml",
      "w ave",
      "w bp",
      "w osign",
      "w pad",
      "x ff",
      "x de",
      "x ed",
      "x ing",
      "x ab",
      "x dc",
      "x fe",
      "x cd",
      "x db",
      "x ac",
      "x bc",
      "x be",
      "x ae",
      "x fb",
      "x fee",
      "x dr",
      "x fcd",
      "x ffd",
      "x bfe",
      "x bfa",
      "x gr",
      "x abb",
      "x afd",
      "x fffe",
      "y re",
      "y ap",
      "y img",
      "y vjp",
      "z hstatic",
      "z jfm",
      "z sall",
      "| |",
      "ff ee",
      "ff ba",
      "ff be",
      "ff bd",
      "ff af",
      "ff fb",
      "ff cec",
      "ff ced",
      "ff ada",
      "ff adb",
      "ff adc",
      "ff cdf",
      "ff bfd",
      "ff cee",
      "ff bfa",
      "ff acb",
      "ff dcc",
      "ff baa",
      "ff aca",
      "ff bcb",
      "ff tw",
      "ff cef",
      "ff bae",
      "ff dda",
      "ff bbb",
      "ff dbf",
      "ff baf",
      "ar est",
      "ar gum",
      "de n",
      "de ab",
      "de fe",
      "de df",
      "de bf",
      "de bd",
      "de bb",
      "de eb",
      "de fb",
      "de eca",
      "de normalized",
      "se ti",
      "se stat",
      "se curi",
      "se mbl",
      "in form",
      "in jection",
      "no p",
      "no pr",
      "no ni",
      "no comm",
      "no avatar",
      "no va",
      "no zerobytebug",
      "ce r",
      "ce da",
      "ce si",
      "ce be",
      "ce ca",
      "ce bb",
      "ce fd",
      "at o",
      "at all",
      "at ive",
      "ch ing",
      "ch em",
      "ch cham",
      "or ac",
      "or ies",
      "ser apis",
      "ec ff",
      "ec ab",
      "ec ad",
      "ec cc",
      "ec fe",
      "ec da",
      "ec ac",
      "ec ba",
      "ec ae",
      "ec bb",
      "ec aa",
      "ec fa",
      "ec mb",
      "ec ccc",
      "ec vbuffer",
      "pr iv",
      "do g",
      "do main",
      "lo or",
      "lo ne",
      "lo ader",
      "lo ok",
      "ffff e",
      "ffff ffc",
      "ffff ffd",
      "ed dc",
      "ed df",
      "ed ac",
      "ed ba",
      "ed bc",
      "ed ca",
      "ed bb",
      "ed aa",
      "ed fa",
      "ed bbb",
      "pd ate",
      "pd bg",
      "pd lxf",
      "ip s",
      "ss o",
      "ss um",
      "ss ive",
      "ss tat",
      "pro f",
      "on ly",
      "on fp",
      "on ix",
      "as on",
      "as sembl",
      "to po",
      "to purge",
      "to war",
      "ou ji",
      "id x",
      "id mp",
      "ct ld",
      "ct ips",
      "ee ce",
      "ee ba",
      "ee bc",
      "ee ae",
      "ee bf",
      "ee bd",
      "ee bb",
      "par serapis",
      "nd or",
      "fffff c",
      "fffff d",
      "fffff efa",
      "iar y",
      "th ir",
      "ck time",
      "ck gr",
      "ne tt",
      "ne te",
      "ne arest",
      "for mi",
      "ab ed",
      "ab ea",
      "ab ef",
      "re add",
      "re name",
      "re served",
      "re nc",
      "re xception",
      "re tag",
      "re started",
      "re sets",
      "re mer",
      "re gctl",
      "re ason",
      "of da",
      "er ing",
      "ad ce",
      "ad da",
      "ad cb",
      "ad fa",
      "ad tech",
      "ad tdp",
      "bl l",
      "bl as",
      "bl ime",
      "bl ast",
      "st and",
      "st un",
      "st uff",
      "sym cd",
      "sh ouji",
      "um s",
      "ase arch",
      "ido udpm",
      "new si",
      "new mpi",
      "new kernel",
      "new hack",
      "part sn",
      "li st",
      "li cate",
      "me hu",
      "me nted",
      "ea de",
      "ea ce",
      "ea ec",
      "ea fc",
      "ea ca",
      "ea pp",
      "te maj",
      "nt ifi",
      "nt ry",
      "ra nova",
      "ti g",
      "ti mer",
      "ti cktime",
      "session timeout",
      "le s",
      "le mented",
      "dc u",
      "dc da",
      "dc db",
      "dc df",
      "dc ae",
      "dc bd",
      "dc cf",
      "dc af",
      "dc aee",
      "dc aaf",
      "by e",
      "cc r",
      "cc ab",
      "cc db",
      "cc ac",
      "cc bc",
      "cc be",
      "cc bd",
      "cc ca",
      "cc cf",
      "cc af",
      "cc fa",
      "cc same",
      "al err",
      "al ler",
      "al eam",
      "time s",
      "com mit",
      "fe ec",
      "fe ab",
      "fe ad",
      "fe fc",
      "fe bd",
      "fe ffe",
      "fe fcd",
      "fe eds",
      "fe fcf",
      "fe feb",
      "cd de",
      "cd be",
      "cd fbab",
      "dd ab",
      "dd ac",
      "dd af",
      "dd abe",
      "is o",
      "fc ba",
      "fc ded",
      "fc fd",
      "fc fff",
      "fc fcc",
      "fc fda",
      "fc fcd",
      "fc bfe",
      "fc dec",
      "fc bff",
      "fc lick",
      "fc bfb",
      "fc bec",
      "fc ceb",
      "fc bfa",
      "fc bde",
      "fc cea",
      "fc dcd",
      "fc fcb",
      "fc baa",
      "fc deb",
      "fc dca",
      "fc bbb",
      "fc bcf",
      "fc dcf",
      "ma cce",
      "ma ke",
      "ma keb",
      "da ea",
      "da cf",
      "da af",
      "da fdc",
      "da abd",
      "da abe",
      "da fca",
      "con st",
      "con tig",
      "db de",
      "db ec",
      "db ea",
      "db dc",
      "db cc",
      "db dd",
      "db fc",
      "db bc",
      "db cr",
      "db sr",
      "db aaf",
      "db remer",
      "df d",
      "df ec",
      "df dc",
      "df ac",
      "df ae",
      "df bb",
      "df dac",
      "df afa",
      "mi b",
      "mi ao",
      "mi ranova",
      "ac af",
      "ac fa",
      "ac cec",
      "ba ff",
      "ba ec",
      "ba cc",
      "ba fc",
      "ba eb",
      "ba ckgr",
      "bc ab",
      "bc ac",
      "bc bc",
      "bc be",
      "bc bf",
      "bc aa",
      "si xgr",
      "si temaj",
      "add ing",
      "ex it",
      "ex ited",
      "be ad",
      "be ba",
      "be bc",
      "be bf",
      "be bb",
      "be fb",
      "be bfdc",
      "be gin",
      "ae de",
      "ae ec",
      "ae fc",
      "ae bf",
      "ae bd",
      "ae bb",
      "ae ffa",
      "ir q",
      "ir ector",
      "na n",
      "bf ab",
      "bf cc",
      "bf da",
      "bf ac",
      "bf bf",
      "bf aa",
      "bf af",
      "bf dac",
      "bf cefc",
      "bf baf",
      "cio db",
      "ps g",
      "gh dr",
      "fi eld",
      "bd fe",
      "bd fc",
      "ca de",
      "ca ce",
      "ca ea",
      "ca aa",
      "ca us",
      "ca eeb",
      "ca noni",
      "ca ching",
      "oo la",
      "rou nded",
      "cf g",
      "cf de",
      "cf ee",
      "cf bc",
      "cf ecf",
      "cf lu",
      "cf dddc",
      "cf loor",
      "open x",
      "open jdk",
      "file system",
      "bb ec",
      "bb dc",
      "bb db",
      "bb bb",
      "bb dee",
      "bb adbe",
      "htt p",
      "ge n",
      "ge tr",
      "ge ttime",
      "out stand",
      "cor por",
      "aa ee",
      "aa cc",
      "aa cd",
      "aa fc",
      "aa af",
      "aa abc",
      "aa ecab",
      "system controller",
      "ef ad",
      "ef ba",
      "ef ddc",
      "ef ccd",
      "ef bfe",
      "ef adf",
      "ef edc",
      "ef cda",
      "ef cdf",
      "ef edb",
      "ef bfd",
      "ef ecf",
      "ef cca",
      "ef afb",
      "ef eef",
      "ef eca",
      "ef eeb",
      "ef dcc",
      "ef edd",
      "ef baa",
      "ef ecd",
      "ef dbc",
      "ef bcb",
      "ef bef",
      "ef deb",
      "ef cef",
      "ef dea",
      "ef def",
      "ef daa",
      "ef eaa",
      "ef dda",
      "ef ddb",
      "ef ddd",
      "ef ddf",
      "ef ecb",
      "ef daf",
      "ef dbb",
      "ef dbe",
      "ef baf",
      "af de",
      "af cc",
      "af db",
      "af bc",
      "af be",
      "af ly",
      "af abf",
      "cb de",
      "cb ad",
      "cb dd",
      "cb ba",
      "cb bc",
      "cb js",
      "cb rt",
      "map ping",
      "read v",
      "read block",
      "read link",
      "conn ected",
      "exce ssive",
      "so pt",
      "fa de",
      "fa ad",
      "fa cc",
      "fa cee",
      "us age",
      "et c",
      "pt login",
      "pt arget",
      "pt ance",
      "pt qlr",
      "wi fi",
      "corr upt",
      "hi gh",
      "addre sses",
      "ds lb",
      "eb de",
      "eb ce",
      "eb ed",
      "eb ba",
      "eb bc",
      "eb bd",
      "ver bo",
      "min sessiontimeout",
      "su bne",
      "su ppre",
      "su blime",
      "gl p",
      "val ues",
      "fd fffff",
      "fd ffc",
      "fd ffffe",
      "valid ate",
      "lish i",
      "ms gto",
      "mp l",
      "mp xl",
      "mp ill",
      "cr l",
      "termin ated",
      "sr ko",
      "bgl c",
      "bgl sys",
      "bgl ctl",
      "bgl personality",
      "il t",
      "il er",
      "il iary",
      "direct ories",
      "co sy",
      "pa i",
      "pa vtrace",
      "fb de",
      "fb dc",
      "fb cc",
      "fb cd",
      "fb fc",
      "fb da",
      "fb be",
      "fb bae",
      "qu iet",
      "qu sixgr",
      "qu lishi",
      "gle n",
      "tor estart",
      "log file",
      "log ies",
      "log ical",
      "image s",
      "un link",
      "un it",
      "un imp",
      "un pk",
      "fee b",
      "fee aa",
      "ut ion",
      "test long",
      "fea c",
      "ww biz",
      "ru les",
      "ic bcast",
      "av n",
      "inst r",
      "inst all",
      "net dna",
      "mpi hpm",
      "ap ac",
      "xer cesi",
      "................ ....................",
      "................ ...............",
      "................ .................",
      "................ .............",
      "ede fb",
      "tr c",
      "int f",
      "ddc a",
      "ddc b",
      "ddc d",
      "up mobile",
      "en cer",
      "cn k",
      "cn vt",
      "sn sl",
      "ni ux",
      "ve ndor",
      "good bye",
      "sen sor",
      "cac b",
      "cac afly",
      "fcc a",
      "fcc b",
      "fcc d",
      "fcc de",
      "fcc ce",
      "fcc ab",
      "fcc fe",
      "fcc df",
      "fcc ba",
      "fcc cf",
      "fcc bb",
      "fcc aa",
      "fcc af",
      "fcc fa",
      "fcc fb",
      "it z",
      "cec fc",
      "fda c",
      "fda ea",
      "po inte",
      "efc fe",
      "efc be",
      "efc aa",
      "efc af",
      "efc fb",
      "efc bad",
      "ubl ish",
      "get dropbox",
      "get cw",
      "get gid",
      "get pid",
      "get uid",
      "hu cdn",
      "ur sdo",
      "ffb ec",
      "ffb ed",
      "ffb ab",
      "ffb cc",
      "ffb fe",
      "ffb fc",
      "ffb db",
      "ffb bc",
      "ffb be",
      "ffb bf",
      "ffb bd",
      "ffb ffbff",
      "fcd ce",
      "fcd ab",
      "fcd dc",
      "fcd fe",
      "fcd dd",
      "fcd ae",
      "fcd aa",
      "fcd fd",
      "ll seek",
      "ali tui",
      "img src",
      "img cache",
      "img tn",
      "sho wxml",
      "ffc de",
      "ffc bc",
      "ffc bf",
      "ffc bd",
      "ffc bb",
      "fce ff",
      "fce ec",
      "fce ed",
      "fce ad",
      "fce cc",
      "fce fe",
      "fce cd",
      "fce da",
      "fce db",
      "fce be",
      "fce ae",
      "fce bf",
      "fce ca",
      "fce bb",
      "fce af",
      "med al",
      "ccd n",
      "ng ine",
      "qq mail",
      "target close",
      "ffa ff",
      "ffa ec",
      "ffa ed",
      "ffa ee",
      "ffa ab",
      "ffa ea",
      "ffa fe",
      "ffa fc",
      "ffa ac",
      "ffa ae",
      "ffd ce",
      "micr on",
      "drop ping",
      "micro loader",
      "fol d",
      "long ca",
      "long long",
      "max bug",
      "xa ed",
      "follow ing",
      "efe ff",
      "efe ab",
      "efe fe",
      "efe bc",
      "efe bd",
      "efe bb",
      "efe fd",
      "fdb c",
      "fdb df",
      "fdb bf",
      "sna n",
      "inter val",
      "inter face",
      "perfor ming",
      "cs m",
      "xe qusixgr",
      "bff ea",
      "bff ac",
      "bff bc",
      "bff cf",
      "ue snsl",
      "cdn js",
      "sppm opt",
      "tag r",
      "cdc a",
      "lib visus",
      "lib rary",
      "write log",
      "bu sy",
      "bu ilt",
      "stre itz",
      "bin d",
      "eec b",
      "fl agg",
      "rando macce",
      "bfb ec",
      "bfb ab",
      "bee b",
      "bee aab",
      "eff bc",
      "eff ca",
      "eff bb",
      "eff aa",
      "eff cb",
      "eff fd",
      "xf ed",
      "cce b",
      "cce ea",
      "cce da",
      "bfc a",
      "bfc b",
      "cp gra",
      "mk dir",
      "bfd ab",
      "mini game",
      "mo ds",
      "run ning",
      "bec b",
      "bec d",
      "cde e",
      "fdf b",
      "fdf db",
      "fdf df",
      "fdf ae",
      "comp iler",
      "ade a",
      "fdc ff",
      "ace f",
      "ace bf",
      "pp ed",
      "pp cfloor",
      "bea c",
      "xffff d",
      "xffff cb",
      "xffff ffe",
      "xml parserapis",
      "nex age",
      "fcf be",
      "fcf bf",
      "fcf bd",
      "fcf aa",
      "efb cc",
      "efb cd",
      "efb da",
      "efb bc",
      "efb be",
      "efb bd",
      "........................ ..",
      "align ed",
      "control ling",
      "acc ad",
      "ffea eb",
      "ffaa f",
      "exist ing",
      "efd ff",
      "efd ce",
      "efd fe",
      "efd fc",
      "interrup ting",
      "aab b",
      "aab f",
      "opt aim",
      "bde a",
      "bde b",
      "bde e",
      "bde f",
      "bde ce",
      "bde cc",
      "bde aa",
      "cab a",
      "cfc a",
      "bcc ac",
      "bdf ea",
      "ebc a",
      "wor ker",
      "mem test",
      "mem mon",
      "() '",
      "** *",
      "afc bf",
      "cbc a",
      "initi al",
      "aler io",
      "fcb ce",
      "fcb ab",
      "fcb dd",
      "fcb ac",
      "clear port",
      "bba e",
      "bba de",
      "fec b",
      "fec fc",
      "fab f",
      "fab dd",
      "fab da",
      "initializ ation",
      "initializ eapp",
      "bdc b",
      "bda e",
      "cm dline",
      "dis connected",
      "ffffff fe",
      "ffffff fa",
      "ffffff fb",
      "old kernel",
      "fde e",
      "fde f",
      "fde ad",
      "ia o",
      "lu ke",
      "mu lti",
      "str obe",
      "fef afa",
      "// /",
      "aw qi",
      "aw renc",
      "bbe b",
      "cas ale",
      "cbe b",
      "eba e",
      "tra p",
      "tra in",
      "tra ck",
      "tra pping",
      "tra pped",
      "send packet",
      "send msgto",
      "send worker",
      "send train",
      "cccc cccd",
      "feff fc",
      "trello cdn",
      "afe bf",
      "dff acb",
      "eab f",
      "eab ea",
      "def bf",
      "sel ftest",
      "acce pted",
      "acce ptance",
      "jeff greeno",
      "og uesnsl",
      "sl ave",
      "sl awrenc",
      "va lone",
      "xfffff dc",
      "xfffff ef",
      "xfffff ebc",
      "news app",
      "efdc b",
      "efdc f",
      "cl ass",
      "hang test",
      "imp act",
      "ul ative",
      "wr ating",
      "non contig",
      "ste pping",
      "exec ution",
      "au th",
      "au topurge",
      "au torestart",
      "dup licate",
      "mm stat",
      "pk i",
      "wa iting",
      "yt nh",
      "prefetch ing",
      "prefetch es",
      "efdf b",
      "pack ages",
      "quant count",
      "**** ****",
      "**** ***",
      "adobe id",
      "config file",
      "ama ihd",
      "bffc bf",
      "di ff",
      "di gice",
      "fm mods",
      "pu ui",
      "rt b",
      "xbf aeb",
      "xaa de",
      "timg sa",
      "fcbe b",
      "under flow",
      "flush ing",
      "windo wsu",
      "dm w",
      "fr ee",
      "ile ged",
      "sm aller",
      "tur n",
      "xda abe",
      "xbb hj",
      "yu ri",
      "sequ encer",
      "order ing",
      "logo s",
      "asia max",
      "refresh es",
      "googletag services",
      "failure s",
      "spec ulative",
      "creat ive",
      "socke texception",
      "modu lo",
      "host name",
      "oimag ec",
      "verify stuff",
      "base line",
      "bffe bcbe",
      "bdec ab",
      "dw are",
      "div ac",
      "div ide",
      "gs lb",
      "iz xequsixgr",
      "ide ntifi",
      "kk k",
      "ming xing",
      "qi hucdn",
      "rm w",
      "rm dir",
      "ro ws",
      "ro cflu",
      "rss gov",
      "xfc ffd",
      "yes comm",
      "yes zerobytebug",
      "cham onix",
      "idoms g",
      "idoms ghdr",
      "fefab b",
      "ddmd v",
      "fcbf abd",
      "bcast v",
      "bfee fe",
      "bbde ba",
      "glob al",
      "purge interval",
      "cloudf lare",
      "cloudf ron",
      "yuedu st",
      "mobile m",
      "walk up",
      "nosleep yescomm",
      "idomarsh alerr",
      "idomarsh alerio",
      "console ip",
      "console port",
      "ak amaihd",
      "ay oo",
      "aman ad",
      "aux iliary",
      "batch files",
      "dg test",
      "dh ptqlr",
      "dpar ty",
      "dsh ytnh",
      "dge mm",
      "dtr p",
      "ether net",
      "fin d",
      "fre ed",
      "fur ther",
      "gun nels",
      "gath ering",
      "har dware",
      "hid den",
      "hel lo",
      "ife ngi",
      "icb i",
      "icau h",
      "ieeec onfp",
      "jv m",
      "kr com",
      "kiwi hk",
      "lar ge",
      "lea der",
      "lnk ck",
      "mis compare",
      "mallo c",
      "mmb iz",
      "nle v",
      "nms glen",
      "null pointe",
      "oad z",
      "red irector",
      "roc star",
      "spar ing",
      "scom error",
      "sma ato",
      "scan com",
      "sky pe",
      "tab oola",
      "trou ter",
      "tap ad",
      "tlbe ntry",
      "ual dn",
      "watch dog",
      "wpe ngine",
      "wra y",
      "wbp ctips",
      "xed cb",
      "xdr pj",
      "xfffe ad",
      "yre xdrpj",
      "fffb ccf",
      "ffdda ff",
      "argum ent",
      "seti timer",
      "securi ty",
      "inform ation",
      "nopr int",
      "nocomm nosleep",
      "atall begin",
      "chem bio",
      "orac le",
      "priv ileged",
      "domain s",
      "look ing",
      "sstat s",
      "assembl y",
      "topo logies",
      "towar d",
      "ctld l",
      "thir dparty",
      "nett y",
      "nete ase",
      "readd ir",
      "retag ging",
      "ofda y",
      "idoudpm gr",
      "newsi mg",
      "mehu l",
      "ccsame f",
      "aleam r",
      "makeb glp",
      "miao pai",
      "backgr ound",
      "sitemaj i",
      "caus ing",
      "canoni cal",
      "getr usage",
      "gettime ofday",
      "outstand ing",
      "corpor ation",
      "ptarget mgr",
      "verbo se",
      "subne ts",
      "suppre ssing",
      "sublime text",
      "fdffc be",
      "mpxl c",
      "srko dhptqlr",
      "bglctl pavtrace",
      "unimp lemented",
      "unpk g",
      "wwbiz api",
      "xercesi mpl",
      "niux iao",
      "ublish ing",
      "getcw d",
      "ursdo ccdn",
      "flagg ing",
      "randomacce ss",
      "beeaab ff",
      "cpgra ph",
      "initializeapp memory",
      "luke i",
      "awqi izxequsixgr",
      "casale media",
      "sendmsgto debugger",
      "jeffgreeno ugh",
      "digice rt",
      "windowsu pdate",
      "xbbhj xc",
      "identifi er",
      "rocflu idmp",
      "cloudfron t",
      "idomarshalerr ecvbuffer",
      "ifengi mg",
      "ieeeconfp ublishing",
      "nullpointe rexception",
      "srkodhptqlr yvjp"
    ]
  }
}