{
  "version": "1.0",
  "truncation": null,
  "padding": null,
  "added_tokens": [
    {
      "id": 0,
      "content": "<pad>",
      "single_word": false,
      "lstrip": false,
      "rstrip": false,
      "normalized": false,
      "special": true
    },
    {
      "id": 1,
      "content": "<unk>",
      "single_word": false,
      "lstrip": false,
      "rstrip": false,
      "normalized": false,
      "special": true
    },
    {
      "id": 2,
      "content": " ",
      "single_word": false,
      "lstrip": false,
      "rstrip": false,
      "normalized": false,
      "special": true
    }
  ],
  "normalizer": {
    "type": "Sequence",
    "normalizers": [
      {
        "type": "NFKC"
      },
      {
        "type": "Lowercase"
      }
    ]
  },
  "pre_tokenizer": {
    "type": "Sequence",
    "pretokenizers": [
      {
        "type": "Whitespace"
      },
      {
        "type": "ByteLevel",
        "add_prefix_space": false,
        "trim_offsets": true,
        "use_regex": true
      }
    ]
  },
  "post_processor": {
    "type": "ByteLevel",
    "add_prefix_space": true,
    "trim_offsets": false,
    "use_regex": true
  },
  "decoder": null,
  "model": {
    "type": "BPE",
    "dropout": null,
    "unk_token": null,
    "continuing_subword_prefix": null,
    "end_of_word_suffix": null,
    "fuse_unk": false,
    "byte_fallback": false,
    "ignore_merges": false,
    "vocab": {
      "<pad>": 0,
      "<unk>": 1,
      " ": 2,
      "!": 3,
      "#": 4,
      "$": 5,
      "%": 6,
      "&": 7,
      "'": 8,
      "(": 9,
      ")": 10,
      "*": 11,
      "+": 12,
      ",": 13,
      "-": 14,
      ".": 15,
      "/": 16,
      "9": 17,
      ":": 18,
      ";": 19,
      "<": 20,
      "=": 21,
      ">": 22,
      "?": 23,
      "@": 24,
      "[": 25,
      "\\": 26,
      "]": 27,
      "_": 28,
      "`": 29,
      "a": 30,
      "b": 31,
      "c": 32,
      "d": 33,
      "e": 34,
      "f": 35,
      "g": 36,
      "h": 37,
      "i": 38,
      "j": 39,
      "k": 40,
      "l": 41,
      "m": 42,
      "n": 43,
      "o": 44,
      "p": 45,
      "q": 46,
      "r": 47,
      "s": 48,
      "t": 49,
      "u": 50,
      "v": 51,
      "w": 52,
      "x": 53,
      "y": 54,
      "z": 55,
      "|": 56,
      "99": 57,
      "9999": 58,
      "99999999": 59,
      "ff": 60,
      "999": 61,
      "ar": 62,
      "de": 63,
      "se": 64,
      "no": 65,
      "in": 66,
      "99999": 67,
      "ce": 68,
      "car": 69,
      "card": 70,
      "at": 71,
      "node": 72,
      "ch": 73,
      "9999999999999999": 74,
      "or": 75,
      "ser": 76,
      "ec": 77,
      "do": 78,
      "pr": 79,
      "),": 80,
      "lo": 81,
      "ffff": 82,
      "ed": 83,
      "pd": 84,
      "vpd": 85,
      "ip": 86,
      "on": 87,
      "ss": 88,
      "pro": 89,
      "serv": 90,
      "as": 91,
      "id": 92,
      "to": 93,
      "ou": 94,
      "ee": 95,
      "ct": 96,
      "nd": 97,
      "ion": 98,
      "par": 99,
      "fffff": 100,
      "ml": 101,
      "ice": 102,
      "service": 103,
      "st": 104,
      "999999999999999999999999": 105,
      "dear": 106,
      "iar": 107,
      "th": 108,
      "proce": 109,
      "999999": 110,
      "not": 111,
      "er": 112,
      "ing": 113,
      "process": 114,
      "eck": 115,
      "check": 116,
      "processor": 117,
      "ecid": 118,
      "slo": 119,
      "slot": 120,
      "ck": 121,
      "sy": 122,
      "atch": 123,
      "ound": 124,
      "found": 125,
      "match": 126,
      "ab": 127,
      "ted": 128,
      "ne": 129,
      "lock": 130,
      "block": 131,
      "for": 132,
      "re": 133,
      "of": 134,
      "ask": 135,
      "dat": 136,
      "pe": 137,
      "the": 138,
      "ad": 139,
      "ting": 140,
      "bl": 141,
      "sym": 142,
      "blk": 143,
      "mask": 144,
      "sh": 145,
      "new": 146,
      "ase": 147,
      "ido": 148,
      "um": 149,
      "serted": 150,
      "chip": 151,
      "into": 152,
      "abase": 153,
      "database": 154,
      "inserted": 155,
      "ction": 156,
      "ty": 157,
      "ut": 158,
      "num": 159,
      "part": 160,
      "pre": 161,
      "efor": 162,
      "type": 163,
      "999999999999999999999999999": 164,
      "parefor": 165,
      "preparefor": 166,
      "prepareforservice": 167,
      "))": 168,
      "mcard": 169,
      "sernum": 170,
      "ctn": 171,
      "mlctn": 172,
      "mcardsernum": 173,
      "mip": 174,
      "mtype": 175,
      "mlp": 176,
      "action": 177,
      "wn": 178,
      "down": 179,
      "shut": 180,
      "shutting": 181,
      "le": 182,
      "nt": 183,
      "me": 184,
      "9999999999999999999999999999": 185,
      "..": 186,
      "li": 187,
      "99999999999999": 188,
      "om": 189,
      "te": 190,
      "ea": 191,
      "com": 192,
      "an": 193,
      "by": 194,
      "9999999": 195,
      "hk": 196,
      "ti": 197,
      "xy": 198,
      "ssion": 199,
      "iv": 200,
      "proxy": 201,
      "ma": 202,
      "fe": 203,
      "bffff": 204,
      "rece": 205,
      "receiv": 206,
      "ste": 207,
      "session": 208,
      "is": 209,
      "dc": 210,
      "eeee": 211,
      "fi": 212,
      "9999999999999999999": 213,
      "ate": 214,
      "al": 215,
      "nodecard": 216,
      "si": 217,
      "file": 218,
      "syste": 219,
      "system": 220,
      "cc": 221,
      "con": 222,
      "byte": 223,
      "time": 224,
      "bytes": 225,
      "ent": 226,
      "err": 227,
      "kb": 228,
      "received": 229,
      "na": 230,
      "ge": 231,
      "cd": 232,
      "error": 233,
      "....": 234,
      "ffffffff": 235,
      "tr": 236,
      "dd": 237,
      "ba": 238,
      "da": 239,
      "db": 240,
      "fc": 241,
      "mi": 242,
      "oo": 243,
      "ect": 244,
      "ected": 245,
      "add": 246,
      "io": 247,
      "df": 248,
      "clo": 249,
      "cu": 250,
      "close": 251,
      "ac": 252,
      "bc": 253,
      "ex": 254,
      "edu": 255,
      "fpr": 256,
      "be": 257,
      "999999999999999999": 258,
      "ans": 259,
      "trans": 260,
      "ae": 261,
      "served": 262,
      "ir": 263,
      "ok": 264,
      "cse": 265,
      "cuhk": 266,
      "bf": 267,
      "ze": 268,
      "size": 269,
      "ated": 270,
      "ps": 271,
      "il": 272,
      "cio": 273,
      "ciod": 274,
      "gh": 275,
      "ded": 276,
      "fa": 277,
      "bd": 278,
      "eee": 279,
      "rou": 280,
      "throu": 281,
      "through": 282,
      "and": 283,
      "pen": 284,
      "open": 285,
      "eeeeeee": 286,
      "lin": 287,
      "out": 288,
      "state": 289,
      "cf": 290,
      "ht": 291,
      "name": 292,
      "tps": 293,
      "https": 294,
      "cli": 295,
      "namesystem": 296,
      "client": 297,
      "filesystem": 298,
      "ca": 299,
      "erfilesystem": 300,
      "bb": 301,
      "sent": 302,
      "cor": 303,
      "life": 304,
      "lifetime": 305,
      "data": 306,
      "9999999999": 307,
      "link": 308,
      "af": 309,
      "cate": 310,
      "timeout": 311,
      "sessionid": 312,
      "nect": 313,
      "ef": 314,
      "ra": 315,
      "stor": 316,
      "connect": 317,
      "det": 318,
      "pon": 319,
      "detected": 320,
      "star": 321,
      "map": 322,
      "exce": 323,
      "ter": 324,
      "read": 325,
      "cb": 326,
      "linkcard": 327,
      "9999999999999": 328,
      "main": 329,
      "us": 330,
      "va": 331,
      "domain": 332,
      "able": 333,
      "99999999999999999": 334,
      "ram": 335,
      "rep": 336,
      "edblock": 337,
      "oot": 338,
      "addstor": 339,
      "addstoredblock": 340,
      "starting": 341,
      "fer": 342,
      "aa": 343,
      "compon": 344,
      "component": 345,
      "thread": 346,
      "transfer": 347,
      "est": 348,
      "so": 349,
      "repli": 350,
      "wid": 351,
      "connection": 352,
      "dir": 353,
      "datanode": 354,
      "replicate": 355,
      "ust": 356,
      "mp": 357,
      "corr": 358,
      "cl": 359,
      "wi": 360,
      "........": 361,
      "fd": 362,
      "gram": 363,
      "added": 364,
      "clust": 365,
      "rom": 366,
      "et": 367,
      "program": 368,
      "ds": 369,
      "root": 370,
      "cket": 371,
      "from": 372,
      "pt": 373,
      "ni": 374,
      "ation": 375,
      "ilable": 376,
      "vailable": 377,
      "transmi": 378,
      "corrected": 379,
      "su": 380,
      "ver": 381,
      "set": 382,
      "addre": 383,
      "address": 384,
      "ssing": 385,
      "missing": 386,
      "hi": 387,
      "secon": 388,
      "chan": 389,
      "seconds": 390,
      "eb": 391,
      "val": 392,
      "dcr": 393,
      "sc": 394,
      "clusterfilesystem": 395,
      "goo": 396,
      "net": 397,
      "with": 398,
      "min": 399,
      "valid": 400,
      "ms": 401,
      "go": 402,
      "gl": 403,
      "invalid": 404,
      "una": 405,
      "change": 406,
      "unavailable": 407,
      "lish": 408,
      "xffffffff": 409,
      "ablish": 410,
      "establish": 411,
      "over": 412,
      "sr": 413,
      "sed": 414,
      "termin": 415,
      "tted": 416,
      "upd": 417,
      "transmitted": 418,
      "proces": 419,
      "bgl": 420,
      "ory": 421,
      "stat": 422,
      "processed": 423,
      "eded": 424,
      "blockmap": 425,
      "updated": 426,
      "pir": 427,
      "expir": 428,
      "termination": 429,
      "whi": 430,
      "exceeded": 431,
      "socket": 432,
      "src": 433,
      "expiring": 434,
      "direct": 435,
      "closed": 436,
      "directory": 437,
      "nego": 438,
      "tiated": 439,
      "established": 440,
      "negotiated": 441,
      "serverfilesystem": 442,
      "per": 443,
      "which": 444,
      "co": 445,
      "had": 446,
      "cr": 447,
      "gle": 448,
      "google": 449,
      "ffffff": 450,
      "qu": 451,
      "--": 452,
      "such": 453,
      "999999999": 454,
      "ger": 455,
      "pa": 456,
      "99999999999": 457,
      "ol": 458,
      "fb": 459,
      "dest": 460,
      "tor": 461,
      "lon": 462,
      "hwid": 463,
      "sw": 464,
      "ima": 465,
      "fail": 466,
      "ption": 467,
      "load": 468,
      "image": 469,
      "log": 470,
      "fee": 471,
      "torus": 472,
      "wwid": 473,
      "scsi": 474,
      "loading": 475,
      "ome": 476,
      "status": 477,
      "ww": 478,
      "cal": 479,
      "ru": 480,
      "home": 481,
      "gen": 482,
      "core": 483,
      "arge": 484,
      "receiver": 485,
      "failed": 486,
      "temp": 487,
      "targe": 488,
      "vi": 489,
      "exception": 490,
      "longer": 491,
      "up": 492,
      "user": 493,
      "sets": 494,
      "gener": 495,
      "nc": 496,
      "fea": 497,
      "der": 498,
      "consi": 499,
      "files": 500,
      "wor": 501,
      "inconsi": 502,
      "nodesets": 503,
      "stent": 504,
      "inconsistent": 505,
      "test": 506,
      "ap": 507,
      "md": 508,
      "generated": 509,
      "work": 510,
      "uni": 511,
      "inter": 512,
      "ddr": 513,
      "fffffffe": 514,
      "this": 515,
      "being": 516,
      "it": 517,
      "inst": 518,
      "done": 519,
      "code": 520,
      "network": 521,
      "server": 522,
      "nf": 523,
      "dele": 524,
      "fu": 525,
      "lr": 526,
      "put": 527,
      "requ": 528,
      "input": 529,
      "nb": 530,
      "cou": 531,
      "999999999999": 532,
      "allo": 533,
      "ld": 534,
      "allocate": 535,
      "could": 536,
      "allocateblock": 537,
      "hw": 538,
      "domains": 539,
      "unix": 540,
      "ic": 541,
      "ls": 542,
      "nodes": 543,
      "targeting": 544,
      "999999999999999": 545,
      "swl": 546,
      "mand": 547,
      "ruction": 548,
      "instruction": 549,
      "ctr": 550,
      "ede": 551,
      "xer": 552,
      "age": 553,
      "pip": 554,
      "command": 555,
      "pipe": 556,
      "fff": 557,
      "login": 558,
      "request": 559,
      "gi": 560,
      "ll": 561,
      "................": 562,
      "sp": 563,
      "nal": 564,
      "receiving": 565,
      "niff": 566,
      "gb": 567,
      "op": 568,
      "ran": 569,
      "int": 570,
      "chdir": 571,
      "delete": 572,
      "(/": 573,
      "mb": 574,
      "-[": 575,
      "ja": 576,
      "has": 577,
      "ating": 578,
      "invalidset": 579,
      "bo": 580,
      "kee": 581,
      "faa": 582,
      "java": 583,
      "keeper": 584,
      "ffe": 585,
      "packet": 586,
      "mg": 587,
      "ve": 588,
      "ddc": 589,
      "ary": 590,
      "baid": 591,
      "www": 592,
      "bol": 593,
      "ts": 594,
      "edfaa": 595,
      "cmd": 596,
      "deo": 597,
      "video": 598,
      "apps": 599,
      "rand": 600,
      "sn": 601,
      "eep": 602,
      "ta": 603,
      "ber": 604,
      "pl": 605,
      "sweep": 606,
      "en": 607,
      "face": 608,
      "---": 609,
      "tempor": 610,
      "fcc": 611,
      "alle": 612,
      "good": 613,
      "googlevideo": 614,
      "baidu": 615,
      "fda": 616,
      "task": 617,
      "res": 618,
      "temporary": 619,
      "dr": 620,
      "sen": 621,
      "tree": 622,
      "back": 623,
      "cn": 624,
      "es": 625,
      "ri": 626,
      "cec": 627,
      "orum": 628,
      "ssage": 629,
      "message": 630,
      "quorum": 631,
      "backup": 632,
      "symbol": 633,
      "nch": 634,
      "interr": 635,
      "boot": 636,
      "cac": 637,
      "ev": 638,
      "event": 639,
      "case": 640,
      "spe": 641,
      "ur": 642,
      "interface": 643,
      "rank": 644,
      "cases": 645,
      "po": 646,
      "alt": 647,
      "via": 648,
      "ob": 649,
      "number": 650,
      "can": 651,
      "sender": 652,
      "cre": 653,
      "ha": 654,
      "ced": 655,
      "synch": 656,
      "retransmi": 657,
      "sig": 658,
      "retransmission": 659,
      "ant": 660,
      "mpi": 661,
      "efc": 662,
      "job": 663,
      "mc": 664,
      "mo": 665,
      "low": 666,
      "full": 667,
      "box": 668,
      "ial": 669,
      "man": 670,
      "sion": 671,
      "zoo": 672,
      "nel": 673,
      "calls": 674,
      "signal": 675,
      "zookeeper": 676,
      "hu": 677,
      "redu": 678,
      "static": 679,
      "kin": 680,
      "sof": 681,
      "ffa": 682,
      "pakin": 683,
      "fcd": 684,
      "asm": 685,
      "sho": 686,
      "spasm": 687,
      "act": 688,
      "nction": 689,
      "tx": 690,
      "ubl": 691,
      "upt": 692,
      "serial": 693,
      "doubl": 694,
      "ipaddress": 695,
      "ndant": 696,
      "cur": 697,
      "mpit": 698,
      "fdfe": 699,
      "function": 700,
      "redundant": 701,
      "serialnumber": 702,
      "mpits": 703,
      "fce": 704,
      "ffb": 705,
      "ster": 706,
      "regi": 707,
      "interrupt": 708,
      "register": 709,
      "bw": 710,
      "ib": 711,
      "img": 712,
      "xc": 713,
      "deni": 714,
      "mission": 715,
      "dfs": 716,
      "permission": 717,
      "allen": 718,
      "bwallen": 719,
      "denied": 720,
      "ader": 721,
      "ker": 722,
      "xid": 723,
      "sys": 724,
      "scr": 725,
      "testcases": 726,
      "drop": 727,
      "ali": 728,
      "bad": 729,
      "tch": 730,
      "eds": 731,
      "rent": 732,
      "cdn": 733,
      "micr": 734,
      "activ": 735,
      "current": 736,
      "functional": 737,
      "dropbox": 738,
      "available": 739,
      "cp": 740,
      "ime": 741,
      "tal": 742,
      "ure": 743,
      "we": 744,
      "eer": 745,
      "theader": 746,
      "ccc": 747,
      "softheader": 748,
      "ibm": 749,
      "kernel": 750,
      "micro": 751,
      "efe": 752,
      "fol": 753,
      "med": 754,
      "edram": 755,
      "max": 756,
      "cluster": 757,
      "feea": 758,
      "pla": 759,
      "bfe": 760,
      "wri": 761,
      "xa": 762,
      "inf": 763,
      "fffffe": 764,
      "ccd": 765,
      "line": 766,
      "feaa": 767,
      "tag": 768,
      "follow": 769,
      "./": 770,
      "bff": 771,
      "cce": 772,
      "mid": 773,
      "mnt": 774,
      "qq": 775,
      "rts": 776,
      "ue": 777,
      "doop": 778,
      "total": 779,
      "sysc": 780,
      "alls": 781,
      "logs": 782,
      "creating": 783,
      "hadoop": 784,
      "syscalls": 785,
      "eff": 786,
      "sna": 787,
      "ort": 788,
      "comp": 789,
      "bglscr": 790,
      "bglscratch": 791,
      "cation": 792,
      "hy": 793,
      "psho": 794,
      "swi": 795,
      "local": 796,
      "ada": 797,
      "ment": 798,
      "...": 799,
      "target": 800,
      "respon": 801,
      "plane": 802,
      "midplane": 803,
      "snapsho": 804,
      "switch": 805,
      "snapshot": 806,
      "fdb": 807,
      "ature": 808,
      "erature": 809,
      "adc": 810,
      "adf": 811,
      "temperature": 812,
      "internal": 813,
      "ddcmd": 814,
      "microseconds": 815,
      "comple": 816,
      ":/": 817,
      "cs": 818,
      "pm": 819,
      "was": 820,
      "xe": 821,
      "adb": 822,
      "ild": 823,
      "exceeds": 824,
      "cri": 825,
      "info": 826,
      "gou": 827,
      "jtag": 828,
      "lce": 829,
      "phy": 830,
      "tmp": 831,
      "edc": 832,
      "lib": 833,
      "ioexception": 834,
      "rapt": 835,
      "sogou": 836,
      "correct": 837,
      "run": 838,
      "gooding": 839,
      "spelce": 840,
      "cannot": 841,
      "wei": 842,
      "write": 843,
      "raptor": 844,
      "am": 845,
      "eec": 846,
      "fl": 847,
      "un": 848,
      "ffc": 849,
      "ath": 850,
      "child": 851,
      "reset": 852,
      "lick": 853,
      "errno": 854,
      "sol": 855,
      "perfor": 856,
      "long": 857,
      "sppm": 858,
      "mod": 859,
      "txt": 860,
      "correctable": 861,
      "bu": 862,
      "bee": 863,
      "but": 864,
      "peer": 865,
      "path": 866,
      "ub": 867,
      "eclick": 868,
      "resol": 869,
      "shutdown": 870,
      "story": 871,
      "history": 872,
      "resolve": 873,
      "cde": 874,
      "cdc": 875,
      "end": 876,
      "xyz": 877,
      "cdf": 878,
      "ffffffe": 879,
      "gith": 880,
      "modu": 881,
      "aec": 882,
      "kn": 883,
      "nsion": 884,
      "zxid": 885,
      "che": 886,
      "xyzt": 887,
      "module": 888,
      "dn": 889,
      "var": 890,
      "ffd": 891,
      "serviceaction": 892,
      "tent": 893,
      "content": 894,
      "usr": 895,
      "deleting": 896,
      "rando": 897,
      "doubleclick": 898,
      "endserviceaction": 899,
      "ade": 900,
      "bi": 901,
      "din": 902,
      "dime": 903,
      "hp": 904,
      "ly": 905,
      "sin": 906,
      "fffe": 907,
      "ordin": 908,
      "sical": 909,
      "cda": 910,
      "bfb": 911,
      "start": 912,
      "coordin": 913,
      "randtxt": 914,
      "fdaf": 915,
      "active": 916,
      "physical": 917,
      "random": 918,
      "dimension": 919,
      "hpcc": 920,
      "coordinate": 921,
      "bin": 922,
      "wer": 923,
      "xf": 924,
      "xfffffffe": 925,
      "are": 926,
      "does": 927,
      "ash": 928,
      "pes": 929,
      "ang": 930,
      "any": 931,
      "belong": 932,
      "storage": 933,
      "packetrespon": 934,
      "fdae": 935,
      "writeblock": 936,
      "flash": 937,
      "github": 938,
      "sina": 939,
      "packetresponder": 940,
      "br": 941,
      "bec": 942,
      "cab": 943,
      "mk": 944,
      "port": 945,
      "upon": 946,
      "attemp": 947,
      "ecc": 948,
      "performed": 949,
      "bfc": 950,
      "cad": 951,
      "mdb": 952,
      "mmi": 953,
      "tion": 954,
      "vn": 955,
      "ine": 956,
      "edb": 957,
      "ast": 958,
      "cdb": 959,
      "............": 960,
      "mini": 961,
      "glv": 962,
      "vel": 963,
      "ddcmdb": 964,
      "been": 965,
      "ddcmdbglv": 966,
      "ace": 967,
      "el": 968,
      "fdf": 969,
      "glo": 970,
      "led": 971,
      "asserted": 972,
      "contr": 973,
      "cdd": 974,
      "bfd": 975,
      "ght": 976,
      "interconnect": 977,
      "big": 978,
      "control": 979,
      "fdc": 980,
      "gn": 981,
      "ler": 982,
      "mar": 983,
      "pp": 984,
      "sor": 985,
      "xce": 986,
      "dec": 987,
      "stre": 988,
      "bfa": 989,
      "efb": 990,
      "version": 991,
      "failing": 992,
      "aee": 993,
      "apa": 994,
      "befor": 995,
      "lts": 996,
      "sli": 997,
      "xb": 998,
      "xml": 999,
      "dev": 1000,
      "cee": 1001,
      "celed": 1002,
      "chine": 1003,
      "org": 1004,
      "ecf": 1005,
      "paralle": 1006,
      "resu": 1007,
      "ten": 1008,
      "tical": 1009,
      "machine": 1010,
      "ccb": 1011,
      "bdir": 1012,
      "power": 1013,
      "canceled": 1014,
      "completion": 1015,
      "critical": 1016,
      "weibo": 1017,
      "attempting": 1018,
      "glosli": 1019,
      "xception": 1020,
      "stream": 1021,
      "before": 1022,
      "parallel": 1023,
      "results": 1024,
      "**": 1025,
      "aed": 1026,
      "acc": 1027,
      "ceb": 1028,
      "proper": 1029,
      "abc": 1030,
      "ties": 1031,
      "fefff": 1032,
      "all": 1033,
      "ccf": 1034,
      "trand": 1035,
      "aeb": 1036,
      "ired": 1037,
      "succe": 1038,
      "tests": 1039,
      "required": 1040,
      "followup": 1041,
      "sortrand": 1042,
      "properties": 1043,
      "aea": 1044,
      "bea": 1045,
      "im": 1046,
      "ity": 1047,
      "jmc": 1048,
      "latch": 1049,
      "off": 1050,
      "pjmc": 1051,
      "rec": 1052,
      "sid": 1053,
      "ffea": 1054,
      "cart": 1055,
      "ount": 1056,
      "renew": 1057,
      "sohu": 1058,
      "subdir": 1059,
      "env": 1060,
      "quorumserver": 1061,
      "quorumpeer": 1062,
      "double": 1063,
      "follower": 1064,
      "csdn": 1065,
      "apache": 1066,
      "pjmccart": 1067,
      "bde": 1068,
      "cable": 1069,
      "efa": 1070,
      "ist": 1071,
      "imb": 1072,
      "js": 1073,
      "sing": 1074,
      "vpes": 1075,
      "edf": 1076,
      "eea": 1077,
      "eef": 1078,
      "umm": 1079,
      "comm": 1080,
      "mail": 1081,
      "fcf": 1082,
      "aef": 1083,
      "efd": 1084,
      "api": 1085,
      "spent": 1086,
      "align": 1087,
      "bg": 1088,
      "bbc": 1089,
      "gent": 1090,
      "grep": 1091,
      "hdfs": 1092,
      "mmc": 1093,
      "vol": 1094,
      "sec": 1095,
      "edd": 1096,
      "abd": 1097,
      "nex": 1098,
      "blue": 1099,
      "prep": 1100,
      "conf": 1101,
      "errors": 1102,
      "bac": 1103,
      "coll": 1104,
      "usercontent": 1105,
      "enable": 1106,
      "interrupts": 1107,
      "alignment": 1108,
      "mmcs": 1109,
      "av": 1110,
      "afc": 1111,
      "cfc": 1112,
      "ik": 1113,
      "ning": 1114,
      "wh": 1115,
      "xffff": 1116,
      "yti": 1117,
      "parity": 1118,
      "stab": 1119,
      "synd": 1120,
      "ble": 1121,
      "level": 1122,
      "receive": 1123,
      "dcd": 1124,
      "aler": 1125,
      "cca": 1126,
      "dac": 1127,
      "curi": 1128,
      "acb": 1129,
      "exist": 1130,
      "cau": 1131,
      "afb": 1132,
      "cop": 1133,
      "german": 1134,
      "exceptions": 1135,
      "apis": 1136,
      "........................": 1137,
      "urgent": 1138,
      "manhu": 1139,
      "device": 1140,
      "communi": 1141,
      "germann": 1142,
      ":-": 1143,
      "::": 1144,
      "ah": 1145,
      "bs": 1146,
      "bdf": 1147,
      "cxid": 1148,
      "ebc": 1149,
      "fde": 1150,
      "flo": 1151,
      "fbc": 1152,
      "ifi": 1153,
      "mount": 1154,
      "ntype": 1155,
      "qpath": 1156,
      "rce": 1157,
      "ux": 1158,
      "use": 1159,
      "ube": 1160,
      "yout": 1161,
      "yah": 1162,
      "nodeexist": 1163,
      "eca": 1164,
      "doe": 1165,
      "onment": 1166,
      "ource": 1167,
      "processing": 1168,
      "resh": 1169,
      "reqpath": 1170,
      "ads": 1171,
      "mem": 1172,
      "errorcode": 1173,
      "dbc": 1174,
      "fcb": 1175,
      "mirand": 1176,
      "ironment": 1177,
      "reading": 1178,
      "dirs": 1179,
      "chang": 1180,
      "got": 1181,
      "fffffff": 1182,
      "keeperexception": 1183,
      "keepererrorcode": 1184,
      "interrup": 1185,
      "create": 1186,
      "txntype": 1187,
      "registers": 1188,
      "bug": 1189,
      "offset": 1190,
      "environment": 1191,
      "when": 1192,
      "youtube": 1193,
      "yahoo": 1194,
      "nodeexists": 1195,
      "miranda": 1196,
      "bit": 1197,
      "clock": 1198,
      "fec": 1199,
      "fab": 1200,
      "my": 1201,
      "opt": 1202,
      "pin": 1203,
      "pected": 1204,
      "unex": 1205,
      "wa": 1206,
      "xd": 1207,
      "yin": 1208,
      "zer": 1209,
      "atar": 1210,
      "ffffe": 1211,
      "too": 1212,
      "eeb": 1213,
      "aba": 1214,
      "rel": 1215,
      "umt": 1216,
      "lio": 1217,
      "teo": 1218,
      "ance": 1219,
      "dcc": 1220,
      "fig": 1221,
      "config": 1222,
      "ille": 1223,
      "started": 1224,
      "aaa": 1225,
      "perf": 1226,
      "googlesynd": 1227,
      "func": 1228,
      "ication": 1229,
      "point": 1230,
      "criteo": 1231,
      "success": 1232,
      "bglio": 1233,
      "receiveblock": 1234,
      "manhua": 1235,
      "ification": 1236,
      "pinyin": 1237,
      "unexpected": 1238,
      "googlesyndication": 1239,
      "afe": 1240,
      "acd": 1241,
      "aac": 1242,
      "bcc": 1243,
      "bffe": 1244,
      "dad": 1245,
      "dur": 1246,
      "eof": 1247,
      "ebe": 1248,
      "fae": 1249,
      "hand": 1250,
      "ili": 1251,
      "mn": 1252,
      "pi": 1253,
      "pgood": 1254,
      "rbs": 1255,
      "xx": 1256,
      "xin": 1257,
      "deactiv": 1258,
      "inni": 1259,
      "cea": 1260,
      "eda": 1261,
      "proble": 1262,
      "nez": 1263,
      "revalid": 1264,
      "share": 1265,
      "typ": 1266,
      "eac": 1267,
      "get": 1268,
      "bcb": 1269,
      "rail": 1270,
      "mpgood": 1271,
      "fdmn": 1272,
      "sub": 1273,
      "old": 1274,
      "instance": 1275,
      "....................": 1276,
      "mbi": 1277,
      "plus": 1278,
      "cpmd": 1279,
      "maxim": 1280,
      "sinaimg": 1281,
      "vnm": 1282,
      "single": 1283,
      "volt": 1284,
      "stabili": 1285,
      "caught": 1286,
      "during": 1287,
      "handler": 1288,
      "deactivated": 1289,
      "innity": 1290,
      "revalidating": 1291,
      "maximum": 1292,
      "stability": 1293,
      "()": 1294,
      "ager": 1295,
      "ambi": 1296,
      "bdc": 1297,
      "cle": 1298,
      "cbf": 1299,
      "dp": 1300,
      "dis": 1301,
      "eed": 1302,
      "ebd": 1303,
      "esr": 1304,
      "fac": 1305,
      "fps": 1306,
      "gal": 1307,
      "jar": 1308,
      "lb": 1309,
      "lang": 1310,
      "mu": 1311,
      "sle": 1312,
      "source": 1313,
      "tw": 1314,
      "zhi": 1315,
      "atic": 1316,
      "ecd": 1317,
      "asser": 1318,
      "thresh": 1319,
      "abe": 1320,
      "meso": 1321,
      "eae": 1322,
      "fef": 1323,
      "dca": 1324,
      "baa": 1325,
      "ook": 1326,
      "ection": 1327,
      "acf": 1328,
      "exe": 1329,
      "linux": 1330,
      "wires": 1331,
      "msr": 1332,
      "going": 1333,
      "while": 1334,
      "googleapis": 1335,
      "commands": 1336,
      "bolt": 1337,
      "fully": 1338,
      "manager": 1339,
      "weixin": 1340,
      "communication": 1341,
      "memory": 1342,
      "illegal": 1343,
      "subcommands": 1344,
      "ambient": 1345,
      "clear": 1346,
      "fpscr": 1347,
      "threshold": 1348,
      "mesos": 1349,
      "aab": 1350,
      "ame": 1351,
      "aae": 1352,
      "afa": 1353,
      "bda": 1354,
      "cnt": 1355,
      "cbc": 1356,
      "ding": 1357,
      "ebf": 1358,
      "fdd": 1359,
      "fbd": 1360,
      "fbb": 1361,
      "gr": 1362,
      "gstatic": 1363,
      "hang": 1364,
      "iti": 1365,
      "pan": 1366,
      "sram": 1367,
      "summ": 1368,
      "wr": 1369,
      "wcnt": 1370,
      "ying": 1371,
      "ffaa": 1372,
      "debug": 1373,
      "initi": 1374,
      "cef": 1375,
      "cecc": 1376,
      "pred": 1377,
      "ssl": 1378,
      "eexception": 1379,
      "str": 1380,
      "steer": 1381,
      "shu": 1382,
      "ntime": 1383,
      "../": 1384,
      "light": 1385,
      "omme": 1386,
      "mapred": 1387,
      "ates": 1388,
      "trying": 1389,
      "bae": 1390,
      "aca": 1391,
      "bcast": 1392,
      "aeger": 1393,
      "clients": 1394,
      "scip": 1395,
      "terminating": 1396,
      "stateexception": 1397,
      "copro": 1398,
      "runtime": 1399,
      "draeger": 1400,
      "alicdn": 1401,
      "currently": 1402,
      "responding": 1403,
      "election": 1404,
      "doublemax": 1405,
      "avatar": 1406,
      "zero": 1407,
      "illegalstateexception": 1408,
      "panic": 1409,
      "summary": 1410,
      "//": 1411,
      "aw": 1412,
      "ale": 1413,
      "ams": 1414,
      "bdb": 1415,
      "cas": 1416,
      "cfe": 1417,
      "cbe": 1418,
      "cbb": 1419,
      "ece": 1420,
      "eab": 1421,
      "emp": 1422,
      "hn": 1423,
      "halt": 1424,
      "ia": 1425,
      "rfi": 1426,
      "tp": 1427,
      "uo": 1428,
      "war": 1429,
      "wil": 1430,
      "yates": 1431,
      "onnect": 1432,
      "ndm": 1433,
      "sta": 1434,
      "blocks": 1435,
      "sher": 1436,
      "liams": 1437,
      "tech": 1438,
      "texception": 1439,
      "cccd": 1440,
      "dda": 1441,
      "fca": 1442,
      "addr": 1443,
      "bef": 1444,
      "bdimg": 1445,
      "caf": 1446,
      "afd": 1447,
      "ters": 1448,
      "ustatic": 1449,
      "googleusercontent": 1450,
      "ition": 1451,
      "gige": 1452,
      "baidustatic": 1453,
      "mode": 1454,
      "aliz": 1455,
      "completed": 1456,
      "running": 1457,
      "bro": 1458,
      "controller": 1459,
      "tenmax": 1460,
      "reconnect": 1461,
      "bluelight": 1462,
      "ikuo": 1463,
      "ytimg": 1464,
      "floating": 1465,
      "configur": 1466,
      "eofexception": 1467,
      "problem": 1468,
      "initializ": 1469,
      "empty": 1470,
      "rfisher": 1471,
      "williams": 1472,
      "bcd": 1473,
      "bba": 1474,
      "bbe": 1475,
      "cm": 1476,
      "cae": 1477,
      "dfc": 1478,
      "dup": 1479,
      "eba": 1480,
      "fan": 1481,
      "gg": 1482,
      "hpl": 1483,
      "ij": 1484,
      "jeff": 1485,
      "kpt": 1486,
      "lt": 1487,
      "mon": 1488,
      "rma": 1489,
      "unt": 1490,
      "wx": 1491,
      "you": 1492,
      "zed": 1493,
      "fffc": 1494,
      "arch": 1495,
      "dea": 1496,
      "deb": 1497,
      "dee": 1498,
      "devel": 1499,
      "sel": 1500,
      "secu": 1501,
      "nos": 1502,
      "norma": 1503,
      "infer": 1504,
      "cent": 1505,
      "chkpt": 1506,
      "propo": 1507,
      "ther": 1508,
      "sync": 1509,
      "idoproxy": 1510,
      "memb": 1511,
      "eaa": 1512,
      "antyp": 1513,
      "timed": 1514,
      "ive": 1515,
      "dcf": 1516,
      "ccce": 1517,
      "conn": 1518,
      "cdndm": 1519,
      "ddb": 1520,
      "daa": 1521,
      "dao": 1522,
      "dbproperties": 1523,
      "fcac": 1524,
      "iolog": 1525,
      "bcf": 1526,
      "bel": 1527,
      "cfd": 1528,
      "ested": 1529,
      "grammar": 1530,
      "channel": 1531,
      "googleads": 1532,
      "midplaneswitch": 1533,
      "snapshotting": 1534,
      "...............": 1535,
      "alert": 1536,
      "usedatabase": 1537,
      "interrupted": 1538,
      "zhihu": 1539,
      "assert": 1540,
      "untested": 1541,
      "youdao": 1542,
      "inferno": 1543,
      "proposed": 1544,
      "member": 1545,
      "antypas": 1546,
      "grammarly": 1547,
      "midplaneswitchcontroller": 1548,
      "/.": 1549,
      "aad": 1550,
      "bce": 1551,
      "beck": 1552,
      "cba": 1553,
      "cfa": 1554,
      "cmc": 1555,
      "dl": 1556,
      "dff": 1557,
      "dde": 1558,
      "dce": 1559,
      "dmp": 1560,
      "dstatic": 1561,
      "fed": 1562,
      "humm": 1563,
      "homme": 1564,
      "itor": 1565,
      "knez": 1566,
      "lp": 1567,
      "lust": 1568,
      "mm": 1569,
      "oba": 1570,
      "oper": 1571,
      "ping": 1572,
      "pht": 1573,
      "pur": 1574,
      "tin": 1575,
      "trel": 1576,
      "ul": 1577,
      "ubad": 1578,
      "vm": 1579,
      "xl": 1580,
      "yan": 1581,
      "ydstatic": 1582,
      "zz": 1583,
      "des": 1584,
      "send": 1585,
      "non": 1586,
      "cebc": 1587,
      "orbeck": 1588,
      "tomand": 1589,
      "notification": 1590,
      "abb": 1591,
      "abort": 1592,
      "news": 1593,
      "meta": 1594,
      "eeeeeeee": 1595,
      "ccdc": 1596,
      "cccc": 1597,
      "contin": 1598,
      "gene": 1599,
      "ddf": 1600,
      "dahn": 1601,
      "mit": 1602,
      "acce": 1603,
      "oken": 1604,
      "caa": 1605,
      "cacc": 1606,
      "page": 1607,
      "nfs": 1608,
      ".................": 1609,
      "taoba": 1610,
      "cnzz": 1611,
      "speeds": 1612,
      "pos": 1613,
      "have": 1614,
      "shock": 1615,
      "xel": 1616,
      "buber": 1617,
      "githubusercontent": 1618,
      "brdes": 1619,
      "broken": 1620,
      "tencent": 1621,
      "****": 1622,
      "bluegene": 1623,
      "changing": 1624,
      "changyan": 1625,
      "wait": 1626,
      "successfully": 1627,
      "pixel": 1628,
      "steering": 1629,
      "stack": 1630,
      "configured": 1631,
      "initializing": 1632,
      "ggpht": 1633,
      "monitor": 1634,
      "select": 1635,
      "idoproxydb": 1636,
      "hummer": 1637,
      "lustre": 1638,
      "operation": 1639,
      "trello": 1640,
      "ubads": 1641,
      "tomandjeff": 1642,
      "taobao": 1643,
      "=/": 1644,
      "ado": 1645,
      "bbd": 1646,
      "blog": 1647,
      "book": 1648,
      "cj": 1649,
      "cpro": 1650,
      "cxx": 1651,
      "dbl": 1652,
      "dfe": 1653,
      "fad": 1654,
      "fbe": 1655,
      "gq": 1656,
      "ho": 1657,
      "ie": 1658,
      "ku": 1659,
      "last": 1660,
      "mas": 1661,
      "mdc": 1662,
      "og": 1663,
      "ris": 1664,
      "sto": 1665,
      "same": 1666,
      "tcp": 1667,
      "ulr": 1668,
      "vgq": 1669,
      "win": 1670,
      "def": 1671,
      "dedc": 1672,
      "descr": 1673,
      "search": 1674,
      "cedc": 1675,
      "orted": 1676,
      "orters": 1677,
      "ffffc": 1678,
      "iptor": 1679,
      "ssport": 1680,
      "asic": 1681,
      "eeno": 1682,
      "abf": 1683,
      "aborted": 1684,
      "nels": 1685,
      "retrying": 1686,
      "ofdir": 1687,
      "prefi": 1688,
      "limit": 1689,
      "eaf": 1690,
      "anal": 1691,
      "hkg": 1692,
      "may": 1693,
      "feff": 1694,
      "fetch": 1695,
      "reception": 1696,
      "stell": 1697,
      "......": 1698,
      "ddd": 1699,
      "bench": 1700,
      "bfdc": 1701,
      "ciostream": 1702,
      "opening": 1703,
      "outs": 1704,
      "cache": 1705,
      "efdc": 1706,
      "store": 1707,
      "mapfile": 1708,
      "ready": 1709,
      "sock": 1710,
      "sods": 1711,
      "replication": 1712,
      "dsk": 1713,
      "supp": 1714,
      "verification": 1715,
      "setting": 1716,
      "crc": 1717,
      "passport": 1718,
      "fbcdn": 1719,
      "caling": 1720,
      "genvm": 1721,
      "vicar": 1722,
      "apc": 1723,
      "interval": 1724,
      "itc": 1725,
      "bota": 1726,
      "mgr": 1727,
      "facebook": 1728,
      "bootgenvm": 1729,
      "hack": 1730,
      "mance": 1731,
      "writer": 1732,
      "adcast": 1733,
      "sogoucdn": 1734,
      "uncorrectable": 1735,
      "performance": 1736,
      "sinajs": 1737,
      ".............": 1738,
      "mark": 1739,
      "succeeded": 1740,
      "ike": 1741,
      "ytics": 1742,
      ".........................": 1743,
      "disable": 1744,
      "slept": 1745,
      "greeno": 1746,
      "hangouts": 1747,
      "warning": 1748,
      "broadcast": 1749,
      "there": 1750,
      "access": 1751,
      "pagead": 1752,
      "adobe": 1753,
      "kubota": 1754,
      "master": 1755,
      "mdcask": 1756,
      "risboot": 1757,
      "tcpconn": 1758,
      "ulrike": 1759,
      "descriptor": 1760,
      "ofdirty": 1761,
      "prefix": 1762,
      "analytics": 1763,
      "stella": 1764,
      "benchmark": 1765,
      "sodscaling": 1766,
      "supporters": 1767,
      "bootgenvmunix": 1768,
      "au": 1769,
      "aaf": 1770,
      "affe": 1771,
      "ause": 1772,
      "bed": 1773,
      "bdd": 1774,
      "cbd": 1775,
      "ccec": 1776,
      "cada": 1777,
      "cbfb": 1778,
      "di": 1779,
      "dni": 1780,
      "dffe": 1781,
      "ddec": 1782,
      "ewer": 1783,
      "fm": 1784,
      "fba": 1785,
      "flow": 1786,
      "gm": 1787,
      "ishu": 1788,
      "jul": 1789,
      "nio": 1790,
      "occ": 1791,
      "pch": 1792,
      "pic": 1793,
      "qbox": 1794,
      "red": 1795,
      "round": 1796,
      "sca": 1797,
      "ush": 1798,
      "xue": 1799,
      "yun": 1800,
      "ffer": 1801,
      "ffbc": 1802,
      "ffca": 1803,
      "cece": 1804,
      "cecb": 1805,
      "atter": 1806,
      "edge": 1807,
      "ndy": 1808,
      "fffffc": 1809,
      "form": 1810,
      "addc": 1811,
      "partition": 1812,
      "prefetch": 1813,
      "letest": 1814,
      "team": 1815,
      "byinterrup": 1816,
      "maj": 1817,
      "feb": 1818,
      "dcfc": 1819,
      "ccfc": 1820,
      "gemini": 1821,
      "cdfc": 1822,
      "cdbc": 1823,
      "tri": 1824,
      "dddc": 1825,
      "baf": 1826,
      "fcbc": 1827,
      "dfd": 1828,
      "clou": 1829,
      "acdc": 1830,
      "exec": 1831,
      "beb": 1832,
      "ben": 1833,
      "ill": 1834,
      "bdstatic": 1835,
      "lines": 1836,
      "bbb": 1837,
      "linkerror": 1838,
      "efcd": 1839,
      "efdb": 1840,
      "sod": 1841,
      ".........": 1842,
      "dsmc": 1843,
      "channels": 1844,
      "scatter": 1845,
      "update": 1846,
      "expired": 1847,
      "closedbyinterrup": 1848,
      "pack": 1849,
      "viewer": 1850,
      "userfunc": 1851,
      "tested": 1852,
      "testing": 1853,
      "testqbox": 1854,
      "app": 1855,
      "install": 1856,
      "serverdb": 1857,
      "ller": 1858,
      "..................": 1859,
      "...................": 1860,
      "plb": 1861,
      "fccc": 1862,
      "caca": 1863,
      "urred": 1864,
      "hui": 1865,
      "soft": 1866,
      "bfffe": 1867,
      "complete": 1868,
      "://": 1869,
      "csdni": 1870,
      "flush": 1871,
      "buffer": 1872,
      "cdcc": 1873,
      "miniben": 1874,
      "ppc": 1875,
      "beacon": 1876,
      "mundy": 1877,
      "sles": 1878,
      "ookie": 1879,
      "debugger": 1880,
      "avatars": 1881,
      "tpc": 1882,
      "lton": 1883,
      "belnez": 1884,
      "hommes": 1885,
      "cjmundy": 1886,
      "ulrikey": 1887,
      "auselton": 1888,
      "ishuhui": 1889,
      "occurred": 1890,
      "pchome": 1891,
      "scaletest": 1892,
      "xueshu": 1893,
      "teamviewer": 1894,
      "closedbyinterruptexception": 1895,
      "csdnimg": 1896,
      "/)": 1897,
      "/../": 1898,
      "==": 1899,
      "ama": 1900,
      "bmi": 1901,
      "bra": 1902,
      "cff": 1903,
      "css": 1904,
      "cating": 1905,
      "div": 1906,
      "dba": 1907,
      "due": 1908,
      "dtyp": 1909,
      "dition": 1910,
      "ebb": 1911,
      "emap": 1912,
      "effa": 1913,
      "essl": 1914,
      "fced": 1915,
      "gra": 1916,
      "hm": 1917,
      "hne": 1918,
      "if": 1919,
      "imp": 1920,
      "iwhich": 1921,
      "ky": 1922,
      "kmap": 1923,
      "lco": 1924,
      "mookie": 1925,
      "os": 1926,
      "oima": 1927,
      "pwr": 1928,
      "qb": 1929,
      "rt": 1930,
      "rst": 1931,
      "rky": 1932,
      "sl": 1933,
      "tc": 1934,
      "table": 1935,
      "tur": 1936,
      "tue": 1937,
      "tlb": 1938,
      "taddr": 1939,
      "uba": 1940,
      "uve": 1941,
      "vx": 1942,
      "ws": 1943,
      "web": 1944,
      "wang": 1945,
      "xt": 1946,
      "xfffffe": 1947,
      "yt": 1948,
      "zon": 1949,
      "ffdc": 1950,
      "ffac": 1951,
      "ffcb": 1952,
      "fffdfe": 1953,
      "arale": 1954,
      "del": 1955,
      "decd": 1956,
      "deac": 1957,
      "ses": 1958,
      "ceec": 1959,
      "cefc": 1960,
      "cardsto": 1961,
      "ecb": 1962,
      "ffffbffe": 1963,
      "ong": 1964,
      "serve": 1965,
      "serving": 1966,
      "assets": 1967,
      "tool": 1968,
      "nding": 1969,
      "parmd": 1970,
      "services": 1971,
      "stir": 1972,
      "blockinfo": 1973,
      "rever": 1974,
      "pending": 1975,
      "adbc": 1976,
      "idos": 1977,
      "idochip": 1978,
      "idomar": 1979,
      "umemap": 1980,
      "partad": 1981,
      "pression": 1982,
      "lit": 1983,
      "live": 1984,
      "lized": 1985,
      "text": 1986,
      "anx": 1987,
      "timg": 1988,
      "iver": 1989,
      "bffffffe": 1990,
      "dcb": 1991,
      "dccc": 1992,
      "first": 1993,
      "already": 1994,
      "sic": 1995,
      "cccb": 1996,
      "condition": 1997,
      "geo": 1998,
      "cddc": 1999,
      "cdac": 2000,
      "tra": 2001,
      "trace": 2002,
      "ddbc": 2003,
      "daf": 2004,
      "dbf": 2005,
      "fcdc": 2006,
      "ector": 2007,
      "addmember": 2008,
      "dfbc": 2009,
      "acbc": 2010,
      "expression": 2011,
      "ily": 2012,
      "faf": 2013,
      "linpack": 2014,
      "outbra": 2015,
      "efde": 2016,
      "efea": 2017,
      "efcc": 2018,
      "efba": 2019,
      "efda": 2020,
      "efbc": 2021,
      "repubads": 2022,
      "replicas": 2023,
      "romio": 2024,
      "dsp": 2025,
      "niel": 2026,
      "nized": 2027,
      "hit": 2028,
      "minus": 2029,
      "bglidochip": 2030,
      "fffffffc": 2031,
      "ffffffbe": 2032,
      "quant": 2033,
      "-->": 2034,
      "pap": 2035,
      "fbfffffe": 2036,
      "caltech": 2037,
      "general": 2038,
      "itten": 2039,
      "count": 2040,
      "ages": 2041,
      "split": 2042,
      "tsch": 2043,
      "bertsch": 2044,
      "drive": 2045,
      "treeaddr": 2046,
      "pose": 2047,
      "fulltest": 2048,
      "fcea": 2049,
      "cpp": 2050,
      "cpu": 2051,
      "welco": 2052,
      "microsoft": 2053,
      "media": 2054,
      "clusteraddmember": 2055,
      "play": 2056,
      "jtagid": 2057,
      "unable": 2058,
      "unrec": 2059,
      "cdec": 2060,
      "githuba": 2061,
      "knl": 2062,
      "attempt": 2063,
      "eland": 2064,
      "fdfa": 2065,
      "fdcc": 2066,
      "beap": 2067,
      "mailbox": 2068,
      "volumemap": 2069,
      "collector": 2070,
      "xffffc": 2071,
      "parityalignment": 2072,
      "alerts": 2073,
      "...........................": 2074,
      "communicating": 2075,
      "fdee": 2076,
      "ffffeffe": 2077,
      "getting": 2078,
      ".....................": 2079,
      "written": 2080,
      "strong": 2081,
      "aws": 2082,
      "develf": 2083,
      "secure": 2084,
      "securepubads": 2085,
      "nosdn": 2086,
      "normal": 2087,
      "normalized": 2088,
      "purpose": 2089,
      "notifications": 2090,
      "continue": 2091,
      "ognized": 2092,
      "windo": 2093,
      "feffed": 2094,
      "socks": 2095,
      "replicationmonitor": 2096,
      "dict": 2097,
      "yunsic": 2098,
      "format": 2099,
      "amazon": 2100,
      "bmiller": 2101,
      "iwhichcardsto": 2102,
      "oimag": 2103,
      "pwroff": 2104,
      "taddriver": 2105,
      "aralego": 2106,
      "tools": 2107,
      "reverse": 2108,
      "pendingreplicationmonitor": 2109,
      "idomarsh": 2110,
      "outbrain": 2111,
      "nielsen": 2112,
      "quantserve": 2113,
      "welcome": 2114,
      "unrecognized": 2115,
      "githubapp": 2116,
      "amazonaws": 2117,
      "iwhichcardstopwroff": 2118,
      "ail": 2119,
      "aver": 2120,
      "amd": 2121,
      "acec": 2122,
      "bp": 2123,
      "bab": 2124,
      "bri": 2125,
      "ci": 2126,
      "dm": 2127,
      "dab": 2128,
      "eas": 2129,
      "ead": 2130,
      "efff": 2131,
      "ewe": 2132,
      "eue": 2133,
      "eedc": 2134,
      "fg": 2135,
      "fp": 2136,
      "fr": 2137,
      "fbf": 2138,
      "fls": 2139,
      "fcec": 2140,
      "fresh": 2141,
      "gate": 2142,
      "gine": 2143,
      "hel": 2144,
      "ide": 2145,
      "iting": 2146,
      "ile": 2147,
      "ible": 2148,
      "jp": 2149,
      "ject": 2150,
      "jgh": 2151,
      "kne": 2152,
      "kdp": 2153,
      "mf": 2154,
      "mba": 2155,
      "mps": 2156,
      "mtal": 2157,
      "nl": 2158,
      "nx": 2159,
      "ot": 2160,
      "pk": 2161,
      "pu": 2162,
      "pas": 2163,
      "pth": 2164,
      "pub": 2165,
      "pubads": 2166,
      "pcount": 2167,
      "qa": 2168,
      "rm": 2169,
      "sch": 2170,
      "sma": 2171,
      "smi": 2172,
      "scontent": 2173,
      "safe": 2174,
      "tu": 2175,
      "uation": 2176,
      "ues": 2177,
      "vatar": 2178,
      "wsing": 2179,
      "xad": 2180,
      "xda": 2181,
      "xbf": 2182,
      "xfa": 2183,
      "xaa": 2184,
      "xhpl": 2185,
      "yu": 2186,
      "yread": 2187,
      "ygi": 2188,
      "fft": 2189,
      "ffcd": 2190,
      "ffae": 2191,
      "dede": 2192,
      "decc": 2193,
      "dedd": 2194,
      "depth": 2195,
      "sene": 2196,
      "sequ": 2197,
      "inity": 2198,
      "incomplete": 2199,
      "cedd": 2200,
      "ceac": 2201,
      "cebf": 2202,
      "atta": 2203,
      "char": 2204,
      "chment": 2205,
      "order": 2206,
      "lone": 2207,
      "logo": 2208,
      "location": 2209,
      "loewe": 2210,
      "ffffeb": 2211,
      "edn": 2212,
      "iple": 2213,
      "ssp": 2214,
      "asia": 2215,
      "towar": 2216,
      "outexception": 2217,
      "ndwid": 2218,
      "pare": 2219,
      "parame": 2220,
      "fffffbfe": 2221,
      "still": 2222,
      "ers": 2223,
      "ckpt": 2224,
      "abcc": 2225,
      "abfc": 2226,
      "abac": 2227,
      "abbc": 2228,
      "blocked": 2229,
      "restarting": 2230,
      "refresh": 2231,
      "adcc": 2232,
      "adac": 2233,
      "adzer": 2234,
      "adnx": 2235,
      "short": 2236,
      "tel": 2237,
      "compare": 2238,
      "bffffdfe": 2239,
      "dcdc": 2240,
      "dcbc": 2241,
      "allr": 2242,
      "simba": 2243,
      "timeoutexception": 2244,
      ".....": 2245,
      ".......": 2246,
      "ddac": 2247,
      "bandwid": 2248,
      "dae": 2249,
      "dace": 2250,
      "dacb": 2251,
      "dbb": 2252,
      "dbd": 2253,
      "dbg": 2254,
      "fcff": 2255,
      "fcde": 2256,
      "fcce": 2257,
      "fcmatch": 2258,
      "fcbe": 2259,
      "iostate": 2260,
      "dfa": 2261,
      "dfb": 2262,
      "bca": 2263,
      "exchange": 2264,
      "educe": 2265,
      "aefe": 2266,
      "bfea": 2267,
      "faec": 2268,
      "cfb": 2269,
      "caec": 2270,
      "cacd": 2271,
      "cafc": 2272,
      "caac": 2273,
      "capt": 2274,
      "bbde": 2275,
      "afly": 2276,
      "efce": 2277,
      "efec": 2278,
      "efed": 2279,
      "efdd": 2280,
      "rack": 2281,
      "detail": 2282,
      "valone": 2283,
      "claw": 2284,
      "fddc": 2285,
      "fdfffdfe": 2286,
      "verif": 2287,
      "high": 2288,
      "hiclou": 2289,
      "gov": 2290,
      "lishi": 2291,
      "overflow": 2292,
      "processes": 2293,
      "bglmaster": 2294,
      "sockets": 2295,
      "sockettimeoutexception": 2296,
      "perclaw": 2297,
      "googletag": 2298,
      "queue": 2299,
      "qulishi": 2300,
      "papi": 2301,
      "olar": 2302,
      "fbbc": 2303,
      "failure": 2304,
      "loguser": 2305,
      "word": 2306,
      "hwstab": 2307,
      "llnl": 2308,
      "................................": 2309,
      "spec": 2310,
      "jag": 2311,
      "ddcc": 2312,
      "fccf": 2313,
      "fdaa": 2314,
      "resource": 2315,
      "rich": 2316,
      "symbols": 2317,
      "cacf": 2318,
      "cacafly": 2319,
      "sign": 2320,
      "mpich": 2321,
      "efca": 2322,
      "efcf": 2323,
      "reduce": 2324,
      "fcdb": 2325,
      "fcdd": 2326,
      "fceb": 2327,
      "ality": 2328,
      "activating": 2329,
      "cpc": 2330,
      "cpm": 2331,
      "efeb": 2332,
      "efef": 2333,
      "edrams": 2334,
      "bfeb": 2335,
      "infinity": 2336,
      "bffc": 2337,
      "bffd": 2338,
      "hyperclaw": 2339,
      "runs": 2340,
      "under": 2341,
      "contention": 2342,
      "contentrec": 2343,
      "adec": 2344,
      "biz": 2345,
      "beca": 2346,
      "cabc": 2347,
      "cabd": 2348,
      "cabf": 2349,
      "cabot": 2350,
      "..............": 2351,
      "gnu": 2352,
      "pping": 2353,
      "impr": 2354,
      "enableflush": 2355,
      "avd": 2356,
      "alerio": 2357,
      "flopcount": 2358,
      "fbca": 2359,
      "waiting": 2360,
      "unexpectedly": 2361,
      "problems": 2362,
      "......................": 2363,
      ".......................": 2364,
      "mult": 2365,
      "zhimg": 2366,
      "assertion": 2367,
      "dcache": 2368,
      "strip": 2369,
      "ommend": 2370,
      "bdbb": 2371,
      "browsing": 2372,
      "beln": 2373,
      "mmstat": 2374,
      "purge": 2375,
      "continuation": 2376,
      "stackexchange": 2377,
      "dblp": 2378,
      "dblword": 2379,
      "fady": 2380,
      "host": 2381,
      "vgqsene": 2382,
      "accessible": 2383,
      "ofdirtylines": 2384,
      "ofdirtydblword": 2385,
      "major": 2386,
      "trier": 2387,
      "testqboxhang": 2388,
      "gravatar": 2389,
      "parmdg": 2390,
      "stirtur": 2391,
      "train": 2392,
      "windows": 2393,
      "idomarshalerio": 2394,
      "averages": 2395,
      "brian": 2396,
      "easyread": 2397,
      "fgygi": 2398,
      "kdpic": 2399,
      "mtalk": 2400,
      "pasci": 2401,
      "scholar": 2402,
      "smith": 2403,
      "safebrowsing": 2404,
      "attachment": 2405,
      "ffffebfe": 2406,
      "toward": 2407,
      "parameters": 2408,
      "adzerk": 2409,
      "adnxs": 2410,
      "allreduce": 2411,
      "bandwidth": 2412,
      "capture": 2413,
      "detailed": 2414,
      "verify": 2415,
      "hicloud": 2416,
      "loguserinfo": 2417,
      "contentrecommend": 2418,
      "flopcounters": 2419,
      "multiple": 2420,
      "vgqsenes": 2421,
      "!(": 2422,
      "):": 2423,
      ")...": 2424,
      "*)": 2425,
      "=!(": 2426,
      "ag": 2427,
      "ao": 2428,
      "aff": 2429,
      "aman": 2430,
      "accc": 2431,
      "aada": 2432,
      "aadc": 2433,
      "affd": 2434,
      "afffffff": 2435,
      "aaba": 2436,
      "bip": 2437,
      "ban": 2438,
      "bis": 2439,
      "bbf": 2440,
      "brand": 2441,
      "bcec": 2442,
      "bbac": 2443,
      "cat": 2444,
      "cid": 2445,
      "csi": 2446,
      "cgi": 2447,
      "csp": 2448,
      "cffffffe": 2449,
      "cpes": 2450,
      "caeb": 2451,
      "dy": 2452,
      "dum": 2453,
      "dcec": 2454,
      "ek": 2455,
      "ep": 2456,
      "ever": 2457,
      "efaa": 2458,
      "effe": 2459,
      "effb": 2460,
      "fon": 2461,
      "fecc": 2462,
      "fdec": 2463,
      "fabc": 2464,
      "fbac": 2465,
      "gs": 2466,
      "gu": 2467,
      "gge": 2468,
      "gmail": 2469,
      "give": 2470,
      "hpd": 2471,
      "han": 2472,
      "ise": 2473,
      "iss": 2474,
      "ite": 2475,
      "ian": 2476,
      "iap": 2477,
      "ies": 2478,
      "jy": 2479,
      "jni": 2480,
      "ke": 2481,
      "kk": 2482,
      "kdc": 2483,
      "kit": 2484,
      "ken": 2485,
      "kcdn": 2486,
      "la": 2487,
      "lh": 2488,
      "lu": 2489,
      "late": 2490,
      "lac": 2491,
      "lcr": 2492,
      "leep": 2493,
      "lapa": 2494,
      "mct": 2495,
      "mer": 2496,
      "ming": 2497,
      "mob": 2498,
      "matic": 2499,
      "ng": 2500,
      "nm": 2501,
      "nee": 2502,
      "own": 2503,
      "oimage": 2504,
      "odr": 2505,
      "ocsp": 2506,
      "ph": 2507,
      "pv": 2508,
      "pps": 2509,
      "pux": 2510,
      "qi": 2511,
      "qs": 2512,
      "qx": 2513,
      "qls": 2514,
      "qpic": 2515,
      "qlogo": 2516,
      "rw": 2517,
      "ring": 2518,
      "rome": 2519,
      "rfft": 2520,
      "sb": 2521,
      "son": 2522,
      "spa": 2523,
      "score": 2524,
      "ssen": 2525,
      "sort": 2526,
      "sam": 2527,
      "tz": 2528,
      "tat": 2529,
      "tab": 2530,
      "tap": 2531,
      "tserver": 2532,
      "tun": 2533,
      "tdp": 2534,
      "tanx": 2535,
      "uch": 2536,
      "ual": 2537,
      "ubgl": 2538,
      "vr": 2539,
      "vt": 2540,
      "ving": 2541,
      "vis": 2542,
      "wal": 2543,
      "wra": 2544,
      "xffffff": 2545,
      "xfee": 2546,
      "yx": 2547,
      "yms": 2548,
      "yes": 2549,
      "zkcdn": 2550,
      "ffce": 2551,
      "ffab": 2552,
      "ffad": 2553,
      "ffcc": 2554,
      "ffda": 2555,
      "ffdb": 2556,
      "ffadd": 2557,
      "ffbe": 2558,
      "ffbf": 2559,
      "ffcf": 2560,
      "ffbb": 2561,
      "ffaf": 2562,
      "ffaaa": 2563,
      "arty": 2564,
      "aren": 2565,
      "arant": 2566,
      "arily": 2567,
      "dece": 2568,
      "deec": 2569,
      "deed": 2570,
      "defe": 2571,
      "debc": 2572,
      "decl": 2573,
      "deve": 2574,
      "demo": 2575,
      "debcc": 2576,
      "denormalized": 2577,
      "sever": 2578,
      "sestat": 2579,
      "seille": 2580,
      "seek": 2581,
      "noio": 2582,
      "noavatar": 2583,
      "inex": 2584,
      "init": 2585,
      "ceab": 2586,
      "cecd": 2587,
      "cedb": 2588,
      "cebd": 2589,
      "cecf": 2590,
      "ceeb": 2591,
      "cards": 2592,
      "cardre": 2593,
      "atanx": 2594,
      "chat": 2595,
      "chmod": 2596,
      "chown": 2597,
      "ecce": 2598,
      "ecda": 2599,
      "ecac": 2600,
      "ecbc": 2601,
      "ecise": 2602,
      "doct": 2603,
      "lop": 2604,
      "ffffca": 2605,
      "edda": 2606,
      "edfc": 2607,
      "edfa": 2608,
      "ipv": 2609,
      "sstat": 2610,
      "promp": 2611,
      "topurge": 2612,
      "token": 2613,
      "touch": 2614,
      "eeec": 2615,
      "ctl": 2616,
      "ioni": 2617,
      "fffffd": 2618,
      "servicenetwork": 2619,
      "servicemailbox": 2620,
      "stu": 2621,
      "stion": 2622,
      "note": 2623,
      "ery": 2624,
      "erist": 2625,
      "ckap": 2626,
      "abec": 2627,
      "abdc": 2628,
      "abled": 2629,
      "nete": 2630,
      "force": 2631,
      "formi": 2632,
      "remain": 2633,
      "resets": 2634,
      "remo": 2635,
      "peop": 2636,
      "adv": 2637,
      "adfc": 2638,
      "adsr": 2639,
      "admaster": 2640,
      "adtdp": 2641,
      "blac": 2642,
      "newma": 2643,
      "newsi": 2644,
      "idotrans": 2645,
      "idoclient": 2646,
      "idoms": 2647,
      "present": 2648,
      "presta": 2649,
      "preqx": 2650,
      "typekit": 2651,
      "download": 2652,
      "meam": 2653,
      "messen": 2654,
      "list": 2655,
      "tension": 2656,
      "temaj": 2657,
      "comms": 2658,
      "comment": 2659,
      "fefffff": 2660,
      "fefe": 2661,
      "febc": 2662,
      "febf": 2663,
      "fefab": 2664,
      "bffffa": 2665,
      "bffffd": 2666,
      "dcdd": 2667,
      "dcda": 2668,
      "dcbf": 2669,
      "dcount": 2670,
      "fier": 2671,
      "sitemaj": 2672,
      "ccdd": 2673,
      "ccba": 2674,
      "ccda": 2675,
      "ccbc": 2676,
      "ccbf": 2677,
      "conc": 2678,
      "conso": 2679,
      "bytebug": 2680,
      "ential": 2681,
      "errstr": 2682,
      "errhan": 2683,
      "getel": 2684,
      "cdadc": 2685,
      "cdfffe": 2686,
      "trc": 2687,
      "trout": 2688,
      "trap": 2689,
      "ddff": 2690,
      "ddfc": 2691,
      "baab": 2692,
      "bacc": 2693,
      "baac": 2694,
      "baker": 2695,
      "baij": 2696,
      "bayms": 2697,
      "daec": 2698,
      "dacc": 2699,
      "dacd": 2700,
      "dafc": 2701,
      "daac": 2702,
      "dacf": 2703,
      "daily": 2704,
      "dbe": 2705,
      "dbdc": 2706,
      "dbfd": 2707,
      "fcab": 2708,
      "fcbf": 2709,
      "fcffe": 2710,
      "fcbea": 2711,
      "fcdcf": 2712,
      "miao": 2713,
      "oola": 2714,
      "addthis": 2715,
      "dfed": 2716,
      "dfcc": 2717,
      "closing": 2718,
      "cupps": 2719,
      "acfc": 2720,
      "acbb": 2721,
      "bcdc": 2722,
      "exter": 2723,
      "extension": 2724,
      "bebd": 2725,
      "bfec": 2726,
      "bfed": 2727,
      "bfee": 2728,
      "bfbb": 2729,
      "bfaf": 2730,
      "bfdea": 2731,
      "psu": 2732,
      "ghdr": 2733,
      "dedreplication": 2734,
      "facc": 2735,
      "fafc": 2736,
      "fafa": 2737,
      "bdab": 2738,
      "route": 2739,
      "linadv": 2740,
      "output": 2741,
      "cace": 2742,
      "caee": 2743,
      "caus": 2744,
      "camo": 2745,
      "capi": 2746,
      "bbab": 2747,
      "after": 2748,
      "efee": 2749,
      "efdf": 2750,
      "efbe": 2751,
      "efbf": 2752,
      "efbd": 2753,
      "efbb": 2754,
      "efccb": 2755,
      "efdcd": 2756,
      "efdbc": 2757,
      "efdfd": 2758,
      "rai": 2759,
      "cbec": 2760,
      "cbea": 2761,
      "cbdc": 2762,
      "cbcc": 2763,
      "replac": 2764,
      "aaec": 2765,
      "aacc": 2766,
      "aaac": 2767,
      "clg": 2768,
      "wix": 2769,
      "...........": 2770,
      "fdfffff": 2771,
      "fdfc": 2772,
      "fdfffe": 2773,
      "ptlogin": 2774,
      "sugge": 2775,
      "suite": 2776,
      "ebde": 2777,
      "ebee": 2778,
      "ebba": 2779,
      "ebda": 2780,
      "ebdb": 2781,
      "srm": 2782,
      "stats": 2783,
      "person": 2784,
      "ffffffc": 2785,
      "query": 2786,
      "pai": 2787,
      "fbab": 2788,
      "fbdc": 2789,
      "fbba": 2790,
      "images": 2791,
      "temphigh": 2792,
      "upload": 2793,
      "generating": 2794,
      "ncy": 2795,
      "feac": 2796,
      "feaf": 2797,
      "consider": 2798,
      "wordcount": 2799,
      "testsuite": 2800,
      "mdn": 2801,
      "ddrsize": 2802,
      "codes": 2803,
      "allocation": 2804,
      "ics": 2805,
      "lsf": 2806,
      "ctrs": 2807,
      "edea": 2808,
      "edefb": 2809,
      "llap": 2810,
      "............................": 2811,
      "engine": 2812,
      "enabled": 2813,
      "temporarily": 2814,
      "fccce": 2815,
      "fccfe": 2816,
      "fccbf": 2817,
      "object": 2818,
      "hao": 2819,
      "efcb": 2820,
      "efcfc": 2821,
      "efcbc": 2822,
      "efcfd": 2823,
      "mcmm": 2824,
      "mods": 2825,
      "softw": 2826,
      "ffaec": 2827,
      "ffaed": 2828,
      "ffafa": 2829,
      "fcda": 2830,
      "fcdf": 2831,
      "show": 2832,
      "shots": 2833,
      "acterist": 2834,
      "curioni": 2835,
      "fcee": 2836,
      "fcebd": 2837,
      "fcecb": 2838,
      "ffbff": 2839,
      "ffbdf": 2840,
      "imgur": 2841,
      "alitu": 2842,
      "effc": 2843,
      "csar": 2844,
      "eecc": 2845,
      "unsign": 2846,
      "build": 2847,
      "ubmcmm": 2848,
      "dns": 2849,
      "areservicenetwork": 2850,
      "cabe": 2851,
      "portmgr": 2852,
      "glob": 2853,
      "marseille": 2854,
      "bdirect": 2855,
      "streamtri": 2856,
      "account": 2857,
      "aeac": 2858,
      "recv": 2859,
      "bdea": 2860,
      "bdee": 2861,
      "efaea": 2862,
      "grepa": 2863,
      "next": 2864,
      "avp": 2865,
      "xffffb": 2866,
      "xffffd": 2867,
      "syndrome": 2868,
      "receivetrain": 2869,
      "caused": 2870,
      "manhuaren": 2871,
      "bdfa": 2872,
      "float": 2873,
      "way": 2874,
      "bdcb": 2875,
      "wrating": 2876,
      "zerobytebug": 2877,
      "hnedn": 2878,
      "iahao": 2879,
      "configuration": 2880,
      "nosleep": 2881,
      "sending": 2882,
      "stackoverflow": 2883,
      "ogs": 2884,
      "stopping": 2885,
      "vgqs": 2886,
      "winerr": 2887,
      "adobelogin": 2888,
      "aug": 2889,
      "autopurge": 2890,
      "fmmods": 2891,
      "gmt": 2892,
      "cloudf": 2893,
      "/../../": 2894,
      "divac": 2895,
      "divide": 2896,
      "impservice": 2897,
      "slf": 2898,
      "wangwang": 2899,
      "mailboxmonitor": 2900,
      "dictapp": 2901,
      "oimagec": 2902,
      "oimagea": 2903,
      "fraction": 2904,
      "gateway": 2905,
      "hello": 2906,
      "pubmatic": 2907,
      "small": 2908,
      "yuedu": 2909,
      "sequential": 2910,
      "characterist": 2911,
      "ordered": 2912,
      "googletagmanager": 2913,
      "special": 2914,
      "underflow": 2915,
      "imprecise": 2916,
      "stirturbdirect": 2917,
      "agkn": 2918,
      "amanad": 2919,
      "biparty": 2920,
      "bank": 2921,
      "cidian": 2922,
      "dump": 2923,
      "epstreamtri": 2924,
      "evernote": 2925,
      "fonts": 2926,
      "guarant": 2927,
      "issues": 2928,
      "kdcl": 2929,
      "latency": 2930,
      "lapack": 2931,
      "mobile": 2932,
      "neededreplication": 2933,
      "oimageb": 2934,
      "qlsn": 2935,
      "space": 2936,
      "scorecardre": 2937,
      "samrai": 2938,
      "tzyx": 2939,
      "taboola": 2940,
      "tapad": 2941,
      "tuned": 2942,
      "ualdn": 2943,
      "visus": 2944,
      "walk": 2945,
      "wray": 2946,
      "declareservicenetwork": 2947,
      "develop": 2948,
      "severed": 2949,
      "inexact": 2950,
      "doctor": 2951,
      "sstats": 2952,
      "prompt": 2953,
      "servicemailboxes": 2954,
      "ckapfer": 2955,
      "netease": 2956,
      "removing": 2957,
      "people": 2958,
      "adsrvr": 2959,
      "blacs": 2960,
      "newmaps": 2961,
      "newsimg": 2962,
      "idotransportmgr": 2963,
      "idoclientmgr": 2964,
      "messenger": 2965,
      "fefefeff": 2966,
      "sitemaji": 2967,
      "console": 2968,
      "trouter": 2969,
      "baijiahao": 2970,
      "baymsgr": 2971,
      "dailyupdate": 2972,
      "miaopai": 2973,
      "external": 2974,
      "causing": 2975,
      "replacing": 2976,
      "suggestion": 2977,
      "personality": 2978,
      "software": 2979,
      "alitui": 2980,
      "unsigned": 2981,
      "marseillebgl": 2982,
      "accounts": 2983,
      "characteristics": 2984,
      "bipartyz": 2985,
      "epstreamtriad": 2986,
      "guaranteed": 2987,
      "neededreplications": 2988,
      "scorecardresearch": 2989,
      "declareservicenetworkcharacteristics": 2990,
      "&)": 2991,
      "&,": 2992,
      ")'": 2993,
      ")........................": 2994,
      ").......": 2995,
      ")......................": 2996,
      ").......................": 2997,
      "*,": 2998,
      "*&)": 2999,
      "->": 3000,
      "/./": 3001,
      "?/": 3002,
      "ay": 3003,
      "ass": 3004,
      "aut": 3005,
      "aded": 3006,
      "aeee": 3007,
      "ave": 3008,
      "aedc": 3009,
      "avn": 3010,
      "acdd": 3011,
      "aabc": 3012,
      "aim": 3013,
      "agent": 3014,
      "aux": 3015,
      "agg": 3016,
      "bh": 3017,
      "bj": 3018,
      "bt": 3019,
      "bx": 3020,
      "bz": 3021,
      "bar": 3022,
      "bid": 3023,
      "batch": 3024,
      "bus": 3025,
      "bfff": 3026,
      "bedc": 3027,
      "bvn": 3028,
      "bdec": 3029,
      "bccb": 3030,
      "bceb": 3031,
      "babc": 3032,
      "bdbc": 3033,
      "beda": 3034,
      "bates": 3035,
      "bbae": 3036,
      "babb": 3037,
      "btrace": 3038,
      "cv": 3039,
      "catch": 3040,
      "cffa": 3041,
      "cadc": 3042,
      "cadb": 3043,
      "cffea": 3044,
      "cbac": 3045,
      "cookie": 3046,
      "ctools": 3047,
      "dg": 3048,
      "dh": 3049,
      "dj": 3050,
      "dk": 3051,
      "dt": 3052,
      "dw": 3053,
      "dpar": 3054,
      "dsh": 3055,
      "dna": 3056,
      "dge": 3057,
      "dps": 3058,
      "dram": 3059,
      "dffa": 3060,
      "dada": 3061,
      "dadc": 3062,
      "dadf": 3063,
      "dpm": 3064,
      "dffc": 3065,
      "dffd": 3066,
      "dfffe": 3067,
      "dabc": 3068,
      "dabd": 3069,
      "dfcb": 3070,
      "dfffffff": 3071,
      "dlb": 3072,
      "dabb": 3073,
      "dabf": 3074,
      "efffff": 3075,
      "eadd": 3076,
      "eld": 3077,
      "eadf": 3078,
      "estart": 3079,
      "eedb": 3080,
      "ebfa": 3081,
      "eceb": 3082,
      "eabc": 3083,
      "eabd": 3084,
      "ebae": 3085,
      "etexception": 3086,
      "ether": 3087,
      "fo": 3088,
      "fs": 3089,
      "fin": 3090,
      "fre": 3091,
      "ftr": 3092,
      "foo": 3093,
      "fstat": 3094,
      "ftest": 3095,
      "fadc": 3096,
      "fedc": 3097,
      "fbfb": 3098,
      "ftests": 3099,
      "faef": 3100,
      "fbef": 3101,
      "fsync": 3102,
      "fmm": 3103,
      "fchmod": 3104,
      "gd": 3105,
      "gp": 3106,
      "gt": 3107,
      "gin": 3108,
      "ged": 3109,
      "gid": 3110,
      "gto": 3111,
      "gice": 3112,
      "ging": 3113,
      "gum": 3114,
      "gma": 3115,
      "gcc": 3116,
      "groot": 3117,
      "gapps": 3118,
      "gun": 3119,
      "gath": 3120,
      "game": 3121,
      "gvt": 3122,
      "gctl": 3123,
      "hj": 3124,
      "har": 3125,
      "hid": 3126,
      "hres": 3127,
      "hstatic": 3128,
      "hpm": 3129,
      "hfm": 3130,
      "ix": 3131,
      "iz": 3132,
      "ior": 3133,
      "ited": 3134,
      "ife": 3135,
      "ieee": 3136,
      "icb": 3137,
      "iwi": 3138,
      "iet": 3139,
      "ims": 3140,
      "ical": 3141,
      "icau": 3142,
      "icache": 3143,
      "ji": 3144,
      "jr": 3145,
      "jre": 3146,
      "jline": 3147,
      "jection": 3148,
      "jvm": 3149,
      "jfm": 3150,
      "jlu": 3151,
      "jng": 3152,
      "jdk": 3153,
      "ko": 3154,
      "kle": 3155,
      "keb": 3156,
      "ktest": 3157,
      "knel": 3158,
      "kill": 3159,
      "kiwi": 3160,
      "lg": 3161,
      "llo": 3162,
      "ling": 3163,
      "lti": 3164,
      "lstat": 3165,
      "large": 3166,
      "lare": 3167,
      "lseek": 3168,
      "lchown": 3169,
      "mde": 3170,
      "mpd": 3171,
      "mbl": 3172,
      "mis": 3173,
      "merr": 3174,
      "mmbi": 3175,
      "mmu": 3176,
      "mhfm": 3177,
      "nh": 3178,
      "nu": 3179,
      "nted": 3180,
      "nle": 3181,
      "nan": 3182,
      "nded": 3183,
      "nms": 3184,
      "ngi": 3185,
      "nve": 3186,
      "ode": 3187,
      "oid": 3188,
      "oad": 3189,
      "obe": 3190,
      "option": 3191,
      "ows": 3192,
      "osign": 3193,
      "por": 3194,
      "pid": 3195,
      "ppre": 3196,
      "pnet": 3197,
      "pol": 3198,
      "pop": 3199,
      "ppl": 3200,
      "pho": 3201,
      "pcookie": 3202,
      "qw": 3203,
      "qum": 3204,
      "qhi": 3205,
      "qlr": 3206,
      "qrt": 3207,
      "qhres": 3208,
      "rs": 3209,
      "ry": 3210,
      "ron": 3211,
      "rss": 3212,
      "ral": 3213,
      "rary": 3214,
      "rta": 3215,
      "rther": 3216,
      "rows": 3217,
      "sa": 3218,
      "sdo": 3219,
      "spar": 3220,
      "scom": 3221,
      "scli": 3222,
      "sall": 3223,
      "sses": 3224,
      "sgs": 3225,
      "sqrt": 3226,
      "tn": 3227,
      "tst": 3228,
      "tsh": 3229,
      "tter": 3230,
      "tva": 3231,
      "twi": 3232,
      "txyz": 3233,
      "tmgr": 3234,
      "tdt": 3235,
      "tmpd": 3236,
      "ui": 3237,
      "uid": 3238,
      "umask": 3239,
      "uan": 3240,
      "ugh": 3241,
      "ures": 3242,
      "udp": 3243,
      "usync": 3244,
      "vir": 3245,
      "vaddr": 3246,
      "vbuffer": 3247,
      "vtrace": 3248,
      "vjp": 3249,
      "void": 3250,
      "wf": 3251,
      "wk": 3252,
      "wed": 3253,
      "watch": 3254,
      "wpen": 3255,
      "wsu": 3256,
      "wbp": 3257,
      "wosign": 3258,
      "wtdt": 3259,
      "xff": 3260,
      "xde": 3261,
      "xec": 3262,
      "xed": 3263,
      "xfffff": 3264,
      "xing": 3265,
      "xfe": 3266,
      "xdc": 3267,
      "xcd": 3268,
      "xba": 3269,
      "xdb": 3270,
      "xfc": 3271,
      "xac": 3272,
      "xbc": 3273,
      "xbe": 3274,
      "xae": 3275,
      "xbd": 3276,
      "xca": 3277,
      "xbb": 3278,
      "xaf": 3279,
      "xef": 3280,
      "xcb": 3281,
      "xfb": 3282,
      "xfff": 3283,
      "xfcd": 3284,
      "xbfe": 3285,
      "xfffe": 3286,
      "xfffffff": 3287,
      "xgr": 3288,
      "xafd": 3289,
      "xabb": 3290,
      "xvicar": 3291,
      "xuan": 3292,
      "yap": 3293,
      "yimg": 3294,
      "yndm": 3295,
      "ybp": 3296,
      "ykle": 3297,
      "yvjp": 3298,
      "zhstatic": 3299,
      "zjfm": 3300,
      "zsall": 3301,
      "||": 3302,
      "ffde": 3303,
      "ffec": 3304,
      "ffee": 3305,
      "ffeeee": 3306,
      "ffba": 3307,
      "ffbd": 3308,
      "fffd": 3309,
      "fffb": 3310,
      "ffcec": 3311,
      "ffced": 3312,
      "ffada": 3313,
      "ffadc": 3314,
      "ffadf": 3315,
      "ffadb": 3316,
      "ffcdf": 3317,
      "ffbfb": 3318,
      "ffbfd": 3319,
      "ffbfa": 3320,
      "ffcee": 3321,
      "ffaeb": 3322,
      "ffacb": 3323,
      "ffafb": 3324,
      "ffdcc": 3325,
      "ffbcb": 3326,
      "fftw": 3327,
      "ffbaa": 3328,
      "ffacf": 3329,
      "ffcef": 3330,
      "ffbae": 3331,
      "ffaca": 3332,
      "ffdda": 3333,
      "ffcaf": 3334,
      "ffcaa": 3335,
      "ffbaf": 3336,
      "ffdbf": 3337,
      "ared": 3338,
      "arest": 3339,
      "argum": 3340,
      "den": 3341,
      "deab": 3342,
      "defc": 3343,
      "dedf": 3344,
      "debf": 3345,
      "debd": 3346,
      "debb": 3347,
      "deeb": 3348,
      "defb": 3349,
      "deeca": 3350,
      "degroot": 3351,
      "demde": 3352,
      "seti": 3353,
      "securi": 3354,
      "sembl": 3355,
      "nop": 3356,
      "nopr": 3357,
      "nova": 3358,
      "noni": 3359,
      "nocomm": 3360,
      "noapc": 3361,
      "noroute": 3362,
      "nozerobytebug": 3363,
      "ink": 3364,
      "inte": 3365,
      "inform": 3366,
      "incount": 3367,
      "injection": 3368,
      "cer": 3369,
      "cesi": 3370,
      "ceda": 3371,
      "cebe": 3372,
      "ceca": 3373,
      "cebb": 3374,
      "cefd": 3375,
      "att": 3376,
      "ativ": 3377,
      "atall": 3378,
      "ative": 3379,
      "ching": 3380,
      "cham": 3381,
      "orac": 3382,
      "ories": 3383,
      "orestart": 3384,
      "serapis": 3385,
      "ecff": 3386,
      "ecad": 3387,
      "ecfe": 3388,
      "eccc": 3389,
      "ecba": 3390,
      "ecae": 3391,
      "ecfa": 3392,
      "ecbb": 3393,
      "ecaf": 3394,
      "ecaa": 3395,
      "ecmb": 3396,
      "ecccc": 3397,
      "ecdn": 3398,
      "ecdca": 3399,
      "ecvbuffer": 3400,
      "dog": 3401,
      "priv": 3402,
      "loor": 3403,
      "lost": 3404,
      "look": 3405,
      "loader": 3406,
      "ffffbc": 3407,
      "edde": 3408,
      "edfe": 3409,
      "eddc": 3410,
      "edcc": 3411,
      "edba": 3412,
      "eddf": 3413,
      "edac": 3414,
      "edbc": 3415,
      "edca": 3416,
      "edbb": 3417,
      "edaa": 3418,
      "edbbb": 3419,
      "pdate": 3420,
      "pdbg": 3421,
      "ips": 3422,
      "only": 3423,
      "onix": 3424,
      "sso": 3425,
      "ssum": 3426,
      "ssive": 3427,
      "prof": 3428,
      "project": 3429,
      "ason": 3430,
      "assembl": 3431,
      "idx": 3432,
      "topo": 3433,
      "tocdn": 3434,
      "toho": 3435,
      "ouji": 3436,
      "eece": 3437,
      "eeba": 3438,
      "eebc": 3439,
      "eeae": 3440,
      "eebf": 3441,
      "eebd": 3442,
      "eebea": 3443,
      "ctld": 3444,
      "ctips": 3445,
      "ndor": 3446,
      "ndir": 3447,
      "parserapis": 3448,
      "mlink": 3449,
      "stand": 3450,
      "stun": 3451,
      "iary": 3452,
      "thre": 3453,
      "thir": 3454,
      "thunder": 3455,
      "ering": 3456,
      "ingo": 3457,
      "symlink": 3458,
      "abea": 3459,
      "abdb": 3460,
      "abca": 3461,
      "neos": 3462,
      "nearest": 3463,
      "readd": 3464,
      "reserved": 3465,
      "reopen": 3466,
      "rename": 3467,
      "renc": 3468,
      "retag": 3469,
      "restarted": 3470,
      "remer": 3471,
      "regctl": 3472,
      "reason": 3473,
      "ofda": 3474,
      "adbe": 3475,
      "adfa": 3476,
      "adtech": 3477,
      "adservices": 3478,
      "adingo": 3479,
      "tingyun": 3480,
      "blas": 3481,
      "blime": 3482,
      "blast": 3483,
      "symcd": 3484,
      "shared": 3485,
      "shouji": 3486,
      "newkernel": 3487,
      "newcomp": 3488,
      "newhack": 3489,
      "asearch": 3490,
      "idoudp": 3491,
      "ums": 3492,
      "ution": 3493,
      "utime": 3494,
      "partsn": 3495,
      "preta": 3496,
      "len": 3497,
      "leme": 3498,
      "leader": 3499,
      "ntifi": 3500,
      "mehu": 3501,
      "mekn": 3502,
      "licate": 3503,
      "tetsh": 3504,
      "eade": 3505,
      "eace": 3506,
      "eafc": 3507,
      "eaae": 3508,
      "eapp": 3509,
      "commit": 3510,
      "ancom": 3511,
      "bye": 3512,
      "tig": 3513,
      "timi": 3514,
      "timer": 3515,
      "macce": 3516,
      "make": 3517,
      "makeb": 3518,
      "mallo": 3519,
      "feec": 3520,
      "feffff": 3521,
      "feab": 3522,
      "fead": 3523,
      "fefc": 3524,
      "febd": 3525,
      "feffe": 3526,
      "fefcd": 3527,
      "feeds": 3528,
      "fefcf": 3529,
      "fefffc": 3530,
      "fefeb": 3531,
      "feng": 3532,
      "fefafa": 3533,
      "stexception": 3534,
      "stepping": 3535,
      "sessiontimeout": 3536,
      "iso": 3537,
      "dcu": 3538,
      "dcdb": 3539,
      "dcdf": 3540,
      "dcac": 3541,
      "dcae": 3542,
      "dcbd": 3543,
      "dccf": 3544,
      "dcaf": 3545,
      "dcaee": 3546,
      "dcode": 3547,
      "fiel": 3548,
      "field": 3549,
      "alerr": 3550,
      "siwf": 3551,
      "sixgr": 3552,
      "systemcontroller": 3553,
      "ccr": 3554,
      "ccdb": 3555,
      "ccac": 3556,
      "ccbe": 3557,
      "ccfa": 3558,
      "ccbd": 3559,
      "cccf": 3560,
      "ccca": 3561,
      "ccaf": 3562,
      "ccsame": 3563,
      "ccyndm": 3564,
      "const": 3565,
      "conproject": 3566,
      "contig": 3567,
      "timeofda": 3568,
      "entry": 3569,
      "getr": 3570,
      "cdde": 3571,
      "cdbe": 3572,
      "cdfbab": 3573,
      "trapp": 3574,
      "ddde": 3575,
      "ddab": 3576,
      "dddd": 3577,
      "ddmd": 3578,
      "ddabe": 3579,
      "baff": 3580,
      "baec": 3581,
      "bafc": 3582,
      "baae": 3583,
      "bacb": 3584,
      "baeb": 3585,
      "daea": 3586,
      "daaf": 3587,
      "dafdc": 3588,
      "daabd": 3589,
      "daabe": 3590,
      "dafca": 3591,
      "dbde": 3592,
      "dbec": 3593,
      "dbcc": 3594,
      "dbdd": 3595,
      "dbbc": 3596,
      "dbsr": 3597,
      "dbcr": 3598,
      "dbremer": 3599,
      "fcba": 3600,
      "fcfc": 3601,
      "fcded": 3602,
      "fcbb": 3603,
      "fcaf": 3604,
      "fcfff": 3605,
      "fcfaa": 3606,
      "fcfcc": 3607,
      "fcfda": 3608,
      "fccec": 3609,
      "fcfcd": 3610,
      "fcbfe": 3611,
      "fcbff": 3612,
      "fcfdb": 3613,
      "fclick": 3614,
      "fcbfb": 3615,
      "fcbec": 3616,
      "fcdec": 3617,
      "fcbfa": 3618,
      "fcceb": 3619,
      "fcbde": 3620,
      "fcbac": 3621,
      "fcdcd": 3622,
      "fcfcb": 3623,
      "fccea": 3624,
      "fcdca": 3625,
      "fcbaa": 3626,
      "fcdeb": 3627,
      "fcbcf": 3628,
      "fcbeb": 3629,
      "fcbbb": 3630,
      "mira": 3631,
      "adding": 3632,
      "dfde": 3633,
      "dfec": 3634,
      "dfdc": 3635,
      "dfac": 3636,
      "dfbf": 3637,
      "dfbb": 3638,
      "cus": 3639,
      "acac": 3640,
      "acbf": 3641,
      "acfa": 3642,
      "acbd": 3643,
      "acaf": 3644,
      "accec": 3645,
      "bcab": 3646,
      "bcac": 3647,
      "bcbc": 3648,
      "bcbe": 3649,
      "bcbf": 3650,
      "bcaa": 3651,
      "exit": 3652,
      "exited": 3653,
      "beab": 3654,
      "bead": 3655,
      "beba": 3656,
      "bebc": 3657,
      "bebe": 3658,
      "bebf": 3659,
      "bebb": 3660,
      "befb": 3661,
      "befcc": 3662,
      "bebfdc": 3663,
      "begin": 3664,
      "aeec": 3665,
      "aebe": 3666,
      "aebf": 3667,
      "aebd": 3668,
      "aeffa": 3669,
      "aeedf": 3670,
      "irq": 3671,
      "bfde": 3672,
      "bfcc": 3673,
      "bfda": 3674,
      "bfac": 3675,
      "bfbf": 3676,
      "bfaa": 3677,
      "bfbaf": 3678,
      "bfcefc": 3679,
      "psg": 3680,
      "ilt": 3681,
      "iliary": 3682,
      "ciodb": 3683,
      "fade": 3684,
      "faad": 3685,
      "faecd": 3686,
      "bdde": 3687,
      "bdfe": 3688,
      "rounded": 3689,
      "openx": 3690,
      "openjdk": 3691,
      "outstand": 3692,
      "cfg": 3693,
      "cfde": 3694,
      "cfee": 3695,
      "cfbc": 3696,
      "cfecf": 3697,
      "cfdddc": 3698,
      "cfloor": 3699,
      "clientservices": 3700,
      "cade": 3701,
      "caea": 3702,
      "caaa": 3703,
      "caeeb": 3704,
      "canoni": 3705,
      "caching": 3706,
      "bbec": 3707,
      "bbdc": 3708,
      "bbdb": 3709,
      "bbbb": 3710,
      "corpor": 3711,
      "afde": 3712,
      "afdb": 3713,
      "afbc": 3714,
      "afbe": 3715,
      "afbb": 3716,
      "afabf": 3717,
      "afecda": 3718,
      "efac": 3719,
      "efddc": 3720,
      "efbfe": 3721,
      "efccd": 3722,
      "efadf": 3723,
      "efedc": 3724,
      "efcdf": 3725,
      "efcda": 3726,
      "efedb": 3727,
      "efbfd": 3728,
      "efecf": 3729,
      "efeef": 3730,
      "efedd": 3731,
      "efeca": 3732,
      "efeeb": 3733,
      "efbcb": 3734,
      "efecd": 3735,
      "efdca": 3736,
      "efbaa": 3737,
      "efcef": 3738,
      "efdda": 3739,
      "efbef": 3740,
      "efdea": 3741,
      "efdeb": 3742,
      "efeaa": 3743,
      "efdcf": 3744,
      "efddb": 3745,
      "efdaa": 3746,
      "efddf": 3747,
      "efdef": 3748,
      "efddd": 3749,
      "efbaf": 3750,
      "efdfb": 3751,
      "mapfiles": 3752,
      "mapping": 3753,
      "excessive": 3754,
      "readv": 3755,
      "readblock": 3756,
      "cbde": 3757,
      "cbad": 3758,
      "cbdd": 3759,
      "cbba": 3760,
      "cbfc": 3761,
      "cbbc": 3762,
      "cbrt": 3763,
      "linkcards": 3764,
      "usage": 3765,
      "aaee": 3766,
      "aacd": 3767,
      "aafc": 3768,
      "aafa": 3769,
      "aaaf": 3770,
      "aapp": 3771,
      "aaabc": 3772,
      "sopt": 3773,
      "mpl": 3774,
      "mpxl": 3775,
      "mpill": 3776,
      "mpleme": 3777,
      "corrupt": 3778,
      "clk": 3779,
      "class": 3780,
      "wifi": 3781,
      "fdff": 3782,
      "fdde": 3783,
      "fdffffe": 3784,
      "etc": 3785,
      "ptarge": 3786,
      "ptance": 3787,
      "ptqlr": 3788,
      "suppre": 3789,
      "sublime": 3790,
      "vers": 3791,
      "verbo": 3792,
      "addresses": 3793,
      "ebce": 3794,
      "ebed": 3795,
      "ebea": 3796,
      "ebbc": 3797,
      "ebbd": 3798,
      "values": 3799,
      "scancom": 3800,
      "nets": 3801,
      "netty": 3802,
      "netdna": 3803,
      "minsessiontimeout": 3804,
      "validate": 3805,
      "msn": 3806,
      "msghdr": 3807,
      "msgto": 3808,
      "glp": 3809,
      "srko": 3810,
      "terminated": 3811,
      "bglc": 3812,
      "bglerr": 3813,
      "bglcode": 3814,
      "bglsys": 3815,
      "bglctl": 3816,
      "bglpersonality": 3817,
      "directories": 3818,
      "crl": 3819,
      "glen": 3820,
      "googleadservices": 3821,
      "ffffffd": 3822,
      "ffffffee": 3823,
      "fffffffa": 3824,
      "fffffffb": 3825,
      "quality": 3826,
      "quiet": 3827,
      "qusixgr": 3828,
      "pavtrace": 3829,
      "oldcode": 3830,
      "fbde": 3831,
      "fbec": 3832,
      "fbcc": 3833,
      "fbcd": 3834,
      "fbda": 3835,
      "fbdb": 3836,
      "fbfc": 3837,
      "fbbe": 3838,
      "fbbf": 3839,
      "fbbae": 3840,
      "failures": 3841,
      "imageplus": 3842,
      "logfile": 3843,
      "logies": 3844,
      "logical": 3845,
      "feeaa": 3846,
      "wwbiz": 3847,
      "rubi": 3848,
      "rundir": 3849,
      "upmobile": 3850,
      "generic": 3851,
      "feaaa": 3852,
      "apac": 3853,
      "worker": 3854,
      "unit": 3855,
      "unimpleme": 3856,
      "interexception": 3857,
      "itz": 3858,
      "instr": 3859,
      "further": 3860,
      "xercesi": 3861,
      "llpo": 3862,
      "llseek": 3863,
      "....................................": 3864,
      "...............................": 3865,
      ".................................": 3866,
      ".............................": 3867,
      "optimi": 3868,
      "intf": 3869,
      "mbio": 3870,
      "bos": 3871,
      "vendor": 3872,
      "ddcb": 3873,
      "ddcd": 3874,
      "cmdline": 3875,
      "encer": 3876,
      "facee": 3877,
      "fcca": 3878,
      "fccb": 3879,
      "fccd": 3880,
      "fccff": 3881,
      "fccde": 3882,
      "fccab": 3883,
      "fccdd": 3884,
      "fccba": 3885,
      "fccdf": 3886,
      "fccac": 3887,
      "fccbe": 3888,
      "fccae": 3889,
      "fccfa": 3890,
      "fcccf": 3891,
      "fccaf": 3892,
      "fccaa": 3893,
      "fccfb": 3894,
      "goodbye": 3895,
      "fdac": 3896,
      "fdaea": 3897,
      "drv": 3898,
      "senee": 3899,
      "sensor": 3900,
      "backgr": 3901,
      "cnk": 3902,
      "cncdn": 3903,
      "cnvt": 3904,
      "cecfc": 3905,
      "cacb": 3906,
      "url": 3907,
      "ursdo": 3908,
      "popt": 3909,
      "creativ": 3910,
      "mpihpm": 3911,
      "efcfe": 3912,
      "efcbe": 3913,
      "efcbd": 3914,
      "efcbb": 3915,
      "efcaf": 3916,
      "efcaa": 3917,
      "efcfb": 3918,
      "efcbad": 3919,
      "zookeeperserver": 3920,
      "hucdn": 3921,
      "ffaff": 3922,
      "ffaab": 3923,
      "ffaea": 3924,
      "ffafe": 3925,
      "ffaac": 3926,
      "ffaae": 3927,
      "ffaaf": 3928,
      "fcdce": 3929,
      "fcdab": 3930,
      "fcdfe": 3931,
      "fcddc": 3932,
      "fcddd": 3933,
      "fcddb": 3934,
      "fcdae": 3935,
      "fcdbf": 3936,
      "fcdaa": 3937,
      "fcef": 3938,
      "fceff": 3939,
      "fceec": 3940,
      "fceed": 3941,
      "fcead": 3942,
      "fcefe": 3943,
      "fcecc": 3944,
      "fcecd": 3945,
      "fceda": 3946,
      "fcedb": 3947,
      "fcebc": 3948,
      "fcebe": 3949,
      "fceae": 3950,
      "fcebf": 3951,
      "fcebb": 3952,
      "fceaf": 3953,
      "fcefd": 3954,
      "fceeb": 3955,
      "ffbec": 3956,
      "ffbab": 3957,
      "ffbfe": 3958,
      "ffbcc": 3959,
      "ffbda": 3960,
      "ffbdb": 3961,
      "ffbbc": 3962,
      "ffbbe": 3963,
      "ffbbf": 3964,
      "ffbbd": 3965,
      "ffbffe": 3966,
      "ffbffbff": 3967,
      "imgsrc": 3968,
      "imgtn": 3969,
      "dropping": 3970,
      "badc": 3971,
      "cdnjs": 3972,
      "micron": 3973,
      "dropboxapi": 3974,
      "cpgra": 3975,
      "microad": 3976,
      "microloader": 3977,
      "efeff": 3978,
      "efece": 3979,
      "efeab": 3980,
      "efefe": 3981,
      "efebc": 3982,
      "efebb": 3983,
      "efefd": 3984,
      "fold": 3985,
      "medal": 3986,
      "maxbug": 3987,
      "xaed": 3988,
      "fffffefa": 3989,
      "ccdn": 3990,
      "linear": 3991,
      "tagr": 3992,
      "following": 3993,
      "bffee": 3994,
      "bffea": 3995,
      "bffac": 3996,
      "bffcbf": 3997,
      "cceb": 3998,
      "cceea": 3999,
      "cceda": 4000,
      "qqmail": 4001,
      "qqweb": 4002,
      "effd": 4003,
      "effab": 4004,
      "efffe": 4005,
      "effbc": 4006,
      "effbd": 4007,
      "effca": 4008,
      "effbb": 4009,
      "effef": 4010,
      "effcb": 4011,
      "effaa": 4012,
      "efffd": 4013,
      "snapreta": 4014,
      "targetclose": 4015,
      "fdbb": 4016,
      "fdbc": 4017,
      "fdbdf": 4018,
      "fdbbf": 4019,
      "internalapi": 4020,
      "csm": 4021,
      "xequsixgr": 4022,
      "libvisus": 4023,
      "library": 4024,
      "runrecv": 4025,
      "writelog": 4026,
      "amr": 4027,
      "eecb": 4028,
      "flagg": 4029,
      "unlink": 4030,
      "uncate": 4031,
      "unpk": 4032,
      "ffcbc": 4033,
      "ffcae": 4034,
      "ffcbf": 4035,
      "ffcbd": 4036,
      "ffcbb": 4037,
      "solvers": 4038,
      "performing": 4039,
      "busy": 4040,
      "built": 4041,
      "beeaab": 4042,
      "cdee": 4043,
      "modulo": 4044,
      "chembio": 4045,
      "ffdce": 4046,
      "randomacce": 4047,
      "adea": 4048,
      "lyjlu": 4049,
      "sinaapp": 4050,
      "bfbec": 4051,
      "bfbab": 4052,
      "bind": 4053,
      "xfed": 4054,
      "brk": 4055,
      "becb": 4056,
      "becd": 4057,
      "caba": 4058,
      "mkdir": 4059,
      "bfca": 4060,
      "bfcb": 4061,
      "minigame": 4062,
      "acebf": 4063,
      "fdfb": 4064,
      "fdfdb": 4065,
      "fdfdf": 4066,
      "fdfac": 4067,
      "fdfae": 4068,
      "bfdab": 4069,
      "controlling": 4070,
      "fdcff": 4071,
      "gnar": 4072,
      "mart": 4073,
      "ppcfloor": 4074,
      "sorter": 4075,
      "streitz": 4076,
      "efbcc": 4077,
      "efbcd": 4078,
      "efbbc": 4079,
      "efbbe": 4080,
      "efbbd": 4081,
      "aeea": 4082,
      "xmlparserapis": 4083,
      "***": 4084,
      "accad": 4085,
      "allc": 4086,
      "ffeaeb": 4087,
      "bdeb": 4088,
      "bdef": 4089,
      "bdece": 4090,
      "bdecc": 4091,
      "bdeaa": 4092,
      "bdecab": 4093,
      "efafb": 4094,
      "fcfbe": 4095,
      "fcfbf": 4096,
      "fcfbd": 4097,
      "efdce": 4098,
      "efdab": 4099,
      "efdfe": 4100,
      "efdfc": 4101,
      "aligned": 4102,
      "bbca": 4103,
      "bbcb": 4104,
      "grepb": 4105,
      "nexage": 4106,
      "afcb": 4107,
      "afcbf": 4108,
      "cfca": 4109,
      "xffffcb": 4110,
      "existing": 4111,
      "..........................": 4112,
      "bdfea": 4113,
      "ebca": 4114,
      "fdef": 4115,
      "fdead": 4116,
      "fbcbeb": 4117,
      "memtest": 4118,
      "memmon": 4119,
      "fcbce": 4120,
      "fcbab": 4121,
      "fcbdd": 4122,
      "fcbba": 4123,
      "interrupting": 4124,
      "fecb": 4125,
      "fecfc": 4126,
      "fabf": 4127,
      "fabdd": 4128,
      "fabda": 4129,
      "optaim": 4130,
      "wave": 4131,
      "xdcef": 4132,
      "configfile": 4133,
      "afebf": 4134,
      "bccac": 4135,
      "bffebcbe": 4136,
      "getdropbox": 4137,
      "getgid": 4138,
      "getpid": 4139,
      "getuid": 4140,
      "gettimeofda": 4141,
      "subnets": 4142,
      "()'": 4143,
      "disconn": 4144,
      "multi": 4145,
      "dcaaf": 4146,
      "aabf": 4147,
      "bdae": 4148,
      "cbca": 4149,
      "fbbb": 4150,
      "hangtest": 4151,
      "initial": 4152,
      "strobe": 4153,
      "bcastv": 4154,
      "///": 4155,
      "awqi": 4156,
      "awrenc": 4157,
      "alemedia": 4158,
      "aleamr": 4159,
      "casalemedia": 4160,
      "cbeb": 4161,
      "eabea": 4162,
      "tenmaximg": 4163,
      "initialization": 4164,
      "initializeapp": 4165,
      "bbade": 4166,
      "bbeb": 4167,
      "duplicate": 4168,
      "jeffgreeno": 4169,
      "selftest": 4170,
      "central": 4171,
      "bcebos": 4172,
      "cfaf": 4173,
      "dffacb": 4174,
      "ulative": 4175,
      "ullen": 4176,
      "sendpacket": 4177,
      "sendtrain": 4178,
      "sendmsgto": 4179,
      "sendworker": 4180,
      "noncontig": 4181,
      "newsapp": 4182,
      "cccccccd": 4183,
      "acceptance": 4184,
      "********": 4185,
      "*******": 4186,
      "trellocdn": 4187,
      "cjm": 4188,
      "hot": 4189,
      "vgqsenee": 4190,
      "efdcb": 4191,
      "socketexception": 4192,
      "adobeid": 4193,
      "ulriketests": 4194,
      "auth": 4195,
      "digice": 4196,
      "ffbca": 4197,
      "prefetching": 4198,
      "prefetches": 4199,
      "execution": 4200,
      "efdbb": 4201,
      "efdbd": 4202,
      "efdbe": 4203,
      "packages": 4204,
      "flushing": 4205,
      "rtb": 4206,
      "slave": 4207,
      "slawrenc": 4208,
      "turn": 4209,
      "tlbentry": 4210,
      "xfffffebc": 4211,
      "ytnh": 4212,
      "timgsa": 4213,
      "track": 4214,
      "windowsu": 4215,
      "idomarshalerr": 4216,
      "bpnet": 4217,
      "dmw": 4218,
      "free": 4219,
      "hellow": 4220,
      "identifi": 4221,
      "ileged": 4222,
      "pki": 4223,
      "pkt": 4224,
      "pull": 4225,
      "puui": 4226,
      "pubs": 4227,
      "rmw": 4228,
      "rmdir": 4229,
      "smaller": 4230,
      "tual": 4231,
      "xdaabe": 4232,
      "xbfaeb": 4233,
      "yuri": 4234,
      "sequencer": 4235,
      "ordering": 4236,
      "logos": 4237,
      "asiamax": 4238,
      "refreshes": 4239,
      "bbdeba": 4240,
      "googletagservices": 4241,
      "speculative": 4242,
      "purgeinterval": 4243,
      "stirturbpnet": 4244,
      "verifystu": 4245,
      "dyna": 4246,
      "gslb": 4247,
      "jyb": 4248,
      "jylyjlu": 4249,
      "kei": 4250,
      "kkk": 4251,
      "lukei": 4252,
      "mingxing": 4253,
      "nmjylyjlu": 4254,
      "qihucdn": 4255,
      "yescomm": 4256,
      "yeszerobytebug": 4257,
      "study": 4258,
      "idomsg": 4259,
      "idomsghdr": 4260,
      "fefabb": 4261,
      "trapping": 4262,
      "fcbfabd": 4263,
      "bfeefe": 4264,
      "bfafec": 4265,
      "aaecab": 4266,
      "showxml": 4267,
      "global": 4268,
      "recvmsghdr": 4269,
      "nosleepyescomm": 4270,
      "vgqskn": 4271,
      "gmtdmp": 4272,
      "cloudflare": 4273,
      "cloudfron": 4274,
      "yuedust": 4275,
      "mobilem": 4276,
      "walkup": 4277,
      "consoleip": 4278,
      "consoleport": 4279,
      "ayoo": 4280,
      "autorestart": 4281,
      "auxiliary": 4282,
      "bzclk": 4283,
      "bidswitch": 4284,
      "batchfiles": 4285,
      "catchup": 4286,
      "dgtest": 4287,
      "dhptqlr": 4288,
      "dware": 4289,
      "dparty": 4290,
      "dshytnh": 4291,
      "dgemm": 4292,
      "ethernet": 4293,
      "focus": 4294,
      "find": 4295,
      "freed": 4296,
      "ftruncate": 4297,
      "foobar": 4298,
      "gtms": 4299,
      "gunnels": 4300,
      "gathering": 4301,
      "hjxc": 4302,
      "hardware": 4303,
      "hidden": 4304,
      "izxequsixgr": 4305,
      "ifengi": 4306,
      "icbi": 4307,
      "icauh": 4308,
      "jratt": 4309,
      "kiwihk": 4310,
      "miscompare": 4311,
      "mmbiz": 4312,
      "nullpo": 4313,
      "nlev": 4314,
      "nmsglen": 4315,
      "oadz": 4316,
      "poll": 4317,
      "pplv": 4318,
      "photocdn": 4319,
      "qumccyndm": 4320,
      "qhimg": 4321,
      "rssgov": 4322,
      "rtax": 4323,
      "sparing": 4324,
      "scomerror": 4325,
      "sclick": 4326,
      "tvax": 4327,
      "twitter": 4328,
      "tmpdir": 4329,
      "virtual": 4330,
      "watchdog": 4331,
      "wpengine": 4332,
      "wbpctips": 4333,
      "wtdtjs": 4334,
      "xedcb": 4335,
      "xfffffef": 4336,
      "xfcffd": 4337,
      "xbbhjxc": 4338,
      "xfffead": 4339,
      "xuanfeng": 4340,
      "ffeeeefe": 4341,
      "fffbccf": 4342,
      "ffddaff": 4343,
      "argument": 4344,
      "demdex": 4345,
      "setitimer": 4346,
      "security": 4347,
      "noprint": 4348,
      "nocommnosleep": 4349,
      "noroutetoho": 4350,
      "information": 4351,
      "atallbegin": 4352,
      "chamonix": 4353,
      "oracle": 4354,
      "privileged": 4355,
      "looking": 4356,
      "assembly": 4357,
      "topologies": 4358,
      "ctldl": 4359,
      "threaded": 4360,
      "thirdparty": 4361,
      "neosmart": 4362,
      "readdir": 4363,
      "retagging": 4364,
      "idoudpmgr": 4365,
      "mehul": 4366,
      "mekned": 4367,
      "tetshhot": 4368,
      "makebglp": 4369,
      "malloc": 4370,
      "fields": 4371,
      "ccsamef": 4372,
      "getrusage": 4373,
      "trapped": 4374,
      "ddddddd": 4375,
      "miranova": 4376,
      "outstanding": 4377,
      "canonical": 4378,
      "corporation": 4379,
      "mpxlc": 4380,
      "ptargetmgr": 4381,
      "suppressing": 4382,
      "sublimetext": 4383,
      "verbose": 4384,
      "srkodhptqlr": 4385,
      "bglctlpavtrace": 4386,
      "wwbizapi": 4387,
      "rubiconproject": 4388,
      "unimplemented": 4389,
      "xercesimpl": 4390,
      "optimix": 4391,
      "background": 4392,
      "ursdoccdn": 4393,
      "creativecdn": 4394,
      "cpgraph": 4395,
      "snapretaincount": 4396,
      "flagging": 4397,
      "unpkg": 4398,
      "beeaabff": 4399,
      "randomaccess": 4400,
      "gettimeofday": 4401,
      "disconnected": 4402,
      "awqiizxequsixgr": 4403,
      "initializeappmemory": 4404,
      "jeffgreenough": 4405,
      "sendmsgtodebugger": 4406,
      "digicert": 4407,
      "windowsupdate": 4408,
      "idomarshalerrecvbuffer": 4409,
      "identifier": 4410,
      "verifystuff": 4411,
      "nmjylyjluykle": 4412,
      "cloudfront": 4413,
      "ifengimg": 4414,
      "nullpointerexception": 4415,
      "qumccyndmsiwf": 4416,
      "xuanfengnet": 4417,
      "noroutetohostexception": 4418,
      "srkodhptqlryvjp": 4419
    },
    "merges": [
      "9 9",
      "99 99",
      "9999 9999",
      "f f",
      "99 9",
      "a r",
      "d e",
      "s e",
      "n o",
      "i n",
      "9999 9",
      "c e",
      "c ar",
      "car d",
      "a t",
      "no de",
      "c h",
      "99999999 99999999",
      "o r",
      "se r",
      "e c",
      "d o",
      "p r",
      ") ,",
      "l o",
      "ff ff",
      "e d",
      "p d",
      "v pd",
      "i p",
      "o n",
      "s s",
      "pr o",
      "ser v",
      "a s",
      "i d",
      "t o",
      "o u",
      "e e",
      "c t",
      "n d",
      "i on",
      "p ar",
      "ffff f",
      "m l",
      "i ce",
      "serv ice",
      "s t",
      "9999999999999999 99999999",
      "de ar",
      "i ar",
      "t h",
      "pro ce",
      "9999 99",
      "no t",
      "e r",
      "in g",
      "proce ss",
      "ec k",
      "ch eck",
      "process or",
      "ec id",
      "s lo",
      "slo t",
      "c k",
      "s y",
      "at ch",
      "ou nd",
      "f ound",
      "m atch",
      "a b",
      "t ed",
      "n e",
      "lo ck",
      "b lock",
      "f or",
      "r e",
      "o f",
      "as k",
      "d at",
      "p e",
      "th e",
      "a d",
      "t ing",
      "b l",
      "sy m",
      "bl k",
      "m ask",
      "s h",
      "ne w",
      "a se",
      "i do",
      "u m",
      "ser ted",
      "ch ip",
      "in to",
      "ab ase",
      "dat abase",
      "in serted",
      "ct ion",
      "t y",
      "u t",
      "n um",
      "par t",
      "pr e",
      "e for",
      "ty pe",
      "999999999999999999999999 999",
      "par efor",
      "pre parefor",
      "preparefor service",
      ") )",
      "m card",
      "ser num",
      "ct n",
      "ml ctn",
      "mcard sernum",
      "m ip",
      "m type",
      "ml p",
      "a ction",
      "w n",
      "do wn",
      "sh ut",
      "shut ting",
      "l e",
      "n t",
      "m e",
      "999999999999999999999999 9999",
      ". .",
      "l i",
      "99999999 999999",
      "o m",
      "t e",
      "e a",
      "c om",
      "a n",
      "b y",
      "9999 999",
      "h k",
      "t i",
      "x y",
      "ss ion",
      "i v",
      "pro xy",
      "m a",
      "f e",
      "b ffff",
      "re ce",
      "rece iv",
      "st e",
      "se ssion",
      "i s",
      "d c",
      "ee ee",
      "f i",
      "9999999999999999 999",
      "at e",
      "a l",
      "node card",
      "s i",
      "fi le",
      "sy ste",
      "syste m",
      "c c",
      "c on",
      "by te",
      "ti me",
      "byte s",
      "e nt",
      "er r",
      "k b",
      "receiv ed",
      "n a",
      "g e",
      "c d",
      "err or",
      ".. ..",
      "ffff ffff",
      "t r",
      "d d",
      "b a",
      "d a",
      "d b",
      "f c",
      "m i",
      "o o",
      "ec t",
      "ec ted",
      "ad d",
      "i o",
      "d f",
      "c lo",
      "c u",
      "clo se",
      "a c",
      "b c",
      "e x",
      "ed u",
      "f pr",
      "b e",
      "9999999999999999 99",
      "an s",
      "tr ans",
      "a e",
      "serv ed",
      "i r",
      "o k",
      "c se",
      "cu hk",
      "b f",
      "z e",
      "si ze",
      "at ed",
      "p s",
      "i l",
      "c io",
      "cio d",
      "g h",
      "de d",
      "f a",
      "b d",
      "ee e",
      "r ou",
      "th rou",
      "throu gh",
      "a nd",
      "pe n",
      "o pen",
      "eeee eee",
      "l in",
      "ou t",
      "st ate",
      "c f",
      "h t",
      "na me",
      "t ps",
      "ht tps",
      "c li",
      "name system",
      "cli ent",
      "file system",
      "c a",
      "er filesystem",
      "b b",
      "se nt",
      "c or",
      "li fe",
      "life time",
      "dat a",
      "99999999 99",
      "lin k",
      "a f",
      "c ate",
      "time out",
      "session id",
      "n ect",
      "e f",
      "r a",
      "st or",
      "con nect",
      "de t",
      "p on",
      "det ected",
      "st ar",
      "ma p",
      "ex ce",
      "t er",
      "re ad",
      "c b",
      "link card",
      "99999999 99999",
      "ma in",
      "u s",
      "v a",
      "do main",
      "ab le",
      "9999999999999999 9",
      "ra m",
      "re p",
      "ed block",
      "oo t",
      "add stor",
      "addstor edblock",
      "star ting",
      "f er",
      "a a",
      "com pon",
      "compon ent",
      "th read",
      "trans fer",
      "e st",
      "s o",
      "rep li",
      "w id",
      "connect ion",
      "d ir",
      "data node",
      "repli cate",
      "u st",
      "m p",
      "cor r",
      "c l",
      "w i",
      ".... ....",
      "f d",
      "g ram",
      "ad ded",
      "cl ust",
      "r om",
      "e t",
      "pro gram",
      "d s",
      "r oot",
      "ck et",
      "f rom",
      "p t",
      "n i",
      "at ion",
      "il able",
      "va ilable",
      "trans mi",
      "corr ected",
      "s u",
      "v er",
      "se t",
      "add re",
      "addre ss",
      "ss ing",
      "mi ssing",
      "h i",
      "se con",
      "ch an",
      "secon ds",
      "e b",
      "v al",
      "dc r",
      "s c",
      "clust erfilesystem",
      "g oo",
      "ne t",
      "wi th",
      "m in",
      "val id",
      "m s",
      "g o",
      "g l",
      "in valid",
      "u na",
      "chan ge",
      "una vailable",
      "li sh",
      "x ffffffff",
      "ab lish",
      "est ablish",
      "o ver",
      "s r",
      "se d",
      "ter min",
      "t ted",
      "u pd",
      "transmi tted",
      "proce s",
      "b gl",
      "or y",
      "st at",
      "proces sed",
      "e ded",
      "block map",
      "upd ated",
      "p ir",
      "ex pir",
      "termin ation",
      "w hi",
      "exce eded",
      "so cket",
      "sr c",
      "expir ing",
      "dir ect",
      "close d",
      "direct ory",
      "ne go",
      "ti ated",
      "establish ed",
      "nego tiated",
      "serv erfilesystem",
      "p er",
      "whi ch",
      "c o",
      "h ad",
      "c r",
      "g le",
      "goo gle",
      "ffff ff",
      "q u",
      "- -",
      "su ch",
      "99999999 9",
      "g er",
      "p a",
      "99999999 999",
      "o l",
      "f b",
      "de st",
      "t or",
      "lo n",
      "h wid",
      "s w",
      "i ma",
      "fa il",
      "pt ion",
      "lo ad",
      "ima ge",
      "lo g",
      "f ee",
      "tor us",
      "w wid",
      "sc si",
      "load ing",
      "o me",
      "stat us",
      "w w",
      "c al",
      "r u",
      "h ome",
      "ge n",
      "cor e",
      "ar ge",
      "receiv er",
      "fail ed",
      "te mp",
      "t arge",
      "v i",
      "exce ption",
      "lon ger",
      "u p",
      "u ser",
      "set s",
      "gen er",
      "n c",
      "f ea",
      "de r",
      "con si",
      "file s",
      "w or",
      "in consi",
      "node sets",
      "ste nt",
      "inconsi stent",
      "te st",
      "a p",
      "m d",
      "gener ated",
      "wor k",
      "u ni",
      "in ter",
      "dd r",
      "ffffff fe",
      "th is",
      "be ing",
      "i t",
      "in st",
      "do ne",
      "co de",
      "net work",
      "serv er",
      "n f",
      "de le",
      "f u",
      "l r",
      "p ut",
      "re qu",
      "in put",
      "n b",
      "c ou",
      "99999999 9999",
      "al lo",
      "l d",
      "allo cate",
      "cou ld",
      "allocate block",
      "h w",
      "domain s",
      "uni x",
      "i c",
      "l s",
      "node s",
      "targe ting",
      "99999999 9999999",
      "sw l",
      "ma nd",
      "ru ction",
      "inst ruction",
      "ct r",
      "e de",
      "x er",
      "a ge",
      "p ip",
      "com mand",
      "pip e",
      "ff f",
      "log in",
      "requ est",
      "g i",
      "l l",
      "........ ........",
      "s p",
      "n al",
      "receiv ing",
      "ni ff",
      "g b",
      "o p",
      "r an",
      "in t",
      "ch dir",
      "dele te",
      "( /",
      "m b",
      "- [",
      "j a",
      "h as",
      "at ing",
      "invalid set",
      "b o",
      "k ee",
      "fa a",
      "ja va",
      "kee per",
      "ff e",
      "pa cket",
      "m g",
      "v e",
      "d dc",
      "ar y",
      "ba id",
      "ww w",
      "b ol",
      "t s",
      "ed faa",
      "c md",
      "de o",
      "vi deo",
      "ap ps",
      "r and",
      "s n",
      "ee p",
      "t a",
      "b er",
      "p l",
      "sw eep",
      "e n",
      "fa ce",
      "-- -",
      "temp or",
      "f cc",
      "al le",
      "goo d",
      "google video",
      "baid u",
      "f da",
      "t ask",
      "re s",
      "tempor ary",
      "d r",
      "se n",
      "tr ee",
      "ba ck",
      "c n",
      "e s",
      "r i",
      "ce c",
      "or um",
      "ss age",
      "me ssage",
      "qu orum",
      "back up",
      "sym bol",
      "n ch",
      "int err",
      "b oot",
      "c ac",
      "e v",
      "ev ent",
      "c ase",
      "s pe",
      "u r",
      "inter face",
      "ran k",
      "case s",
      "p o",
      "al t",
      "vi a",
      "o b",
      "num ber",
      "c an",
      "sen der",
      "c re",
      "h a",
      "ce d",
      "sy nch",
      "re transmi",
      "si g",
      "retransmi ssion",
      "a nt",
      "mp i",
      "e fc",
      "j ob",
      "m c",
      "m o",
      "lo w",
      "fu ll",
      "bo x",
      "i al",
      "m an",
      "s ion",
      "z oo",
      "ne l",
      "cal ls",
      "sig nal",
      "zoo keeper",
      "h u",
      "r edu",
      "stat ic",
      "k in",
      "s of",
      "ff a",
      "pa kin",
      "f cd",
      "as m",
      "sh o",
      "sp asm",
      "a ct",
      "n ction",
      "t x",
      "u bl",
      "u pt",
      "ser ial",
      "do ubl",
      "ip address",
      "nd ant",
      "cu r",
      "mp it",
      "fd fe",
      "fu nction",
      "redu ndant",
      "serial number",
      "mpit s",
      "f ce",
      "ff b",
      "st er",
      "re gi",
      "interr upt",
      "regi ster",
      "b w",
      "i b",
      "i mg",
      "x c",
      "de ni",
      "mi ssion",
      "df s",
      "per mission",
      "alle n",
      "bw allen",
      "deni ed",
      "a der",
      "k er",
      "x id",
      "sy s",
      "sc r",
      "test cases",
      "dr op",
      "a li",
      "b ad",
      "t ch",
      "ed s",
      "re nt",
      "cd n",
      "mi cr",
      "act iv",
      "cur rent",
      "function al",
      "drop box",
      "a vailable",
      "c p",
      "i me",
      "t al",
      "u re",
      "w e",
      "ee r",
      "the ader",
      "cc c",
      "sof theader",
      "ib m",
      "ker nel",
      "micr o",
      "e fe",
      "f ol",
      "m ed",
      "ed ram",
      "ma x",
      "clust er",
      "fee a",
      "pl a",
      "b fe",
      "w ri",
      "x a",
      "in f",
      "fffff e",
      "cc d",
      "lin e",
      "fea a",
      "ta g",
      "fol low",
      ". /",
      "b ff",
      "c ce",
      "m id",
      "m nt",
      "q q",
      "r ts",
      "u e",
      "do op",
      "to tal",
      "sy sc",
      "al ls",
      "log s",
      "cre ating",
      "ha doop",
      "sysc alls",
      "e ff",
      "s na",
      "or t",
      "com p",
      "bgl scr",
      "bglscr atch",
      "c ation",
      "h y",
      "p sho",
      "s wi",
      "lo cal",
      "ad a",
      "me nt",
      ".. .",
      "targe t",
      "res pon",
      "pla ne",
      "mid plane",
      "sna psho",
      "swi tch",
      "snapsho t",
      "f db",
      "at ure",
      "er ature",
      "ad c",
      "ad f",
      "temp erature",
      "inter nal",
      "ddc md",
      "micro seconds",
      "comp le",
      ": /",
      "c s",
      "p m",
      "w as",
      "x e",
      "ad b",
      "il d",
      "exce eds",
      "cr i",
      "inf o",
      "g ou",
      "j tag",
      "l ce",
      "p hy",
      "t mp",
      "ed c",
      "li b",
      "io exception",
      "ra pt",
      "so gou",
      "corr ect",
      "ru n",
      "good ing",
      "spe lce",
      "can not",
      "we i",
      "wri te",
      "rapt or",
      "a m",
      "e ec",
      "f l",
      "u n",
      "ff c",
      "at h",
      "ch ild",
      "re set",
      "li ck",
      "err no",
      "so l",
      "per for",
      "lon g",
      "sp pm",
      "mo d",
      "tx t",
      "correct able",
      "b u",
      "b ee",
      "b ut",
      "p eer",
      "p ath",
      "u b",
      "ec lick",
      "re sol",
      "shut down",
      "stor y",
      "hi story",
      "resol ve",
      "c de",
      "c dc",
      "e nd",
      "xy z",
      "cd f",
      "ffffff e",
      "gi th",
      "mod u",
      "a ec",
      "k n",
      "n sion",
      "z xid",
      "ch e",
      "xyz t",
      "modu le",
      "d n",
      "v ar",
      "ff d",
      "service action",
      "te nt",
      "con tent",
      "us r",
      "dele ting",
      "ran do",
      "doubl eclick",
      "end serviceaction",
      "a de",
      "b i",
      "d in",
      "d ime",
      "h p",
      "l y",
      "s in",
      "ff fe",
      "or din",
      "si cal",
      "cd a",
      "bf b",
      "star t",
      "co ordin",
      "rand txt",
      "fda f",
      "activ e",
      "phy sical",
      "rando m",
      "dime nsion",
      "hp cc",
      "coordin ate",
      "b in",
      "w er",
      "x f",
      "x fffffffe",
      "ar e",
      "do es",
      "as h",
      "pe s",
      "an g",
      "an y",
      "be long",
      "stor age",
      "packet respon",
      "fda e",
      "write block",
      "fl ash",
      "gith ub",
      "sin a",
      "packetrespon der",
      "b r",
      "b ec",
      "c ab",
      "m k",
      "p ort",
      "u pon",
      "at temp",
      "ec c",
      "perfor med",
      "b fc",
      "c ad",
      "m db",
      "m mi",
      "t ion",
      "v n",
      "in e",
      "ed b",
      "as t",
      "cd b",
      "........ ....",
      "min i",
      "gl v",
      "ve l",
      "ddc mdb",
      "bee n",
      "ddcmdb glv",
      "a ce",
      "e l",
      "f df",
      "g lo",
      "l ed",
      "as serted",
      "con tr",
      "cd d",
      "bf d",
      "gh t",
      "inter connect",
      "bi g",
      "contr ol",
      "f dc",
      "g n",
      "l er",
      "m ar",
      "p p",
      "s or",
      "x ce",
      "de c",
      "st re",
      "bf a",
      "ef b",
      "ver sion",
      "fail ing",
      "a ee",
      "a pa",
      "b efor",
      "l ts",
      "s li",
      "x b",
      "x ml",
      "de v",
      "ce e",
      "ce led",
      "ch ine",
      "or g",
      "ec f",
      "par alle",
      "re su",
      "te n",
      "ti cal",
      "ma chine",
      "cc b",
      "bd ir",
      "po wer",
      "can celed",
      "comple tion",
      "cri tical",
      "wei bo",
      "attemp ting",
      "glo sli",
      "xce ption",
      "stre am",
      "befor e",
      "paralle l",
      "resu lts",
      "* *",
      "a ed",
      "a cc",
      "ce b",
      "pro per",
      "ab c",
      "ti es",
      "fe fff",
      "al l",
      "cc f",
      "tr and",
      "ae b",
      "ir ed",
      "su cce",
      "test s",
      "requ ired",
      "follow up",
      "sor trand",
      "proper ties",
      "a ea",
      "b ea",
      "i m",
      "i ty",
      "j mc",
      "l atch",
      "o ff",
      "p jmc",
      "r ec",
      "s id",
      "ff ea",
      "car t",
      "ou nt",
      "re new",
      "so hu",
      "su bdir",
      "en v",
      "quorum server",
      "quorum peer",
      "doubl e",
      "follow er",
      "cs dn",
      "apa che",
      "pjmc cart",
      "b de",
      "c able",
      "e fa",
      "i st",
      "i mb",
      "j s",
      "s ing",
      "v pes",
      "ed f",
      "ee a",
      "ee f",
      "um m",
      "com m",
      "ma il",
      "fc f",
      "ae f",
      "ef d",
      "ap i",
      "spe nt",
      "ali gn",
      "b g",
      "b bc",
      "g ent",
      "g rep",
      "h dfs",
      "m mc",
      "v ol",
      "se c",
      "ed d",
      "ab d",
      "ne x",
      "bl ue",
      "pre p",
      "con f",
      "error s",
      "ba c",
      "co ll",
      "user content",
      "en able",
      "interrupt s",
      "align ment",
      "mmc s",
      "a v",
      "a fc",
      "c fc",
      "i k",
      "n ing",
      "w h",
      "x ffff",
      "y ti",
      "par ity",
      "st ab",
      "sy nd",
      "bl e",
      "le vel",
      "receiv e",
      "dc d",
      "al er",
      "cc a",
      "da c",
      "cu ri",
      "ac b",
      "ex ist",
      "ca u",
      "af b",
      "co p",
      "ger man",
      "exception s",
      "ap is",
      "................ ........",
      "ur gent",
      "man hu",
      "dev ice",
      "comm uni",
      "german n",
      ": -",
      ": :",
      "a h",
      "b s",
      "b df",
      "c xid",
      "e bc",
      "f de",
      "f lo",
      "f bc",
      "i fi",
      "m ount",
      "n type",
      "q path",
      "r ce",
      "u x",
      "u se",
      "u be",
      "y out",
      "y ah",
      "node exist",
      "ec a",
      "do e",
      "on ment",
      "ou rce",
      "process ing",
      "re sh",
      "re qpath",
      "ad s",
      "me m",
      "error code",
      "db c",
      "fc b",
      "mi rand",
      "ir onment",
      "read ing",
      "dir s",
      "chan g",
      "go t",
      "ffffff f",
      "keeper exception",
      "keeper errorcode",
      "interr up",
      "cre ate",
      "tx ntype",
      "register s",
      "bu g",
      "off set",
      "env ironment",
      "wh en",
      "yout ube",
      "yah oo",
      "nodeexist s",
      "mirand a",
      "b it",
      "c lock",
      "f ec",
      "f ab",
      "m y",
      "o pt",
      "p in",
      "p ected",
      "u nex",
      "w a",
      "x d",
      "y in",
      "z er",
      "at ar",
      "ffff e",
      "to o",
      "ee b",
      "ab a",
      "re l",
      "um t",
      "li o",
      "te o",
      "an ce",
      "dc c",
      "fi g",
      "con fig",
      "il le",
      "star ted",
      "aa a",
      "per f",
      "google synd",
      "fu nc",
      "ic ation",
      "po int",
      "cri teo",
      "succe ss",
      "bg lio",
      "receive block",
      "manhu a",
      "ifi cation",
      "pin yin",
      "unex pected",
      "googlesynd ication",
      "a fe",
      "a cd",
      "a ac",
      "b cc",
      "b ffe",
      "d ad",
      "d ur",
      "e of",
      "e be",
      "f ae",
      "h and",
      "i li",
      "m n",
      "p i",
      "p good",
      "r bs",
      "x x",
      "x in",
      "de activ",
      "in ni",
      "ce a",
      "ed a",
      "pro ble",
      "ne z",
      "re valid",
      "sh are",
      "ty p",
      "ea c",
      "ge t",
      "bc b",
      "ra il",
      "mp good",
      "fd mn",
      "su b",
      "ol d",
      "inst ance",
      "................ ....",
      "mb i",
      "pl us",
      "cp md",
      "max im",
      "sina img",
      "vn m",
      "sing le",
      "vol t",
      "stab ili",
      "cau ght",
      "dur ing",
      "hand ler",
      "deactiv ated",
      "inni ty",
      "revalid ating",
      "maxim um",
      "stabili ty",
      "( )",
      "a ger",
      "a mbi",
      "b dc",
      "c le",
      "c bf",
      "d p",
      "d is",
      "e ed",
      "e bd",
      "e sr",
      "f ac",
      "f ps",
      "g al",
      "j ar",
      "l b",
      "l ang",
      "m u",
      "s le",
      "s ource",
      "t w",
      "z hi",
      "at ic",
      "ec d",
      "as ser",
      "th resh",
      "ab e",
      "me so",
      "ea e",
      "fe f",
      "dc a",
      "ba a",
      "oo k",
      "ect ion",
      "ac f",
      "ex e",
      "lin ux",
      "wi res",
      "ms r",
      "go ing",
      "whi le",
      "google apis",
      "command s",
      "bol t",
      "full y",
      "man ager",
      "wei xin",
      "communi cation",
      "mem ory",
      "ille gal",
      "sub commands",
      "ambi ent",
      "cle ar",
      "fps cr",
      "thresh old",
      "meso s",
      "a ab",
      "a me",
      "a ae",
      "a fa",
      "b da",
      "c nt",
      "c bc",
      "d ing",
      "e bf",
      "f dd",
      "f bd",
      "f bb",
      "g r",
      "g static",
      "h ang",
      "i ti",
      "p an",
      "s ram",
      "s umm",
      "w r",
      "w cnt",
      "y ing",
      "ff aa",
      "de bug",
      "in iti",
      "ce f",
      "ce cc",
      "pr ed",
      "ss l",
      "ee xception",
      "st r",
      "st eer",
      "sh u",
      "nt ime",
      ".. /",
      "li ght",
      "om me",
      "ma pred",
      "ate s",
      "tr ying",
      "ba e",
      "ac a",
      "bc ast",
      "ae ger",
      "client s",
      "sc ip",
      "termin ating",
      "stat eexception",
      "co pro",
      "ru ntime",
      "dr aeger",
      "ali cdn",
      "current ly",
      "respon ding",
      "el ection",
      "double max",
      "av atar",
      "zer o",
      "illegal stateexception",
      "pan ic",
      "summ ary",
      "/ /",
      "a w",
      "a le",
      "a ms",
      "b db",
      "c as",
      "c fe",
      "c be",
      "c bb",
      "e ce",
      "e ab",
      "e mp",
      "h n",
      "h alt",
      "i a",
      "r fi",
      "t p",
      "u o",
      "w ar",
      "w il",
      "y ates",
      "on nect",
      "nd m",
      "st a",
      "block s",
      "sh er",
      "li ams",
      "te ch",
      "te xception",
      "cc cd",
      "dd a",
      "fc a",
      "add r",
      "be f",
      "bd img",
      "ca f",
      "af d",
      "ter s",
      "ust atic",
      "google usercontent",
      "it ion",
      "gi ge",
      "baid ustatic",
      "mo de",
      "ali z",
      "comple ted",
      "run ning",
      "br o",
      "control ler",
      "ten max",
      "rec onnect",
      "blue light",
      "ik uo",
      "yti mg",
      "flo ating",
      "config ur",
      "eof exception",
      "proble m",
      "initi aliz",
      "emp ty",
      "rfi sher",
      "wil liams",
      "b cd",
      "b ba",
      "b be",
      "c m",
      "c ae",
      "d fc",
      "d up",
      "e ba",
      "f an",
      "g g",
      "h pl",
      "i j",
      "j eff",
      "k pt",
      "l t",
      "m on",
      "r ma",
      "u nt",
      "w x",
      "y ou",
      "z ed",
      "ff fc",
      "ar ch",
      "de a",
      "de b",
      "de e",
      "de vel",
      "se l",
      "se cu",
      "no s",
      "no rma",
      "in fer",
      "ce nt",
      "ch kpt",
      "pro po",
      "th er",
      "sy nc",
      "ido proxy",
      "me mb",
      "ea a",
      "an typ",
      "ti med",
      "iv e",
      "dc f",
      "cc ce",
      "con n",
      "cd ndm",
      "dd b",
      "da a",
      "da o",
      "db properties",
      "fc ac",
      "io log",
      "bc f",
      "be l",
      "cf d",
      "est ed",
      "gram mar",
      "chan nel",
      "google ads",
      "midplane switch",
      "snapshot ting",
      "............ ...",
      "aler t",
      "use database",
      "interrup ted",
      "zhi hu",
      "asser t",
      "unt ested",
      "you dao",
      "infer no",
      "propo sed",
      "memb er",
      "antyp as",
      "grammar ly",
      "midplaneswitch controller",
      "/ .",
      "a ad",
      "b ce",
      "b eck",
      "c ba",
      "c fa",
      "c mc",
      "d l",
      "d ff",
      "d de",
      "d ce",
      "d mp",
      "d static",
      "f ed",
      "h umm",
      "h omme",
      "i tor",
      "k nez",
      "l p",
      "l ust",
      "m m",
      "o ba",
      "o per",
      "p ing",
      "p ht",
      "p ur",
      "t in",
      "t rel",
      "u l",
      "u bad",
      "v m",
      "x l",
      "y an",
      "y dstatic",
      "z z",
      "de s",
      "se nd",
      "no n",
      "ce bc",
      "or beck",
      "to mand",
      "not ification",
      "ab b",
      "ab ort",
      "new s",
      "me ta",
      "eeee eeee",
      "cc dc",
      "cc cc",
      "con tin",
      "ge ne",
      "dd f",
      "da hn",
      "mi t",
      "ac ce",
      "ok en",
      "ca a",
      "ca cc",
      "pa ge",
      "nf s",
      "................ .",
      "ta oba",
      "cn zz",
      "spe eds",
      "po s",
      "ha ve",
      "sho ck",
      "xe l",
      "bu ber",
      "github usercontent",
      "br des",
      "br oken",
      "ten cent",
      "** **",
      "blue gene",
      "chang ing",
      "chang yan",
      "wa it",
      "success fully",
      "pi xel",
      "steer ing",
      "sta ck",
      "configur ed",
      "initializ ing",
      "gg pht",
      "mon itor",
      "sel ect",
      "idoproxy db",
      "humm er",
      "lust re",
      "oper ation",
      "trel lo",
      "ubad s",
      "tomand jeff",
      "taoba o",
      "= /",
      "a do",
      "b bd",
      "b log",
      "b ook",
      "c j",
      "c pro",
      "c xx",
      "d bl",
      "d fe",
      "f ad",
      "f be",
      "g q",
      "h o",
      "i e",
      "k u",
      "l ast",
      "m as",
      "m dc",
      "o g",
      "r is",
      "s to",
      "s ame",
      "t cp",
      "u lr",
      "v gq",
      "w in",
      "de f",
      "de dc",
      "de scr",
      "se arch",
      "ce dc",
      "or ted",
      "or ters",
      "ffff c",
      "ip tor",
      "ss port",
      "as ic",
      "ee no",
      "ab f",
      "ab orted",
      "ne ls",
      "re trying",
      "of dir",
      "pre fi",
      "li mit",
      "ea f",
      "an al",
      "hk g",
      "ma y",
      "fe ff",
      "fe tch",
      "rece ption",
      "ste ll",
      ".... ..",
      "dd d",
      "be nch",
      "bf dc",
      "cio stream",
      "open ing",
      "out s",
      "ca che",
      "ef dc",
      "stor e",
      "map file",
      "read y",
      "so ck",
      "so ds",
      "repli cation",
      "ds k",
      "su pp",
      "ver ification",
      "set ting",
      "cr c",
      "pa ssport",
      "fb cdn",
      "cal ing",
      "gen vm",
      "vi car",
      "ap c",
      "inter val",
      "it c",
      "bo ta",
      "mg r",
      "face book",
      "boot genvm",
      "ha ck",
      "man ce",
      "wri ter",
      "adc ast",
      "sogou cdn",
      "un correctable",
      "perfor mance",
      "sina js",
      "............ .",
      "mar k",
      "succe eded",
      "ik e",
      "yti cs",
      "........................ .",
      "dis able",
      "sle pt",
      "gr eeno",
      "hang outs",
      "war ning",
      "bro adcast",
      "ther e",
      "acce ss",
      "page ad",
      "ado be",
      "ku bota",
      "mas ter",
      "mdc ask",
      "ris boot",
      "tcp conn",
      "ulr ike",
      "descr iptor",
      "ofdir ty",
      "prefi x",
      "anal ytics",
      "stell a",
      "bench mark",
      "sods caling",
      "supp orters",
      "bootgenvm unix",
      "a u",
      "a af",
      "a ffe",
      "a use",
      "b ed",
      "b dd",
      "c bd",
      "c cec",
      "c ada",
      "c bfb",
      "d i",
      "d ni",
      "d ffe",
      "d dec",
      "e wer",
      "f m",
      "f ba",
      "f low",
      "g m",
      "i shu",
      "j ul",
      "n io",
      "o cc",
      "p ch",
      "p ic",
      "q box",
      "r ed",
      "r ound",
      "s ca",
      "u sh",
      "x ue",
      "y un",
      "ff er",
      "ff bc",
      "ff ca",
      "ce ce",
      "ce cb",
      "at ter",
      "ed ge",
      "nd y",
      "fffff c",
      "for m",
      "ad dc",
      "part ition",
      "pre fetch",
      "le test",
      "te am",
      "by interrup",
      "ma j",
      "fe b",
      "dc fc",
      "cc fc",
      "ge mini",
      "cd fc",
      "cd bc",
      "tr i",
      "dd dc",
      "ba f",
      "fc bc",
      "df d",
      "clo u",
      "ac dc",
      "ex ec",
      "be b",
      "be n",
      "il l",
      "bd static",
      "lin es",
      "bb b",
      "link error",
      "ef cd",
      "ef db",
      "so d",
      "........ .",
      "ds mc",
      "chan nels",
      "sc atter",
      "upd ate",
      "expir ed",
      "closed byinterrup",
      "pa ck",
      "vi ewer",
      "user func",
      "test ed",
      "test ing",
      "test qbox",
      "ap p",
      "inst all",
      "server db",
      "ll er",
      "................ ..",
      "................ ...",
      "pl b",
      "fcc c",
      "cac a",
      "ur red",
      "hu i",
      "sof t",
      "bff fe",
      "comple te",
      ":/ /",
      "cs dni",
      "fl ush",
      "bu ffer",
      "cdc c",
      "mini ben",
      "pp c",
      "bea con",
      "mu ndy",
      "sle s",
      "ook ie",
      "debug ger",
      "avatar s",
      "tp c",
      "lt on",
      "bel nez",
      "homme s",
      "cj mundy",
      "ulrike y",
      "ause lton",
      "ishu hui",
      "occ urred",
      "pch ome",
      "sca letest",
      "xue shu",
      "team viewer",
      "closedbyinterrup texception",
      "csdni mg",
      "/ )",
      "/ ../",
      "= =",
      "a ma",
      "b mi",
      "b ra",
      "c ff",
      "c ss",
      "c ating",
      "d iv",
      "d ba",
      "d ue",
      "d typ",
      "d ition",
      "e bb",
      "e map",
      "e ffa",
      "e ssl",
      "f ced",
      "g ra",
      "h m",
      "h ne",
      "i f",
      "i mp",
      "i which",
      "k y",
      "k map",
      "l co",
      "m ookie",
      "o s",
      "o ima",
      "p wr",
      "q b",
      "r t",
      "r st",
      "r ky",
      "s l",
      "t c",
      "t able",
      "t ur",
      "t ue",
      "t lb",
      "t addr",
      "u ba",
      "u ve",
      "v x",
      "w s",
      "w eb",
      "w ang",
      "x t",
      "x fffffe",
      "y t",
      "z on",
      "ff dc",
      "ff ac",
      "ff cb",
      "ff fdfe",
      "ar ale",
      "de l",
      "de cd",
      "de ac",
      "se s",
      "ce ec",
      "ce fc",
      "card sto",
      "ec b",
      "ffff bffe",
      "on g",
      "serv e",
      "serv ing",
      "as sets",
      "to ol",
      "nd ing",
      "par md",
      "service s",
      "st ir",
      "block info",
      "re ver",
      "pe nding",
      "ad bc",
      "ido s",
      "ido chip",
      "ido mar",
      "um emap",
      "part ad",
      "pre ssion",
      "li t",
      "li ve",
      "li zed",
      "te xt",
      "an x",
      "ti mg",
      "iv er",
      "bffff ffe",
      "dc b",
      "dc cc",
      "fi rst",
      "al ready",
      "si c",
      "cc cb",
      "con dition",
      "ge o",
      "cd dc",
      "cd ac",
      "tr a",
      "tr ace",
      "dd bc",
      "da f",
      "db f",
      "fc dc",
      "ect or",
      "add member",
      "df bc",
      "ac bc",
      "ex pression",
      "il y",
      "fa f",
      "lin pack",
      "out bra",
      "ef de",
      "ef ea",
      "ef cc",
      "ef ba",
      "ef da",
      "ef bc",
      "rep ubads",
      "repli cas",
      "rom io",
      "ds p",
      "ni el",
      "ni zed",
      "hi t",
      "min us",
      "bgl idochip",
      "ffffff fc",
      "ffffff be",
      "qu ant",
      "-- >",
      "pa p",
      "fb fffffe",
      "cal tech",
      "gener al",
      "it ten",
      "cou nt",
      "age s",
      "sp lit",
      "ts ch",
      "ber tsch",
      "dr ive",
      "tree addr",
      "po se",
      "full test",
      "fce a",
      "cp p",
      "cp u",
      "we lco",
      "micro soft",
      "med ia",
      "cluster addmember",
      "pla y",
      "jtag id",
      "un able",
      "un rec",
      "cde c",
      "gith uba",
      "kn l",
      "attemp t",
      "el and",
      "fdf a",
      "fdc c",
      "bea p",
      "mail box",
      "vol umemap",
      "coll ector",
      "xffff c",
      "parity alignment",
      "aler ts",
      "........................ ...",
      "communi cating",
      "fde e",
      "ffffe ffe",
      "get ting",
      ".................... .",
      "wr itten",
      "str ong",
      "aw s",
      "devel f",
      "secu re",
      "secu repubads",
      "nos dn",
      "norma l",
      "norma lized",
      "pur pose",
      "notification s",
      "contin ue",
      "og nized",
      "win do",
      "feff ed",
      "sock s",
      "replication monitor",
      "di ct",
      "yun sic",
      "form at",
      "ama zon",
      "bmi ller",
      "iwhich cardsto",
      "oima g",
      "pwr off",
      "taddr iver",
      "arale go",
      "tool s",
      "rever se",
      "pending replicationmonitor",
      "idomar sh",
      "outbra in",
      "niel sen",
      "quant serve",
      "welco me",
      "unrec ognized",
      "githuba pp",
      "amazon aws",
      "iwhichcardsto pwroff",
      "a il",
      "a ver",
      "a md",
      "a cec",
      "b p",
      "b ab",
      "b ri",
      "c i",
      "d m",
      "d ab",
      "e as",
      "e ad",
      "e fff",
      "e we",
      "e ue",
      "e edc",
      "f g",
      "f p",
      "f r",
      "f bf",
      "f ls",
      "f cec",
      "f resh",
      "g ate",
      "g ine",
      "h el",
      "i de",
      "i ting",
      "i le",
      "i ble",
      "j p",
      "j ect",
      "j gh",
      "k ne",
      "k dp",
      "m f",
      "m ba",
      "m ps",
      "m tal",
      "n l",
      "n x",
      "o t",
      "p k",
      "p u",
      "p as",
      "p th",
      "p ub",
      "p ubads",
      "p count",
      "q a",
      "r m",
      "s ch",
      "s ma",
      "s mi",
      "s content",
      "s afe",
      "t u",
      "u ation",
      "u es",
      "v atar",
      "w sing",
      "x ad",
      "x da",
      "x bf",
      "x fa",
      "x aa",
      "x hpl",
      "y u",
      "y read",
      "y gi",
      "ff t",
      "ff cd",
      "ff ae",
      "de de",
      "de cc",
      "de dd",
      "de pth",
      "se ne",
      "se qu",
      "in ity",
      "in complete",
      "ce dd",
      "ce ac",
      "ce bf",
      "at ta",
      "ch ar",
      "ch ment",
      "or der",
      "lo ne",
      "lo go",
      "lo cation",
      "lo ewe",
      "ffff eb",
      "ed n",
      "ip le",
      "ss p",
      "as ia",
      "to war",
      "ou texception",
      "nd wid",
      "par e",
      "par ame",
      "fffff bfe",
      "st ill",
      "er s",
      "ck pt",
      "ab cc",
      "ab fc",
      "ab ac",
      "ab bc",
      "block ed",
      "re starting",
      "re fresh",
      "ad cc",
      "ad ac",
      "ad zer",
      "ad nx",
      "sh ort",
      "te l",
      "com pare",
      "bffff dfe",
      "dc dc",
      "dc bc",
      "al lr",
      "si mba",
      "time outexception",
      ".... .",
      ".... ...",
      "dd ac",
      "ba ndwid",
      "da e",
      "da ce",
      "da cb",
      "db b",
      "db d",
      "db g",
      "fc ff",
      "fc de",
      "fc ce",
      "fc match",
      "fc be",
      "io state",
      "df a",
      "df b",
      "bc a",
      "ex change",
      "edu ce",
      "ae fe",
      "bf ea",
      "fa ec",
      "cf b",
      "ca ec",
      "ca cd",
      "ca fc",
      "ca ac",
      "ca pt",
      "bb de",
      "af ly",
      "ef ce",
      "ef ec",
      "ef ed",
      "ef dd",
      "ra ck",
      "det ail",
      "va lone",
      "cl aw",
      "fd dc",
      "fd fffdfe",
      "ver if",
      "hi gh",
      "hi clou",
      "go v",
      "lish i",
      "over flow",
      "proces ses",
      "bgl master",
      "socket s",
      "socket timeoutexception",
      "per claw",
      "google tag",
      "qu eue",
      "qu lishi",
      "pa pi",
      "ol ar",
      "fb bc",
      "fail ure",
      "log user",
      "wor d",
      "hw stab",
      "ll nl",
      "................ ................",
      "sp ec",
      "ja g",
      "ddc c",
      "fcc f",
      "fda a",
      "res ource",
      "ri ch",
      "symbol s",
      "cac f",
      "cac afly",
      "sig n",
      "mpi ch",
      "efc a",
      "efc f",
      "redu ce",
      "fcd b",
      "fcd d",
      "fce b",
      "ali ty",
      "activ ating",
      "cp c",
      "cp m",
      "efe b",
      "efe f",
      "edram s",
      "bfe b",
      "inf inity",
      "bff c",
      "bff d",
      "hy perclaw",
      "run s",
      "un der",
      "content ion",
      "content rec",
      "ade c",
      "bi z",
      "bec a",
      "cab c",
      "cab d",
      "cab f",
      "cab ot",
      "............ ..",
      "gn u",
      "pp ing",
      "im pr",
      "enable flush",
      "av d",
      "aler io",
      "flo pcount",
      "fbc a",
      "wa iting",
      "unexpected ly",
      "proble ms",
      ".................... ..",
      ".................... ...",
      "mu lt",
      "zhi mg",
      "asser tion",
      "dca che",
      "str ip",
      "omme nd",
      "bdb b",
      "bro wsing",
      "bel n",
      "mm stat",
      "pur ge",
      "contin uation",
      "stack exchange",
      "dbl p",
      "dbl word",
      "fad y",
      "ho st",
      "vgq sene",
      "access ible",
      "ofdirty lines",
      "ofdirty dblword",
      "maj or",
      "tri er",
      "testqbox hang",
      "gra vatar",
      "parmd g",
      "stir tur",
      "tra in",
      "windo ws",
      "idomarsh alerio",
      "aver ages",
      "bri an",
      "eas yread",
      "fg ygi",
      "kdp ic",
      "mtal k",
      "pas ci",
      "sch olar",
      "smi th",
      "safe browsing",
      "atta chment",
      "ffffeb fe",
      "towar d",
      "parame ters",
      "adzer k",
      "adnx s",
      "allr educe",
      "bandwid th",
      "capt ure",
      "detail ed",
      "verif y",
      "hiclou d",
      "loguser info",
      "contentrec ommend",
      "flopcount ers",
      "mult iple",
      "vgqsene s",
      "! (",
      ") :",
      ") ...",
      "* )",
      "= !(",
      "a g",
      "a o",
      "a ff",
      "a man",
      "a ccc",
      "a ada",
      "a adc",
      "a ffd",
      "a fffffff",
      "a aba",
      "b ip",
      "b an",
      "b is",
      "b bf",
      "b rand",
      "b cec",
      "b bac",
      "c at",
      "c id",
      "c si",
      "c gi",
      "c sp",
      "c ffffffe",
      "c pes",
      "c aeb",
      "d y",
      "d um",
      "d cec",
      "e k",
      "e p",
      "e ver",
      "e faa",
      "e ffe",
      "e ffb",
      "f on",
      "f ecc",
      "f dec",
      "f abc",
      "f bac",
      "g s",
      "g u",
      "g ge",
      "g mail",
      "g ive",
      "h pd",
      "h an",
      "i se",
      "i ss",
      "i te",
      "i an",
      "i ap",
      "i es",
      "j y",
      "j ni",
      "k e",
      "k k",
      "k dc",
      "k it",
      "k en",
      "k cdn",
      "l a",
      "l h",
      "l u",
      "l ate",
      "l ac",
      "l cr",
      "l eep",
      "l apa",
      "m ct",
      "m er",
      "m ing",
      "m ob",
      "m atic",
      "n g",
      "n m",
      "n ee",
      "o wn",
      "o image",
      "o dr",
      "o csp",
      "p h",
      "p v",
      "p ps",
      "p ux",
      "q i",
      "q s",
      "q x",
      "q ls",
      "q pic",
      "q logo",
      "r w",
      "r ing",
      "r ome",
      "r fft",
      "s b",
      "s on",
      "s pa",
      "s core",
      "s sen",
      "s ort",
      "s am",
      "t z",
      "t at",
      "t ab",
      "t ap",
      "t server",
      "t un",
      "t dp",
      "t anx",
      "u ch",
      "u al",
      "u bgl",
      "v r",
      "v t",
      "v ing",
      "v is",
      "w al",
      "w ra",
      "x ffffff",
      "x fee",
      "y x",
      "y ms",
      "y es",
      "z kcdn",
      "ff ce",
      "ff ab",
      "ff ad",
      "ff cc",
      "ff da",
      "ff db",
      "ff add",
      "ff be",
      "ff bf",
      "ff cf",
      "ff bb",
      "ff af",
      "ff aaa",
      "ar ty",
      "ar en",
      "ar ant",
      "ar ily",
      "de ce",
      "de ec",
      "de ed",
      "de fe",
      "de bc",
      "de cl",
      "de ve",
      "de mo",
      "de bcc",
      "de normalized",
      "se ver",
      "se stat",
      "se ille",
      "se ek",
      "no io",
      "no avatar",
      "in ex",
      "in it",
      "ce ab",
      "ce cd",
      "ce db",
      "ce bd",
      "ce cf",
      "ce eb",
      "card s",
      "card re",
      "at anx",
      "ch at",
      "ch mod",
      "ch own",
      "ec ce",
      "ec da",
      "ec ac",
      "ec bc",
      "ec ise",
      "do ct",
      "lo p",
      "ffff ca",
      "ed da",
      "ed fc",
      "ed fa",
      "ip v",
      "ss tat",
      "pro mp",
      "to purge",
      "to ken",
      "to uch",
      "ee ec",
      "ct l",
      "ion i",
      "fffff d",
      "service network",
      "service mailbox",
      "st u",
      "st ion",
      "not e",
      "er y",
      "er ist",
      "ck ap",
      "ab ec",
      "ab dc",
      "ab led",
      "ne te",
      "for ce",
      "for mi",
      "re main",
      "re sets",
      "re mo",
      "pe op",
      "ad v",
      "ad fc",
      "ad sr",
      "ad master",
      "ad tdp",
      "bl ac",
      "new ma",
      "new si",
      "ido trans",
      "ido client",
      "ido ms",
      "pre sent",
      "pre sta",
      "pre qx",
      "type kit",
      "down load",
      "me am",
      "me ssen",
      "li st",
      "te nsion",
      "te maj",
      "com ms",
      "com ment",
      "fe fffff",
      "fe fe",
      "fe bc",
      "fe bf",
      "fe fab",
      "bffff a",
      "bffff d",
      "dc dd",
      "dc da",
      "dc bf",
      "dc ount",
      "fi er",
      "si temaj",
      "cc dd",
      "cc ba",
      "cc da",
      "cc bc",
      "cc bf",
      "con c",
      "con so",
      "byte bug",
      "ent ial",
      "err str",
      "err han",
      "ge tel",
      "cd adc",
      "cd fffe",
      "tr c",
      "tr out",
      "tr ap",
      "dd ff",
      "dd fc",
      "ba ab",
      "ba cc",
      "ba ac",
      "ba ker",
      "ba ij",
      "ba yms",
      "da ec",
      "da cc",
      "da cd",
      "da fc",
      "da ac",
      "da cf",
      "da ily",
      "db e",
      "db dc",
      "db fd",
      "fc ab",
      "fc bf",
      "fc ffe",
      "fc bea",
      "fc dcf",
      "mi ao",
      "oo la",
      "add this",
      "df ed",
      "df cc",
      "clo sing",
      "cu pps",
      "ac fc",
      "ac bb",
      "bc dc",
      "ex ter",
      "ex tension",
      "be bd",
      "bf ec",
      "bf ed",
      "bf ee",
      "bf bb",
      "bf af",
      "bf dea",
      "ps u",
      "gh dr",
      "ded replication",
      "fa cc",
      "fa fc",
      "fa fa",
      "bd ab",
      "rou te",
      "lin adv",
      "out put",
      "ca ce",
      "ca ee",
      "ca us",
      "ca mo",
      "ca pi",
      "bb ab",
      "af ter",
      "ef ee",
      "ef df",
      "ef be",
      "ef bf",
      "ef bd",
      "ef bb",
      "ef ccb",
      "ef dcd",
      "ef dbc",
      "ef dfd",
      "ra i",
      "cb ec",
      "cb ea",
      "cb dc",
      "cb cc",
      "rep lac",
      "aa ec",
      "aa cc",
      "aa ac",
      "cl g",
      "wi x",
      "........ ...",
      "fd fffff",
      "fd fc",
      "fd fffe",
      "pt login",
      "su gge",
      "su ite",
      "eb de",
      "eb ee",
      "eb ba",
      "eb da",
      "eb db",
      "sr m",
      "stat s",
      "per son",
      "ffffff c",
      "qu ery",
      "pa i",
      "fb ab",
      "fb dc",
      "fb ba",
      "image s",
      "temp high",
      "up load",
      "gener ating",
      "nc y",
      "fea c",
      "fea f",
      "consi der",
      "wor dcount",
      "test suite",
      "md n",
      "ddr size",
      "code s",
      "allo cation",
      "ic s",
      "ls f",
      "ctr s",
      "ede a",
      "ede fb",
      "ll ap",
      "................ ............",
      "en gine",
      "en abled",
      "tempor arily",
      "fcc ce",
      "fcc fe",
      "fcc bf",
      "ob ject",
      "ha o",
      "efc b",
      "efc fc",
      "efc bc",
      "efc fd",
      "mc mm",
      "mo ds",
      "sof tw",
      "ffa ec",
      "ffa ed",
      "ffa fa",
      "fcd a",
      "fcd f",
      "sho w",
      "sho ts",
      "act erist",
      "cur ioni",
      "fce e",
      "fce bd",
      "fce cb",
      "ffb ff",
      "ffb df",
      "img ur",
      "ali tu",
      "eff c",
      "cs ar",
      "eec c",
      "un sign",
      "bu ild",
      "ub mcmm",
      "dn s",
      "are servicenetwork",
      "cab e",
      "port mgr",
      "glo b",
      "mar seille",
      "bdir ect",
      "stream tri",
      "acc ount",
      "aea c",
      "rec v",
      "bde a",
      "bde e",
      "efa ea",
      "grep a",
      "nex t",
      "av p",
      "xffff b",
      "xffff d",
      "synd rome",
      "receive train",
      "cau sed",
      "manhu aren",
      "bdf a",
      "flo at",
      "wa y",
      "bdc b",
      "wr ating",
      "zero bytebug",
      "hn edn",
      "ia hao",
      "configur ation",
      "nos leep",
      "send ing",
      "stack overflow",
      "og s",
      "sto pping",
      "vgq s",
      "win err",
      "adobe login",
      "au g",
      "au topurge",
      "fm mods",
      "gm t",
      "clou df",
      "/../ ../",
      "div ac",
      "div ide",
      "imp service",
      "sl f",
      "wang wang",
      "mailbox monitor",
      "dict app",
      "oimag ec",
      "oimag ea",
      "fr action",
      "gate way",
      "hel lo",
      "pub matic",
      "sma ll",
      "yu edu",
      "sequ ential",
      "char acterist",
      "order ed",
      "googletag manager",
      "spec ial",
      "under flow",
      "impr ecise",
      "stirtur bdirect",
      "ag kn",
      "aman ad",
      "bip arty",
      "ban k",
      "cid ian",
      "dum p",
      "ep streamtri",
      "ever note",
      "fon ts",
      "gu arant",
      "iss ues",
      "kdc l",
      "late ncy",
      "lapa ck",
      "mob ile",
      "nee dedreplication",
      "oimage b",
      "qls n",
      "spa ce",
      "score cardre",
      "sam rai",
      "tz yx",
      "tab oola",
      "tap ad",
      "tun ed",
      "ual dn",
      "vis us",
      "wal k",
      "wra y",
      "decl areservicenetwork",
      "deve lop",
      "sever ed",
      "inex act",
      "doct or",
      "sstat s",
      "promp t",
      "servicemailbox es",
      "ckap fer",
      "nete ase",
      "remo ving",
      "peop le",
      "adsr vr",
      "blac s",
      "newma ps",
      "newsi mg",
      "idotrans portmgr",
      "idoclient mgr",
      "messen ger",
      "fefe feff",
      "sitemaj i",
      "conso le",
      "trout er",
      "baij iahao",
      "bayms gr",
      "daily update",
      "miao pai",
      "exter nal",
      "caus ing",
      "replac ing",
      "sugge stion",
      "person ality",
      "softw are",
      "alitu i",
      "unsign ed",
      "marseille bgl",
      "account s",
      "characterist ics",
      "biparty z",
      "epstreamtri ad",
      "guarant eed",
      "neededreplication s",
      "scorecardre search",
      "declareservicenetwork characteristics",
      "& )",
      "& ,",
      ") '",
      ") ........................",
      ") .......",
      ") ......................",
      ") .......................",
      "* ,",
      "* &)",
      "- >",
      "/ ./",
      "? /",
      "a y",
      "a ss",
      "a ut",
      "a ded",
      "a eee",
      "a ve",
      "a edc",
      "a vn",
      "a cdd",
      "a abc",
      "a im",
      "a gent",
      "a ux",
      "a gg",
      "b h",
      "b j",
      "b t",
      "b x",
      "b z",
      "b ar",
      "b id",
      "b atch",
      "b us",
      "b fff",
      "b edc",
      "b vn",
      "b dec",
      "b ccb",
      "b ceb",
      "b abc",
      "b dbc",
      "b eda",
      "b ates",
      "b bae",
      "b abb",
      "b trace",
      "c v",
      "c atch",
      "c ffa",
      "c adc",
      "c adb",
      "c ffea",
      "c bac",
      "c ookie",
      "c tools",
      "d g",
      "d h",
      "d j",
      "d k",
      "d t",
      "d w",
      "d par",
      "d sh",
      "d na",
      "d ge",
      "d ps",
      "d ram",
      "d ffa",
      "d ada",
      "d adc",
      "d adf",
      "d pm",
      "d ffc",
      "d ffd",
      "d fffe",
      "d abc",
      "d abd",
      "d fcb",
      "d fffffff",
      "d lb",
      "d abb",
      "d abf",
      "e fffff",
      "e add",
      "e ld",
      "e adf",
      "e start",
      "e edb",
      "e bfa",
      "e ceb",
      "e abc",
      "e abd",
      "e bae",
      "e texception",
      "e ther",
      "f o",
      "f s",
      "f in",
      "f re",
      "f tr",
      "f oo",
      "f stat",
      "f test",
      "f adc",
      "f edc",
      "f bfb",
      "f tests",
      "f aef",
      "f bef",
      "f sync",
      "f mm",
      "f chmod",
      "g d",
      "g p",
      "g t",
      "g in",
      "g ed",
      "g id",
      "g to",
      "g ice",
      "g ing",
      "g um",
      "g ma",
      "g cc",
      "g root",
      "g apps",
      "g un",
      "g ath",
      "g ame",
      "g vt",
      "g ctl",
      "h j",
      "h ar",
      "h id",
      "h res",
      "h static",
      "h pm",
      "h fm",
      "i x",
      "i z",
      "i or",
      "i ted",
      "i fe",
      "i eee",
      "i cb",
      "i wi",
      "i et",
      "i ms",
      "i cal",
      "i cau",
      "i cache",
      "j i",
      "j r",
      "j re",
      "j line",
      "j ection",
      "j vm",
      "j fm",
      "j lu",
      "j ng",
      "j dk",
      "k o",
      "k le",
      "k eb",
      "k test",
      "k nel",
      "k ill",
      "k iwi",
      "l g",
      "l lo",
      "l ing",
      "l ti",
      "l stat",
      "l arge",
      "l are",
      "l seek",
      "l chown",
      "m de",
      "m pd",
      "m bl",
      "m is",
      "m err",
      "m mbi",
      "m mu",
      "m hfm",
      "n h",
      "n u",
      "n ted",
      "n le",
      "n an",
      "n ded",
      "n ms",
      "n gi",
      "n ve",
      "o de",
      "o id",
      "o ad",
      "o be",
      "o ption",
      "o ws",
      "o sign",
      "p or",
      "p id",
      "p pre",
      "p net",
      "p ol",
      "p op",
      "p pl",
      "p ho",
      "p cookie",
      "q w",
      "q um",
      "q hi",
      "q lr",
      "q rt",
      "q hres",
      "r s",
      "r y",
      "r on",
      "r ss",
      "r al",
      "r ary",
      "r ta",
      "r ther",
      "r ows",
      "s a",
      "s do",
      "s par",
      "s com",
      "s cli",
      "s all",
      "s ses",
      "s gs",
      "s qrt",
      "t n",
      "t st",
      "t sh",
      "t ter",
      "t va",
      "t wi",
      "t xyz",
      "t mgr",
      "t dt",
      "t mpd",
      "u i",
      "u id",
      "u mask",
      "u an",
      "u gh",
      "u res",
      "u dp",
      "u sync",
      "v ir",
      "v addr",
      "v buffer",
      "v trace",
      "v jp",
      "v oid",
      "w f",
      "w k",
      "w ed",
      "w atch",
      "w pen",
      "w su",
      "w bp",
      "w osign",
      "w tdt",
      "x ff",
      "x de",
      "x ec",
      "x ed",
      "x fffff",
      "x ing",
      "x fe",
      "x dc",
      "x cd",
      "x ba",
      "x db",
      "x fc",
      "x ac",
      "x bc",
      "x be",
      "x ae",
      "x bd",
      "x ca",
      "x bb",
      "x af",
      "x ef",
      "x cb",
      "x fb",
      "x fff",
      "x fcd",
      "x bfe",
      "x fffe",
      "x fffffff",
      "x gr",
      "x afd",
      "x abb",
      "x vicar",
      "x uan",
      "y ap",
      "y img",
      "y ndm",
      "y bp",
      "y kle",
      "y vjp",
      "z hstatic",
      "z jfm",
      "z sall",
      "| |",
      "ff de",
      "ff ec",
      "ff ee",
      "ff eeee",
      "ff ba",
      "ff bd",
      "ff fd",
      "ff fb",
      "ff cec",
      "ff ced",
      "ff ada",
      "ff adc",
      "ff adf",
      "ff adb",
      "ff cdf",
      "ff bfb",
      "ff bfd",
      "ff bfa",
      "ff cee",
      "ff aeb",
      "ff acb",
      "ff afb",
      "ff dcc",
      "ff bcb",
      "ff tw",
      "ff baa",
      "ff acf",
      "ff cef",
      "ff bae",
      "ff aca",
      "ff dda",
      "ff caf",
      "ff caa",
      "ff baf",
      "ff dbf",
      "ar ed",
      "ar est",
      "ar gum",
      "de n",
      "de ab",
      "de fc",
      "de df",
      "de bf",
      "de bd",
      "de bb",
      "de eb",
      "de fb",
      "de eca",
      "de groot",
      "de mde",
      "se ti",
      "se curi",
      "se mbl",
      "no p",
      "no pr",
      "no va",
      "no ni",
      "no comm",
      "no apc",
      "no route",
      "no zerobytebug",
      "in k",
      "in te",
      "in form",
      "in count",
      "in jection",
      "ce r",
      "ce si",
      "ce da",
      "ce be",
      "ce ca",
      "ce bb",
      "ce fd",
      "at t",
      "at iv",
      "at all",
      "at ive",
      "ch ing",
      "ch am",
      "or ac",
      "or ies",
      "or estart",
      "ser apis",
      "ec ff",
      "ec ad",
      "ec fe",
      "ec cc",
      "ec ba",
      "ec ae",
      "ec fa",
      "ec bb",
      "ec af",
      "ec aa",
      "ec mb",
      "ec ccc",
      "ec dn",
      "ec dca",
      "ec vbuffer",
      "do g",
      "pr iv",
      "lo or",
      "lo st",
      "lo ok",
      "lo ader",
      "ffff bc",
      "ed de",
      "ed fe",
      "ed dc",
      "ed cc",
      "ed ba",
      "ed df",
      "ed ac",
      "ed bc",
      "ed ca",
      "ed bb",
      "ed aa",
      "ed bbb",
      "pd ate",
      "pd bg",
      "ip s",
      "on ly",
      "on ix",
      "ss o",
      "ss um",
      "ss ive",
      "pro f",
      "pro ject",
      "as on",
      "as sembl",
      "id x",
      "to po",
      "to cdn",
      "to ho",
      "ou ji",
      "ee ce",
      "ee ba",
      "ee bc",
      "ee ae",
      "ee bf",
      "ee bd",
      "ee bea",
      "ct ld",
      "ct ips",
      "nd or",
      "nd ir",
      "par serapis",
      "ml ink",
      "st and",
      "st un",
      "iar y",
      "th re",
      "th ir",
      "th under",
      "er ing",
      "ing o",
      "sy mlink",
      "ab ea",
      "ab db",
      "ab ca",
      "ne os",
      "ne arest",
      "re add",
      "re served",
      "re open",
      "re name",
      "re nc",
      "re tag",
      "re started",
      "re mer",
      "re gctl",
      "re ason",
      "of da",
      "ad be",
      "ad fa",
      "ad tech",
      "ad services",
      "ad ingo",
      "ting yun",
      "bl as",
      "bl ime",
      "bl ast",
      "sym cd",
      "sh ared",
      "sh ouji",
      "new kernel",
      "new comp",
      "new hack",
      "ase arch",
      "ido udp",
      "um s",
      "ut ion",
      "ut ime",
      "part sn",
      "pre ta",
      "le n",
      "le me",
      "le ader",
      "nt ifi",
      "me hu",
      "me kn",
      "li cate",
      "te tsh",
      "ea de",
      "ea ce",
      "ea fc",
      "ea ae",
      "ea pp",
      "com mit",
      "an com",
      "by e",
      "ti g",
      "ti mi",
      "ti mer",
      "ma cce",
      "ma ke",
      "ma keb",
      "ma llo",
      "fe ec",
      "fe ffff",
      "fe ab",
      "fe ad",
      "fe fc",
      "fe bd",
      "fe ffe",
      "fe fcd",
      "fe eds",
      "fe fcf",
      "fe fffc",
      "fe feb",
      "fe ng",
      "fe fafa",
      "ste xception",
      "ste pping",
      "session timeout",
      "is o",
      "dc u",
      "dc db",
      "dc df",
      "dc ac",
      "dc ae",
      "dc bd",
      "dc cf",
      "dc af",
      "dc aee",
      "dc ode",
      "fi el",
      "fi eld",
      "al err",
      "si wf",
      "si xgr",
      "system controller",
      "cc r",
      "cc db",
      "cc ac",
      "cc be",
      "cc fa",
      "cc bd",
      "cc cf",
      "cc ca",
      "cc af",
      "cc same",
      "cc yndm",
      "con st",
      "con project",
      "con tig",
      "time ofda",
      "ent ry",
      "ge tr",
      "cd de",
      "cd be",
      "cd fbab",
      "tr app",
      "dd de",
      "dd ab",
      "dd dd",
      "dd md",
      "dd abe",
      "ba ff",
      "ba ec",
      "ba fc",
      "ba ae",
      "ba cb",
      "ba eb",
      "da ea",
      "da af",
      "da fdc",
      "da abd",
      "da abe",
      "da fca",
      "db de",
      "db ec",
      "db cc",
      "db dd",
      "db bc",
      "db sr",
      "db cr",
      "db remer",
      "fc ba",
      "fc fc",
      "fc ded",
      "fc bb",
      "fc af",
      "fc fff",
      "fc faa",
      "fc fcc",
      "fc fda",
      "fc cec",
      "fc fcd",
      "fc bfe",
      "fc bff",
      "fc fdb",
      "fc lick",
      "fc bfb",
      "fc bec",
      "fc dec",
      "fc bfa",
      "fc ceb",
      "fc bde",
      "fc bac",
      "fc dcd",
      "fc fcb",
      "fc cea",
      "fc dca",
      "fc baa",
      "fc deb",
      "fc bcf",
      "fc beb",
      "fc bbb",
      "mi ra",
      "add ing",
      "df de",
      "df ec",
      "df dc",
      "df ac",
      "df bf",
      "df bb",
      "cu s",
      "ac ac",
      "ac bf",
      "ac fa",
      "ac bd",
      "ac af",
      "ac cec",
      "bc ab",
      "bc ac",
      "bc bc",
      "bc be",
      "bc bf",
      "bc aa",
      "ex it",
      "ex ited",
      "be ab",
      "be ad",
      "be ba",
      "be bc",
      "be be",
      "be bf",
      "be bb",
      "be fb",
      "be fcc",
      "be bfdc",
      "be gin",
      "ae ec",
      "ae be",
      "ae bf",
      "ae bd",
      "ae ffa",
      "ae edf",
      "ir q",
      "bf de",
      "bf cc",
      "bf da",
      "bf ac",
      "bf bf",
      "bf aa",
      "bf baf",
      "bf cefc",
      "ps g",
      "il t",
      "il iary",
      "cio db",
      "fa de",
      "fa ad",
      "fa ecd",
      "bd de",
      "bd fe",
      "rou nded",
      "open x",
      "open jdk",
      "out stand",
      "cf g",
      "cf de",
      "cf ee",
      "cf bc",
      "cf ecf",
      "cf dddc",
      "cf loor",
      "client services",
      "ca de",
      "ca ea",
      "ca aa",
      "ca eeb",
      "ca noni",
      "ca ching",
      "bb ec",
      "bb dc",
      "bb db",
      "bb bb",
      "cor por",
      "af de",
      "af db",
      "af bc",
      "af be",
      "af bb",
      "af abf",
      "af ecda",
      "ef ac",
      "ef ddc",
      "ef bfe",
      "ef ccd",
      "ef adf",
      "ef edc",
      "ef cdf",
      "ef cda",
      "ef edb",
      "ef bfd",
      "ef ecf",
      "ef eef",
      "ef edd",
      "ef eca",
      "ef eeb",
      "ef bcb",
      "ef ecd",
      "ef dca",
      "ef baa",
      "ef cef",
      "ef dda",
      "ef bef",
      "ef dea",
      "ef deb",
      "ef eaa",
      "ef dcf",
      "ef ddb",
      "ef daa",
      "ef ddf",
      "ef def",
      "ef ddd",
      "ef baf",
      "ef dfb",
      "map files",
      "map ping",
      "exce ssive",
      "read v",
      "read block",
      "cb de",
      "cb ad",
      "cb dd",
      "cb ba",
      "cb fc",
      "cb bc",
      "cb rt",
      "linkcard s",
      "us age",
      "aa ee",
      "aa cd",
      "aa fc",
      "aa fa",
      "aa af",
      "aa pp",
      "aa abc",
      "so pt",
      "mp l",
      "mp xl",
      "mp ill",
      "mp leme",
      "corr upt",
      "cl k",
      "cl ass",
      "wi fi",
      "fd ff",
      "fd de",
      "fd ffffe",
      "et c",
      "pt arge",
      "pt ance",
      "pt qlr",
      "su ppre",
      "su blime",
      "ver s",
      "ver bo",
      "addre sses",
      "eb ce",
      "eb ed",
      "eb ea",
      "eb bc",
      "eb bd",
      "val ues",
      "sc ancom",
      "net s",
      "net ty",
      "net dna",
      "min sessiontimeout",
      "valid ate",
      "ms n",
      "ms ghdr",
      "ms gto",
      "gl p",
      "sr ko",
      "termin ated",
      "bgl c",
      "bgl err",
      "bgl code",
      "bgl sys",
      "bgl ctl",
      "bgl personality",
      "direct ories",
      "cr l",
      "gle n",
      "google adservices",
      "ffffff d",
      "ffffff ee",
      "ffffff fa",
      "ffffff fb",
      "qu ality",
      "qu iet",
      "qu sixgr",
      "pa vtrace",
      "ol dcode",
      "fb de",
      "fb ec",
      "fb cc",
      "fb cd",
      "fb da",
      "fb db",
      "fb fc",
      "fb be",
      "fb bf",
      "fb bae",
      "fail ures",
      "image plus",
      "log file",
      "log ies",
      "log ical",
      "fee aa",
      "ww biz",
      "ru bi",
      "ru ndir",
      "up mobile",
      "gener ic",
      "fea aa",
      "ap ac",
      "work er",
      "uni t",
      "uni mpleme",
      "inter exception",
      "it z",
      "inst r",
      "fu rther",
      "xer cesi",
      "ll po",
      "ll seek",
      "................ ....................",
      "................ ...............",
      "................ .................",
      "................ .............",
      "op timi",
      "int f",
      "mb io",
      "bo s",
      "ve ndor",
      "ddc b",
      "ddc d",
      "cmd line",
      "en cer",
      "face e",
      "fcc a",
      "fcc b",
      "fcc d",
      "fcc ff",
      "fcc de",
      "fcc ab",
      "fcc dd",
      "fcc ba",
      "fcc df",
      "fcc ac",
      "fcc be",
      "fcc ae",
      "fcc fa",
      "fcc cf",
      "fcc af",
      "fcc aa",
      "fcc fb",
      "good bye",
      "fda c",
      "fda ea",
      "dr v",
      "sen ee",
      "sen sor",
      "back gr",
      "cn k",
      "cn cdn",
      "cn vt",
      "cec fc",
      "cac b",
      "ur l",
      "ur sdo",
      "po pt",
      "cre ativ",
      "mpi hpm",
      "efc fe",
      "efc be",
      "efc bd",
      "efc bb",
      "efc af",
      "efc aa",
      "efc fb",
      "efc bad",
      "zookeeper server",
      "hu cdn",
      "ffa ff",
      "ffa ab",
      "ffa ea",
      "ffa fe",
      "ffa ac",
      "ffa ae",
      "ffa af",
      "fcd ce",
      "fcd ab",
      "fcd fe",
      "fcd dc",
      "fcd dd",
      "fcd db",
      "fcd ae",
      "fcd bf",
      "fcd aa",
      "fce f",
      "fce ff",
      "fce ec",
      "fce ed",
      "fce ad",
      "fce fe",
      "fce cc",
      "fce cd",
      "fce da",
      "fce db",
      "fce bc",
      "fce be",
      "fce ae",
      "fce bf",
      "fce bb",
      "fce af",
      "fce fd",
      "fce eb",
      "ffb ec",
      "ffb ab",
      "ffb fe",
      "ffb cc",
      "ffb da",
      "ffb db",
      "ffb bc",
      "ffb be",
      "ffb bf",
      "ffb bd",
      "ffb ffe",
      "ffb ffbff",
      "img src",
      "img tn",
      "drop ping",
      "bad c",
      "cdn js",
      "micr on",
      "dropbox api",
      "cp gra",
      "micro ad",
      "micro loader",
      "efe ff",
      "efe ce",
      "efe ab",
      "efe fe",
      "efe bc",
      "efe bb",
      "efe fd",
      "fol d",
      "med al",
      "max bug",
      "xa ed",
      "fffffe fa",
      "ccd n",
      "line ar",
      "tag r",
      "follow ing",
      "bff ee",
      "bff ea",
      "bff ac",
      "bff cbf",
      "cce b",
      "cce ea",
      "cce da",
      "qq mail",
      "qq web",
      "eff d",
      "eff ab",
      "eff fe",
      "eff bc",
      "eff bd",
      "eff ca",
      "eff bb",
      "eff ef",
      "eff cb",
      "eff aa",
      "eff fd",
      "sna preta",
      "target close",
      "fdb b",
      "fdb c",
      "fdb df",
      "fdb bf",
      "internal api",
      "cs m",
      "xe qusixgr",
      "lib visus",
      "lib rary",
      "run recv",
      "write log",
      "am r",
      "eec b",
      "fl agg",
      "un link",
      "un cate",
      "un pk",
      "ffc bc",
      "ffc ae",
      "ffc bf",
      "ffc bd",
      "ffc bb",
      "sol vers",
      "perfor ming",
      "bu sy",
      "bu ilt",
      "bee aab",
      "cde e",
      "modu lo",
      "che mbio",
      "ffd ce",
      "rando macce",
      "ade a",
      "ly jlu",
      "sin aapp",
      "bfb ec",
      "bfb ab",
      "bin d",
      "xf ed",
      "br k",
      "bec b",
      "bec d",
      "cab a",
      "mk dir",
      "bfc a",
      "bfc b",
      "mini game",
      "ace bf",
      "fdf b",
      "fdf db",
      "fdf df",
      "fdf ac",
      "fdf ae",
      "bfd ab",
      "control ling",
      "fdc ff",
      "gn ar",
      "mar t",
      "pp cfloor",
      "sor ter",
      "stre itz",
      "efb cc",
      "efb cd",
      "efb bc",
      "efb be",
      "efb bd",
      "aee a",
      "xml parserapis",
      "** *",
      "acc ad",
      "all c",
      "ffea eb",
      "bde b",
      "bde f",
      "bde ce",
      "bde cc",
      "bde aa",
      "bde cab",
      "efa fb",
      "fcf be",
      "fcf bf",
      "fcf bd",
      "efd ce",
      "efd ab",
      "efd fe",
      "efd fc",
      "align ed",
      "bbc a",
      "bbc b",
      "grep b",
      "nex age",
      "afc b",
      "afc bf",
      "cfc a",
      "xffff cb",
      "exist ing",
      "........................ ..",
      "bdf ea",
      "ebc a",
      "fde f",
      "fde ad",
      "fbc beb",
      "mem test",
      "mem mon",
      "fcb ce",
      "fcb ab",
      "fcb dd",
      "fcb ba",
      "interrup ting",
      "fec b",
      "fec fc",
      "fab f",
      "fab dd",
      "fab da",
      "opt aim",
      "wa ve",
      "xd cef",
      "config file",
      "afe bf",
      "bcc ac",
      "bffe bcbe",
      "get dropbox",
      "get gid",
      "get pid",
      "get uid",
      "get timeofda",
      "sub nets",
      "() '",
      "dis conn",
      "mu lti",
      "dca af",
      "aab f",
      "bda e",
      "cbc a",
      "fbb b",
      "hang test",
      "initi al",
      "str obe",
      "bcast v",
      "// /",
      "aw qi",
      "aw renc",
      "ale media",
      "ale amr",
      "cas alemedia",
      "cbe b",
      "eab ea",
      "tenmax img",
      "initializ ation",
      "initializ eapp",
      "bba de",
      "bbe b",
      "dup licate",
      "jeff greeno",
      "sel ftest",
      "cent ral",
      "bce bos",
      "cfa f",
      "dff acb",
      "ul ative",
      "ul len",
      "send packet",
      "send train",
      "send msgto",
      "send worker",
      "non contig",
      "news app",
      "cccc cccd",
      "acce ptance",
      "**** ****",
      "**** ***",
      "trello cdn",
      "cj m",
      "ho t",
      "vgq senee",
      "efdc b",
      "sock etexception",
      "adobe id",
      "ulrike tests",
      "au th",
      "di gice",
      "ffbc a",
      "prefetch ing",
      "prefetch es",
      "exec ution",
      "efdb b",
      "efdb d",
      "efdb e",
      "pack ages",
      "flush ing",
      "rt b",
      "sl ave",
      "sl awrenc",
      "tur n",
      "tlb entry",
      "xfffffe bc",
      "yt nh",
      "timg sa",
      "tra ck",
      "windo wsu",
      "idomarsh alerr",
      "bp net",
      "dm w",
      "fr ee",
      "hel low",
      "ide ntifi",
      "ile ged",
      "pk i",
      "pk t",
      "pu ll",
      "pu ui",
      "pub s",
      "rm w",
      "rm dir",
      "sma ller",
      "tu al",
      "xda abe",
      "xbf aeb",
      "yu ri",
      "sequ encer",
      "order ing",
      "logo s",
      "asia max",
      "refresh es",
      "bbde ba",
      "googletag services",
      "spec ulative",
      "purge interval",
      "stirtur bpnet",
      "verify stu",
      "dy na",
      "gs lb",
      "jy b",
      "jy lyjlu",
      "ke i",
      "kk k",
      "lu kei",
      "ming xing",
      "nm jylyjlu",
      "qi hucdn",
      "yes comm",
      "yes zerobytebug",
      "stu dy",
      "idoms g",
      "idoms ghdr",
      "fefab b",
      "trap ping",
      "fcbf abd",
      "bfee fe",
      "bfaf ec",
      "aaec ab",
      "show xml",
      "glob al",
      "recv msghdr",
      "nosleep yescomm",
      "vgqs kn",
      "gmt dmp",
      "cloudf lare",
      "cloudf ron",
      "yuedu st",
      "mobile m",
      "walk up",
      "console ip",
      "console port",
      "ay oo",
      "aut orestart",
      "aux iliary",
      "bz clk",
      "bid switch",
      "batch files",
      "catch up",
      "dg test",
      "dh ptqlr",
      "dw are",
      "dpar ty",
      "dsh ytnh",
      "dge mm",
      "ether net",
      "fo cus",
      "fin d",
      "fre ed",
      "ftr uncate",
      "foo bar",
      "gt ms",
      "gun nels",
      "gath ering",
      "hj xc",
      "har dware",
      "hid den",
      "iz xequsixgr",
      "ife ngi",
      "icb i",
      "icau h",
      "jr att",
      "kiwi hk",
      "mis compare",
      "mmbi z",
      "nu llpo",
      "nle v",
      "nms glen",
      "oad z",
      "pol l",
      "ppl v",
      "pho tocdn",
      "qum ccyndm",
      "qhi mg",
      "rss gov",
      "rta x",
      "spar ing",
      "scom error",
      "scli ck",
      "tva x",
      "twi tter",
      "tmpd ir",
      "vir tual",
      "watch dog",
      "wpen gine",
      "wbp ctips",
      "wtdt js",
      "xed cb",
      "xfffff ef",
      "xfc ffd",
      "xbb hjxc",
      "xfffe ad",
      "xuan feng",
      "ffeeee fe",
      "fffb ccf",
      "ffdda ff",
      "argum ent",
      "demde x",
      "seti timer",
      "securi ty",
      "nopr int",
      "nocomm nosleep",
      "noroute toho",
      "inform ation",
      "atall begin",
      "cham onix",
      "orac le",
      "priv ileged",
      "look ing",
      "assembl y",
      "topo logies",
      "ctld l",
      "thre aded",
      "thir dparty",
      "neos mart",
      "readd ir",
      "retag ging",
      "idoudp mgr",
      "mehu l",
      "mekn ed",
      "tetsh hot",
      "makeb glp",
      "mallo c",
      "fiel ds",
      "ccsame f",
      "getr usage",
      "trapp ed",
      "dddd ddd",
      "mira nova",
      "outstand ing",
      "canoni cal",
      "corpor ation",
      "mpxl c",
      "ptarge tmgr",
      "suppre ssing",
      "sublime text",
      "verbo se",
      "srko dhptqlr",
      "bglctl pavtrace",
      "wwbiz api",
      "rubi conproject",
      "unimpleme nted",
      "xercesi mpl",
      "optimi x",
      "backgr ound",
      "ursdo ccdn",
      "creativ ecdn",
      "cpgra ph",
      "snapreta incount",
      "flagg ing",
      "unpk g",
      "beeaab ff",
      "randomacce ss",
      "gettimeofda y",
      "disconn ected",
      "awqi izxequsixgr",
      "initializeapp memory",
      "jeffgreeno ugh",
      "sendmsgto debugger",
      "digice rt",
      "windowsu pdate",
      "idomarshalerr ecvbuffer",
      "identifi er",
      "verifystu ff",
      "nmjylyjlu ykle",
      "cloudfron t",
      "ifengi mg",
      "nullpo interexception",
      "qumccyndm siwf",
      "xuanfeng net",
      "noroutetoho stexception",
      "srkodhptqlr yvjp"
    ]
  }
}