{
  "version": "1.0",
  "truncation": null,
  "padding": null,
  "added_tokens": [
    {
      "id": 0,
      "content": "<pad>",
      "single_word": false,
      "lstrip": false,
      "rstrip": false,
      "normalized": false,
      "special": true
    },
    {
      "id": 1,
      "content": "<unk>",
      "single_word": false,
      "lstrip": false,
      "rstrip": false,
      "normalized": false,
      "special": true
    },
    {
      "id": 2,
      "content": " ",
      "single_word": false,
      "lstrip": false,
      "rstrip": false,
      "normalized": false,
      "special": true
    }
  ],
  "normalizer": {
    "type": "Sequence",
    "normalizers": [
      {
        "type": "NFKC"
      },
      {
        "type": "Lowercase"
      }
    ]
  },
  "pre_tokenizer": {
    "type": "Sequence",
    "pretokenizers": [
      {
        "type": "Whitespace"
      },
      {
        "type": "ByteLevel",
        "add_prefix_space": false,
        "trim_offsets": true,
        "use_regex": true
      }
    ]
  },
  "post_processor": {
    "type": "ByteLevel",
    "add_prefix_space": true,
    "trim_offsets": false,
    "use_regex": true
  },
  "decoder": null,
  "model": {
    "type": "BPE",
    "dropout": null,
    "unk_token": null,
    "continuing_subword_prefix": null,
    "end_of_word_suffix": null,
    "fuse_unk": false,
    "byte_fallback": false,
    "ignore_merges": false,
    "vocab": {
      "<pad>": 0,
      "<unk>": 1,
      " ": 2,
      "!": 3,
      "#": 4,
      "$": 5,
      "%": 6,
      "&": 7,
      "'": 8,
      "(": 9,
      ")": 10,
      "*": 11,
      "+": 12,
      ",": 13,
      "-": 14,
      ".": 15,
      "/": 16,
      "9": 17,
      ":": 18,
      "<": 19,
      "=": 20,
      ">": 21,
      "?": 22,
      "[": 23,
      "\\": 24,
      "]": 25,
      "_": 26,
      "`": 27,
      "a": 28,
      "b": 29,
      "c": 30,
      "d": 31,
      "e": 32,
      "f": 33,
      "g": 34,
      "h": 35,
      "i": 36,
      "j": 37,
      "k": 38,
      "l": 39,
      "m": 40,
      "n": 41,
      "o": 42,
      "p": 43,
      "q": 44,
      "r": 45,
      "s": 46,
      "t": 47,
      "u": 48,
      "v": 49,
      "w": 50,
      "x": 51,
      "y": 52,
      "z": 53,
      "|": 54,
      "99": 55,
      "9999": 56,
      "99999999": 57,
      "ff": 58,
      "999": 59,
      "ar": 60,
      "de": 61,
      "no": 62,
      "se": 63,
      "in": 64,
      "ce": 65,
      "99999": 66,
      "car": 67,
      "card": 68,
      "node": 69,
      "at": 70,
      "ch": 71,
      "9999999999999999": 72,
      "ser": 73,
      "ec": 74,
      "or": 75,
      "do": 76,
      "),": 77,
      "ffff": 78,
      "pr": 79,
      "lo": 80,
      "pd": 81,
      "vpd": 82,
      "ed": 83,
      "ip": 84,
      "pro": 85,
      "as": 86,
      "serv": 87,
      "to": 88,
      "nd": 89,
      "ct": 90,
      "ss": 91,
      "id": 92,
      "ou": 93,
      "par": 94,
      "ee": 95,
      "fffff": 96,
      "ml": 97,
      "ice": 98,
      "service": 99,
      "999999999999999999999999": 100,
      "on": 101,
      "dear": 102,
      "iar": 103,
      "not": 104,
      "999999": 105,
      "st": 106,
      "th": 107,
      "cess": 108,
      "eck": 109,
      "check": 110,
      "process": 111,
      "processor": 112,
      "ecid": 113,
      "slo": 114,
      "slot": 115,
      "atch": 116,
      "sy": 117,
      "ound": 118,
      "found": 119,
      "match": 120,
      "ing": 121,
      "er": 122,
      "ck": 123,
      "ted": 124,
      "ab": 125,
      "lock": 126,
      "block": 127,
      "ne": 128,
      "re": 129,
      "ask": 130,
      "ef": 131,
      "ion": 132,
      "dat": 133,
      "pe": 134,
      "the": 135,
      "of": 136,
      "bl": 137,
      "ting": 138,
      "sym": 139,
      "blk": 140,
      "mask": 141,
      "new": 142,
      "ase": 143,
      "ido": 144,
      "ad": 145,
      "serted": 146,
      "chip": 147,
      "into": 148,
      "abase": 149,
      "database": 150,
      "inserted": 151,
      "um": 152,
      "ction": 153,
      "ty": 154,
      "num": 155,
      "part": 156,
      "ut": 157,
      "pre": 158,
      "efor": 159,
      "999999999999999999999999999": 160,
      "sh": 161,
      "parefor": 162,
      "preparefor": 163,
      "prepareforservice": 164,
      "))": 165,
      "mcard": 166,
      "sernum": 167,
      "ctn": 168,
      "mlctn": 169,
      "mcardsernum": 170,
      "type": 171,
      "mip": 172,
      "mtype": 173,
      "mlp": 174,
      "action": 175,
      "wn": 176,
      "down": 177,
      "shut": 178,
      "shutting": 179,
      "le": 180,
      "9999999999999999999999999999": 181,
      "co": 182,
      "99999999999999": 183,
      "..": 184,
      "te": 185,
      "ea": 186,
      "an": 187,
      "com": 188,
      "me": 189,
      "nt": 190,
      "by": 191,
      "hk": 192,
      "xy": 193,
      "iv": 194,
      "proxy": 195,
      "bffff": 196,
      "ma": 197,
      "rece": 198,
      "receiv": 199,
      "9999999": 200,
      "ste": 201,
      "is": 202,
      "dc": 203,
      "fe": 204,
      "li": 205,
      "fi": 206,
      "9999999999999999999": 207,
      "nodecard": 208,
      "eeee": 209,
      "file": 210,
      "ate": 211,
      "syste": 212,
      "system": 213,
      "al": 214,
      "si": 215,
      "cc": 216,
      "byte": 217,
      "bytes": 218,
      "kb": 219,
      "err": 220,
      "received": 221,
      "ge": 222,
      "na": 223,
      "cd": 224,
      "ffffffff": 225,
      "error": 226,
      "tr": 227,
      "dd": 228,
      "....": 229,
      "ro": 230,
      "ba": 231,
      "mi": 232,
      "ected": 233,
      "db": 234,
      "df": 235,
      "fpr": 236,
      "add": 237,
      "bc": 238,
      "da": 239,
      "io": 240,
      "fc": 241,
      "cu": 242,
      "edu": 243,
      "999999999999999999": 244,
      "served": 245,
      "ans": 246,
      "trans": 247,
      "be": 248,
      "ae": 249,
      "ok": 250,
      "cse": 251,
      "cuhk": 252,
      "ze": 253,
      "size": 254,
      "bf": 255,
      "ti": 256,
      "ps": 257,
      "ac": 258,
      "cio": 259,
      "il": 260,
      "ciod": 261,
      "gh": 262,
      "cf": 263,
      "lin": 264,
      "rou": 265,
      "eee": 266,
      "throu": 267,
      "through": 268,
      "and": 269,
      "ect": 270,
      "eeeeeee": 271,
      "time": 272,
      "filesystem": 273,
      "erfilesystem": 274,
      "pen": 275,
      "open": 276,
      "clo": 277,
      "bd": 278,
      "ht": 279,
      "state": 280,
      "close": 281,
      "con": 282,
      "cor": 283,
      "htt": 284,
      "name": 285,
      "https": 286,
      "namesystem": 287,
      "sent": 288,
      "ca": 289,
      "ail": 290,
      "data": 291,
      "fetime": 292,
      "lifetime": 293,
      "bb": 294,
      "link": 295,
      "cate": 296,
      "ent": 297,
      "af": 298,
      "am": 299,
      "stor": 300,
      "9999999999": 301,
      "det": 302,
      "detected": 303,
      "cb": 304,
      "9999999999999": 305,
      "star": 306,
      "pon": 307,
      "linkcard": 308,
      "main": 309,
      "ir": 310,
      "map": 311,
      "domain": 312,
      "ot": 313,
      "read": 314,
      "miss": 315,
      "us": 316,
      "ated": 317,
      "ram": 318,
      "rep": 319,
      "aa": 320,
      "fer": 321,
      "99999999999999999": 322,
      "able": 323,
      "edblock": 324,
      "addstor": 325,
      "addstoredblock": 326,
      "starting": 327,
      "thread": 328,
      "transfer": 329,
      "repli": 330,
      "ust": 331,
      "datanode": 332,
      "replicate": 333,
      "compon": 334,
      "component": 335,
      "lust": 336,
      "wid": 337,
      "corr": 338,
      "clust": 339,
      "for": 340,
      "ded": 341,
      "dir": 342,
      "gram": 343,
      "fd": 344,
      "root": 345,
      "program": 346,
      "added": 347,
      "mp": 348,
      "fro": 349,
      "from": 350,
      "........": 351,
      "go": 352,
      "corrected": 353,
      "eb": 354,
      "ts": 355,
      "ni": 356,
      "vail": 357,
      "vailable": 358,
      "nds": 359,
      "addre": 360,
      "address": 361,
      "clusterfilesystem": 362,
      "su": 363,
      "sc": 364,
      "missing": 365,
      "seco": 366,
      "chan": 367,
      "seconds": 368,
      "dcr": 369,
      "ver": 370,
      "goo": 371,
      "pt": 372,
      "val": 373,
      "xffffffff": 374,
      "net": 375,
      "gl": 376,
      "valid": 377,
      "invalid": 378,
      "mit": 379,
      "fa": 380,
      "conn": 381,
      "sr": 382,
      "transmit": 383,
      "change": 384,
      "transmitted": 385,
      "una": 386,
      "unavailable": 387,
      "over": 388,
      "connect": 389,
      "stat": 390,
      "upd": 391,
      "bgl": 392,
      "ory": 393,
      "blockmap": 394,
      "updated": 395,
      "serverfilesystem": 396,
      "src": 397,
      "ffffff": 398,
      "int": 399,
      "bo": 400,
      "direct": 401,
      "directory": 402,
      "sw": 403,
      "ex": 404,
      "gle": 405,
      "google": 406,
      "--": 407,
      "ger": 408,
      "such": 409,
      "fb": 410,
      "tor": 411,
      "lon": 412,
      "dest": 413,
      "fail": 414,
      "torus": 415,
      "ima": 416,
      "99999999999": 417,
      "fee": 418,
      "hwid": 419,
      "load": 420,
      "image": 421,
      "exce": 422,
      "cr": 423,
      "status": 424,
      "ption": 425,
      "loading": 426,
      "ho": 427,
      "pa": 428,
      "wwid": 429,
      "core": 430,
      "scsi": 431,
      "ru": 432,
      "up": 433,
      "arge": 434,
      "log": 435,
      "targe": 436,
      "gen": 437,
      "vi": 438,
      "longer": 439,
      "failed": 440,
      "ww": 441,
      "nc": 442,
      "receiver": 443,
      "gener": 444,
      "cal": 445,
      "der": 446,
      "test": 447,
      "files": 448,
      "ld": 449,
      "sets": 450,
      "fea": 451,
      "fffffffe": 452,
      "generated": 453,
      "consi": 454,
      "connection": 455,
      "it": 456,
      "md": 457,
      "inconsi": 458,
      "nodesets": 459,
      "stent": 460,
      "inconsistent": 461,
      "home": 462,
      "ue": 463,
      "wor": 464,
      "this": 465,
      "being": 466,
      "set": 467,
      "done": 468,
      "exception": 469,
      "inter": 470,
      "ap": 471,
      "per": 472,
      "ddr": 473,
      "work": 474,
      "lr": 475,
      "so": 476,
      "uni": 477,
      "inst": 478,
      "temp": 479,
      "fu": 480,
      "user": 481,
      "cou": 482,
      "nf": 483,
      "put": 484,
      "dele": 485,
      "network": 486,
      "code": 487,
      "ls": 488,
      "input": 489,
      "could": 490,
      "ll": 491,
      "req": 492,
      "sp": 493,
      "allo": 494,
      "nb": 495,
      "allocate": 496,
      "domains": 497,
      "999999999999": 498,
      "nodes": 499,
      "ruction": 500,
      "targeting": 501,
      "instruction": 502,
      "allocateblock": 503,
      "mpi": 504,
      "hw": 505,
      "ctr": 506,
      "mission": 507,
      "unix": 508,
      "xer": 509,
      "pip": 510,
      "pipe": 511,
      "swl": 512,
      "age": 513,
      "et": 514,
      "999999999999999": 515,
      "ic": 516,
      "fff": 517,
      "999999999": 518,
      "comma": 519,
      "cket": 520,
      "login": 521,
      "uest": 522,
      "request": 523,
      "ddc": 524,
      "av": 525,
      "gi": 526,
      "-[": 527,
      "nal": 528,
      "chdir": 529,
      "................": 530,
      "niff": 531,
      "delete": 532,
      "ffe": 533,
      "receiving": 534,
      "(/": 535,
      "im": 536,
      "gb": 537,
      "ran": 538,
      "command": 539,
      "invalidset": 540,
      "has": 541,
      "packet": 542,
      "sn": 543,
      "baid": 544,
      "ber": 545,
      "deo": 546,
      "video": 547,
      "wi": 548,
      "ary": 549,
      "ating": 550,
      "---": 551,
      "www": 552,
      "googlevideo": 553,
      "pl": 554,
      "rand": 555,
      "cn": 556,
      "jav": 557,
      "baidu": 558,
      "java": 559,
      "fcc": 560,
      "alle": 561,
      "bol": 562,
      "cmd": 563,
      "back": 564,
      "ta": 565,
      "face": 566,
      "tempor": 567,
      "backup": 568,
      "sen": 569,
      "ssage": 570,
      "message": 571,
      "apps": 572,
      "hi": 573,
      "mo": 574,
      "task": 575,
      "eep": 576,
      "temporary": 577,
      "good": 578,
      "cec": 579,
      "tree": 580,
      "sweep": 581,
      "spe": 582,
      "ation": 583,
      "server": 584,
      "cac": 585,
      "boot": 586,
      "can": 587,
      "ur": 588,
      "interr": 589,
      "full": 590,
      "with": 591,
      "case": 592,
      "out": 593,
      "interface": 594,
      "cases": 595,
      "symbol": 596,
      "number": 597,
      "via": 598,
      "rank": 599,
      "sender": 600,
      "nch": 601,
      "po": 602,
      "retrans": 603,
      "retransmission": 604,
      "es": 605,
      "ev": 606,
      "ob": 607,
      "ol": 608,
      "alt": 609,
      "event": 610,
      "ite": 611,
      "cur": 612,
      "ial": 613,
      "job": 614,
      "sig": 615,
      "mc": 616,
      "man": 617,
      "nel": 618,
      "res": 619,
      "ant": 620,
      "ffb": 621,
      "synch": 622,
      "calls": 623,
      "redu": 624,
      "sof": 625,
      "wr": 626,
      "ced": 627,
      "box": 628,
      "signal": 629,
      "bw": 630,
      "hu": 631,
      "serial": 632,
      "ipaddress": 633,
      "serialnumber": 634,
      "fcd": 635,
      "mb": 636,
      "asm": 637,
      "rent": 638,
      "spasm": 639,
      "allen": 640,
      "current": 641,
      "bwallen": 642,
      "ado": 643,
      "ali": 644,
      "xc": 645,
      "ndant": 646,
      "ccc": 647,
      "img": 648,
      "redundant": 649,
      "act": 650,
      "ker": 651,
      "tal": 652,
      "we": 653,
      "deni": 654,
      "scr": 655,
      "static": 656,
      "permission": 657,
      "mpits": 658,
      "denied": 659,
      "kin": 660,
      "med": 661,
      "ubl": 662,
      "ster": 663,
      "stab": 664,
      "regi": 665,
      "adc": 666,
      "fdfe": 667,
      "feea": 668,
      "pakin": 669,
      "register": 670,
      "ader": 671,
      "fce": 672,
      "ub": 673,
      "ffa": 674,
      "doubl": 675,
      "sys": 676,
      "ccd": 677,
      "cluster": 678,
      "scal": 679,
      "op": 680,
      "ve": 681,
      "eds": 682,
      "theader": 683,
      "swit": 684,
      "target": 685,
      "testcases": 686,
      "feaa": 687,
      "ddcmd": 688,
      "softheader": 689,
      "switch": 690,
      "available": 691,
      "nction": 692,
      "qq": 693,
      "ure": 694,
      "line": 695,
      "function": 696,
      "pla": 697,
      "tag": 698,
      "activ": 699,
      "kernel": 700,
      "cp": 701,
      "un": 702,
      "ort": 703,
      "cdn": 704,
      "bff": 705,
      "ib": 706,
      "total": 707,
      "dro": 708,
      "hado": 709,
      "mnt": 710,
      "pbox": 711,
      "edram": 712,
      "dropbox": 713,
      "hadoop": 714,
      "cro": 715,
      "gou": 716,
      "syscal": 717,
      "micro": 718,
      "bglscr": 719,
      "functional": 720,
      "syscalls": 721,
      "bglscratch": 722,
      "bi": 723,
      "cre": 724,
      "mid": 725,
      "local": 726,
      "fffffe": 727,
      "ibm": 728,
      "./": 729,
      "bfe": 730,
      "ime": 731,
      "jtag": 732,
      "min": 733,
      "rts": 734,
      "xt": 735,
      "efc": 736,
      "comp": 737,
      "max": 738,
      "long": 739,
      "logs": 740,
      "mod": 741,
      "wei": 742,
      "eff": 743,
      "perfor": 744,
      "cannot": 745,
      "plane": 746,
      "midplane": 747,
      "cation": 748,
      "lce": 749,
      "ra": 750,
      "sol": 751,
      "spelce": 752,
      "creating": 753,
      "comple": 754,
      "cs": 755,
      "en": 756,
      "xa": 757,
      "adb": 758,
      "exceeds": 759,
      "internal": 760,
      "write": 761,
      "cli": 762,
      "hy": 763,
      "was": 764,
      "ffc": 765,
      "ature": 766,
      "erature": 767,
      "ada": 768,
      "ild": 769,
      "correct": 770,
      "sogou": 771,
      "temperature": 772,
      "modu": 773,
      "client": 774,
      "bad": 775,
      "end": 776,
      "ter": 777,
      "xe": 778,
      "dec": 779,
      "lish": 780,
      "ioexception": 781,
      "microseconds": 782,
      "module": 783,
      "cdc": 784,
      "child": 785,
      "serviceaction": 786,
      "efe": 787,
      "...": 788,
      "lick": 789,
      "interrup": 790,
      "correctable": 791,
      "endserviceaction": 792,
      "iti": 793,
      "kn": 794,
      "ns": 795,
      "pm": 796,
      "phy": 797,
      "txt": 798,
      "adf": 799,
      "errno": 800,
      "cda": 801,
      "cdf": 802,
      "story": 803,
      "history": 804,
      "gooding": 805,
      "estab": 806,
      "tmp": 807,
      "ffd": 808,
      "low": 809,
      "reset": 810,
      "establish": 811,
      "bee": 812,
      "but": 813,
      "ly": 814,
      "resol": 815,
      "xyz": 816,
      "dfs": 817,
      "deleting": 818,
      "resolve": 819,
      "upon": 820,
      "xfffffffe": 821,
      "cee": 822,
      "eclick": 823,
      "edc": 824,
      "run": 825,
      "performed": 826,
      "bin": 827,
      "storage": 828,
      "ptor": 829,
      "ffffffe": 830,
      "sppm": 831,
      "gith": 832,
      "raptor": 833,
      "writeblock": 834,
      "xyzt": 835,
      "aec": 836,
      "eec": 837,
      "hp": 838,
      "sin": 839,
      "upt": 840,
      "start": 841,
      "ponder": 842,
      "interconnect": 843,
      "packetres": 844,
      "randtxt": 845,
      "nsion": 846,
      "hpcc": 847,
      "packetresponder": 848,
      "cad": 849,
      "fdf": 850,
      "glo": 851,
      "mg": 852,
      "mdb": 853,
      "vn": 854,
      "wer": 855,
      "xf": 856,
      "sho": 857,
      "cdb": 858,
      "contr": 859,
      "glv": 860,
      "ddcmdb": 861,
      "rando": 862,
      "interrupt": 863,
      "doubleclick": 864,
      "active": 865,
      "sina": 866,
      "ddcmdbglv": 867,
      "ace": 868,
      "bu": 869,
      "bfc": 870,
      "din": 871,
      "dime": 872,
      "fl": 873,
      "fffe": 874,
      "inf": 875,
      "ordin": 876,
      "does": 877,
      "coordin": 878,
      "tent": 879,
      "any": 880,
      "sical": 881,
      "belong": 882,
      "content": 883,
      "ired": 884,
      "physical": 885,
      "github": 886,
      "random": 887,
      "dimension": 888,
      "coordinate": 889,
      "ade": 890,
      "dn": 891,
      "xce": 892,
      "ecc": 893,
      "shutdown": 894,
      "ten": 895,
      "mem": 896,
      "ment": 897,
      "bfd": 898,
      "gn": 899,
      "sli": 900,
      "tion": 901,
      "pes": 902,
      "cdd": 903,
      "bfb": 904,
      "glosli": 905,
      "xception": 906,
      "cde": 907,
      "led": 908,
      "sor": 909,
      "ash": 910,
      "asserted": 911,
      "bfa": 912,
      "bdir": 913,
      "mini": 914,
      "flash": 915,
      "bec": 916,
      "bea": 917,
      "cab": 918,
      "ik": 919,
      "ity": 920,
      "mk": 921,
      "ine": 922,
      "ceb": 923,
      "edb": 924,
      "trand": 925,
      "align": 926,
      "big": 927,
      "weibo": 928,
      "sortrand": 929,
      "befor": 930,
      "ede": 931,
      "flo": 932,
      "fdc": 933,
      "mar": 934,
      "mmi": 935,
      "pj": 936,
      "uired": 937,
      "xb": 938,
      "sec": 939,
      "celed": 940,
      "ecf": 941,
      "ast": 942,
      "eea": 943,
      "eer": 944,
      "stre": 945,
      "ads": 946,
      "ccb": 947,
      "ght": 948,
      "............": 949,
      "subdir": 950,
      "tests": 951,
      "required": 952,
      "canceled": 953,
      "completion": 954,
      "been": 955,
      "alignment": 956,
      "before": 957,
      "aea": 958,
      "acc": 959,
      "bro": 960,
      "lts": 961,
      "xml": 962,
      "dev": 963,
      "cart": 964,
      "resu": 965,
      "efb": 966,
      "efd": 967,
      "ang": 968,
      "comm": 969,
      "ccf": 970,
      "errors": 971,
      "fcf": 972,
      "failing": 973,
      "criti": 974,
      "power": 975,
      "mccart": 976,
      "pjmccart": 977,
      "stream": 978,
      "results": 979,
      "critical": 980,
      "aee": 981,
      "bde": 982,
      "dr": 983,
      "fol": 984,
      "port": 985,
      "yti": 986,
      "chine": 987,
      "paralle": 988,
      "machine": 989,
      "all": 990,
      "cca": 991,
      "suc": 992,
      "follow": 993,
      "parallel": 994,
      "latch": 995,
      "pas": 996,
      "ffffe": 997,
      "ount": 998,
      "parity": 999,
      "abc": 1000,
      "abd": 1001,
      "fefff": 1002,
      "gent": 1003,
      "dac": 1004,
      "fcb": 1005,
      "aeb": 1006,
      "ller": 1007,
      "imb": 1008,
      "urgent": 1009,
      "point": 1010,
      "double": 1011,
      "followup": 1012,
      "//": 1013,
      "aed": 1014,
      "aef": 1015,
      "bg": 1016,
      "bbc": 1017,
      "js": 1018,
      "vol": 1019,
      "edf": 1020,
      "nding": 1021,
      "eef": 1022,
      "umm": 1023,
      "mail": 1024,
      "bac": 1025,
      "fffffff": 1026,
      "german": 1027,
      "crite": 1028,
      "exceptions": 1029,
      "api": 1030,
      "interrupts": 1031,
      "vnm": 1032,
      "info": 1033,
      "germann": 1034,
      "criteo": 1035,
      "cable": 1036,
      "fef": 1037,
      "ning": 1038,
      "rec": 1039,
      "sing": 1040,
      "ffea": 1041,
      "are": 1042,
      "eda": 1043,
      "proper": 1044,
      "thre": 1045,
      "receive": 1046,
      "ties": 1047,
      "conf": 1048,
      "sohu": 1049,
      "........................": 1050,
      "spent": 1051,
      "csdn": 1052,
      "communi": 1053,
      "properties": 1054,
      "::": 1055,
      "bit": 1056,
      "cfc": 1057,
      "fbc": 1058,
      "use": 1059,
      "vpes": 1060,
      "whi": 1061,
      "xffff": 1062,
      "too": 1063,
      "efa": 1064,
      "ble": 1065,
      "dbc": 1066,
      "closed": 1067,
      "afa": 1068,
      "afb": 1069,
      "usr": 1070,
      "chang": 1071,
      "func": 1072,
      "shold": 1073,
      "device": 1074,
      "threshold": 1075,
      "aho": 1076,
      "cce": 1077,
      "cbc": 1078,
      "grep": 1079,
      "mount": 1080,
      "xin": 1081,
      "yaho": 1082,
      "ffaa": 1083,
      "abe": 1084,
      "nex": 1085,
      "cop": 1086,
      "coll": 1087,
      "fig": 1088,
      "mirand": 1089,
      "acb": 1090,
      "config": 1091,
      "apis": 1092,
      "manhu": 1093,
      "floating": 1094,
      "receiveblock": 1095,
      "yahoo": 1096,
      "miranda": 1097,
      "aab": 1098,
      "aac": 1099,
      "bs": 1100,
      "bdf": 1101,
      "ds": 1102,
      "dad": 1103,
      "eof": 1104,
      "ebc": 1105,
      "fde": 1106,
      "fec": 1107,
      "ij": 1108,
      "mn": 1109,
      "mmc": 1110,
      "off": 1111,
      "opt": 1112,
      "pected": 1113,
      "qu": 1114,
      "unex": 1115,
      "cea": 1116,
      "che": 1117,
      "doe": 1118,
      "edd": 1119,
      "synd": 1120,
      "rel": 1121,
      "ive": 1122,
      "dcc": 1123,
      "lio": 1124,
      "aler": 1125,
      "baa": 1126,
      "ille": 1127,
      "dirs": 1128,
      "fdmn": 1129,
      "perf": 1130,
      "usercontent": 1131,
      "cpmd": 1132,
      "weixin": 1133,
      "control": 1134,
      "bglio": 1135,
      "mmcs": 1136,
      "offset": 1137,
      "unexpected": 1138,
      "()": 1139,
      "ack": 1140,
      "afc": 1141,
      "ager": 1142,
      "bdc": 1143,
      "clock": 1144,
      "fac": 1145,
      "gr": 1146,
      "lang": 1147,
      "pin": 1148,
      "tw": 1149,
      "ube": 1150,
      "yin": 1151,
      "yout": 1152,
      "deactiv": 1153,
      "eca": 1154,
      "blue": 1155,
      "prep": 1156,
      "bcb": 1157,
      "cau": 1158,
      "manager": 1159,
      "registers": 1160,
      "sinaimg": 1161,
      "bug": 1162,
      "memory": 1163,
      "communication": 1164,
      "pinyin": 1165,
      "youtube": 1166,
      "deactivated": 1167,
      "bcc": 1168,
      "cle": 1169,
      "cbb": 1170,
      "dis": 1171,
      "fae": 1172,
      "gal": 1173,
      "ili": 1174,
      "ms": 1175,
      "pp": 1176,
      "pan": 1177,
      "pgood": 1178,
      "rce": 1179,
      "rail": 1180,
      "sram": 1181,
      "xd": 1182,
      "ying": 1183,
      "cent": 1184,
      "atar": 1185,
      "ecd": 1186,
      "ource": 1187,
      "eeb": 1188,
      "eac": 1189,
      "ance": 1190,
      "dcd": 1191,
      "trying": 1192,
      "started": 1193,
      "aaa": 1194,
      "mpgood": 1195,
      "googleapis": 1196,
      "googlesynd": 1197,
      "ication": 1198,
      "avatar": 1199,
      "....................": 1200,
      "writ": 1201,
      "stabili": 1202,
      "clients": 1203,
      "contro": 1204,
      "success": 1205,
      "volt": 1206,
      "manhua": 1207,
      "illegal": 1208,
      "caught": 1209,
      "clear": 1210,
      "googlesyndication": 1211,
      "stability": 1212,
      "acd": 1213,
      "beck": 1214,
      "bba": 1215,
      "bda": 1216,
      "bffe": 1217,
      "cbf": 1218,
      "dur": 1219,
      "ece": 1220,
      "ebe": 1221,
      "fda": 1222,
      "hand": 1223,
      "ifi": 1224,
      "ler": 1225,
      "onding": 1226,
      "pi": 1227,
      "peer": 1228,
      "rbs": 1229,
      "sle": 1230,
      "ulr": 1231,
      "var": 1232,
      "wa": 1233,
      "xx": 1234,
      "zz": 1235,
      "zer": 1236,
      "inni": 1237,
      "initi": 1238,
      "orbeck": 1239,
      "proble": 1240,
      "eexception": 1241,
      "aba": 1242,
      "nez": 1243,
      "resp": 1244,
      "umt": 1245,
      "texception": 1246,
      "dca": 1247,
      "ates": 1248,
      "get": 1249,
      "bcast": 1250,
      "aca": 1251,
      "going": 1252,
      "sub": 1253,
      "stateexception": 1254,
      "socket": 1255,
      "instance": 1256,
      "imum": 1257,
      "wires": 1258,
      "cnzz": 1259,
      "currently": 1260,
      "maximum": 1261,
      "termin": 1262,
      "ike": 1263,
      "ytimg": 1264,
      "single": 1265,
      "while": 1266,
      "controller": 1267,
      "illegalstateexception": 1268,
      "during": 1269,
      "handler": 1270,
      "ification": 1271,
      "ulrike": 1272,
      "innity": 1273,
      "responding": 1274,
      "afe": 1275,
      "aae": 1276,
      "br": 1277,
      "dp": 1278,
      "dce": 1279,
      "eed": 1280,
      "ebd": 1281,
      "fab": 1282,
      "fan": 1283,
      "ia": 1284,
      "ken": 1285,
      "mu": 1286,
      "uo": 1287,
      "war": 1288,
      "yates": 1289,
      "zhi": 1290,
      "atic": 1291,
      "pred": 1292,
      "pref": 1293,
      "ndm": 1294,
      "abb": 1295,
      "shu": 1296,
      "eae": 1297,
      "mapred": 1298,
      "caf": 1299,
      "afd": 1300,
      "ambi": 1301,
      "scip": 1302,
      "commands": 1303,
      "plus": 1304,
      "bolt": 1305,
      "fully": 1306,
      "aliz": 1307,
      "switchcontroller": 1308,
      "midplaneswitchcontroller": 1309,
      "enable": 1310,
      "tencent": 1311,
      "ikuo": 1312,
      "configur": 1313,
      "eofexception": 1314,
      "panic": 1315,
      "initializ": 1316,
      "subcommands": 1317,
      "terminating": 1318,
      "zhihu": 1319,
      "ambient": 1320,
      "bef": 1321,
      "cnt": 1322,
      "esr": 1323,
      "fdd": 1324,
      "fdb": 1325,
      "fps": 1326,
      "fbd": 1327,
      "fbb": 1328,
      "gg": 1329,
      "gstatic": 1330,
      "hpl": 1331,
      "halt": 1332,
      "lb": 1333,
      "mme": 1334,
      "mdc": 1335,
      "msr": 1336,
      "summ": 1337,
      "source": 1338,
      "ux": 1339,
      "wcnt": 1340,
      "dee": 1341,
      "debug": 1342,
      "attemp": 1343,
      "asser": 1344,
      "ssl": 1345,
      "oni": 1346,
      "steer": 1347,
      "nels": 1348,
      "../": 1349,
      "tech": 1350,
      "cdndm": 1351,
      "bae": 1352,
      "aeger": 1353,
      "acf": 1354,
      "cache": 1355,
      "tested": 1356,
      "ition": 1357,
      "sod": 1358,
      "sock": 1359,
      "alicdn": 1360,
      "completed": 1361,
      "draeger": 1362,
      "doublemax": 1363,
      "ulrikey": 1364,
      "fpscr": 1365,
      "mdcask": 1366,
      "summary": 1367,
      "://": 1368,
      "aw": 1369,
      "bce": 1370,
      "bdb": 1371,
      "bbe": 1372,
      "cm": 1373,
      "cbe": 1374,
      "el": 1375,
      "eab": 1376,
      "ebf": 1377,
      "gq": 1378,
      "lp": 1379,
      "mas": 1380,
      "pht": 1381,
      "tcp": 1382,
      "trel": 1383,
      "vgq": 1384,
      "yan": 1385,
      "dea": 1386,
      "def": 1387,
      "deve": 1388,
      "infer": 1389,
      "cef": 1390,
      "cecc": 1391,
      "str": 1392,
      "eaa": 1393,
      "ntime": 1394,
      "light": 1395,
      "cccc": 1396,
      "cccd": 1397,
      "dfc": 1398,
      "fca": 1399,
      "bel": 1400,
      "timed": 1401,
      "cfd": 1402,
      "timeout": 1403,
      "ustatic": 1404,
      "grammar": 1405,
      "fffffffc": 1406,
      "exe": 1407,
      "runtime": 1408,
      "sport": 1409,
      "baidustatic": 1410,
      "mode": 1411,
      "adcast": 1412,
      "running": 1413,
      "shock": 1414,
      "tenmax": 1415,
      "member": 1416,
      "broken": 1417,
      "broadcast": 1418,
      "passport": 1419,
      "changyan": 1420,
      "zero": 1421,
      "problem": 1422,
      "configured": 1423,
      "initializing": 1424,
      "ggpht": 1425,
      "master": 1426,
      "tcpconn": 1427,
      "trello": 1428,
      "inferno": 1429,
      "grammarly": 1430,
      "**": 1431,
      "aad": 1432,
      "ale": 1433,
      "ame": 1434,
      "cfe": 1435,
      "cba": 1436,
      "cae": 1437,
      "dde": 1438,
      "dfe": 1439,
      "emp": 1440,
      "hn": 1441,
      "humm": 1442,
      "moni": 1443,
      "nio": 1444,
      "nect": 1445,
      "og": 1446,
      "ris": 1447,
      "rfi": 1448,
      "wx": 1449,
      "wil": 1450,
      "you": 1451,
      "fffc": 1452,
      "deb": 1453,
      "non": 1454,
      "sel": 1455,
      "cece": 1456,
      "onnect": 1457,
      "ther": 1458,
      "blocks": 1459,
      "news": 1460,
      "idoproxy": 1461,
      "sher": 1462,
      "copro": 1463,
      "anal": 1464,
      "byinterrup": 1465,
      "reception": 1466,
      "dcf": 1467,
      "liam": 1468,
      "ccce": 1469,
      "dda": 1470,
      "ddb": 1471,
      "dao": 1472,
      "fcac": 1473,
      "bdimg": 1474,
      "caa": 1475,
      "cacc": 1476,
      "channels": 1477,
      "vers": 1478,
      "googleads": 1479,
      "googleusercontent": 1480,
      "page": 1481,
      "vicar": 1482,
      "nfs": 1483,
      "gige": 1484,
      "speeds": 1485,
      "pos": 1486,
      "ytics": 1487,
      "reconnect": 1488,
      "closedbyinterrup": 1489,
      "bluelight": 1490,
      "warning": 1491,
      "attempt": 1492,
      "empty": 1493,
      "hummer": 1494,
      "monitor": 1495,
      "risboot": 1496,
      "rfisher": 1497,
      "william": 1498,
      "youdao": 1499,
      "analytics": 1500,
      "closedbyinterruptexception": 1501,
      "williams": 1502,
      "bed": 1503,
      "bcd": 1504,
      "bmi": 1505,
      "cmc": 1506,
      "dff": 1507,
      "dup": 1508,
      "dstatic": 1509,
      "eba": 1510,
      "fed": 1511,
      "fad": 1512,
      "fba": 1513,
      "han": 1514,
      "ie": 1515,
      "ky": 1516,
      "kpt": 1517,
      "knez": 1518,
      "mm": 1519,
      "pub": 1520,
      "red": 1521,
      "rma": 1522,
      "tp": 1523,
      "tin": 1524,
      "va": 1525,
      "ydstatic": 1526,
      "zed": 1527,
      "arch": 1528,
      "des": 1529,
      "nos": 1530,
      "norma": 1531,
      "secu": 1532,
      "cecb": 1533,
      "cho": 1534,
      "chkpt": 1535,
      "edge": 1536,
      "stack": 1537,
      "abf": 1538,
      "abort": 1539,
      "retrying": 1540,
      "ofdir": 1541,
      "typas": 1542,
      "eaf": 1543,
      "antypas": 1544,
      "meta": 1545,
      "may": 1546,
      "cdbc": 1547,
      "ddd": 1548,
      "ddf": 1549,
      "dbproperties": 1550,
      "addr": 1551,
      "bcf": 1552,
      "daa": 1553,
      "iolog": 1554,
      "cfa": 1555,
      "contin": 1556,
      "lustre": 1557,
      "channel": 1558,
      "verification": 1559,
      "update": 1560,
      "fbcdn": 1561,
      "crc": 1562,
      "homme": 1563,
      "app": 1564,
      "userfunc": 1565,
      ".................": 1566,
      "adobe": 1567,
      "scrip": 1568,
      "untested": 1569,
      "xel": 1570,
      "interrupted": 1571,
      "ceeded": 1572,
      "...............": 1573,
      "succeeded": 1574,
      "ffffeffe": 1575,
      "usedatabase": 1576,
      "changing": 1577,
      "alert": 1578,
      "writer": 1579,
      "successfully": 1580,
      "pixel": 1581,
      "slept": 1582,
      "wait": 1583,
      "brdes": 1584,
      "assert": 1585,
      "steering": 1586,
      "select": 1587,
      "bmiller": 1588,
      "ofdirty": 1589,
      "bdd": 1590,
      "cj": 1591,
      "dl": 1592,
      "dbl": 1593,
      "dmp": 1594,
      "ewer": 1595,
      "fbe": 1596,
      "fbf": 1597,
      "jeff": 1598,
      "kub": 1599,
      "occ": 1600,
      "oba": 1601,
      "old": 1602,
      "oper": 1603,
      "rst": 1604,
      "sto": 1605,
      "ul": 1606,
      "xl": 1607,
      "descrip": 1608,
      "search": 1609,
      "cedc": 1610,
      "cebc": 1611,
      "asic": 1612,
      "services": 1613,
      "sync": 1614,
      "efdc": 1615,
      "partition": 1616,
      "team": 1617,
      "hkg": 1618,
      "feff": 1619,
      "limit": 1620,
      "eeeeeeee": 1621,
      "ccdc": 1622,
      "cdfc": 1623,
      "daf": 1624,
      "dahn": 1625,
      "beb": 1626,
      "access": 1627,
      "linux": 1628,
      "ota": 1629,
      "ready": 1630,
      "replication": 1631,
      "book": 1632,
      "pack": 1633,
      "viewer": 1634,
      "caltech": 1635,
      "itc": 1636,
      "taoba": 1637,
      "facebook": 1638,
      "urred": 1639,
      "mance": 1640,
      "linear": 1641,
      "play": 1642,
      "uncorrectable": 1643,
      "performance": 1644,
      "solvers": 1645,
      "sogoucdn": 1646,
      "sinajs": 1647,
      "githubusercontent": 1648,
      "dsmc": 1649,
      "disable": 1650,
      "devel": 1651,
      "idoproxydb": 1652,
      "pagead": 1653,
      "kubota": 1654,
      "occurred": 1655,
      "operation": 1656,
      "descriptor": 1657,
      "teamviewer": 1658,
      "taobao": 1659,
      "adec": 1660,
      "ause": 1661,
      "bbd": 1662,
      "blog": 1663,
      "cpro": 1664,
      "cas": 1665,
      "cada": 1666,
      "cdec": 1667,
      "cxx": 1668,
      "di": 1669,
      "dty": 1670,
      "emap": 1671,
      "fm": 1672,
      "faa": 1673,
      "gm": 1674,
      "himg": 1675,
      "hack": 1676,
      "ix": 1677,
      "ian": 1678,
      "ishu": 1679,
      "jgh": 1680,
      "lu": 1681,
      "lto": 1682,
      "lcom": 1683,
      "mtal": 1684,
      "pw": 1685,
      "pic": 1686,
      "qb": 1687,
      "rky": 1688,
      "sca": 1689,
      "win": 1690,
      "xue": 1691,
      "yt": 1692,
      "ffbc": 1693,
      "ffca": 1694,
      "dedc": 1695,
      "deac": 1696,
      "atter": 1697,
      "orted": 1698,
      "ffffc": 1699,
      "toma": 1700,
      "ndy": 1701,
      "ndjeff": 1702,
      "pare": 1703,
      "eeno": 1704,
      "aborted": 1705,
      "blockinfo": 1706,
      "remain": 1707,
      "efcd": 1708,
      "efdb": 1709,
      "efdf": 1710,
      "umemap": 1711,
      "press": 1712,
      "letest": 1713,
      "compare": 1714,
      "stell": 1715,
      "lib": 1716,
      "ccfc": 1717,
      "gene": 1718,
      "gemini": 1719,
      "tri": 1720,
      "ddbc": 1721,
      "......": 1722,
      "addmember": 1723,
      "dae": 1724,
      "ben": 1725,
      "bench": 1726,
      "okie": 1727,
      "bfdc": 1728,
      "timg": 1729,
      "ciostream": 1730,
      "lines": 1731,
      "opening": 1732,
      "capt": 1733,
      "bbb": 1734,
      "store": 1735,
      "mapfile": 1736,
      "form": 1737,
      "fdff": 1738,
      ".........": 1739,
      "scatter": 1740,
      "bglmaster": 1741,
      "exec": 1742,
      "pap": 1743,
      "apc": 1744,
      "install": 1745,
      "etch": 1746,
      "plb": 1747,
      "hui": 1748,
      "welcom": 1749,
      "clusteraddmember": 1750,
      "scaling": 1751,
      "under": 1752,
      "gouts": 1753,
      "jtagid": 1754,
      "complete": 1755,
      "env": 1756,
      "cdcc": 1757,
      "buber": 1758,
      "miniben": 1759,
      "mark": 1760,
      ".............": 1761,
      "parityalignment": 1762,
      "volumemap": 1763,
      "mailbox": 1764,
      "dsk": 1765,
      "greeno": 1766,
      "bluegene": 1767,
      "avatars": 1768,
      "written": 1769,
      "mundy": 1770,
      "prefix": 1771,
      "prefetch": 1772,
      "debugger": 1773,
      "sodscaling": 1774,
      "socks": 1775,
      "there": 1776,
      "hangouts": 1777,
      "hommes": 1778,
      "cjmundy": 1779,
      "feffed": 1780,
      "auselto": 1781,
      "dtyp": 1782,
      "ishuhui": 1783,
      "mtalk": 1784,
      "scaletest": 1785,
      "xueshu": 1786,
      "tomandjeff": 1787,
      "stella": 1788,
      "benchmark": 1789,
      "capture": 1790,
      "welcome": 1791,
      "auselton": 1792,
      "ag": 1793,
      "ama": 1794,
      "aaf": 1795,
      "affe": 1796,
      "cl": 1797,
      "css": 1798,
      "cbd": 1799,
      "ccec": 1800,
      "dba": 1801,
      "dni": 1802,
      "dffe": 1803,
      "ddec": 1804,
      "ead": 1805,
      "ebb": 1806,
      "fre": 1807,
      "fcec": 1808,
      "flow": 1809,
      "hm": 1810,
      "imp": 1811,
      "iwhi": 1812,
      "ible": 1813,
      "jp": 1814,
      "ject": 1815,
      "jul": 1816,
      "live": 1817,
      "munix": 1818,
      "pk": 1819,
      "ping": 1820,
      "pired": 1821,
      "pcho": 1822,
      "qbox": 1823,
      "rt": 1824,
      "round": 1825,
      "rta": 1826,
      "same": 1827,
      "tun": 1828,
      "ud": 1829,
      "vmunix": 1830,
      "web": 1831,
      "xbf": 1832,
      "xhpl": 1833,
      "ffer": 1834,
      "decd": 1835,
      "send": 1836,
      "incomplete": 1837,
      "cardsto": 1838,
      "chcardsto": 1839,
      "ecb": 1840,
      "ffffbffe": 1841,
      "assets": 1842,
      "serving": 1843,
      "fffffc": 1844,
      "notification": 1845,
      "efde": 1846,
      "efea": 1847,
      "efcc": 1848,
      "efba": 1849,
      "efbc": 1850,
      "efda": 1851,
      "pending": 1852,
      "addc": 1853,
      "adcc": 1854,
      "text": 1855,
      "anx": 1856,
      "maj": 1857,
      "dccc": 1858,
      "dcfc": 1859,
      "first": 1860,
      "already": 1861,
      "cccb": 1862,
      "cddc": 1863,
      "cdac": 1864,
      "dddc": 1865,
      "roff": 1866,
      "dbf": 1867,
      "fcdc": 1868,
      "fcbc": 1869,
      "acdc": 1870,
      "linpack": 1871,
      "bdstatic": 1872,
      "linkerror": 1873,
      "reading": 1874,
      "tsch": 1875,
      "expired": 1876,
      "fbfffffe": 1877,
      "genvmunix": 1878,
      "generating": 1879,
      "testing": 1880,
      "testqbox": 1881,
      "interval": 1882,
      "count": 1883,
      "codes": 1884,
      "..................": 1885,
      "...................": 1886,
      "bertsch": 1887,
      "fccc": 1888,
      "mookie": 1889,
      "serverdb": 1890,
      "caca": 1891,
      "bootgenvmunix": 1892,
      "fulltest": 1893,
      "ffbffe": 1894,
      "soft": 1895,
      "media": 1896,
      "bfffe": 1897,
      "csdni": 1898,
      "enab": 1899,
      "fdfa": 1900,
      "fdfc": 1901,
      "mgr": 1902,
      "buffer": 1903,
      "beacon": 1904,
      "drive": 1905,
      ".........................": 1906,
      "...........................": 1907,
      "xffffc": 1908,
      "fdee": 1909,
      "quant": 1910,
      "alerts": 1911,
      "unexpectedly": 1912,
      "ppc": 1913,
      ".....................": 1914,
      "sles": 1915,
      "socke": 1916,
      "beln": 1917,
      "belnez": 1918,
      "fady": 1919,
      "tpc": 1920,
      "continue": 1921,
      "replicationmonitor": 1922,
      "pwroff": 1923,
      "format": 1924,
      "iwhichcardsto": 1925,
      "pchome": 1926,
      "rtax": 1927,
      "tuned": 1928,
      "notifications": 1929,
      "pendingreplicationmonitor": 1930,
      "csdnimg": 1931,
      "iwhichcardstopwroff": 1932,
      "/)": 1933,
      "/../": 1934,
      "==": 1935,
      "ao": 1936,
      "au": 1937,
      "aver": 1938,
      "bp": 1939,
      "bis": 1940,
      "cff": 1941,
      "cating": 1942,
      "div": 1943,
      "dsp": 1944,
      "ever": 1945,
      "efff": 1946,
      "effa": 1947,
      "essl": 1948,
      "fg": 1949,
      "fo": 1950,
      "fp": 1951,
      "faf": 1952,
      "fced": 1953,
      "gge": 1954,
      "hne": 1955,
      "hit": 1956,
      "hang": 1957,
      "if": 1958,
      "ist": 1959,
      "jar": 1960,
      "kmap": 1961,
      "kit": 1962,
      "my": 1963,
      "mps": 1964,
      "oima": 1965,
      "pur": 1966,
      "qa": 1967,
      "que": 1968,
      "rm": 1969,
      "sl": 1970,
      "sse": 1971,
      "sort": 1972,
      "scontent": 1973,
      "tc": 1974,
      "table": 1975,
      "tue": 1976,
      "tur": 1977,
      "tva": 1978,
      "uve": 1979,
      "vx": 1980,
      "ws": 1981,
      "wang": 1982,
      "xaa": 1983,
      "xfffffe": 1984,
      "ygi": 1985,
      "yun": 1986,
      "zon": 1987,
      "ffdc": 1988,
      "ffac": 1989,
      "ffcb": 1990,
      "del": 1991,
      "demo": 1992,
      "sene": 1993,
      "ceec": 1994,
      "cefc": 1995,
      "cebf": 1996,
      "ceac": 1997,
      "cecf": 1998,
      "location": 1999,
      "edn": 2000,
      "asia": 2001,
      "serve": 2002,
      "ndition": 2003,
      "parmd": 2004,
      "ong": 2005,
      "note": 2006,
      "stion": 2007,
      "stir": 2008,
      "thunder": 2009,
      "blocked": 2010,
      "restarting": 2011,
      "rever": 2012,
      "refre": 2013,
      "efec": 2014,
      "efed": 2015,
      "efef": 2016,
      "efca": 2017,
      "efcb": 2018,
      "idos": 2019,
      "idochip": 2020,
      "idomar": 2021,
      "adbc": 2022,
      "adac": 2023,
      "ump": 2024,
      "short": 2025,
      "share": 2026,
      "typekit": 2027,
      "condition": 2028,
      "tel": 2029,
      "bffffffe": 2030,
      "dcb": 2031,
      "dcdc": 2032,
      "dcbc": 2033,
      "feb": 2034,
      "lit": 2035,
      "lized": 2036,
      "geo": 2037,
      "trace": 2038,
      ".....": 2039,
      ".......": 2040,
      "romi": 2041,
      "baf": 2042,
      "baker": 2043,
      "dbg": 2044,
      "dfa": 2045,
      "dfcc": 2046,
      "dfbc": 2047,
      "bca": 2048,
      "daec": 2049,
      "fcde": 2050,
      "fcmatch": 2051,
      "bfec": 2052,
      "acbc": 2053,
      "ill": 2054,
      "ily": 2055,
      "ector": 2056,
      "conso": 2057,
      "afly": 2058,
      "repub": 2059,
      "niel": 2060,
      "nized": 2061,
      "sugge": 2062,
      "bglidochip": 2063,
      "ffffffbe": 2064,
      "exchange": 2065,
      "express": 2066,
      "-->": 2067,
      "failure": 2068,
      "general": 2069,
      "word": 2070,
      "split": 2071,
      "mpich": 2072,
      "ages": 2073,
      "ddcc": 2074,
      "avd": 2075,
      "high": 2076,
      "treeaddr": 2077,
      "cacf": 2078,
      "cacafly": 2079,
      "pose": 2080,
      "ality": 2081,
      "fcea": 2082,
      "fceb": 2083,
      "activating": 2084,
      "cpp": 2085,
      "cpu": 2086,
      "unable": 2087,
      "unrec": 2088,
      "microsoft": 2089,
      "minus": 2090,
      "csar": 2091,
      "knl": 2092,
      "contention": 2093,
      "beap": 2094,
      "fdcc": 2095,
      "..............": 2096,
      "communicating": 2097,
      "tools": 2098,
      "dcache": 2099,
      "mul": 2100,
      "aws": 2101,
      "vgqs": 2102,
      "vgqsene": 2103,
      "strong": 2104,
      "ognized": 2105,
      "pubads": 2106,
      "nosdn": 2107,
      "normal": 2108,
      "normalized": 2109,
      "secure": 2110,
      "securepub": 2111,
      "stackexchange": 2112,
      "ofdirtydbl": 2113,
      "ofdirtylines": 2114,
      "accessible": 2115,
      "dict": 2116,
      "windo": 2117,
      "amazon": 2118,
      "counter": 2119,
      "quantserve": 2120,
      "sockets": 2121,
      "averages": 2122,
      "evernote": 2123,
      "fgygi": 2124,
      "oimag": 2125,
      "purpose": 2126,
      "sses": 2127,
      "reverse": 2128,
      "refresh": 2129,
      "idomarsh": 2130,
      "romio": 2131,
      "console": 2132,
      "nielsen": 2133,
      "suggestion": 2134,
      "expression": 2135,
      "unrecognized": 2136,
      "vgqsenes": 2137,
      "securepubads": 2138,
      "ofdirtydblword": 2139,
      "amazonaws": 2140,
      "):": 2141,
      ")........................": 2142,
      "ay": 2143,
      "ain": 2144,
      "acec": 2145,
      "accc": 2146,
      "aefe": 2147,
      "bab": 2148,
      "bra": 2149,
      "ci": 2150,
      "cv": 2151,
      "cid": 2152,
      "cadc": 2153,
      "cpes": 2154,
      "dm": 2155,
      "dab": 2156,
      "due": 2157,
      "dcec": 2158,
      "dfffffe": 2159,
      "ep": 2160,
      "eas": 2161,
      "eld": 2162,
      "effe": 2163,
      "effb": 2164,
      "ewe": 2165,
      "eedc": 2166,
      "fls": 2167,
      "gv": 2168,
      "gate": 2169,
      "gine": 2170,
      "give": 2171,
      "hel": 2172,
      "ich": 2173,
      "iting": 2174,
      "jag": 2175,
      "kne": 2176,
      "kdp": 2177,
      "lef": 2178,
      "late": 2179,
      "lac": 2180,
      "lare": 2181,
      "mf": 2182,
      "ming": 2183,
      "mer": 2184,
      "mba": 2185,
      "nl": 2186,
      "nx": 2187,
      "omme": 2188,
      "pu": 2189,
      "pth": 2190,
      "pcounter": 2191,
      "qs": 2192,
      "qhimg": 2193,
      "rich": 2194,
      "sch": 2195,
      "sma": 2196,
      "smi": 2197,
      "sam": 2198,
      "safe": 2199,
      "tu": 2200,
      "tip": 2201,
      "tlb": 2202,
      "taddr": 2203,
      "uba": 2204,
      "uation": 2205,
      "wsing": 2206,
      "xfffff": 2207,
      "xda": 2208,
      "xbb": 2209,
      "xfa": 2210,
      "yread": 2211,
      "zhimg": 2212,
      "fft": 2213,
      "ffde": 2214,
      "ffce": 2215,
      "ffcc": 2216,
      "ffcd": 2217,
      "ffae": 2218,
      "aren": 2219,
      "arale": 2220,
      "dede": 2221,
      "decc": 2222,
      "dedd": 2223,
      "debc": 2224,
      "depth": 2225,
      "init": 2226,
      "inity": 2227,
      "cecd": 2228,
      "cedd": 2229,
      "cesses": 2230,
      "atanx": 2231,
      "char": 2232,
      "chat": 2233,
      "cham": 2234,
      "org": 2235,
      "order": 2236,
      "doct": 2237,
      "ffffca": 2238,
      "ffffeb": 2239,
      "lop": 2240,
      "lone": 2241,
      "logo": 2242,
      "loewe": 2243,
      "ipv": 2244,
      "promp": 2245,
      "processes": 2246,
      "towar": 2247,
      "ndir": 2248,
      "ndwid": 2249,
      "ssp": 2250,
      "outexception": 2251,
      "parame": 2252,
      "eeec": 2253,
      "fffffbfe": 2254,
      "servicemailbox": 2255,
      "sta": 2256,
      "ckpt": 2257,
      "abcc": 2258,
      "abbc": 2259,
      "abfc": 2260,
      "abac": 2261,
      "efce": 2262,
      "efee": 2263,
      "efdd": 2264,
      "efbe": 2265,
      "efbf": 2266,
      "efac": 2267,
      "efcf": 2268,
      "efbd": 2269,
      "efbb": 2270,
      "efeff": 2271,
      "peop": 2272,
      "symbo": 2273,
      "adfc": 2274,
      "adzer": 2275,
      "adnx": 2276,
      "partad": 2277,
      "presta": 2278,
      "iver": 2279,
      "bffffdfe": 2280,
      "feffff": 2281,
      "field": 2282,
      "allr": 2283,
      "sic": 2284,
      "simba": 2285,
      "ccbc": 2286,
      "ccbf": 2287,
      "cccf": 2288,
      "errstr": 2289,
      "getel": 2290,
      "train": 2291,
      "ddfc": 2292,
      "ddac": 2293,
      "bandwid": 2294,
      "dbb": 2295,
      "dbd": 2296,
      "dbe": 2297,
      "dbdc": 2298,
      "dfb": 2299,
      "dfd": 2300,
      "dfed": 2301,
      "dfac": 2302,
      "dfbb": 2303,
      "dace": 2304,
      "dacb": 2305,
      "iostate": 2306,
      "fcff": 2307,
      "fcce": 2308,
      "fcbe": 2309,
      "educe": 2310,
      "bfea": 2311,
      "bfbb": 2312,
      "timeoutexception": 2313,
      "closing": 2314,
      "cloud": 2315,
      "cace": 2316,
      "caec": 2317,
      "cacd": 2318,
      "cafc": 2319,
      "caac": 2320,
      "ailed": 2321,
      "bbde": 2322,
      "detailed": 2323,
      "cbea": 2324,
      "cbbc": 2325,
      "replac": 2326,
      "fddc": 2327,
      "...........": 2328,
      "gov": 2329,
      "sup": 2330,
      "sclick": 2331,
      "verif": 2332,
      "faec": 2333,
      "srm": 2334,
      "overflow": 2335,
      "fffffffa": 2336,
      "googletag": 2337,
      "fbbc": 2338,
      "papi": 2339,
      "runs": 2340,
      "rundir": 2341,
      "loguser": 2342,
      "ncy": 2343,
      "consider": 2344,
      "mdn": 2345,
      "ues": 2346,
      "percl": 2347,
      "temphigh": 2348,
      "llap": 2349,
      "llnl": 2350,
      "spec": 2351,
      "hwstab": 2352,
      "................................": 2353,
      "impr": 2354,
      "fccd": 2355,
      "fccf": 2356,
      "hicloud": 2357,
      "outbra": 2358,
      "olar": 2359,
      "sign": 2360,
      "mcmm": 2361,
      "resource": 2362,
      "reduce": 2363,
      "fcda": 2364,
      "fcdb": 2365,
      "fcdd": 2366,
      "fcdf": 2367,
      "fcee": 2368,
      "fcef": 2369,
      "ubmcmm": 2370,
      "cpc": 2371,
      "cpm": 2372,
      "bffc": 2373,
      "bffd": 2374,
      "edrams": 2375,
      "creat": 2376,
      "bfeb": 2377,
      "effd": 2378,
      "rack": 2379,
      "hypercl": 2380,
      "ters": 2381,
      "lishi": 2382,
      "githuba": 2383,
      "glob": 2384,
      "infinity": 2385,
      "contentrec": 2386,
      "beca": 2387,
      "cabc": 2388,
      "cabd": 2389,
      "cabf": 2390,
      "cabot": 2391,
      "flopcounter": 2392,
      "browsing": 2393,
      "streamtri": 2394,
      "pasci": 2395,
      "fbca": 2396,
      "collector": 2397,
      "manhuaren": 2398,
      "qulishi": 2399,
      "alerio": 2400,
      "gravatar": 2401,
      "pping": 2402,
      "......................": 2403,
      ".......................": 2404,
      "fdaa": 2405,
      "waiting": 2406,
      "problems": 2407,
      "getting": 2408,
      "sockettimeoutexception": 2409,
      "brian": 2410,
      "assertion": 2411,
      "bdbb": 2412,
      "eland": 2413,
      "develop": 2414,
      "strip": 2415,
      "****": 2416,
      "ogs": 2417,
      "mmstat": 2418,
      "valone": 2419,
      "chown": 2420,
      "continuation": 2421,
      "dblp": 2422,
      "develf": 2423,
      "lush": 2424,
      "trier": 2425,
      "fdfffdfe": 2426,
      "mailboxmonitor": 2427,
      "major": 2428,
      "testqboxhang": 2429,
      "enablef": 2430,
      "queue": 2431,
      "yunsic": 2432,
      "parmdg": 2433,
      "stirtur": 2434,
      "multip": 2435,
      "windows": 2436,
      "idomarshalerio": 2437,
      "cidian": 2438,
      "epstreamtri": 2439,
      "easyread": 2440,
      "gvt": 2441,
      "kdpic": 2442,
      "latency": 2443,
      "ommend": 2444,
      "scholar": 2445,
      "smith": 2446,
      "safebrowsing": 2447,
      "taddriver": 2448,
      "aralego": 2449,
      "doctor": 2450,
      "ffffebfe": 2451,
      "prompt": 2452,
      "toward": 2453,
      "parameters": 2454,
      "servicemailboxes": 2455,
      "people": 2456,
      "symbols": 2457,
      "adzerk": 2458,
      "adnxs": 2459,
      "allreduce": 2460,
      "bandwidth": 2461,
      "replacing": 2462,
      "verify": 2463,
      "loguserinfo": 2464,
      "outbrain": 2465,
      "hyperclaw": 2466,
      "githubapp": 2467,
      "contentrecommend": 2468,
      "flopcounters": 2469,
      "enableflush": 2470,
      "multiple": 2471,
      "epstreamtriad": 2472,
      "!(": 2473,
      ").......": 2474,
      "*)": 2475,
      "=!(": 2476,
      "aff": 2477,
      "aadc": 2478,
      "aefc": 2479,
      "affd": 2480,
      "afffffff": 2481,
      "apack": 2482,
      "bh": 2483,
      "bj": 2484,
      "bip": 2485,
      "bid": 2486,
      "base": 2487,
      "ban": 2488,
      "bbf": 2489,
      "brand": 2490,
      "bcec": 2491,
      "badc": 2492,
      "bdec": 2493,
      "bbac": 2494,
      "cat": 2495,
      "csi": 2496,
      "csp": 2497,
      "cgi": 2498,
      "cffffffe": 2499,
      "caeb": 2500,
      "cbac": 2501,
      "dw": 2502,
      "dpar": 2503,
      "dffc": 2504,
      "dns": 2505,
      "dpm": 2506,
      "dabc": 2507,
      "dump": 2508,
      "ek": 2509,
      "eded": 2510,
      "fr": 2511,
      "fon": 2512,
      "fadc": 2513,
      "fefc": 2514,
      "fdec": 2515,
      "fecc": 2516,
      "fabc": 2517,
      "gs": 2518,
      "gu": 2519,
      "gbgl": 2520,
      "gun": 2521,
      "gmail": 2522,
      "gtimg": 2523,
      "hpd": 2524,
      "hfm": 2525,
      "hao": 2526,
      "iz": 2527,
      "ide": 2528,
      "ise": 2529,
      "iss": 2530,
      "iap": 2531,
      "ies": 2532,
      "icache": 2533,
      "jy": 2534,
      "ke": 2535,
      "kk": 2536,
      "kdc": 2537,
      "knel": 2538,
      "kcdn": 2539,
      "lh": 2540,
      "lcr": 2541,
      "leep": 2542,
      "lapack": 2543,
      "mde": 2544,
      "mct": 2545,
      "mea": 2546,
      "mis": 2547,
      "msn": 2548,
      "matic": 2549,
      "mhfm": 2550,
      "nm": 2551,
      "nee": 2552,
      "os": 2553,
      "oimage": 2554,
      "ool": 2555,
      "odr": 2556,
      "ocsp": 2557,
      "pad": 2558,
      "pps": 2559,
      "pll": 2560,
      "pux": 2561,
      "qd": 2562,
      "qi": 2563,
      "qx": 2564,
      "qls": 2565,
      "qpic": 2566,
      "qrt": 2567,
      "qlogo": 2568,
      "rs": 2569,
      "rw": 2570,
      "rss": 2571,
      "ring": 2572,
      "ral": 2573,
      "rflo": 2574,
      "rther": 2575,
      "rfft": 2576,
      "sb": 2577,
      "spar": 2578,
      "son": 2579,
      "scom": 2580,
      "spa": 2581,
      "score": 2582,
      "ssen": 2583,
      "sky": 2584,
      "sqrt": 2585,
      "tz": 2586,
      "tat": 2587,
      "tab": 2588,
      "tap": 2589,
      "tserver": 2590,
      "txyz": 2591,
      "tdp": 2592,
      "tdmp": 2593,
      "tanx": 2594,
      "uch": 2595,
      "ush": 2596,
      "ual": 2597,
      "udf": 2598,
      "uedu": 2599,
      "ubgl": 2600,
      "vr": 2601,
      "ving": 2602,
      "vis": 2603,
      "wal": 2604,
      "wpad": 2605,
      "xde": 2606,
      "xef": 2607,
      "xad": 2608,
      "xdb": 2609,
      "xfc": 2610,
      "xca": 2611,
      "xaf": 2612,
      "xffffff": 2613,
      "xfee": 2614,
      "xfffffff": 2615,
      "xvicar": 2616,
      "yx": 2617,
      "yap": 2618,
      "yes": 2619,
      "yimg": 2620,
      "yms": 2621,
      "ybp": 2622,
      "yuedu": 2623,
      "zkcdn": 2624,
      "ffec": 2625,
      "ffee": 2626,
      "ffab": 2627,
      "ffad": 2628,
      "ffba": 2629,
      "ffdb": 2630,
      "ffadd": 2631,
      "ffda": 2632,
      "ffbe": 2633,
      "ffbf": 2634,
      "ffcf": 2635,
      "ffbd": 2636,
      "ffbb": 2637,
      "ffaf": 2638,
      "ffadc": 2639,
      "ffcdf": 2640,
      "ffbfb": 2641,
      "ffafa": 2642,
      "ffafb": 2643,
      "fftw": 2644,
      "ared": 2645,
      "arty": 2646,
      "aran": 2647,
      "arily": 2648,
      "dece": 2649,
      "deec": 2650,
      "deed": 2651,
      "defe": 2652,
      "defc": 2653,
      "debf": 2654,
      "debcc": 2655,
      "denormalized": 2656,
      "demde": 2657,
      "noio": 2658,
      "noavatar": 2659,
      "sever": 2660,
      "sestat": 2661,
      "sending": 2662,
      "sequ": 2663,
      "seille": 2664,
      "seek": 2665,
      "inte": 2666,
      "ceab": 2667,
      "cedb": 2668,
      "ceda": 2669,
      "cebd": 2670,
      "ceca": 2671,
      "ceeb": 2672,
      "cards": 2673,
      "cardre": 2674,
      "atta": 2675,
      "chmod": 2676,
      "chment": 2677,
      "ecce": 2678,
      "ecbc": 2679,
      "ecac": 2680,
      "ecdn": 2681,
      "ecise": 2682,
      "lost": 2683,
      "edde": 2684,
      "edda": 2685,
      "edfc": 2686,
      "edbb": 2687,
      "edfa": 2688,
      "edump": 2689,
      "project": 2690,
      "token": 2691,
      "touch": 2692,
      "ctl": 2693,
      "sso": 2694,
      "ssum": 2695,
      "sstat": 2696,
      "eebea": 2697,
      "fffffd": 2698,
      "servicenetwork": 2699,
      "still": 2700,
      "thir": 2701,
      "ery": 2702,
      "erist": 2703,
      "ckap": 2704,
      "abec": 2705,
      "abdc": 2706,
      "abdb": 2707,
      "nete": 2708,
      "next": 2709,
      "neos": 2710,
      "reopen": 2711,
      "resets": 2712,
      "remo": 2713,
      "remer": 2714,
      "efaa": 2715,
      "efeb": 2716,
      "efccb": 2717,
      "efaea": 2718,
      "efdbc": 2719,
      "efdcd": 2720,
      "efcfd": 2721,
      "ioni": 2722,
      "blac": 2723,
      "newma": 2724,
      "idotrans": 2725,
      "idoclient": 2726,
      "idoms": 2727,
      "adv": 2728,
      "adbe": 2729,
      "adsr": 2730,
      "admaster": 2731,
      "adservices": 2732,
      "adtdp": 2733,
      "present": 2734,
      "preqx": 2735,
      "shot": 2736,
      "shared": 2737,
      "download": 2738,
      "teed": 2739,
      "tension": 2740,
      "temaj": 2741,
      "eaae": 2742,
      "anad": 2743,
      "comment": 2744,
      "mekn": 2745,
      "messen": 2746,
      "ivecdn": 2747,
      "bffffa": 2748,
      "bffffd": 2749,
      "dcdd": 2750,
      "dcda": 2751,
      "dcbf": 2752,
      "dcac": 2753,
      "dcount": 2754,
      "fefffff": 2755,
      "febc": 2756,
      "febf": 2757,
      "list": 2758,
      "fier": 2759,
      "sitemaj": 2760,
      "ccdd": 2761,
      "ccba": 2762,
      "ccda": 2763,
      "bytebug": 2764,
      "errhan": 2765,
      "cdadc": 2766,
      "cdfffe": 2767,
      "trc": 2768,
      "trout": 2769,
      "trun": 2770,
      "trapp": 2771,
      "ddff": 2772,
      "ddmd": 2773,
      "rome": 2774,
      "baec": 2775,
      "baab": 2776,
      "bacc": 2777,
      "baac": 2778,
      "baij": 2779,
      "bayms": 2780,
      "miao": 2781,
      "dbec": 2782,
      "dbbc": 2783,
      "dbfc": 2784,
      "dbfd": 2785,
      "dbremer": 2786,
      "adding": 2787,
      "addthis": 2788,
      "bcdc": 2789,
      "dacc": 2790,
      "dacd": 2791,
      "dafc": 2792,
      "daac": 2793,
      "dacf": 2794,
      "daily": 2795,
      "fcab": 2796,
      "fcfc": 2797,
      "fcbf": 2798,
      "fcaf": 2799,
      "fcffe": 2800,
      "fcbea": 2801,
      "fcdcf": 2802,
      "cus": 2803,
      "cupps": 2804,
      "beab": 2805,
      "bebd": 2806,
      "aeec": 2807,
      "bfed": 2808,
      "bfee": 2809,
      "bfac": 2810,
      "bfaf": 2811,
      "bfdea": 2812,
      "psu": 2813,
      "acfc": 2814,
      "acbf": 2815,
      "acac": 2816,
      "acbb": 2817,
      "ghdr": 2818,
      "cfb": 2819,
      "cfaf": 2820,
      "linadv": 2821,
      "route": 2822,
      "cloudf": 2823,
      "bdab": 2824,
      "conc": 2825,
      "conproject": 2826,
      "coredump": 2827,
      "caee": 2828,
      "camo": 2829,
      "cause": 2830,
      "capi": 2831,
      "bbab": 2832,
      "ential": 2833,
      "afbb": 2834,
      "after": 2835,
      "amanad": 2836,
      "cbec": 2837,
      "cbdc": 2838,
      "cbcc": 2839,
      "cbfc": 2840,
      "mapfiles": 2841,
      "aaec": 2842,
      "aacc": 2843,
      "aaac": 2844,
      "force": 2845,
      "formi": 2846,
      "dedreplication": 2847,
      "fdfffff": 2848,
      "fdfffe": 2849,
      "ebde": 2850,
      "ebee": 2851,
      "ebea": 2852,
      "ebba": 2853,
      "ebdb": 2854,
      "ebda": 2855,
      "suite": 2856,
      "facc": 2857,
      "fafc": 2858,
      "stats": 2859,
      "bglerr": 2860,
      "bglcode": 2861,
      "ffffffc": 2862,
      "bos": 2863,
      "exter": 2864,
      "exist": 2865,
      "extension": 2866,
      "googleadservices": 2867,
      "fbab": 2868,
      "fbdc": 2869,
      "fbcc": 2870,
      "fbba": 2871,
      "fbda": 2872,
      "images": 2873,
      "exceeded": 2874,
      "host": 2875,
      "pai": 2876,
      "rubi": 2877,
      "upload": 2878,
      "testsuite": 2879,
      "feac": 2880,
      "feaf": 2881,
      "itter": 2882,
      "uesn": 2883,
      "wordcount": 2884,
      "person": 2885,
      "ddrsize": 2886,
      "further": 2887,
      "lsf": 2888,
      "allocation": 2889,
      "ctrs": 2890,
      "ics": 2891,
      "ave": 2892,
      "avp": 2893,
      "............................": 2894,
      "wix": 2895,
      "wifi": 2896,
      "fccb": 2897,
      "fccff": 2898,
      "fccce": 2899,
      "fccfe": 2900,
      "fccbf": 2901,
      "fcccf": 2902,
      "temporarily": 2903,
      "senee": 2904,
      "mobi": 2905,
      "url": 2906,
      "output": 2907,
      "poll": 2908,
      "object": 2909,
      "curioni": 2910,
      "ffbff": 2911,
      "ffbdf": 2912,
      "softw": 2913,
      "wray": 2914,
      "fcdbf": 2915,
      "alitu": 2916,
      "imgur": 2917,
      "imgcache": 2918,
      "acterist": 2919,
      "fcebd": 2920,
      "fcecb": 2921,
      "ffaec": 2922,
      "ffaed": 2923,
      "ddcmdgbgl": 2924,
      "qqmail": 2925,
      "unsign": 2926,
      "dropboxapi": 2927,
      "microad": 2928,
      "biz": 2929,
      "efcbc": 2930,
      "efcfc": 2931,
      "efcbd": 2932,
      "mods": 2933,
      "effc": 2934,
      "performing": 2935,
      "rai": 2936,
      "engine": 2937,
      "clientservices": 2938,
      "declare": 2939,
      "eecc": 2940,
      "show": 2941,
      "build": 2942,
      "bfcb": 2943,
      "flush": 2944,
      "gnar": 2945,
      "bdirect": 2946,
      "cabe": 2947,
      "edea": 2948,
      "edef": 2949,
      "edefb": 2950,
      "float": 2951,
      "mart": 2952,
      "marseille": 2953,
      "aeac": 2954,
      "account": 2955,
      "comms": 2956,
      "bdea": 2957,
      "bdee": 2958,
      "portmgr": 2959,
      "bbca": 2960,
      "fefefeff": 2961,
      "recv": 2962,
      "receivetrain": 2963,
      "xffffb": 2964,
      "xffffd": 2965,
      "grepa": 2966,
      "grepb": 2967,
      "ffaaa": 2968,
      "configfile": 2969,
      "aaba": 2970,
      "bdfa": 2971,
      "quality": 2972,
      "query": 2973,
      "syndrome": 2974,
      "bdcb": 2975,
      "twitter": 2976,
      "central": 2977,
      "fdaf": 2978,
      "way": 2979,
      "ulriketests": 2980,
      "iahao": 2981,
      "configuration": 2982,
      "attempting": 2983,
      "onix": 2984,
      "bcebos": 2985,
      "vgqsenee": 2986,
      "zerobytebug": 2987,
      "alemedia": 2988,
      "hnedn": 2989,
      "oguesn": 2990,
      "version": 2991,
      "pubs": 2992,
      "pubmatic": 2993,
      "nosleep": 2994,
      "stackoverflow": 2995,
      "adobeid": 2996,
      "adobelogin": 2997,
      "oldcode": 2998,
      "stopping": 2999,
      "efdcb": 3000,
      "casalemedia": 3001,
      "fmmods": 3002,
      "gmtdmp": 3003,
      "winerr": 3004,
      "efdfd": 3005,
      "pressing": 3006,
      "underflow": 3007,
      "agkn": 3008,
      "impservice": 3009,
      "pkt": 3010,
      "enabled": 3011,
      "/../../": 3012,
      "aug": 3013,
      "auth": 3014,
      "divac": 3015,
      "divide": 3016,
      "focus": 3017,
      "sorter": 3018,
      "tvax": 3019,
      "wangwang": 3020,
      "vgqskn": 3021,
      "dictapp": 3022,
      "oimagec": 3023,
      "oimagea": 3024,
      "consoleip": 3025,
      "consoleport": 3026,
      "cvs": 3027,
      "gateway": 3028,
      "hello": 3029,
      "small": 3030,
      "samrai": 3031,
      "characterist": 3032,
      "chamonix": 3033,
      "ordered": 3034,
      "fields": 3035,
      "suppressing": 3036,
      "googletagmanager": 3037,
      "special": 3038,
      "imprecise": 3039,
      "creativecdn": 3040,
      "global": 3041,
      "stirturbdirect": 3042,
      "biparty": 3043,
      "bidswitch": 3044,
      "bank": 3045,
      "dparty": 3046,
      "fonts": 3047,
      "guaran": 3048,
      "gunnels": 3049,
      "issues": 3050,
      "kdcl": 3051,
      "meam": 3052,
      "miscompare": 3053,
      "neededreplication": 3054,
      "oimageb": 3055,
      "oola": 3056,
      "qlsn": 3057,
      "rflomp": 3058,
      "sparing": 3059,
      "scomerror": 3060,
      "space": 3061,
      "scorecardre": 3062,
      "skype": 3063,
      "tzyx": 3064,
      "taboola": 3065,
      "tapad": 3066,
      "ualdn": 3067,
      "visus": 3068,
      "walk": 3069,
      "demdex": 3070,
      "severed": 3071,
      "sequential": 3072,
      "attachment": 3073,
      "sstats": 3074,
      "servicenetworkcharacterist": 3075,
      "thirdparty": 3076,
      "ckapfer": 3077,
      "netease": 3078,
      "neosmart": 3079,
      "removing": 3080,
      "blacs": 3081,
      "newmaps": 3082,
      "idotransportmgr": 3083,
      "idoclientmgr": 3084,
      "adsrvr": 3085,
      "shots": 3086,
      "mekned": 3087,
      "messenger": 3088,
      "sitemaji": 3089,
      "trouter": 3090,
      "truncate": 3091,
      "baijiahao": 3092,
      "baymsgr": 3093,
      "miaopai": 3094,
      "dailyupdate": 3095,
      "caused": 3096,
      "external": 3097,
      "existing": 3098,
      "rubiconproject": 3099,
      "personality": 3100,
      "mobile": 3101,
      "software": 3102,
      "alitui": 3103,
      "ddcmdgbglv": 3104,
      "unsigned": 3105,
      "declareservicenetworkcharacterist": 3106,
      "marseillebgl": 3107,
      "accounts": 3108,
      "oguesnsl": 3109,
      "bipartyz": 3110,
      "guaranteed": 3111,
      "neededreplications": 3112,
      "scorecardresearch": 3113,
      "declareservicenetworkcharacteristics": 3114,
      "&)": 3115,
      "&,": 3116,
      ")'": 3117,
      ")...": 3118,
      ")...........................": 3119,
      ")......................": 3120,
      ").......................": 3121,
      "*,": 3122,
      "*&)": 3123,
      "->": 3124,
      "/.": 3125,
      "/./": 3126,
      "?/": 3127,
      "ak": 3128,
      "aut": 3129,
      "aeee": 3130,
      "aded": 3131,
      "aim": 3132,
      "aada": 3133,
      "acda": 3134,
      "aedc": 3135,
      "acdd": 3136,
      "aeea": 3137,
      "aabc": 3138,
      "afcb": 3139,
      "aafa": 3140,
      "affaa": 3141,
      "agg": 3142,
      "aux": 3143,
      "bt": 3144,
      "bx": 3145,
      "bz": 3146,
      "batch": 3147,
      "bus": 3148,
      "bfff": 3149,
      "bffb": 3150,
      "bcda": 3151,
      "bedc": 3152,
      "bvn": 3153,
      "bceb": 3154,
      "bccb": 3155,
      "befb": 3156,
      "babc": 3157,
      "beda": 3158,
      "bdbc": 3159,
      "bates": 3160,
      "babb": 3161,
      "babf": 3162,
      "btrace": 3163,
      "ccess": 3164,
      "catch": 3165,
      "cadd": 3166,
      "cstar": 3167,
      "cfff": 3168,
      "cffa": 3169,
      "cadb": 3170,
      "cbfb": 3171,
      "cceb": 3172,
      "cffea": 3173,
      "ctools": 3174,
      "dg": 3175,
      "dh": 3176,
      "dj": 3177,
      "dt": 3178,
      "dy": 3179,
      "dsh": 3180,
      "dge": 3181,
      "dna": 3182,
      "dtr": 3183,
      "dps": 3184,
      "dram": 3185,
      "dadc": 3186,
      "dffa": 3187,
      "dada": 3188,
      "dadf": 3189,
      "dffd": 3190,
      "dfffe": 3191,
      "dabd": 3192,
      "dbac": 3193,
      "dfffffff": 3194,
      "dabb": 3195,
      "dlb": 3196,
      "dabf": 3197,
      "effff": 3198,
      "efffff": 3199,
      "eadd": 3200,
      "edec": 3201,
      "eadf": 3202,
      "ecee": 3203,
      "estart": 3204,
      "ebfb": 3205,
      "ebfa": 3206,
      "eceb": 3207,
      "eedb": 3208,
      "eabc": 3209,
      "eabd": 3210,
      "ebaa": 3211,
      "ebae": 3212,
      "ether": 3213,
      "fin": 3214,
      "fstat": 3215,
      "ftest": 3216,
      "fedc": 3217,
      "fbfb": 3218,
      "ftests": 3219,
      "fabd": 3220,
      "fdac": 3221,
      "fbac": 3222,
      "fdbc": 3223,
      "fafa": 3224,
      "fbaa": 3225,
      "fmm": 3226,
      "fold": 3227,
      "fsync": 3228,
      "fchown": 3229,
      "fchmod": 3230,
      "ftruncate": 3231,
      "gd": 3232,
      "gp": 3233,
      "gt": 3234,
      "gin": 3235,
      "gat": 3236,
      "ged": 3237,
      "gto": 3238,
      "gid": 3239,
      "gice": 3240,
      "ging": 3241,
      "gum": 3242,
      "gma": 3243,
      "gcc": 3244,
      "groot": 3245,
      "gapps": 3246,
      "game": 3247,
      "gctl": 3248,
      "hd": 3249,
      "hj": 3250,
      "har": 3251,
      "hid": 3252,
      "her": 3253,
      "hot": 3254,
      "hres": 3255,
      "hstatic": 3256,
      "hpm": 3257,
      "ior": 3258,
      "ited": 3259,
      "ish": 3260,
      "ile": 3261,
      "ieee": 3262,
      "icb": 3263,
      "ical": 3264,
      "iet": 3265,
      "iwi": 3266,
      "icau": 3267,
      "ieeec": 3268,
      "ihd": 3269,
      "ji": 3270,
      "jn": 3271,
      "jr": 3272,
      "jfm": 3273,
      "jlu": 3274,
      "ko": 3275,
      "kr": 3276,
      "kck": 3277,
      "kle": 3278,
      "keb": 3279,
      "ktest": 3280,
      "kill": 3281,
      "kiwi": 3282,
      "lg": 3283,
      "ln": 3284,
      "llo": 3285,
      "lbe": 3286,
      "lstat": 3287,
      "large": 3288,
      "lxf": 3289,
      "lchown": 3290,
      "lseek": 3291,
      "mon": 3292,
      "mbl": 3293,
      "merr": 3294,
      "mmb": 3295,
      "mmu": 3296,
      "nh": 3297,
      "np": 3298,
      "nu": 3299,
      "nce": 3300,
      "nted": 3301,
      "nle": 3302,
      "nan": 3303,
      "nded": 3304,
      "nve": 3305,
      "nms": 3306,
      "nsclick": 3307,
      "oo": 3308,
      "oid": 3309,
      "oad": 3310,
      "option": 3311,
      "osign": 3312,
      "ph": 3313,
      "pv": 3314,
      "pz": 3315,
      "pid": 3316,
      "pco": 3317,
      "pnet": 3318,
      "pho": 3319,
      "ppl": 3320,
      "pmo": 3321,
      "qw": 3322,
      "qum": 3323,
      "qlr": 3324,
      "qbw": 3325,
      "qhm": 3326,
      "qhres": 3327,
      "ry": 3328,
      "ron": 3329,
      "sa": 3330,
      "sdo": 3331,
      "sall": 3332,
      "sgs": 3333,
      "tj": 3334,
      "tn": 3335,
      "tt": 3336,
      "tch": 3337,
      "tst": 3338,
      "tsh": 3339,
      "tmgr": 3340,
      "tdt": 3341,
      "tlbe": 3342,
      "ui": 3343,
      "uff": 3344,
      "uid": 3345,
      "umask": 3346,
      "ugh": 3347,
      "ures": 3348,
      "usync": 3349,
      "vir": 3350,
      "vaddr": 3351,
      "vjp": 3352,
      "vbuffer": 3353,
      "vtrace": 3354,
      "void": 3355,
      "wf": 3356,
      "wh": 3357,
      "wk": 3358,
      "wed": 3359,
      "watch": 3360,
      "wan": 3361,
      "wpen": 3362,
      "wsu": 3363,
      "wbp": 3364,
      "wave": 3365,
      "wosign": 3366,
      "wtdt": 3367,
      "xff": 3368,
      "xec": 3369,
      "xed": 3370,
      "xing": 3371,
      "xab": 3372,
      "xdc": 3373,
      "xfe": 3374,
      "xcd": 3375,
      "xba": 3376,
      "xbc": 3377,
      "xbe": 3378,
      "xae": 3379,
      "xac": 3380,
      "xbd": 3381,
      "xcb": 3382,
      "xfd": 3383,
      "xfb": 3384,
      "xfff": 3385,
      "xfcd": 3386,
      "xbfe": 3387,
      "xffd": 3388,
      "xffffffe": 3389,
      "xfffe": 3390,
      "xbfa": 3391,
      "xdr": 3392,
      "xgr": 3393,
      "xabb": 3394,
      "xafd": 3395,
      "yre": 3396,
      "yur": 3397,
      "yndm": 3398,
      "ykle": 3399,
      "yvjp": 3400,
      "zhstatic": 3401,
      "zjfm": 3402,
      "zsall": 3403,
      "||": 3404,
      "ffeeee": 3405,
      "fffb": 3406,
      "ffcec": 3407,
      "ffced": 3408,
      "fffdfe": 3409,
      "ffadb": 3410,
      "ffada": 3411,
      "ffadf": 3412,
      "ffcee": 3413,
      "ffbfd": 3414,
      "ffbfa": 3415,
      "ffaeb": 3416,
      "ffacb": 3417,
      "ffdcc": 3418,
      "ffbaa": 3419,
      "ffbcb": 3420,
      "ffdcd": 3421,
      "ffaca": 3422,
      "ffcaf": 3423,
      "ffbae": 3424,
      "ffacf": 3425,
      "ffcef": 3426,
      "ffdda": 3427,
      "ffcaa": 3428,
      "ffabf": 3429,
      "ffbbb": 3430,
      "ffdbf": 3431,
      "ffbaf": 3432,
      "argum": 3433,
      "den": 3434,
      "deab": 3435,
      "dedf": 3436,
      "debd": 3437,
      "debb": 3438,
      "deeb": 3439,
      "defb": 3440,
      "deeca": 3441,
      "degroot": 3442,
      "nop": 3443,
      "nopr": 3444,
      "noni": 3445,
      "nocomm": 3446,
      "nova": 3447,
      "noapc": 3448,
      "noroute": 3449,
      "nozerobytebug": 3450,
      "seti": 3451,
      "secur": 3452,
      "seque": 3453,
      "sembl": 3454,
      "ink": 3455,
      "inex": 3456,
      "inform": 3457,
      "inject": 3458,
      "cedf": 3459,
      "cebe": 3460,
      "cebb": 3461,
      "cefd": 3462,
      "cept": 3463,
      "ceabe": 3464,
      "ato": 3465,
      "att": 3466,
      "atall": 3467,
      "ative": 3468,
      "ching": 3469,
      "chcham": 3470,
      "ecff": 3471,
      "ecde": 3472,
      "ecad": 3473,
      "ecfe": 3474,
      "eccc": 3475,
      "ecba": 3476,
      "ecda": 3477,
      "ecae": 3478,
      "ecbb": 3479,
      "ecaf": 3480,
      "ecfa": 3481,
      "ecmb": 3482,
      "ecccc": 3483,
      "ecdca": 3484,
      "ecvbuffer": 3485,
      "ories": 3486,
      "orestart": 3487,
      "dog": 3488,
      "ffffbc": 3489,
      "priv": 3490,
      "loor": 3491,
      "loader": 3492,
      "pdate": 3493,
      "pdbg": 3494,
      "pdlxf": 3495,
      "eddc": 3496,
      "edfe": 3497,
      "edcc": 3498,
      "edba": 3499,
      "eddf": 3500,
      "edbc": 3501,
      "edac": 3502,
      "edca": 3503,
      "edaa": 3504,
      "edbae": 3505,
      "ips": 3506,
      "prof": 3507,
      "ason": 3508,
      "assembl": 3509,
      "toho": 3510,
      "topo": 3511,
      "tocdn": 3512,
      "toall": 3513,
      "ctld": 3514,
      "ctips": 3515,
      "ssible": 3516,
      "idx": 3517,
      "idmp": 3518,
      "ouji": 3519,
      "eece": 3520,
      "eeba": 3521,
      "eebc": 3522,
      "eefc": 3523,
      "eeae": 3524,
      "eebf": 3525,
      "eebd": 3526,
      "eebb": 3527,
      "fffffefe": 3528,
      "fffffefa": 3529,
      "mlink": 3530,
      "only": 3531,
      "onfp": 3532,
      "iary": 3533,
      "stro": 3534,
      "stand": 3535,
      "stun": 3536,
      "stud": 3537,
      "stuff": 3538,
      "cessive": 3539,
      "symlink": 3540,
      "ingo": 3541,
      "abed": 3542,
      "abef": 3543,
      "abea": 3544,
      "abdd": 3545,
      "abca": 3546,
      "nets": 3547,
      "neare": 3548,
      "readd": 3549,
      "reserved": 3550,
      "rename": 3551,
      "renc": 3552,
      "retag": 3553,
      "restarted": 3554,
      "regctl": 3555,
      "reason": 3556,
      "efad": 3557,
      "efddc": 3558,
      "efccc": 3559,
      "efccd": 3560,
      "efbfe": 3561,
      "efefe": 3562,
      "efadf": 3563,
      "efcda": 3564,
      "efcdf": 3565,
      "efedc": 3566,
      "efbfc": 3567,
      "efbfd": 3568,
      "efedb": 3569,
      "efecf": 3570,
      "efeea": 3571,
      "efefd": 3572,
      "efcca": 3573,
      "efeef": 3574,
      "efafb": 3575,
      "efedd": 3576,
      "efdcc": 3577,
      "efbaa": 3578,
      "efeca": 3579,
      "efbcb": 3580,
      "efecd": 3581,
      "efeeb": 3582,
      "efdca": 3583,
      "efcaf": 3584,
      "efdea": 3585,
      "efdef": 3586,
      "efcef": 3587,
      "efeaa": 3588,
      "efdfc": 3589,
      "efdeb": 3590,
      "efdcf": 3591,
      "efdda": 3592,
      "efddb": 3593,
      "efcaa": 3594,
      "efddd": 3595,
      "efddf": 3596,
      "efdaa": 3597,
      "efdaf": 3598,
      "efecb": 3599,
      "ofda": 3600,
      "bll": 3601,
      "blas": 3602,
      "blime": 3603,
      "blast": 3604,
      "tingyun": 3605,
      "symcd": 3606,
      "newsi": 3607,
      "newmpi": 3608,
      "newkernel": 3609,
      "newcomp": 3610,
      "newhack": 3611,
      "asearch": 3612,
      "idoud": 3613,
      "adce": 3614,
      "adcb": 3615,
      "adfa": 3616,
      "adtech": 3617,
      "adingo": 3618,
      "ums": 3619,
      "partsn": 3620,
      "ution": 3621,
      "utime": 3622,
      "shouji": 3623,
      "len": 3624,
      "les": 3625,
      "leme": 3626,
      "leve": 3627,
      "cosy": 3628,
      "tetsh": 3629,
      "eade": 3630,
      "eace": 3631,
      "eaec": 3632,
      "eafc": 3633,
      "eapp": 3634,
      "ancom": 3635,
      "commit": 3636,
      "mehu": 3637,
      "ntry": 3638,
      "make": 3639,
      "maccess": 3640,
      "makeb": 3641,
      "mallo": 3642,
      "stexception": 3643,
      "stepping": 3644,
      "iso": 3645,
      "dcu": 3646,
      "dcce": 3647,
      "dccd": 3648,
      "dcdb": 3649,
      "dcdf": 3650,
      "dcae": 3651,
      "dccf": 3652,
      "dcbd": 3653,
      "dcaf": 3654,
      "dccb": 3655,
      "dcaee": 3656,
      "feec": 3657,
      "feab": 3658,
      "fead": 3659,
      "febd": 3660,
      "feffe": 3661,
      "feeds": 3662,
      "fefffc": 3663,
      "fetch": 3664,
      "licate": 3665,
      "nodecards": 3666,
      "systemcontroller": 3667,
      "alerr": 3668,
      "siwf": 3669,
      "sixgr": 3670,
      "ccr": 3671,
      "ccab": 3672,
      "ccdb": 3673,
      "ccbe": 3674,
      "ccac": 3675,
      "ccbd": 3676,
      "ccca": 3677,
      "ccaf": 3678,
      "ccfa": 3679,
      "ccsam": 3680,
      "ccyndm": 3681,
      "getr": 3682,
      "cdde": 3683,
      "cdce": 3684,
      "cdbe": 3685,
      "cdfbab": 3686,
      "trap": 3687,
      "track": 3688,
      "ddde": 3689,
      "ddab": 3690,
      "ddad": 3691,
      "dddd": 3692,
      "ddba": 3693,
      "ddaf": 3694,
      "ddabe": 3695,
      "rocf": 3696,
      "rows": 3697,
      "rocstar": 3698,
      "bafc": 3699,
      "baae": 3700,
      "bacb": 3701,
      "baeb": 3702,
      "mix": 3703,
      "micr": 3704,
      "mira": 3705,
      "dbde": 3706,
      "dbea": 3707,
      "dbcc": 3708,
      "dbdd": 3709,
      "dbsr": 3710,
      "dbcr": 3711,
      "dfde": 3712,
      "dfec": 3713,
      "dfdc": 3714,
      "dfae": 3715,
      "dfbf": 3716,
      "dfcf": 3717,
      "dfcb": 3718,
      "dfdac": 3719,
      "dfafa": 3720,
      "adda": 3721,
      "bcab": 3722,
      "bcbc": 3723,
      "bcfc": 3724,
      "bcbe": 3725,
      "bcbf": 3726,
      "bcac": 3727,
      "bcaa": 3728,
      "daea": 3729,
      "daaf": 3730,
      "dafdc": 3731,
      "daabd": 3732,
      "daabe": 3733,
      "dafca": 3734,
      "fcba": 3735,
      "fcbd": 3736,
      "fcbb": 3737,
      "fcded": 3738,
      "fcfd": 3739,
      "fcfa": 3740,
      "fcfff": 3741,
      "fcfcc": 3742,
      "fccec": 3743,
      "fcfcd": 3744,
      "fcbff": 3745,
      "fcbfe": 3746,
      "fcdec": 3747,
      "fclick": 3748,
      "fcffd": 3749,
      "fcbfb": 3750,
      "fcbfa": 3751,
      "fcbec": 3752,
      "fcceb": 3753,
      "fcbde": 3754,
      "fcfcb": 3755,
      "fcbac": 3756,
      "fccea": 3757,
      "fcbaa": 3758,
      "fcdcd": 3759,
      "fcdca": 3760,
      "fcdeb": 3761,
      "fcbcf": 3762,
      "fcbeb": 3763,
      "fcbbb": 3764,
      "bead": 3765,
      "beba": 3766,
      "bebc": 3767,
      "bebe": 3768,
      "bebf": 3769,
      "bebb": 3770,
      "bebfdc": 3771,
      "begin": 3772,
      "aede": 3773,
      "aebe": 3774,
      "aebf": 3775,
      "aebd": 3776,
      "aebb": 3777,
      "aeffa": 3778,
      "aeedf": 3779,
      "bfde": 3780,
      "bfab": 3781,
      "bfcc": 3782,
      "bfda": 3783,
      "bfbf": 3784,
      "bfaa": 3785,
      "bfdac": 3786,
      "bfcefc": 3787,
      "bfbaf": 3788,
      "timer": 3789,
      "timix": 3790,
      "psg": 3791,
      "acbd": 3792,
      "acaf": 3793,
      "acfa": 3794,
      "accec": 3795,
      "accept": 3796,
      "ciodb": 3797,
      "iliary": 3798,
      "cfg": 3799,
      "cfde": 3800,
      "cfee": 3801,
      "cfbc": 3802,
      "cfecf": 3803,
      "cfdddc": 3804,
      "cfloor": 3805,
      "linfo": 3806,
      "rounded": 3807,
      "times": 3808,
      "timeofda": 3809,
      "openx": 3810,
      "bdde": 3811,
      "bdfe": 3812,
      "const": 3813,
      "http": 3814,
      "cade": 3815,
      "caea": 3816,
      "caaa": 3817,
      "caeeb": 3818,
      "caffee": 3819,
      "canoni": 3820,
      "caching": 3821,
      "bbdc": 3822,
      "bbdb": 3823,
      "bbbb": 3824,
      "bbccf": 3825,
      "bbdee": 3826,
      "bbadbe": 3827,
      "afde": 3828,
      "afcc": 3829,
      "afdb": 3830,
      "afbc": 3831,
      "afbe": 3832,
      "afbd": 3833,
      "afabf": 3834,
      "amr": 3835,
      "cbde": 3836,
      "cbad": 3837,
      "cbdd": 3838,
      "cbba": 3839,
      "cbjs": 3840,
      "cbrt": 3841,
      "linkcards": 3842,
      "irq": 3843,
      "irector": 3844,
      "mapping": 3845,
      "readv": 3846,
      "readblock": 3847,
      "readlink": 3848,
      "usage": 3849,
      "aaee": 3850,
      "aacd": 3851,
      "aafc": 3852,
      "aaaf": 3853,
      "aaabc": 3854,
      "aapp": 3855,
      "corrupt": 3856,
      "fdde": 3857,
      "fdffc": 3858,
      "fdffffe": 3859,
      "mpxl": 3860,
      "mpill": 3861,
      "mpleme": 3862,
      "ebce": 3863,
      "ebed": 3864,
      "ebbc": 3865,
      "ebeee": 3866,
      "ebbd": 3867,
      "niux": 3868,
      "addresses": 3869,
      "sublime": 3870,
      "scancom": 3871,
      "dcrs": 3872,
      "verbo": 3873,
      "ptarge": 3874,
      "ptlogin": 3875,
      "ptqlr": 3876,
      "values": 3877,
      "netdna": 3878,
      "glp": 3879,
      "validate": 3880,
      "fade": 3881,
      "faee": 3882,
      "faef": 3883,
      "faad": 3884,
      "faecd": 3885,
      "faedbae": 3886,
      "connected": 3887,
      "srko": 3888,
      "overable": 3889,
      "bglc": 3890,
      "bglsys": 3891,
      "bglctl": 3892,
      "bglpersonality": 3893,
      "ffffffd": 3894,
      "ffffffee": 3895,
      "intf": 3896,
      "directories": 3897,
      "exit": 3898,
      "exited": 3899,
      "excessive": 3900,
      "glen": 3901,
      "fbde": 3902,
      "fbec": 3903,
      "fbef": 3904,
      "fbcd": 3905,
      "fbdb": 3906,
      "fbfc": 3907,
      "fbbe": 3908,
      "fbbf": 3909,
      "fbbae": 3910,
      "failures": 3911,
      "feeb": 3912,
      "feeaa": 3913,
      "imageplus": 3914,
      "crl": 3915,
      "pavtrace": 3916,
      "rules": 3917,
      "upmobile": 3918,
      "logfile": 3919,
      "logies": 3920,
      "logical": 3921,
      "wwbiz": 3922,
      "testlong": 3923,
      "testscrip": 3924,
      "feaaa": 3925,
      "itz": 3926,
      "interexception": 3927,
      "aph": 3928,
      "apu": 3929,
      "apac": 3930,
      "soon": 3931,
      "sopt": 3932,
      "unit": 3933,
      "unimpleme": 3934,
      "instr": 3935,
      "lling": 3936,
      "llpo": 3937,
      "llseek": 3938,
      "sppmo": 3939,
      "mpihpm": 3940,
      "icbcast": 3941,
      "ddca": 3942,
      "ddcb": 3943,
      "ddcd": 3944,
      "avn": 3945,
      "....................................": 3946,
      ".................................": 3947,
      "...............................": 3948,
      ".............................": 3949,
      "ims": 3950,
      "imtt": 3951,
      "snan": 3952,
      "cnk": 3953,
      "cncdn": 3954,
      "fcca": 3955,
      "fccde": 3956,
      "fccab": 3957,
      "fcccd": 3958,
      "fccdd": 3959,
      "fccba": 3960,
      "fccdf": 3961,
      "fccbe": 3962,
      "fccae": 3963,
      "fccac": 3964,
      "fccbd": 3965,
      "fccbb": 3966,
      "fccaf": 3967,
      "fccaa": 3968,
      "fccfd": 3969,
      "fccfa": 3970,
      "fccfb": 3971,
      "cmdline": 3972,
      "backgr": 3973,
      "tau": 3974,
      "facee": 3975,
      "sensor": 3976,
      "cecfc": 3977,
      "cacb": 3978,
      "ursdo": 3979,
      "outstand": 3980,
      "pop": 3981,
      "popt": 3982,
      "possible": 3983,
      "obar": 3984,
      "ffbde": 3985,
      "ffbed": 3986,
      "ffbab": 3987,
      "ffbfe": 3988,
      "ffbcc": 3989,
      "ffbdb": 3990,
      "ffbbc": 3991,
      "ffbda": 3992,
      "ffbfc": 3993,
      "ffbbe": 3994,
      "ffbbf": 3995,
      "ffbbd": 3996,
      "ffbffbff": 3997,
      "wrating": 3998,
      "hucdn": 3999,
      "fcdff": 4000,
      "fcdce": 4001,
      "fcdab": 4002,
      "fcddc": 4003,
      "fcdfe": 4004,
      "fcddd": 4005,
      "fcddb": 4006,
      "fcdbe": 4007,
      "fcdae": 4008,
      "fcdbd": 4009,
      "fcdaf": 4010,
      "fcdaa": 4011,
      "fcdfd": 4012,
      "mbio": 4013,
      "imgsrc": 4014,
      "imgtn": 4015,
      "medal": 4016,
      "ublish": 4017,
      "fdfeabe": 4018,
      "fceff": 4019,
      "fceec": 4020,
      "fceed": 4021,
      "fcead": 4022,
      "fcefe": 4023,
      "fcecc": 4024,
      "fcecd": 4025,
      "fcedb": 4026,
      "fcebc": 4027,
      "fceda": 4028,
      "fcebe": 4029,
      "fceae": 4030,
      "fcebf": 4031,
      "fceca": 4032,
      "fcebb": 4033,
      "fceaf": 4034,
      "fcefd": 4035,
      "fceeb": 4036,
      "ffaff": 4037,
      "ffade": 4038,
      "ffaee": 4039,
      "ffaab": 4040,
      "ffaea": 4041,
      "ffafe": 4042,
      "ffacc": 4043,
      "ffafc": 4044,
      "ffaae": 4045,
      "ffaac": 4046,
      "ffaaf": 4047,
      "ccdn": 4048,
      "optimix": 4049,
      "targetclose": 4050,
      "qqweb": 4051,
      "tagr": 4052,
      "cpgr": 4053,
      "unlink": 4054,
      "unpk": 4055,
      "cdnjs": 4056,
      "bffee": 4057,
      "bffea": 4058,
      "bffbc": 4059,
      "bffac": 4060,
      "bffcf": 4061,
      "bffcbf": 4062,
      "bffdea": 4063,
      "microloader": 4064,
      "bits": 4065,
      "efcfe": 4066,
      "efcbe": 4067,
      "efcbb": 4068,
      "maxbug": 4069,
      "longca": 4070,
      "longlong": 4071,
      "effab": 4072,
      "effef": 4073,
      "efffe": 4074,
      "effbc": 4075,
      "effbd": 4076,
      "effca": 4077,
      "effbb": 4078,
      "effcb": 4079,
      "effaa": 4080,
      "efffd": 4081,
      "csm": 4082,
      "xaed": 4083,
      "internalapi": 4084,
      "writev": 4085,
      "writelog": 4086,
      "ffcde": 4087,
      "ffcbc": 4088,
      "ffcae": 4089,
      "ffcbf": 4090,
      "ffcbd": 4091,
      "ffcbb": 4092,
      "modulo": 4093,
      "xequ": 4094,
      "cdca": 4095,
      "cdcf": 4096,
      "efece": 4097,
      "efeab": 4098,
      "efebc": 4099,
      "efebd": 4100,
      "efebb": 4101,
      "pmgr": 4102,
      "ffdce": 4103,
      "beeb": 4104,
      "beeaab": 4105,
      "lyjlu": 4106,
      "runrecv": 4107,
      "eecb": 4108,
      "sinaapp": 4109,
      "fdfb": 4110,
      "fdfdb": 4111,
      "fdfdf": 4112,
      "fdfae": 4113,
      "fdfac": 4114,
      "xfed": 4115,
      "xfefef": 4116,
      "randomaccess": 4117,
      "acef": 4118,
      "acebf": 4119,
      "busy": 4120,
      "bfca": 4121,
      "bfcf": 4122,
      "bfcbd": 4123,
      "flagg": 4124,
      "adea": 4125,
      "memtest": 4126,
      "memmon": 4127,
      "bfdab": 4128,
      "bfbec": 4129,
      "bfbab": 4130,
      "cdea": 4131,
      "minigame": 4132,
      "becb": 4133,
      "becd": 4134,
      "beac": 4135,
      "caba": 4136,
      "mkdir": 4137,
      "aligned": 4138,
      "fdcff": 4139,
      "xbbe": 4140,
      "streitz": 4141,
      "accad": 4142,
      "efbef": 4143,
      "efbcc": 4144,
      "efbbc": 4145,
      "efbda": 4146,
      "efbbe": 4147,
      "efbbd": 4148,
      "efdff": 4149,
      "efdce": 4150,
      "efdab": 4151,
      "efdfe": 4152,
      "fcfab": 4153,
      "fcfdb": 4154,
      "fcfda": 4155,
      "fcfbe": 4156,
      "fcfbf": 4157,
      "fcfbd": 4158,
      "fcfaa": 4159,
      "bdeb": 4160,
      "bdef": 4161,
      "bdece": 4162,
      "bdecc": 4163,
      "bdeae": 4164,
      "bdeaa": 4165,
      "drv": 4166,
      "allc": 4167,
      "alltoall": 4168,
      "fcbce": 4169,
      "fcbab": 4170,
      "fcbdd": 4171,
      "fcbba": 4172,
      "fcbdf": 4173,
      "///": 4174,
      "aefee": 4175,
      "bglinfo": 4176,
      "bbcb": 4177,
      "fefab": 4178,
      "fefcd": 4179,
      "fefcf": 4180,
      "fefeb": 4181,
      "fefafa": 4182,
      "fefabb": 4183,
      "recoverable": 4184,
      "threaded": 4185,
      "..........................": 4186,
      "cfca": 4187,
      "fbcbeb": 4188,
      "xffffcb": 4189,
      "cceea": 4190,
      "cceda": 4191,
      "cbca": 4192,
      "nexage": 4193,
      "aabb": 4194,
      "aabf": 4195,
      "bdfc": 4196,
      "bdfea": 4197,
      "dslb": 4198,
      "ebca": 4199,
      "fdef": 4200,
      "fdead": 4201,
      "fecb": 4202,
      "fecfc": 4203,
      "optaim": 4204,
      "quiet": 4205,
      "chembio": 4206,
      "controldescriptor": 4207,
      "()'": 4208,
      "afcbf": 4209,
      "bccac": 4210,
      "disconnected": 4211,
      "msghdr": 4212,
      "msgto": 4213,
      "ppcfloor": 4214,
      "xdcef": 4215,
      "controlling": 4216,
      "clearport": 4217,
      "bbae": 4218,
      "bbade": 4219,
      "bdae": 4220,
      "bffebcbe": 4221,
      "fdae": 4222,
      "fdaea": 4223,
      "initial": 4224,
      "dcaaf": 4225,
      "getdropbox": 4226,
      "getgid": 4227,
      "getpid": 4228,
      "getuid": 4229,
      "gettimeofda": 4230,
      "bcastv": 4231,
      "subnets": 4232,
      "terminated": 4233,
      "afebf": 4234,
      "brk": 4235,
      "fabf": 4236,
      "fabea": 4237,
      "fabdd": 4238,
      "fabda": 4239,
      "iao": 4240,
      "initialization": 4241,
      "initializeapp": 4242,
      "befcc": 4243,
      "fdbb": 4244,
      "fdbdf": 4245,
      "fdbbf": 4246,
      "fbbb": 4247,
      "awqi": 4248,
      "awrenc": 4249,
      "bbeb": 4250,
      "cbeb": 4251,
      "eabf": 4252,
      "eabea": 4253,
      "defbf": 4254,
      "ccccccc": 4255,
      "cccccccd": 4256,
      "tenmaximg": 4257,
      "trellocdn": 4258,
      "aleamr": 4259,
      "selftest": 4260,
      "newsapp": 4261,
      "coproc": 4262,
      "pages": 4263,
      "dffacb": 4264,
      "duplicate": 4265,
      "redirector": 4266,
      "cjm": 4267,
      "fbfee": 4268,
      "jeffgreeno": 4269,
      "oldkernel": 4270,
      "ulative": 4271,
      "ullen": 4272,
      "died": 4273,
      "digice": 4274,
      "luke": 4275,
      "luidmp": 4276,
      "pwd": 4277,
      "ytnh": 4278,
      "ffbca": 4279,
      "efdbb": 4280,
      "efdbd": 4281,
      "efdbe": 4282,
      "efdfb": 4283,
      "libvisus": 4284,
      "timgsa": 4285,
      "execution": 4286,
      "prefetching": 4287,
      "prefetches": 4288,
      "amaihd": 4289,
      "clg": 4290,
      "clk": 4291,
      "dbaaf": 4292,
      "freed": 4293,
      "impact": 4294,
      "pki": 4295,
      "rtb": 4296,
      "xbfaeb": 4297,
      "sendpacket": 4298,
      "sendtrain": 4299,
      "sendmsgto": 4300,
      "efbaf": 4301,
      "quantcount": 4302,
      "socketexception": 4303,
      "bpnet": 4304,
      "foobar": 4305,
      "hangtest": 4306,
      "rmw": 4307,
      "rmdir": 4308,
      "slave": 4309,
      "slawrenc": 4310,
      "turn": 4311,
      "xaade": 4312,
      "xfffffebc": 4313,
      "asiamax": 4314,
      "efcbad": 4315,
      "multi": 4316,
      "windowsu": 4317,
      "refreshes": 4318,
      "idomarshalerr": 4319,
      "ayoo": 4320,
      "dmw": 4321,
      "hellow": 4322,
      "mingxing": 4323,
      "pull": 4324,
      "puui": 4325,
      "smaato": 4326,
      "tual": 4327,
      "xfffffef": 4328,
      "xfffffdc": 4329,
      "xdaabe": 4330,
      "xbbhj": 4331,
      "ordering": 4332,
      "logos": 4333,
      "efcfb": 4334,
      "bbdeba": 4335,
      "googletagservices": 4336,
      "speculative": 4337,
      "creative": 4338,
      "stirturbpnet": 4339,
      "verifystuff": 4340,
      "baseline": 4341,
      "bdecab": 4342,
      "dware": 4343,
      "free": 4344,
      "fraction": 4345,
      "gslb": 4346,
      "izxequ": 4347,
      "jyb": 4348,
      "jylyjlu": 4349,
      "kkk": 4350,
      "nmjylyjlu": 4351,
      "qdun": 4352,
      "qihucdn": 4353,
      "rssgov": 4354,
      "xfcffd": 4355,
      "yescomm": 4356,
      "yeszerobytebug": 4357,
      "yuedust": 4358,
      "idomsg": 4359,
      "idomsghdr": 4360,
      "trapped": 4361,
      "trapping": 4362,
      "ddmdv": 4363,
      "fcbfabd": 4364,
      "bfeefe": 4365,
      "bfafec": 4366,
      "cloudflare": 4367,
      "cloudfron": 4368,
      "aaecab": 4369,
      "hostname": 4370,
      "pollcontroldescriptor": 4371,
      "showxml": 4372,
      "flushing": 4373,
      "recvmsghdr": 4374,
      "nosleepyescomm": 4375,
      "walkup": 4376,
      "mobilem": 4377,
      "akamaihd": 4378,
      "autorestart": 4379,
      "auxiliary": 4380,
      "bzclk": 4381,
      "batchfiles": 4382,
      "catchup": 4383,
      "dgtest": 4384,
      "dhptqlr": 4385,
      "dyna": 4386,
      "dshytnh": 4387,
      "dgemm": 4388,
      "dtrp": 4389,
      "ethernet": 4390,
      "find": 4391,
      "gtms": 4392,
      "gather": 4393,
      "hardware": 4394,
      "hidden": 4395,
      "ileged": 4396,
      "icbi": 4397,
      "icauh": 4398,
      "ieeeconfp": 4399,
      "jng": 4400,
      "jratt": 4401,
      "krcom": 4402,
      "kiwihk": 4403,
      "lnkck": 4404,
      "mmbiz": 4405,
      "nullpo": 4406,
      "ncer": 4407,
      "nlev": 4408,
      "nmsglen": 4409,
      "oadz": 4410,
      "pcookie": 4411,
      "photocdn": 4412,
      "pplv": 4413,
      "qumccyndm": 4414,
      "qbwup": 4415,
      "tlbentry": 4416,
      "virtual": 4417,
      "watchdog": 4418,
      "wpengine": 4419,
      "wbpctips": 4420,
      "wtdtjs": 4421,
      "xedcb": 4422,
      "xfffead": 4423,
      "xdrpj": 4424,
      "yrexdrpj": 4425,
      "yuri": 4426,
      "ffeeeefe": 4427,
      "fffbccf": 4428,
      "ffddaff": 4429,
      "argument": 4430,
      "noprint": 4431,
      "nocommnosleep": 4432,
      "noroutetoho": 4433,
      "setitimer": 4434,
      "security": 4435,
      "sequencer": 4436,
      "inexact": 4437,
      "information": 4438,
      "injection": 4439,
      "atallbegin": 4440,
      "privileged": 4441,
      "assembly": 4442,
      "topologies": 4443,
      "ctldl": 4444,
      "strobe": 4445,
      "study": 4446,
      "nearest": 4447,
      "readdir": 4448,
      "retagging": 4449,
      "newsimg": 4450,
      "idoudpmgr": 4451,
      "level": 4452,
      "tetshhot": 4453,
      "mehul": 4454,
      "makebglp": 4455,
      "malloc": 4456,
      "ccsamef": 4457,
      "getrusage": 4458,
      "ddddddd": 4459,
      "rocfluidmp": 4460,
      "micron": 4461,
      "miranova": 4462,
      "acceptance": 4463,
      "canonical": 4464,
      "fdffcbe": 4465,
      "mpxlc": 4466,
      "niuxiao": 4467,
      "sublimetext": 4468,
      "verbose": 4469,
      "ptargetmgr": 4470,
      "srkodhptqlr": 4471,
      "bglctlpavtrace": 4472,
      "wwbizapi": 4473,
      "testscripts": 4474,
      "unimplemented": 4475,
      "sppmopt": 4476,
      "background": 4477,
      "ursdoccdn": 4478,
      "outstanding": 4479,
      "ublishing": 4480,
      "cpgraph": 4481,
      "unpkg": 4482,
      "beeaabff": 4483,
      "xfefefeff": 4484,
      "flagging": 4485,
      "gettimeofday": 4486,
      "initializeappmemory": 4487,
      "awqiizxequ": 4488,
      "jeffgreenough": 4489,
      "digicert": 4490,
      "lukei": 4491,
      "sendmsgtodebugger": 4492,
      "windowsupdate": 4493,
      "idomarshalerrecvbuffer": 4494,
      "xbbhjxc": 4495,
      "nmjylyjluykle": 4496,
      "cloudfront": 4497,
      "pollcontroldescriptors": 4498,
      "gathering": 4499,
      "ieeeconfpublishing": 4500,
      "nullpointerexception": 4501,
      "qumccyndmsiwf": 4502,
      "noroutetohostexception": 4503,
      "srkodhptqlryvjp": 4504,
      "awqiizxequsixgr": 4505
    },
    "merges": [
      "9 9",
      "99 99",
      "9999 9999",
      "f f",
      "99 9",
      "a r",
      "d e",
      "n o",
      "s e",
      "i n",
      "c e",
      "9999 9",
      "c ar",
      "car d",
      "no de",
      "a t",
      "c h",
      "99999999 99999999",
      "se r",
      "e c",
      "o r",
      "d o",
      ") ,",
      "ff ff",
      "p r",
      "l o",
      "p d",
      "v pd",
      "e d",
      "i p",
      "pr o",
      "a s",
      "ser v",
      "t o",
      "n d",
      "c t",
      "s s",
      "i d",
      "o u",
      "p ar",
      "e e",
      "ffff f",
      "m l",
      "i ce",
      "serv ice",
      "9999999999999999 99999999",
      "o n",
      "de ar",
      "i ar",
      "no t",
      "9999 99",
      "s t",
      "t h",
      "ce ss",
      "ec k",
      "ch eck",
      "pro cess",
      "process or",
      "ec id",
      "s lo",
      "slo t",
      "at ch",
      "s y",
      "ou nd",
      "f ound",
      "m atch",
      "in g",
      "e r",
      "c k",
      "t ed",
      "a b",
      "lo ck",
      "b lock",
      "n e",
      "r e",
      "as k",
      "e f",
      "i on",
      "d at",
      "p e",
      "th e",
      "o f",
      "b l",
      "t ing",
      "sy m",
      "bl k",
      "m ask",
      "ne w",
      "a se",
      "i do",
      "a d",
      "ser ted",
      "ch ip",
      "in to",
      "ab ase",
      "dat abase",
      "in serted",
      "u m",
      "ct ion",
      "t y",
      "n um",
      "par t",
      "u t",
      "pr e",
      "ef or",
      "999999999999999999999999 999",
      "s h",
      "par efor",
      "pre parefor",
      "preparefor service",
      ") )",
      "m card",
      "ser num",
      "ct n",
      "ml ctn",
      "mcard sernum",
      "ty pe",
      "m ip",
      "m type",
      "ml p",
      "a ction",
      "w n",
      "do wn",
      "sh ut",
      "shut ting",
      "l e",
      "999999999999999999999999 9999",
      "c o",
      "99999999 999999",
      ". .",
      "t e",
      "e a",
      "a n",
      "co m",
      "m e",
      "n t",
      "b y",
      "h k",
      "x y",
      "i v",
      "pro xy",
      "b ffff",
      "m a",
      "re ce",
      "rece iv",
      "9999 999",
      "st e",
      "i s",
      "d c",
      "f e",
      "l i",
      "f i",
      "9999999999999999 999",
      "node card",
      "ee ee",
      "fi le",
      "at e",
      "sy ste",
      "syste m",
      "a l",
      "s i",
      "c c",
      "by te",
      "byte s",
      "k b",
      "er r",
      "receiv ed",
      "g e",
      "n a",
      "c d",
      "ffff ffff",
      "err or",
      "t r",
      "d d",
      ".. ..",
      "r o",
      "b a",
      "m i",
      "ec ted",
      "d b",
      "d f",
      "f pr",
      "ad d",
      "b c",
      "d a",
      "i o",
      "f c",
      "c u",
      "ed u",
      "9999999999999999 99",
      "serv ed",
      "an s",
      "tr ans",
      "b e",
      "a e",
      "o k",
      "c se",
      "cu hk",
      "z e",
      "si ze",
      "b f",
      "t i",
      "p s",
      "a c",
      "c io",
      "i l",
      "cio d",
      "g h",
      "c f",
      "l in",
      "r ou",
      "ee e",
      "th rou",
      "throu gh",
      "a nd",
      "ec t",
      "eeee eee",
      "ti me",
      "file system",
      "er filesystem",
      "pe n",
      "o pen",
      "c lo",
      "b d",
      "h t",
      "st ate",
      "clo se",
      "c on",
      "c or",
      "ht t",
      "na me",
      "htt ps",
      "name system",
      "se nt",
      "c a",
      "a il",
      "dat a",
      "fe time",
      "li fetime",
      "b b",
      "lin k",
      "c ate",
      "e nt",
      "a f",
      "a m",
      "st or",
      "99999999 99",
      "de t",
      "det ected",
      "c b",
      "99999999 99999",
      "st ar",
      "p on",
      "link card",
      "ma in",
      "i r",
      "ma p",
      "do main",
      "o t",
      "re ad",
      "mi ss",
      "u s",
      "at ed",
      "r am",
      "re p",
      "a a",
      "f er",
      "9999999999999999 9",
      "ab le",
      "ed block",
      "add stor",
      "addstor edblock",
      "star ting",
      "th read",
      "trans fer",
      "rep li",
      "u st",
      "data node",
      "repli cate",
      "com pon",
      "compon ent",
      "l ust",
      "w id",
      "cor r",
      "c lust",
      "f or",
      "de d",
      "d ir",
      "g ram",
      "f d",
      "ro ot",
      "pro gram",
      "ad ded",
      "m p",
      "f ro",
      "fro m",
      ".... ....",
      "g o",
      "corr ected",
      "e b",
      "t s",
      "n i",
      "v ail",
      "vail able",
      "nd s",
      "add re",
      "addre ss",
      "clust erfilesystem",
      "s u",
      "s c",
      "miss ing",
      "se co",
      "ch an",
      "seco nds",
      "dc r",
      "v er",
      "go o",
      "p t",
      "v al",
      "x ffffffff",
      "ne t",
      "g l",
      "val id",
      "in valid",
      "mi t",
      "f a",
      "con n",
      "s r",
      "trans mit",
      "chan ge",
      "transmit ted",
      "u na",
      "una vailable",
      "o ver",
      "conn ect",
      "st at",
      "u pd",
      "b gl",
      "or y",
      "block map",
      "upd ated",
      "serv erfilesystem",
      "sr c",
      "ffff ff",
      "in t",
      "b o",
      "dir ect",
      "direct ory",
      "s w",
      "e x",
      "g le",
      "goo gle",
      "- -",
      "g er",
      "su ch",
      "f b",
      "t or",
      "lo n",
      "de st",
      "f ail",
      "tor us",
      "i ma",
      "99999999 999",
      "f ee",
      "h wid",
      "lo ad",
      "ima ge",
      "ex ce",
      "c r",
      "stat us",
      "pt ion",
      "load ing",
      "h o",
      "p a",
      "w wid",
      "cor e",
      "sc si",
      "r u",
      "u p",
      "ar ge",
      "lo g",
      "t arge",
      "ge n",
      "v i",
      "lon ger",
      "fail ed",
      "w w",
      "n c",
      "receiv er",
      "gen er",
      "c al",
      "de r",
      "te st",
      "file s",
      "l d",
      "se ts",
      "f ea",
      "ffffff fe",
      "gener ated",
      "con si",
      "connect ion",
      "i t",
      "m d",
      "in consi",
      "node sets",
      "ste nt",
      "inconsi stent",
      "ho me",
      "u e",
      "w or",
      "th is",
      "be ing",
      "se t",
      "do ne",
      "exce ption",
      "int er",
      "a p",
      "p er",
      "dd r",
      "wor k",
      "l r",
      "s o",
      "u ni",
      "in st",
      "te mp",
      "f u",
      "u ser",
      "c ou",
      "n f",
      "p ut",
      "de le",
      "net work",
      "co de",
      "l s",
      "in put",
      "cou ld",
      "l l",
      "re q",
      "s p",
      "al lo",
      "n b",
      "allo cate",
      "domain s",
      "99999999 9999",
      "node s",
      "ru ction",
      "targe ting",
      "inst ruction",
      "allocate block",
      "mp i",
      "h w",
      "ct r",
      "miss ion",
      "uni x",
      "x er",
      "p ip",
      "pip e",
      "sw l",
      "a ge",
      "e t",
      "99999999 9999999",
      "i c",
      "ff f",
      "99999999 9",
      "com ma",
      "ck et",
      "log in",
      "ue st",
      "req uest",
      "d dc",
      "a v",
      "g i",
      "- [",
      "n al",
      "ch dir",
      "........ ........",
      "ni ff",
      "dele te",
      "ff e",
      "receiv ing",
      "( /",
      "i m",
      "g b",
      "r an",
      "comma nd",
      "invalid set",
      "h as",
      "pa cket",
      "s n",
      "ba id",
      "b er",
      "de o",
      "vi deo",
      "w i",
      "ar y",
      "at ing",
      "-- -",
      "ww w",
      "google video",
      "p l",
      "r and",
      "c n",
      "j av",
      "baid u",
      "jav a",
      "f cc",
      "al le",
      "bo l",
      "c md",
      "ba ck",
      "t a",
      "fa ce",
      "temp or",
      "back up",
      "se n",
      "ss age",
      "me ssage",
      "ap ps",
      "h i",
      "m o",
      "t ask",
      "ee p",
      "tempor ary",
      "goo d",
      "ce c",
      "tr ee",
      "sw eep",
      "s pe",
      "at ion",
      "serv er",
      "c ac",
      "bo ot",
      "c an",
      "u r",
      "int err",
      "fu ll",
      "wi th",
      "c ase",
      "ou t",
      "inter face",
      "case s",
      "sym bol",
      "num ber",
      "vi a",
      "ran k",
      "sen der",
      "n ch",
      "p o",
      "re trans",
      "retrans mission",
      "e s",
      "e v",
      "o b",
      "o l",
      "al t",
      "ev ent",
      "i te",
      "cu r",
      "i al",
      "j ob",
      "si g",
      "m c",
      "m an",
      "ne l",
      "re s",
      "an t",
      "ff b",
      "sy nch",
      "cal ls",
      "r edu",
      "s of",
      "w r",
      "ce d",
      "bo x",
      "sig nal",
      "b w",
      "h u",
      "ser ial",
      "ip address",
      "serial number",
      "f cd",
      "m b",
      "as m",
      "re nt",
      "sp asm",
      "alle n",
      "cur rent",
      "bw allen",
      "a do",
      "a li",
      "x c",
      "nd ant",
      "cc c",
      "im g",
      "redu ndant",
      "a ct",
      "k er",
      "t al",
      "w e",
      "de ni",
      "sc r",
      "stat ic",
      "per mission",
      "mpi ts",
      "deni ed",
      "k in",
      "m ed",
      "u bl",
      "st er",
      "st ab",
      "re gi",
      "ad c",
      "fd fe",
      "fee a",
      "pa kin",
      "regi ster",
      "a der",
      "f ce",
      "u b",
      "ff a",
      "do ubl",
      "sy s",
      "cc d",
      "clust er",
      "sc al",
      "o p",
      "v e",
      "ed s",
      "the ader",
      "sw it",
      "targe t",
      "test cases",
      "fea a",
      "ddc md",
      "sof theader",
      "swit ch",
      "a vailable",
      "n ction",
      "q q",
      "u re",
      "lin e",
      "fu nction",
      "pl a",
      "ta g",
      "act iv",
      "ker nel",
      "c p",
      "u n",
      "or t",
      "cd n",
      "b ff",
      "i b",
      "to tal",
      "d ro",
      "h ado",
      "m nt",
      "p box",
      "ed ram",
      "dro pbox",
      "hado op",
      "c ro",
      "g ou",
      "sy scal",
      "mi cro",
      "bgl scr",
      "function al",
      "syscal ls",
      "bglscr atch",
      "b i",
      "c re",
      "m id",
      "lo cal",
      "fffff e",
      "ib m",
      ". /",
      "b fe",
      "i me",
      "j tag",
      "m in",
      "r ts",
      "x t",
      "ef c",
      "com p",
      "ma x",
      "lon g",
      "log s",
      "mo d",
      "we i",
      "e ff",
      "per for",
      "can not",
      "pla ne",
      "mid plane",
      "c ation",
      "l ce",
      "r a",
      "so l",
      "spe lce",
      "cre ating",
      "comp le",
      "c s",
      "e n",
      "x a",
      "ad b",
      "exce eds",
      "inter nal",
      "wr ite",
      "c li",
      "h y",
      "w as",
      "ff c",
      "at ure",
      "er ature",
      "ad a",
      "il d",
      "corr ect",
      "so gou",
      "temp erature",
      "mod u",
      "cli ent",
      "b ad",
      "e nd",
      "t er",
      "x e",
      "de c",
      "li sh",
      "io exception",
      "micro seconds",
      "modu le",
      "c dc",
      "ch ild",
      "service action",
      "ef e",
      ".. .",
      "li ck",
      "interr up",
      "correct able",
      "end serviceaction",
      "i ti",
      "k n",
      "n s",
      "p m",
      "p hy",
      "t xt",
      "ad f",
      "err no",
      "cd a",
      "cd f",
      "stor y",
      "hi story",
      "good ing",
      "e stab",
      "t mp",
      "ff d",
      "lo w",
      "re set",
      "estab lish",
      "b ee",
      "b ut",
      "l y",
      "re sol",
      "xy z",
      "df s",
      "dele ting",
      "resol ve",
      "u pon",
      "x fffffffe",
      "ce e",
      "ec lick",
      "ed c",
      "ru n",
      "perfor med",
      "b in",
      "stor age",
      "pt or",
      "ffffff e",
      "sp pm",
      "gi th",
      "ra ptor",
      "write block",
      "xyz t",
      "a ec",
      "e ec",
      "h p",
      "s in",
      "u pt",
      "star t",
      "pon der",
      "inter connect",
      "packet res",
      "rand txt",
      "ns ion",
      "hp cc",
      "packetres ponder",
      "c ad",
      "f df",
      "g lo",
      "m g",
      "m db",
      "v n",
      "w er",
      "x f",
      "sh o",
      "cd b",
      "con tr",
      "gl v",
      "ddc mdb",
      "ran do",
      "interr upt",
      "doubl eclick",
      "activ e",
      "sin a",
      "ddcmdb glv",
      "a ce",
      "b u",
      "b fc",
      "d in",
      "d ime",
      "f l",
      "ff fe",
      "in f",
      "or din",
      "do es",
      "co ordin",
      "te nt",
      "an y",
      "si cal",
      "be long",
      "con tent",
      "ir ed",
      "phy sical",
      "gith ub",
      "rando m",
      "dime nsion",
      "coordin ate",
      "a de",
      "d n",
      "x ce",
      "ec c",
      "shut down",
      "te n",
      "me m",
      "me nt",
      "bf d",
      "g n",
      "s li",
      "t ion",
      "pe s",
      "cd d",
      "bf b",
      "glo sli",
      "xce ption",
      "c de",
      "l ed",
      "s or",
      "as h",
      "as serted",
      "bf a",
      "bd ir",
      "min i",
      "fl ash",
      "b ec",
      "b ea",
      "c ab",
      "i k",
      "i ty",
      "m k",
      "in e",
      "ce b",
      "ed b",
      "tr and",
      "ali gn",
      "bi g",
      "wei bo",
      "sor trand",
      "b efor",
      "e de",
      "f lo",
      "f dc",
      "m ar",
      "m mi",
      "p j",
      "u ired",
      "x b",
      "se c",
      "ce led",
      "ec f",
      "as t",
      "ee a",
      "ee r",
      "st re",
      "ad s",
      "cc b",
      "gh t",
      "........ ....",
      "su bdir",
      "test s",
      "req uired",
      "can celed",
      "comple tion",
      "bee n",
      "align ment",
      "befor e",
      "a ea",
      "a cc",
      "b ro",
      "l ts",
      "x ml",
      "de v",
      "car t",
      "re su",
      "ef b",
      "ef d",
      "an g",
      "com m",
      "cc f",
      "error s",
      "fc f",
      "fail ing",
      "cr iti",
      "po wer",
      "mc cart",
      "pj mccart",
      "stre am",
      "resu lts",
      "criti cal",
      "a ee",
      "b de",
      "d r",
      "f ol",
      "p ort",
      "y ti",
      "ch ine",
      "par alle",
      "ma chine",
      "al l",
      "cc a",
      "su c",
      "fol low",
      "paralle l",
      "l atch",
      "p as",
      "ffff e",
      "ou nt",
      "par ity",
      "ab c",
      "ab d",
      "fe fff",
      "ge nt",
      "da c",
      "fc b",
      "ae b",
      "ll er",
      "im b",
      "ur gent",
      "po int",
      "doubl e",
      "follow up",
      "/ /",
      "a ed",
      "a ef",
      "b g",
      "b bc",
      "j s",
      "v ol",
      "ed f",
      "nd ing",
      "ee f",
      "um m",
      "ma il",
      "ba c",
      "ffffff f",
      "ger man",
      "cr ite",
      "exception s",
      "ap i",
      "interrup ts",
      "vn m",
      "inf o",
      "german n",
      "crite o",
      "c able",
      "f ef",
      "n ing",
      "r ec",
      "s ing",
      "ff ea",
      "ar e",
      "ed a",
      "pro per",
      "th re",
      "receiv e",
      "ti es",
      "con f",
      "so hu",
      "................ ........",
      "spe nt",
      "cs dn",
      "comm uni",
      "proper ties",
      ": :",
      "b it",
      "c fc",
      "f bc",
      "u se",
      "v pes",
      "w hi",
      "x ffff",
      "to o",
      "ef a",
      "bl e",
      "db c",
      "close d",
      "af a",
      "af b",
      "us r",
      "chan g",
      "fu nc",
      "sho ld",
      "dev ice",
      "thre shold",
      "a ho",
      "c ce",
      "c bc",
      "g rep",
      "m ount",
      "x in",
      "y aho",
      "ff aa",
      "ab e",
      "ne x",
      "co p",
      "co ll",
      "fi g",
      "mi rand",
      "ac b",
      "con fig",
      "ap is",
      "man hu",
      "flo ating",
      "receive block",
      "yaho o",
      "mirand a",
      "a ab",
      "a ac",
      "b s",
      "b df",
      "d s",
      "d ad",
      "e of",
      "e bc",
      "f de",
      "f ec",
      "i j",
      "m n",
      "m mc",
      "o ff",
      "o pt",
      "p ected",
      "q u",
      "u nex",
      "ce a",
      "ch e",
      "do e",
      "ed d",
      "sy nd",
      "re l",
      "iv e",
      "dc c",
      "li o",
      "al er",
      "ba a",
      "il le",
      "dir s",
      "fd mn",
      "per f",
      "user content",
      "cp md",
      "wei xin",
      "contr ol",
      "bg lio",
      "mmc s",
      "off set",
      "unex pected",
      "( )",
      "a ck",
      "a fc",
      "a ger",
      "b dc",
      "c lock",
      "f ac",
      "g r",
      "l ang",
      "p in",
      "t w",
      "u be",
      "y in",
      "y out",
      "de activ",
      "ec a",
      "bl ue",
      "pre p",
      "bc b",
      "ca u",
      "man ager",
      "register s",
      "sina img",
      "bu g",
      "mem ory",
      "communi cation",
      "pin yin",
      "yout ube",
      "deactiv ated",
      "b cc",
      "c le",
      "c bb",
      "d is",
      "f ae",
      "g al",
      "i li",
      "m s",
      "p p",
      "p an",
      "p good",
      "r ce",
      "r ail",
      "s ram",
      "x d",
      "y ing",
      "ce nt",
      "at ar",
      "ec d",
      "ou rce",
      "ee b",
      "ea c",
      "an ce",
      "dc d",
      "tr ying",
      "star ted",
      "aa a",
      "mp good",
      "google apis",
      "google synd",
      "ic ation",
      "av atar",
      "................ ....",
      "wr it",
      "stab ili",
      "client s",
      "contr o",
      "suc cess",
      "vol t",
      "manhu a",
      "ille gal",
      "cau ght",
      "cle ar",
      "googlesynd ication",
      "stabili ty",
      "a cd",
      "b eck",
      "b ba",
      "b da",
      "b ffe",
      "c bf",
      "d ur",
      "e ce",
      "e be",
      "f da",
      "h and",
      "i fi",
      "l er",
      "o nding",
      "p i",
      "p eer",
      "r bs",
      "s le",
      "u lr",
      "v ar",
      "w a",
      "x x",
      "z z",
      "z er",
      "in ni",
      "in iti",
      "or beck",
      "pro ble",
      "ee xception",
      "ab a",
      "ne z",
      "re sp",
      "um t",
      "te xception",
      "dc a",
      "ate s",
      "ge t",
      "bc ast",
      "ac a",
      "go ing",
      "su b",
      "stat eexception",
      "so cket",
      "inst ance",
      "im um",
      "wi res",
      "cn zz",
      "current ly",
      "max imum",
      "ter min",
      "ik e",
      "yti mg",
      "sing le",
      "whi le",
      "contro ller",
      "illegal stateexception",
      "dur ing",
      "hand ler",
      "ifi cation",
      "ulr ike",
      "inni ty",
      "resp onding",
      "a fe",
      "a ae",
      "b r",
      "d p",
      "d ce",
      "e ed",
      "e bd",
      "f ab",
      "f an",
      "i a",
      "k en",
      "m u",
      "u o",
      "w ar",
      "y ates",
      "z hi",
      "at ic",
      "pr ed",
      "pr ef",
      "nd m",
      "ab b",
      "sh u",
      "ea e",
      "ma pred",
      "ca f",
      "af d",
      "am bi",
      "sc ip",
      "comma nds",
      "pl us",
      "bol t",
      "full y",
      "ali z",
      "switch controller",
      "midplane switchcontroller",
      "en able",
      "ten cent",
      "ik uo",
      "config ur",
      "eof exception",
      "pan ic",
      "initi aliz",
      "sub commands",
      "termin ating",
      "zhi hu",
      "ambi ent",
      "b ef",
      "c nt",
      "e sr",
      "f dd",
      "f db",
      "f ps",
      "f bd",
      "f bb",
      "g g",
      "g static",
      "h pl",
      "h alt",
      "l b",
      "m me",
      "m dc",
      "m sr",
      "s umm",
      "s ource",
      "u x",
      "w cnt",
      "de e",
      "de bug",
      "at temp",
      "as ser",
      "ss l",
      "on i",
      "st eer",
      "ne ls",
      ".. /",
      "te ch",
      "cd ndm",
      "ba e",
      "ae ger",
      "ac f",
      "ca che",
      "test ed",
      "it ion",
      "so d",
      "so ck",
      "ali cdn",
      "comple ted",
      "dr aeger",
      "double max",
      "ulrike y",
      "fps cr",
      "mdc ask",
      "summ ary",
      ": //",
      "a w",
      "b ce",
      "b db",
      "b be",
      "c m",
      "c be",
      "e l",
      "e ab",
      "e bf",
      "g q",
      "l p",
      "m as",
      "p ht",
      "t cp",
      "t rel",
      "v gq",
      "y an",
      "de a",
      "de f",
      "de ve",
      "in fer",
      "ce f",
      "ce cc",
      "st r",
      "ea a",
      "nt ime",
      "li ght",
      "cc cc",
      "cc cd",
      "df c",
      "fc a",
      "be l",
      "ti med",
      "cf d",
      "time out",
      "ust atic",
      "gram mar",
      "ffffff fc",
      "ex e",
      "ru ntime",
      "sp ort",
      "baid ustatic",
      "mo de",
      "adc ast",
      "run ning",
      "sho ck",
      "ten max",
      "mem ber",
      "bro ken",
      "bro adcast",
      "pas sport",
      "chang yan",
      "zer o",
      "proble m",
      "configur ed",
      "initializ ing",
      "gg pht",
      "mas ter",
      "tcp conn",
      "trel lo",
      "infer no",
      "grammar ly",
      "* *",
      "a ad",
      "a le",
      "a me",
      "c fe",
      "c ba",
      "c ae",
      "d de",
      "d fe",
      "e mp",
      "h n",
      "h umm",
      "m oni",
      "n io",
      "n ect",
      "o g",
      "r is",
      "r fi",
      "w x",
      "w il",
      "y ou",
      "ff fc",
      "de b",
      "no n",
      "se l",
      "ce ce",
      "on nect",
      "th er",
      "block s",
      "new s",
      "ido proxy",
      "sh er",
      "co pro",
      "an al",
      "by interrup",
      "rece ption",
      "dc f",
      "li am",
      "cc ce",
      "dd a",
      "dd b",
      "da o",
      "fc ac",
      "bd img",
      "ca a",
      "ca cc",
      "chan nels",
      "ver s",
      "google ads",
      "google usercontent",
      "pa ge",
      "vi car",
      "nf s",
      "gi ge",
      "spe eds",
      "po s",
      "yti cs",
      "rec onnect",
      "closed byinterrup",
      "blue light",
      "war ning",
      "attemp t",
      "emp ty",
      "humm er",
      "moni tor",
      "ris boot",
      "rfi sher",
      "wil liam",
      "you dao",
      "anal ytics",
      "closedbyinterrup texception",
      "william s",
      "b ed",
      "b cd",
      "b mi",
      "c mc",
      "d ff",
      "d up",
      "d static",
      "e ba",
      "f ed",
      "f ad",
      "f ba",
      "h an",
      "i e",
      "k y",
      "k pt",
      "k nez",
      "m m",
      "p ub",
      "r ed",
      "r ma",
      "t p",
      "t in",
      "v a",
      "y dstatic",
      "z ed",
      "ar ch",
      "de s",
      "no s",
      "no rma",
      "se cu",
      "ce cb",
      "ch o",
      "ch kpt",
      "ed ge",
      "st ack",
      "ab f",
      "ab ort",
      "re trying",
      "of dir",
      "ty pas",
      "ea f",
      "an typas",
      "me ta",
      "ma y",
      "cd bc",
      "dd d",
      "dd f",
      "db properties",
      "add r",
      "bc f",
      "da a",
      "io log",
      "cf a",
      "con tin",
      "lust re",
      "chan nel",
      "ver ification",
      "upd ate",
      "fb cdn",
      "cr c",
      "ho mme",
      "ap p",
      "user func",
      "................ .",
      "ado be",
      "scr ip",
      "un tested",
      "xe l",
      "interrup ted",
      "cee ded",
      "............ ...",
      "suc ceeded",
      "ffffe ffe",
      "use database",
      "chang ing",
      "aler t",
      "writ er",
      "success fully",
      "pi xel",
      "sle pt",
      "wa it",
      "br des",
      "asser t",
      "steer ing",
      "sel ect",
      "bmi ller",
      "ofdir ty",
      "b dd",
      "c j",
      "d l",
      "d bl",
      "d mp",
      "e wer",
      "f be",
      "f bf",
      "j eff",
      "k ub",
      "o cc",
      "o ba",
      "o ld",
      "o per",
      "r st",
      "s to",
      "u l",
      "x l",
      "de scrip",
      "se arch",
      "ce dc",
      "ce bc",
      "as ic",
      "service s",
      "sy nc",
      "ef dc",
      "part ition",
      "te am",
      "hk g",
      "fe ff",
      "li mit",
      "eeee eeee",
      "cc dc",
      "cd fc",
      "da f",
      "da hn",
      "be b",
      "ac cess",
      "lin ux",
      "ot a",
      "read y",
      "repli cation",
      "bo ok",
      "pa ck",
      "vi ewer",
      "cal tech",
      "it c",
      "ta oba",
      "face book",
      "ur red",
      "man ce",
      "line ar",
      "pla y",
      "un correctable",
      "perfor mance",
      "sol vers",
      "sogou cdn",
      "sina js",
      "github usercontent",
      "ds mc",
      "dis able",
      "deve l",
      "idoproxy db",
      "page ad",
      "kub ota",
      "occ urred",
      "oper ation",
      "descrip tor",
      "team viewer",
      "taoba o",
      "a dec",
      "a use",
      "b bd",
      "b log",
      "c pro",
      "c as",
      "c ada",
      "c dec",
      "c xx",
      "d i",
      "d ty",
      "e map",
      "f m",
      "f aa",
      "g m",
      "h img",
      "h ack",
      "i x",
      "i an",
      "i shu",
      "j gh",
      "l u",
      "l to",
      "l com",
      "m tal",
      "p w",
      "p ic",
      "q b",
      "r ky",
      "s ca",
      "w in",
      "x ue",
      "y t",
      "ff bc",
      "ff ca",
      "de dc",
      "de ac",
      "at ter",
      "or ted",
      "ffff c",
      "to ma",
      "nd y",
      "nd jeff",
      "par e",
      "ee no",
      "ab orted",
      "block info",
      "re main",
      "ef cd",
      "ef db",
      "ef df",
      "um emap",
      "pre ss",
      "le test",
      "com pare",
      "ste ll",
      "li b",
      "cc fc",
      "ge ne",
      "ge mini",
      "tr i",
      "dd bc",
      ".... ..",
      "add member",
      "da e",
      "be n",
      "be nch",
      "ok ie",
      "bf dc",
      "ti mg",
      "cio stream",
      "lin es",
      "open ing",
      "ca pt",
      "bb b",
      "stor e",
      "map file",
      "for m",
      "fd ff",
      "........ .",
      "sc atter",
      "bgl master",
      "ex ec",
      "pa p",
      "ap c",
      "inst all",
      "et ch",
      "pl b",
      "hu i",
      "we lcom",
      "cluster addmember",
      "scal ing",
      "un der",
      "gou ts",
      "jtag id",
      "comple te",
      "en v",
      "cdc c",
      "bu ber",
      "mini ben",
      "mar k",
      "............ .",
      "parity alignment",
      "vol umemap",
      "mail box",
      "ds k",
      "gr eeno",
      "blue gene",
      "avatar s",
      "writ ten",
      "mu ndy",
      "pref ix",
      "pref etch",
      "debug ger",
      "sod scaling",
      "sock s",
      "ther e",
      "han gouts",
      "homme s",
      "cj mundy",
      "feff ed",
      "ause lto",
      "dty p",
      "ishu hui",
      "mtal k",
      "sca letest",
      "xue shu",
      "toma ndjeff",
      "stell a",
      "bench mark",
      "capt ure",
      "welcom e",
      "auselto n",
      "a g",
      "a ma",
      "a af",
      "a ffe",
      "c l",
      "c ss",
      "c bd",
      "c cec",
      "d ba",
      "d ni",
      "d ffe",
      "d dec",
      "e ad",
      "e bb",
      "f re",
      "f cec",
      "f low",
      "h m",
      "i mp",
      "i whi",
      "i ble",
      "j p",
      "j ect",
      "j ul",
      "l ive",
      "m unix",
      "p k",
      "p ing",
      "p ired",
      "p cho",
      "q box",
      "r t",
      "r ound",
      "r ta",
      "s ame",
      "t un",
      "u d",
      "v munix",
      "w eb",
      "x bf",
      "x hpl",
      "ff er",
      "de cd",
      "se nd",
      "in complete",
      "card sto",
      "ch cardsto",
      "ec b",
      "ffff bffe",
      "as sets",
      "serv ing",
      "fffff c",
      "not ification",
      "ef de",
      "ef ea",
      "ef cc",
      "ef ba",
      "ef bc",
      "ef da",
      "pe nding",
      "ad dc",
      "ad cc",
      "te xt",
      "an x",
      "ma j",
      "dc cc",
      "dc fc",
      "fi rst",
      "al ready",
      "cc cb",
      "cd dc",
      "cd ac",
      "dd dc",
      "ro ff",
      "db f",
      "fc dc",
      "fc bc",
      "ac dc",
      "lin pack",
      "bd static",
      "link error",
      "read ing",
      "ts ch",
      "ex pired",
      "fb fffffe",
      "gen vmunix",
      "gener ating",
      "test ing",
      "test qbox",
      "inter val",
      "cou nt",
      "code s",
      "................ ..",
      "................ ...",
      "ber tsch",
      "fcc c",
      "mo okie",
      "server db",
      "cac a",
      "boot genvmunix",
      "full test",
      "ffb ffe",
      "sof t",
      "med ia",
      "bff fe",
      "cs dni",
      "en ab",
      "fdf a",
      "fdf c",
      "mg r",
      "bu ffer",
      "bea con",
      "dr ive",
      "........................ .",
      "........................ ...",
      "xffff c",
      "fde e",
      "qu ant",
      "aler ts",
      "unexpected ly",
      "pp c",
      ".................... .",
      "sle s",
      "sock e",
      "bel n",
      "bel nez",
      "fad y",
      "tp c",
      "contin ue",
      "replication monitor",
      "pw roff",
      "form at",
      "iwhi chcardsto",
      "pcho me",
      "rta x",
      "tun ed",
      "notification s",
      "pending replicationmonitor",
      "csdni mg",
      "iwhichcardsto pwroff",
      "/ )",
      "/ ../",
      "= =",
      "a o",
      "a u",
      "a ver",
      "b p",
      "b is",
      "c ff",
      "c ating",
      "d iv",
      "d sp",
      "e ver",
      "e fff",
      "e ffa",
      "e ssl",
      "f g",
      "f o",
      "f p",
      "f af",
      "f ced",
      "g ge",
      "h ne",
      "h it",
      "h ang",
      "i f",
      "i st",
      "j ar",
      "k map",
      "k it",
      "m y",
      "m ps",
      "o ima",
      "p ur",
      "q a",
      "q ue",
      "r m",
      "s l",
      "s se",
      "s ort",
      "s content",
      "t c",
      "t able",
      "t ue",
      "t ur",
      "t va",
      "u ve",
      "v x",
      "w s",
      "w ang",
      "x aa",
      "x fffffe",
      "y gi",
      "y un",
      "z on",
      "ff dc",
      "ff ac",
      "ff cb",
      "de l",
      "de mo",
      "se ne",
      "ce ec",
      "ce fc",
      "ce bf",
      "ce ac",
      "ce cf",
      "lo cation",
      "ed n",
      "as ia",
      "serv e",
      "nd ition",
      "par md",
      "on g",
      "not e",
      "st ion",
      "st ir",
      "th under",
      "block ed",
      "re starting",
      "re ver",
      "re fre",
      "ef ec",
      "ef ed",
      "ef ef",
      "ef ca",
      "ef cb",
      "ido s",
      "ido chip",
      "ido mar",
      "ad bc",
      "ad ac",
      "um p",
      "sh ort",
      "sh are",
      "type kit",
      "co ndition",
      "te l",
      "bffff ffe",
      "dc b",
      "dc dc",
      "dc bc",
      "fe b",
      "li t",
      "li zed",
      "ge o",
      "tr ace",
      ".... .",
      ".... ...",
      "ro mi",
      "ba f",
      "ba ker",
      "db g",
      "df a",
      "df cc",
      "df bc",
      "bc a",
      "da ec",
      "fc de",
      "fc match",
      "bf ec",
      "ac bc",
      "il l",
      "il y",
      "ect or",
      "con so",
      "af ly",
      "rep ub",
      "ni el",
      "ni zed",
      "su gge",
      "bgl idochip",
      "ffffff be",
      "ex change",
      "ex press",
      "-- >",
      "fail ure",
      "gener al",
      "wor d",
      "sp lit",
      "mpi ch",
      "age s",
      "ddc c",
      "av d",
      "hi gh",
      "tree addr",
      "cac f",
      "cac afly",
      "po se",
      "ali ty",
      "fce a",
      "fce b",
      "activ ating",
      "cp p",
      "cp u",
      "un able",
      "un rec",
      "micro soft",
      "min us",
      "cs ar",
      "kn l",
      "content ion",
      "bea p",
      "fdc c",
      "............ ..",
      "communi cating",
      "too ls",
      "dca che",
      "mu l",
      "aw s",
      "vgq s",
      "vgq sene",
      "str ong",
      "og nized",
      "pub ads",
      "nos dn",
      "norma l",
      "norma lized",
      "secu re",
      "secu repub",
      "stack exchange",
      "ofdirty dbl",
      "ofdirty lines",
      "access ible",
      "di ct",
      "win do",
      "ama zon",
      "count er",
      "quant serve",
      "socke ts",
      "aver ages",
      "ever note",
      "fg ygi",
      "oima g",
      "pur pose",
      "sse s",
      "rever se",
      "refre sh",
      "idomar sh",
      "romi o",
      "conso le",
      "niel sen",
      "sugge stion",
      "express ion",
      "unrec ognized",
      "vgqsene s",
      "securepub ads",
      "ofdirtydbl word",
      "amazon aws",
      ") :",
      ") ........................",
      "a y",
      "a in",
      "a cec",
      "a ccc",
      "a efe",
      "b ab",
      "b ra",
      "c i",
      "c v",
      "c id",
      "c adc",
      "c pes",
      "d m",
      "d ab",
      "d ue",
      "d cec",
      "d fffffe",
      "e p",
      "e as",
      "e ld",
      "e ffe",
      "e ffb",
      "e we",
      "e edc",
      "f ls",
      "g v",
      "g ate",
      "g ine",
      "g ive",
      "h el",
      "i ch",
      "i ting",
      "j ag",
      "k ne",
      "k dp",
      "l ef",
      "l ate",
      "l ac",
      "l are",
      "m f",
      "m ing",
      "m er",
      "m ba",
      "n l",
      "n x",
      "o mme",
      "p u",
      "p th",
      "p counter",
      "q s",
      "q himg",
      "r ich",
      "s ch",
      "s ma",
      "s mi",
      "s am",
      "s afe",
      "t u",
      "t ip",
      "t lb",
      "t addr",
      "u ba",
      "u ation",
      "w sing",
      "x fffff",
      "x da",
      "x bb",
      "x fa",
      "y read",
      "z himg",
      "ff t",
      "ff de",
      "ff ce",
      "ff cc",
      "ff cd",
      "ff ae",
      "ar en",
      "ar ale",
      "de de",
      "de cc",
      "de dd",
      "de bc",
      "de pth",
      "in it",
      "in ity",
      "ce cd",
      "ce dd",
      "ce sses",
      "at anx",
      "ch ar",
      "ch at",
      "ch am",
      "or g",
      "or der",
      "do ct",
      "ffff ca",
      "ffff eb",
      "lo p",
      "lo ne",
      "lo go",
      "lo ewe",
      "ip v",
      "pro mp",
      "pro cesses",
      "to war",
      "nd ir",
      "nd wid",
      "ss p",
      "ou texception",
      "par ame",
      "ee ec",
      "fffff bfe",
      "service mailbox",
      "st a",
      "ck pt",
      "ab cc",
      "ab bc",
      "ab fc",
      "ab ac",
      "ef ce",
      "ef ee",
      "ef dd",
      "ef be",
      "ef bf",
      "ef ac",
      "ef cf",
      "ef bd",
      "ef bb",
      "ef eff",
      "pe op",
      "sym bo",
      "ad fc",
      "ad zer",
      "ad nx",
      "part ad",
      "pre sta",
      "iv er",
      "bffff dfe",
      "fe ffff",
      "fi eld",
      "al lr",
      "si c",
      "si mba",
      "cc bc",
      "cc bf",
      "cc cf",
      "err str",
      "ge tel",
      "tr ain",
      "dd fc",
      "dd ac",
      "ba ndwid",
      "db b",
      "db d",
      "db e",
      "db dc",
      "df b",
      "df d",
      "df ed",
      "df ac",
      "df bb",
      "da ce",
      "da cb",
      "io state",
      "fc ff",
      "fc ce",
      "fc be",
      "edu ce",
      "bf ea",
      "bf bb",
      "time outexception",
      "clo sing",
      "clo ud",
      "ca ce",
      "ca ec",
      "ca cd",
      "ca fc",
      "ca ac",
      "ail ed",
      "bb de",
      "det ailed",
      "cb ea",
      "cb bc",
      "rep lac",
      "fd dc",
      "........ ...",
      "go v",
      "su p",
      "sc lick",
      "ver if",
      "fa ec",
      "sr m",
      "over flow",
      "ffffff fa",
      "google tag",
      "fb bc",
      "pa pi",
      "ru ns",
      "ru ndir",
      "log user",
      "nc y",
      "consi der",
      "md n",
      "ue s",
      "per cl",
      "temp high",
      "ll ap",
      "ll nl",
      "sp ec",
      "hw stab",
      "................ ................",
      "im pr",
      "fcc d",
      "fcc f",
      "hi cloud",
      "out bra",
      "ol ar",
      "sig n",
      "mc mm",
      "res ource",
      "redu ce",
      "fcd a",
      "fcd b",
      "fcd d",
      "fcd f",
      "fce e",
      "fce f",
      "ub mcmm",
      "cp c",
      "cp m",
      "bff c",
      "bff d",
      "edram s",
      "cre at",
      "bfe b",
      "eff d",
      "ra ck",
      "hy percl",
      "ter s",
      "lish i",
      "gith uba",
      "glo b",
      "inf inity",
      "content rec",
      "bec a",
      "cab c",
      "cab d",
      "cab f",
      "cab ot",
      "flo pcounter",
      "bro wsing",
      "stream tri",
      "pas ci",
      "fbc a",
      "coll ector",
      "manhu aren",
      "qu lishi",
      "aler io",
      "gr avatar",
      "pp ing",
      ".................... ..",
      ".................... ...",
      "fda a",
      "wa iting",
      "proble ms",
      "get ting",
      "socket timeoutexception",
      "br ian",
      "asser tion",
      "bdb b",
      "el and",
      "deve lop",
      "str ip",
      "** **",
      "og s",
      "mm stat",
      "va lone",
      "cho wn",
      "contin uation",
      "dbl p",
      "devel f",
      "lu sh",
      "tri er",
      "fdff fdfe",
      "mailbox monitor",
      "maj or",
      "testqbox hang",
      "enab lef",
      "que ue",
      "yun sic",
      "parmd g",
      "stir tur",
      "mul tip",
      "windo ws",
      "idomarsh alerio",
      "cid ian",
      "ep streamtri",
      "eas yread",
      "gv t",
      "kdp ic",
      "late ncy",
      "omme nd",
      "sch olar",
      "smi th",
      "safe browsing",
      "taddr iver",
      "arale go",
      "doct or",
      "ffffeb fe",
      "promp t",
      "towar d",
      "parame ters",
      "servicemailbox es",
      "peop le",
      "symbo ls",
      "adzer k",
      "adnx s",
      "allr educe",
      "bandwid th",
      "replac ing",
      "verif y",
      "loguser info",
      "outbra in",
      "hypercl aw",
      "githuba pp",
      "contentrec ommend",
      "flopcounter s",
      "enablef lush",
      "multip le",
      "epstreamtri ad",
      "! (",
      ") .......",
      "* )",
      "= !(",
      "a ff",
      "a adc",
      "a efc",
      "a ffd",
      "a fffffff",
      "a pack",
      "b h",
      "b j",
      "b ip",
      "b id",
      "b ase",
      "b an",
      "b bf",
      "b rand",
      "b cec",
      "b adc",
      "b dec",
      "b bac",
      "c at",
      "c si",
      "c sp",
      "c gi",
      "c ffffffe",
      "c aeb",
      "c bac",
      "d w",
      "d par",
      "d ffc",
      "d ns",
      "d pm",
      "d abc",
      "d ump",
      "e k",
      "e ded",
      "f r",
      "f on",
      "f adc",
      "f efc",
      "f dec",
      "f ecc",
      "f abc",
      "g s",
      "g u",
      "g bgl",
      "g un",
      "g mail",
      "g timg",
      "h pd",
      "h fm",
      "h ao",
      "i z",
      "i de",
      "i se",
      "i ss",
      "i ap",
      "i es",
      "i cache",
      "j y",
      "k e",
      "k k",
      "k dc",
      "k nel",
      "k cdn",
      "l h",
      "l cr",
      "l eep",
      "l apack",
      "m de",
      "m ct",
      "m ea",
      "m is",
      "m sn",
      "m atic",
      "m hfm",
      "n m",
      "n ee",
      "o s",
      "o image",
      "o ol",
      "o dr",
      "o csp",
      "p ad",
      "p ps",
      "p ll",
      "p ux",
      "q d",
      "q i",
      "q x",
      "q ls",
      "q pic",
      "q rt",
      "q logo",
      "r s",
      "r w",
      "r ss",
      "r ing",
      "r al",
      "r flo",
      "r ther",
      "r fft",
      "s b",
      "s par",
      "s on",
      "s com",
      "s pa",
      "s core",
      "s sen",
      "s ky",
      "s qrt",
      "t z",
      "t at",
      "t ab",
      "t ap",
      "t server",
      "t xyz",
      "t dp",
      "t dmp",
      "t anx",
      "u ch",
      "u sh",
      "u al",
      "u df",
      "u edu",
      "u bgl",
      "v r",
      "v ing",
      "v is",
      "w al",
      "w pad",
      "x de",
      "x ef",
      "x ad",
      "x db",
      "x fc",
      "x ca",
      "x af",
      "x ffffff",
      "x fee",
      "x fffffff",
      "x vicar",
      "y x",
      "y ap",
      "y es",
      "y img",
      "y ms",
      "y bp",
      "y uedu",
      "z kcdn",
      "ff ec",
      "ff ee",
      "ff ab",
      "ff ad",
      "ff ba",
      "ff db",
      "ff add",
      "ff da",
      "ff be",
      "ff bf",
      "ff cf",
      "ff bd",
      "ff bb",
      "ff af",
      "ff adc",
      "ff cdf",
      "ff bfb",
      "ff afa",
      "ff afb",
      "ff tw",
      "ar ed",
      "ar ty",
      "ar an",
      "ar ily",
      "de ce",
      "de ec",
      "de ed",
      "de fe",
      "de fc",
      "de bf",
      "de bcc",
      "de normalized",
      "de mde",
      "no io",
      "no avatar",
      "se ver",
      "se stat",
      "se nding",
      "se qu",
      "se ille",
      "se ek",
      "in te",
      "ce ab",
      "ce db",
      "ce da",
      "ce bd",
      "ce ca",
      "ce eb",
      "card s",
      "card re",
      "at ta",
      "ch mod",
      "ch ment",
      "ec ce",
      "ec bc",
      "ec ac",
      "ec dn",
      "ec ise",
      "lo st",
      "ed de",
      "ed da",
      "ed fc",
      "ed bb",
      "ed fa",
      "ed ump",
      "pro ject",
      "to ken",
      "to uch",
      "ct l",
      "ss o",
      "ss um",
      "ss tat",
      "ee bea",
      "fffff d",
      "service network",
      "st ill",
      "th ir",
      "er y",
      "er ist",
      "ck ap",
      "ab ec",
      "ab dc",
      "ab db",
      "ne te",
      "ne xt",
      "ne os",
      "re open",
      "re sets",
      "re mo",
      "re mer",
      "ef aa",
      "ef eb",
      "ef ccb",
      "ef aea",
      "ef dbc",
      "ef dcd",
      "ef cfd",
      "ion i",
      "bl ac",
      "new ma",
      "ido trans",
      "ido client",
      "ido ms",
      "ad v",
      "ad be",
      "ad sr",
      "ad master",
      "ad services",
      "ad tdp",
      "pre sent",
      "pre qx",
      "sh ot",
      "sh ared",
      "down load",
      "te ed",
      "te nsion",
      "te maj",
      "ea ae",
      "an ad",
      "com ment",
      "me kn",
      "me ssen",
      "iv ecdn",
      "bffff a",
      "bffff d",
      "dc dd",
      "dc da",
      "dc bf",
      "dc ac",
      "dc ount",
      "fe fffff",
      "fe bc",
      "fe bf",
      "li st",
      "fi er",
      "si temaj",
      "cc dd",
      "cc ba",
      "cc da",
      "byte bug",
      "err han",
      "cd adc",
      "cd fffe",
      "tr c",
      "tr out",
      "tr un",
      "tr app",
      "dd ff",
      "dd md",
      "ro me",
      "ba ec",
      "ba ab",
      "ba cc",
      "ba ac",
      "ba ij",
      "ba yms",
      "mi ao",
      "db ec",
      "db bc",
      "db fc",
      "db fd",
      "db remer",
      "add ing",
      "add this",
      "bc dc",
      "da cc",
      "da cd",
      "da fc",
      "da ac",
      "da cf",
      "da ily",
      "fc ab",
      "fc fc",
      "fc bf",
      "fc af",
      "fc ffe",
      "fc bea",
      "fc dcf",
      "cu s",
      "cu pps",
      "be ab",
      "be bd",
      "ae ec",
      "bf ed",
      "bf ee",
      "bf ac",
      "bf af",
      "bf dea",
      "ps u",
      "ac fc",
      "ac bf",
      "ac ac",
      "ac bb",
      "gh dr",
      "cf b",
      "cf af",
      "lin adv",
      "rou te",
      "clo udf",
      "bd ab",
      "con c",
      "con project",
      "cor edump",
      "ca ee",
      "ca mo",
      "ca use",
      "ca pi",
      "bb ab",
      "ent ial",
      "af bb",
      "af ter",
      "am anad",
      "cb ec",
      "cb dc",
      "cb cc",
      "cb fc",
      "map files",
      "aa ec",
      "aa cc",
      "aa ac",
      "for ce",
      "for mi",
      "ded replication",
      "fd fffff",
      "fd fffe",
      "eb de",
      "eb ee",
      "eb ea",
      "eb ba",
      "eb db",
      "eb da",
      "su ite",
      "fa cc",
      "fa fc",
      "stat s",
      "bgl err",
      "bgl code",
      "ffffff c",
      "bo s",
      "ex ter",
      "ex ist",
      "ex tension",
      "google adservices",
      "fb ab",
      "fb dc",
      "fb cc",
      "fb ba",
      "fb da",
      "image s",
      "exce eded",
      "ho st",
      "pa i",
      "ru bi",
      "up load",
      "test suite",
      "fea c",
      "fea f",
      "it ter",
      "ue sn",
      "wor dcount",
      "per son",
      "ddr size",
      "fu rther",
      "ls f",
      "allo cation",
      "ctr s",
      "ic s",
      "av e",
      "av p",
      "................ ............",
      "wi x",
      "wi fi",
      "fcc b",
      "fcc ff",
      "fcc ce",
      "fcc fe",
      "fcc bf",
      "fcc cf",
      "tempor arily",
      "sen ee",
      "mo bi",
      "ur l",
      "out put",
      "po ll",
      "ob ject",
      "cur ioni",
      "ffb ff",
      "ffb df",
      "sof tw",
      "wr ay",
      "fcd bf",
      "ali tu",
      "img ur",
      "img cache",
      "act erist",
      "fce bd",
      "fce cb",
      "ffa ec",
      "ffa ed",
      "ddcmd gbgl",
      "qq mail",
      "un sign",
      "dropbox api",
      "micro ad",
      "bi z",
      "efc bc",
      "efc fc",
      "efc bd",
      "mod s",
      "eff c",
      "perfor ming",
      "ra i",
      "en gine",
      "client services",
      "dec lare",
      "eec c",
      "sho w",
      "bu ild",
      "bfc b",
      "fl ush",
      "gn ar",
      "bdir ect",
      "cab e",
      "ede a",
      "ede f",
      "ede fb",
      "flo at",
      "mar t",
      "mar seille",
      "aea c",
      "acc ount",
      "comm s",
      "bde a",
      "bde e",
      "port mgr",
      "bbc a",
      "fef efeff",
      "rec v",
      "receive train",
      "xffff b",
      "xffff d",
      "grep a",
      "grep b",
      "ffaa a",
      "config file",
      "aab a",
      "bdf a",
      "qu ality",
      "qu ery",
      "synd rome",
      "bdc b",
      "tw itter",
      "cent ral",
      "fda f",
      "wa y",
      "ulrike tests",
      "ia hao",
      "configur ation",
      "attemp ting",
      "oni x",
      "bce bos",
      "vgq senee",
      "zero bytebug",
      "ale media",
      "hn edn",
      "og uesn",
      "vers ion",
      "pub s",
      "pub matic",
      "nos leep",
      "stack overflow",
      "adobe id",
      "adobe login",
      "old code",
      "sto pping",
      "efdc b",
      "cas alemedia",
      "fm mods",
      "gm tdmp",
      "win err",
      "efdf d",
      "press ing",
      "under flow",
      "ag kn",
      "imp service",
      "pk t",
      "enab led",
      "/../ ../",
      "au g",
      "au th",
      "div ac",
      "div ide",
      "fo cus",
      "sort er",
      "tva x",
      "wang wang",
      "vgqs kn",
      "dict app",
      "oimag ec",
      "oimag ea",
      "console ip",
      "console port",
      "cv s",
      "gate way",
      "hel lo",
      "sma ll",
      "sam rai",
      "char acterist",
      "cham onix",
      "order ed",
      "field s",
      "sup pressing",
      "googletag manager",
      "spec ial",
      "impr ecise",
      "creat ivecdn",
      "glob al",
      "stirtur bdirect",
      "bip arty",
      "bid switch",
      "ban k",
      "dpar ty",
      "fon ts",
      "gu aran",
      "gun nels",
      "iss ues",
      "kdc l",
      "mea m",
      "mis compare",
      "nee dedreplication",
      "oimage b",
      "ool a",
      "qls n",
      "rflo mp",
      "spar ing",
      "scom error",
      "spa ce",
      "score cardre",
      "sky pe",
      "tz yx",
      "tab oola",
      "tap ad",
      "ual dn",
      "vis us",
      "wal k",
      "demde x",
      "sever ed",
      "sequ ential",
      "atta chment",
      "sstat s",
      "servicenetwork characterist",
      "thir dparty",
      "ckap fer",
      "nete ase",
      "neos mart",
      "remo ving",
      "blac s",
      "newma ps",
      "idotrans portmgr",
      "idoclient mgr",
      "adsr vr",
      "shot s",
      "mekn ed",
      "messen ger",
      "sitemaj i",
      "trout er",
      "trun cate",
      "baij iahao",
      "bayms gr",
      "miao pai",
      "daily update",
      "cause d",
      "exter nal",
      "exist ing",
      "rubi conproject",
      "person ality",
      "mobi le",
      "softw are",
      "alitu i",
      "ddcmdgbgl v",
      "unsign ed",
      "declare servicenetworkcharacterist",
      "marseille bgl",
      "account s",
      "oguesn sl",
      "biparty z",
      "guaran teed",
      "neededreplication s",
      "scorecardre search",
      "declareservicenetworkcharacterist ics",
      "& )",
      "& ,",
      ") '",
      ") ...",
      ") ...........................",
      ") ......................",
      ") .......................",
      "* ,",
      "* &)",
      "- >",
      "/ .",
      "/ ./",
      "? /",
      "a k",
      "a ut",
      "a eee",
      "a ded",
      "a im",
      "a ada",
      "a cda",
      "a edc",
      "a cdd",
      "a eea",
      "a abc",
      "a fcb",
      "a afa",
      "a ffaa",
      "a gg",
      "a ux",
      "b t",
      "b x",
      "b z",
      "b atch",
      "b us",
      "b fff",
      "b ffb",
      "b cda",
      "b edc",
      "b vn",
      "b ceb",
      "b ccb",
      "b efb",
      "b abc",
      "b eda",
      "b dbc",
      "b ates",
      "b abb",
      "b abf",
      "b trace",
      "c cess",
      "c atch",
      "c add",
      "c star",
      "c fff",
      "c ffa",
      "c adb",
      "c bfb",
      "c ceb",
      "c ffea",
      "c tools",
      "d g",
      "d h",
      "d j",
      "d t",
      "d y",
      "d sh",
      "d ge",
      "d na",
      "d tr",
      "d ps",
      "d ram",
      "d adc",
      "d ffa",
      "d ada",
      "d adf",
      "d ffd",
      "d fffe",
      "d abd",
      "d bac",
      "d fffffff",
      "d abb",
      "d lb",
      "d abf",
      "e ffff",
      "e fffff",
      "e add",
      "e dec",
      "e adf",
      "e cee",
      "e start",
      "e bfb",
      "e bfa",
      "e ceb",
      "e edb",
      "e abc",
      "e abd",
      "e baa",
      "e bae",
      "e ther",
      "f in",
      "f stat",
      "f test",
      "f edc",
      "f bfb",
      "f tests",
      "f abd",
      "f dac",
      "f bac",
      "f dbc",
      "f afa",
      "f baa",
      "f mm",
      "f old",
      "f sync",
      "f chown",
      "f chmod",
      "f truncate",
      "g d",
      "g p",
      "g t",
      "g in",
      "g at",
      "g ed",
      "g to",
      "g id",
      "g ice",
      "g ing",
      "g um",
      "g ma",
      "g cc",
      "g root",
      "g apps",
      "g ame",
      "g ctl",
      "h d",
      "h j",
      "h ar",
      "h id",
      "h er",
      "h ot",
      "h res",
      "h static",
      "h pm",
      "i or",
      "i ted",
      "i sh",
      "i le",
      "i eee",
      "i cb",
      "i cal",
      "i et",
      "i wi",
      "i cau",
      "i eeec",
      "i hd",
      "j i",
      "j n",
      "j r",
      "j fm",
      "j lu",
      "k o",
      "k r",
      "k ck",
      "k le",
      "k eb",
      "k test",
      "k ill",
      "k iwi",
      "l g",
      "l n",
      "l lo",
      "l be",
      "l stat",
      "l arge",
      "l xf",
      "l chown",
      "l seek",
      "m on",
      "m bl",
      "m err",
      "m mb",
      "m mu",
      "n h",
      "n p",
      "n u",
      "n ce",
      "n ted",
      "n le",
      "n an",
      "n ded",
      "n ve",
      "n ms",
      "n sclick",
      "o o",
      "o id",
      "o ad",
      "o ption",
      "o sign",
      "p h",
      "p v",
      "p z",
      "p id",
      "p co",
      "p net",
      "p ho",
      "p pl",
      "p mo",
      "q w",
      "q um",
      "q lr",
      "q bw",
      "q hm",
      "q hres",
      "r y",
      "r on",
      "s a",
      "s do",
      "s all",
      "s gs",
      "t j",
      "t n",
      "t t",
      "t ch",
      "t st",
      "t sh",
      "t mgr",
      "t dt",
      "t lbe",
      "u i",
      "u ff",
      "u id",
      "u mask",
      "u gh",
      "u res",
      "u sync",
      "v ir",
      "v addr",
      "v jp",
      "v buffer",
      "v trace",
      "v oid",
      "w f",
      "w h",
      "w k",
      "w ed",
      "w atch",
      "w an",
      "w pen",
      "w su",
      "w bp",
      "w ave",
      "w osign",
      "w tdt",
      "x ff",
      "x ec",
      "x ed",
      "x ing",
      "x ab",
      "x dc",
      "x fe",
      "x cd",
      "x ba",
      "x bc",
      "x be",
      "x ae",
      "x ac",
      "x bd",
      "x cb",
      "x fd",
      "x fb",
      "x fff",
      "x fcd",
      "x bfe",
      "x ffd",
      "x ffffffe",
      "x fffe",
      "x bfa",
      "x dr",
      "x gr",
      "x abb",
      "x afd",
      "y re",
      "y ur",
      "y ndm",
      "y kle",
      "y vjp",
      "z hstatic",
      "z jfm",
      "z sall",
      "| |",
      "ff eeee",
      "ff fb",
      "ff cec",
      "ff ced",
      "ff fdfe",
      "ff adb",
      "ff ada",
      "ff adf",
      "ff cee",
      "ff bfd",
      "ff bfa",
      "ff aeb",
      "ff acb",
      "ff dcc",
      "ff baa",
      "ff bcb",
      "ff dcd",
      "ff aca",
      "ff caf",
      "ff bae",
      "ff acf",
      "ff cef",
      "ff dda",
      "ff caa",
      "ff abf",
      "ff bbb",
      "ff dbf",
      "ff baf",
      "ar gum",
      "de n",
      "de ab",
      "de df",
      "de bd",
      "de bb",
      "de eb",
      "de fb",
      "de eca",
      "de groot",
      "no p",
      "no pr",
      "no ni",
      "no comm",
      "no va",
      "no apc",
      "no route",
      "no zerobytebug",
      "se ti",
      "se cur",
      "se que",
      "se mbl",
      "in k",
      "in ex",
      "in form",
      "in ject",
      "ce df",
      "ce be",
      "ce bb",
      "ce fd",
      "ce pt",
      "ce abe",
      "at o",
      "at t",
      "at all",
      "at ive",
      "ch ing",
      "ch cham",
      "ec ff",
      "ec de",
      "ec ad",
      "ec fe",
      "ec cc",
      "ec ba",
      "ec da",
      "ec ae",
      "ec bb",
      "ec af",
      "ec fa",
      "ec mb",
      "ec ccc",
      "ec dca",
      "ec vbuffer",
      "or ies",
      "or estart",
      "do g",
      "ffff bc",
      "pr iv",
      "lo or",
      "lo ader",
      "pd ate",
      "pd bg",
      "pd lxf",
      "ed dc",
      "ed fe",
      "ed cc",
      "ed ba",
      "ed df",
      "ed bc",
      "ed ac",
      "ed ca",
      "ed aa",
      "ed bae",
      "ip s",
      "pro f",
      "as on",
      "as sembl",
      "to ho",
      "to po",
      "to cdn",
      "to all",
      "ct ld",
      "ct ips",
      "ss ible",
      "id x",
      "id mp",
      "ou ji",
      "ee ce",
      "ee ba",
      "ee bc",
      "ee fc",
      "ee ae",
      "ee bf",
      "ee bd",
      "ee bb",
      "fffff efe",
      "fffff efa",
      "ml ink",
      "on ly",
      "on fp",
      "iar y",
      "st ro",
      "st and",
      "st un",
      "st ud",
      "st uff",
      "cess ive",
      "sy mlink",
      "ing o",
      "ab ed",
      "ab ef",
      "ab ea",
      "ab dd",
      "ab ca",
      "ne ts",
      "ne are",
      "re add",
      "re served",
      "re name",
      "re nc",
      "re tag",
      "re started",
      "re gctl",
      "re ason",
      "ef ad",
      "ef ddc",
      "ef ccc",
      "ef ccd",
      "ef bfe",
      "ef efe",
      "ef adf",
      "ef cda",
      "ef cdf",
      "ef edc",
      "ef bfc",
      "ef bfd",
      "ef edb",
      "ef ecf",
      "ef eea",
      "ef efd",
      "ef cca",
      "ef eef",
      "ef afb",
      "ef edd",
      "ef dcc",
      "ef baa",
      "ef eca",
      "ef bcb",
      "ef ecd",
      "ef eeb",
      "ef dca",
      "ef caf",
      "ef dea",
      "ef def",
      "ef cef",
      "ef eaa",
      "ef dfc",
      "ef deb",
      "ef dcf",
      "ef dda",
      "ef ddb",
      "ef caa",
      "ef ddd",
      "ef ddf",
      "ef daa",
      "ef daf",
      "ef ecb",
      "of da",
      "bl l",
      "bl as",
      "bl ime",
      "bl ast",
      "ting yun",
      "sym cd",
      "new si",
      "new mpi",
      "new kernel",
      "new comp",
      "new hack",
      "ase arch",
      "ido ud",
      "ad ce",
      "ad cb",
      "ad fa",
      "ad tech",
      "ad ingo",
      "um s",
      "part sn",
      "ut ion",
      "ut ime",
      "sh ouji",
      "le n",
      "le s",
      "le me",
      "le ve",
      "co sy",
      "te tsh",
      "ea de",
      "ea ce",
      "ea ec",
      "ea fc",
      "ea pp",
      "an com",
      "com mit",
      "me hu",
      "nt ry",
      "ma ke",
      "ma ccess",
      "ma keb",
      "ma llo",
      "ste xception",
      "ste pping",
      "is o",
      "dc u",
      "dc ce",
      "dc cd",
      "dc db",
      "dc df",
      "dc ae",
      "dc cf",
      "dc bd",
      "dc af",
      "dc cb",
      "dc aee",
      "fe ec",
      "fe ab",
      "fe ad",
      "fe bd",
      "fe ffe",
      "fe eds",
      "fe fffc",
      "fe tch",
      "li cate",
      "nodecard s",
      "system controller",
      "al err",
      "si wf",
      "si xgr",
      "cc r",
      "cc ab",
      "cc db",
      "cc be",
      "cc ac",
      "cc bd",
      "cc ca",
      "cc af",
      "cc fa",
      "cc sam",
      "cc yndm",
      "ge tr",
      "cd de",
      "cd ce",
      "cd be",
      "cd fbab",
      "tr ap",
      "tr ack",
      "dd de",
      "dd ab",
      "dd ad",
      "dd dd",
      "dd ba",
      "dd af",
      "dd abe",
      "ro cf",
      "ro ws",
      "ro cstar",
      "ba fc",
      "ba ae",
      "ba cb",
      "ba eb",
      "mi x",
      "mi cr",
      "mi ra",
      "db de",
      "db ea",
      "db cc",
      "db dd",
      "db sr",
      "db cr",
      "df de",
      "df ec",
      "df dc",
      "df ae",
      "df bf",
      "df cf",
      "df cb",
      "df dac",
      "df afa",
      "add a",
      "bc ab",
      "bc bc",
      "bc fc",
      "bc be",
      "bc bf",
      "bc ac",
      "bc aa",
      "da ea",
      "da af",
      "da fdc",
      "da abd",
      "da abe",
      "da fca",
      "fc ba",
      "fc bd",
      "fc bb",
      "fc ded",
      "fc fd",
      "fc fa",
      "fc fff",
      "fc fcc",
      "fc cec",
      "fc fcd",
      "fc bff",
      "fc bfe",
      "fc dec",
      "fc lick",
      "fc ffd",
      "fc bfb",
      "fc bfa",
      "fc bec",
      "fc ceb",
      "fc bde",
      "fc fcb",
      "fc bac",
      "fc cea",
      "fc baa",
      "fc dcd",
      "fc dca",
      "fc deb",
      "fc bcf",
      "fc beb",
      "fc bbb",
      "be ad",
      "be ba",
      "be bc",
      "be be",
      "be bf",
      "be bb",
      "be bfdc",
      "be gin",
      "ae de",
      "ae be",
      "ae bf",
      "ae bd",
      "ae bb",
      "ae ffa",
      "ae edf",
      "bf de",
      "bf ab",
      "bf cc",
      "bf da",
      "bf bf",
      "bf aa",
      "bf dac",
      "bf cefc",
      "bf baf",
      "ti mer",
      "ti mix",
      "ps g",
      "ac bd",
      "ac af",
      "ac fa",
      "ac cec",
      "ac cept",
      "cio db",
      "il iary",
      "cf g",
      "cf de",
      "cf ee",
      "cf bc",
      "cf ecf",
      "cf dddc",
      "cf loor",
      "lin fo",
      "rou nded",
      "time s",
      "time ofda",
      "open x",
      "bd de",
      "bd fe",
      "con st",
      "htt p",
      "ca de",
      "ca ea",
      "ca aa",
      "ca eeb",
      "ca ffee",
      "ca noni",
      "ca ching",
      "bb dc",
      "bb db",
      "bb bb",
      "bb ccf",
      "bb dee",
      "bb adbe",
      "af de",
      "af cc",
      "af db",
      "af bc",
      "af be",
      "af bd",
      "af abf",
      "am r",
      "cb de",
      "cb ad",
      "cb dd",
      "cb ba",
      "cb js",
      "cb rt",
      "linkcard s",
      "ir q",
      "ir ector",
      "map ping",
      "read v",
      "read block",
      "read link",
      "us age",
      "aa ee",
      "aa cd",
      "aa fc",
      "aa af",
      "aa abc",
      "aa pp",
      "corr upt",
      "fd de",
      "fd ffc",
      "fd ffffe",
      "mp xl",
      "mp ill",
      "mp leme",
      "eb ce",
      "eb ed",
      "eb bc",
      "eb eee",
      "eb bd",
      "ni ux",
      "addre sses",
      "su blime",
      "sc ancom",
      "dcr s",
      "ver bo",
      "pt arge",
      "pt login",
      "pt qlr",
      "val ues",
      "net dna",
      "gl p",
      "valid ate",
      "fa de",
      "fa ee",
      "fa ef",
      "fa ad",
      "fa ecd",
      "fa edbae",
      "conn ected",
      "sr ko",
      "over able",
      "bgl c",
      "bgl sys",
      "bgl ctl",
      "bgl personality",
      "ffffff d",
      "ffffff ee",
      "int f",
      "direct ories",
      "ex it",
      "ex ited",
      "ex cessive",
      "gle n",
      "fb de",
      "fb ec",
      "fb ef",
      "fb cd",
      "fb db",
      "fb fc",
      "fb be",
      "fb bf",
      "fb bae",
      "fail ures",
      "fee b",
      "fee aa",
      "image plus",
      "cr l",
      "pa vtrace",
      "ru les",
      "up mobile",
      "log file",
      "log ies",
      "log ical",
      "ww biz",
      "test long",
      "test scrip",
      "fea aa",
      "it z",
      "inter exception",
      "ap h",
      "ap u",
      "ap ac",
      "so on",
      "so pt",
      "uni t",
      "uni mpleme",
      "inst r",
      "ll ing",
      "ll po",
      "ll seek",
      "sp pmo",
      "mpi hpm",
      "ic bcast",
      "ddc a",
      "ddc b",
      "ddc d",
      "av n",
      "................ ....................",
      "................ .................",
      "................ ...............",
      "................ .............",
      "im s",
      "im tt",
      "sn an",
      "cn k",
      "cn cdn",
      "fcc a",
      "fcc de",
      "fcc ab",
      "fcc cd",
      "fcc dd",
      "fcc ba",
      "fcc df",
      "fcc be",
      "fcc ae",
      "fcc ac",
      "fcc bd",
      "fcc bb",
      "fcc af",
      "fcc aa",
      "fcc fd",
      "fcc fa",
      "fcc fb",
      "cmd line",
      "back gr",
      "ta u",
      "face e",
      "sen sor",
      "cec fc",
      "cac b",
      "ur sdo",
      "out stand",
      "po p",
      "po pt",
      "po ssible",
      "ob ar",
      "ffb de",
      "ffb ed",
      "ffb ab",
      "ffb fe",
      "ffb cc",
      "ffb db",
      "ffb bc",
      "ffb da",
      "ffb fc",
      "ffb be",
      "ffb bf",
      "ffb bd",
      "ffb ffbff",
      "wr ating",
      "hu cdn",
      "fcd ff",
      "fcd ce",
      "fcd ab",
      "fcd dc",
      "fcd fe",
      "fcd dd",
      "fcd db",
      "fcd be",
      "fcd ae",
      "fcd bd",
      "fcd af",
      "fcd aa",
      "fcd fd",
      "mb io",
      "img src",
      "img tn",
      "med al",
      "ubl ish",
      "fdfe abe",
      "fce ff",
      "fce ec",
      "fce ed",
      "fce ad",
      "fce fe",
      "fce cc",
      "fce cd",
      "fce db",
      "fce bc",
      "fce da",
      "fce be",
      "fce ae",
      "fce bf",
      "fce ca",
      "fce bb",
      "fce af",
      "fce fd",
      "fce eb",
      "ffa ff",
      "ffa de",
      "ffa ee",
      "ffa ab",
      "ffa ea",
      "ffa fe",
      "ffa cc",
      "ffa fc",
      "ffa ae",
      "ffa ac",
      "ffa af",
      "ccd n",
      "op timix",
      "target close",
      "qq web",
      "tag r",
      "cp gr",
      "un link",
      "un pk",
      "cdn js",
      "bff ee",
      "bff ea",
      "bff bc",
      "bff ac",
      "bff cf",
      "bff cbf",
      "bff dea",
      "micro loader",
      "bi ts",
      "efc fe",
      "efc be",
      "efc bb",
      "max bug",
      "long ca",
      "long long",
      "eff ab",
      "eff ef",
      "eff fe",
      "eff bc",
      "eff bd",
      "eff ca",
      "eff bb",
      "eff cb",
      "eff aa",
      "eff fd",
      "cs m",
      "xa ed",
      "internal api",
      "write v",
      "write log",
      "ffc de",
      "ffc bc",
      "ffc ae",
      "ffc bf",
      "ffc bd",
      "ffc bb",
      "modu lo",
      "xe qu",
      "cdc a",
      "cdc f",
      "efe ce",
      "efe ab",
      "efe bc",
      "efe bd",
      "efe bb",
      "pm gr",
      "ffd ce",
      "bee b",
      "bee aab",
      "ly jlu",
      "run recv",
      "eec b",
      "sin aapp",
      "fdf b",
      "fdf db",
      "fdf df",
      "fdf ae",
      "fdf ac",
      "xf ed",
      "xf efef",
      "rando maccess",
      "ace f",
      "ace bf",
      "bu sy",
      "bfc a",
      "bfc f",
      "bfc bd",
      "fl agg",
      "ade a",
      "mem test",
      "mem mon",
      "bfd ab",
      "bfb ec",
      "bfb ab",
      "cde a",
      "mini game",
      "bec b",
      "bec d",
      "bea c",
      "cab a",
      "mk dir",
      "align ed",
      "fdc ff",
      "xb be",
      "stre itz",
      "acc ad",
      "efb ef",
      "efb cc",
      "efb bc",
      "efb da",
      "efb be",
      "efb bd",
      "efd ff",
      "efd ce",
      "efd ab",
      "efd fe",
      "fcf ab",
      "fcf db",
      "fcf da",
      "fcf be",
      "fcf bf",
      "fcf bd",
      "fcf aa",
      "bde b",
      "bde f",
      "bde ce",
      "bde cc",
      "bde ae",
      "bde aa",
      "dr v",
      "all c",
      "all toall",
      "fcb ce",
      "fcb ab",
      "fcb dd",
      "fcb ba",
      "fcb df",
      "// /",
      "aef ee",
      "bg linfo",
      "bbc b",
      "fef ab",
      "fef cd",
      "fef cf",
      "fef eb",
      "fef afa",
      "fef abb",
      "rec overable",
      "thre aded",
      "........................ ..",
      "cfc a",
      "fbc beb",
      "xffff cb",
      "cce ea",
      "cce da",
      "cbc a",
      "nex age",
      "aab b",
      "aab f",
      "bdf c",
      "bdf ea",
      "ds lb",
      "ebc a",
      "fde f",
      "fde ad",
      "fec b",
      "fec fc",
      "opt aim",
      "qu iet",
      "che mbio",
      "control descriptor",
      "() '",
      "afc bf",
      "bcc ac",
      "dis connected",
      "ms ghdr",
      "ms gto",
      "pp cfloor",
      "xd cef",
      "contro lling",
      "clear port",
      "bba e",
      "bba de",
      "bda e",
      "bffe bcbe",
      "fda e",
      "fda ea",
      "initi al",
      "dca af",
      "get dropbox",
      "get gid",
      "get pid",
      "get uid",
      "get timeofda",
      "bcast v",
      "sub nets",
      "termin ated",
      "afe bf",
      "br k",
      "fab f",
      "fab ea",
      "fab dd",
      "fab da",
      "ia o",
      "initializ ation",
      "initializ eapp",
      "bef cc",
      "fdb b",
      "fdb df",
      "fdb bf",
      "fbb b",
      "aw qi",
      "aw renc",
      "bbe b",
      "cbe b",
      "eab f",
      "eab ea",
      "def bf",
      "cccc ccc",
      "cccc cccd",
      "tenmax img",
      "trello cdn",
      "ale amr",
      "sel ftest",
      "news app",
      "copro c",
      "page s",
      "dff acb",
      "dup licate",
      "red irector",
      "cj m",
      "fbf ee",
      "jeff greeno",
      "old kernel",
      "ul ative",
      "ul len",
      "di ed",
      "di gice",
      "lu ke",
      "lu idmp",
      "pw d",
      "yt nh",
      "ffbc a",
      "efdb b",
      "efdb d",
      "efdb e",
      "efdf b",
      "lib visus",
      "timg sa",
      "exec ution",
      "prefetch ing",
      "prefetch es",
      "ama ihd",
      "cl g",
      "cl k",
      "dba af",
      "fre ed",
      "imp act",
      "pk i",
      "rt b",
      "xbf aeb",
      "send packet",
      "send train",
      "send msgto",
      "efba f",
      "quant count",
      "socke texception",
      "bp net",
      "fo obar",
      "hang test",
      "rm w",
      "rm dir",
      "sl ave",
      "sl awrenc",
      "tur n",
      "xaa de",
      "xfffffe bc",
      "asia max",
      "efcb ad",
      "mul ti",
      "windo wsu",
      "refresh es",
      "idomarsh alerr",
      "ay oo",
      "dm w",
      "hel low",
      "ming xing",
      "pu ll",
      "pu ui",
      "sma ato",
      "tu al",
      "xfffff ef",
      "xfffff dc",
      "xda abe",
      "xbb hj",
      "order ing",
      "logo s",
      "efcf b",
      "bbde ba",
      "googletag services",
      "spec ulative",
      "creat ive",
      "stirtur bpnet",
      "verify stuff",
      "base line",
      "bdec ab",
      "dw are",
      "fr ee",
      "fr action",
      "gs lb",
      "iz xequ",
      "jy b",
      "jy lyjlu",
      "kk k",
      "nm jylyjlu",
      "qd un",
      "qi hucdn",
      "rss gov",
      "xfc ffd",
      "yes comm",
      "yes zerobytebug",
      "yuedu st",
      "idoms g",
      "idoms ghdr",
      "trapp ed",
      "trapp ing",
      "ddmd v",
      "fcbf abd",
      "bfee fe",
      "bfaf ec",
      "cloudf lare",
      "cloudf ron",
      "aaec ab",
      "host name",
      "poll controldescriptor",
      "show xml",
      "flush ing",
      "recv msghdr",
      "nosleep yescomm",
      "walk up",
      "mobile m",
      "ak amaihd",
      "aut orestart",
      "aux iliary",
      "bz clk",
      "batch files",
      "catch up",
      "dg test",
      "dh ptqlr",
      "dy na",
      "dsh ytnh",
      "dge mm",
      "dtr p",
      "ether net",
      "fin d",
      "gt ms",
      "gat her",
      "har dware",
      "hid den",
      "ile ged",
      "icb i",
      "icau h",
      "ieeec onfp",
      "jn g",
      "jr att",
      "kr com",
      "kiwi hk",
      "ln kck",
      "mmb iz",
      "nu llpo",
      "nce r",
      "nle v",
      "nms glen",
      "oad z",
      "pco okie",
      "pho tocdn",
      "ppl v",
      "qum ccyndm",
      "qbw up",
      "tlbe ntry",
      "vir tual",
      "watch dog",
      "wpen gine",
      "wbp ctips",
      "wtdt js",
      "xed cb",
      "xfffe ad",
      "xdr pj",
      "yre xdrpj",
      "yur i",
      "ffeeee fe",
      "fffb ccf",
      "ffdda ff",
      "argum ent",
      "nopr int",
      "nocomm nosleep",
      "noroute toho",
      "seti timer",
      "secur ity",
      "seque ncer",
      "inex act",
      "inform ation",
      "inject ion",
      "atall begin",
      "priv ileged",
      "assembl y",
      "topo logies",
      "ctld l",
      "stro be",
      "stud y",
      "neare st",
      "readd ir",
      "retag ging",
      "newsi mg",
      "idoud pmgr",
      "leve l",
      "tetsh hot",
      "mehu l",
      "makeb glp",
      "mallo c",
      "ccsam ef",
      "getr usage",
      "dddd ddd",
      "rocf luidmp",
      "micr on",
      "mira nova",
      "accept ance",
      "canoni cal",
      "fdffc be",
      "mpxl c",
      "niux iao",
      "sublime text",
      "verbo se",
      "ptarge tmgr",
      "srko dhptqlr",
      "bglctl pavtrace",
      "wwbiz api",
      "testscrip ts",
      "unimpleme nted",
      "sppmo pt",
      "backgr ound",
      "ursdo ccdn",
      "outstand ing",
      "ublish ing",
      "cpgr aph",
      "unpk g",
      "beeaab ff",
      "xfefef eff",
      "flagg ing",
      "gettimeofda y",
      "initializeapp memory",
      "awqi izxequ",
      "jeffgreeno ugh",
      "digice rt",
      "luke i",
      "sendmsgto debugger",
      "windowsu pdate",
      "idomarshalerr ecvbuffer",
      "xbbhj xc",
      "nmjylyjlu ykle",
      "cloudfron t",
      "pollcontroldescriptor s",
      "gather ing",
      "ieeeconfp ublishing",
      "nullpo interexception",
      "qumccyndm siwf",
      "noroutetoho stexception",
      "srkodhptqlr yvjp",
      "awqiizxequ sixgr"
    ]
  }
}