{
  "version": "1.0",
  "truncation": null,
  "padding": null,
  "added_tokens": [
    {
      "id": 0,
      "content": "<pad>",
      "single_word": false,
      "lstrip": false,
      "rstrip": false,
      "normalized": false,
      "special": true
    },
    {
      "id": 1,
      "content": "<unk>",
      "single_word": false,
      "lstrip": false,
      "rstrip": false,
      "normalized": false,
      "special": true
    },
    {
      "id": 2,
      "content": " ",
      "single_word": false,
      "lstrip": false,
      "rstrip": false,
      "normalized": false,
      "special": true
    }
  ],
  "normalizer": {
    "type": "Sequence",
    "normalizers": [
      {
        "type": "NFKC"
      },
      {
        "type": "Lowercase"
      }
    ]
  },
  "pre_tokenizer": {
    "type": "Sequence",
    "pretokenizers": [
      {
        "type": "Whitespace"
      },
      {
        "type": "ByteLevel",
        "add_prefix_space": false,
        "trim_offsets": true,
        "use_regex": true
      }
    ]
  },
  "post_processor": {
    "type": "ByteLevel",
    "add_prefix_space": true,
    "trim_offsets": false,
    "use_regex": true
  },
  "decoder": null,
  "model": {
    "type": "BPE",
    "dropout": null,
    "unk_token": null,
    "continuing_subword_prefix": null,
    "end_of_word_suffix": null,
    "fuse_unk": false,
    "byte_fallback": false,
    "ignore_merges": false,
    "vocab": {
      "<pad>": 0,
      "<unk>": 1,
      " ": 2,
      "!": 3,
      "#": 4,
      "$": 5,
      "%": 6,
      "&": 7,
      "'": 8,
      "(": 9,
      ")": 10,
      "*": 11,
      "+": 12,
      ",": 13,
      "-": 14,
      ".": 15,
      "/": 16,
      "9": 17,
      ":": 18,
      "=": 19,
      ">": 20,
      "?": 21,
      "[": 22,
      "]": 23,
      "_": 24,
      "`": 25,
      "a": 26,
      "b": 27,
      "c": 28,
      "d": 29,
      "e": 30,
      "f": 31,
      "g": 32,
      "h": 33,
      "i": 34,
      "j": 35,
      "k": 36,
      "l": 37,
      "m": 38,
      "n": 39,
      "o": 40,
      "p": 41,
      "q": 42,
      "r": 43,
      "s": 44,
      "t": 45,
      "u": 46,
      "v": 47,
      "w": 48,
      "x": 49,
      "y": 50,
      "z": 51,
      "|": 52,
      "99": 53,
      "9999": 54,
      "ff": 55,
      "99999999": 56,
      "ar": 57,
      "999": 58,
      "de": 59,
      "no": 60,
      "in": 61,
      "ce": 62,
      "car": 63,
      "card": 64,
      "se": 65,
      "ch": 66,
      "node": 67,
      "ec": 68,
      "at": 69,
      "ser": 70,
      "99999": 71,
      "),": 72,
      "9999999999999999": 73,
      "do": 74,
      "or": 75,
      "ffff": 76,
      "vp": 77,
      "vpd": 78,
      "pr": 79,
      "ip": 80,
      "as": 81,
      "ss": 82,
      "ct": 83,
      "nd": 84,
      "par": 85,
      "ee": 86,
      "ml": 87,
      "fffff": 88,
      "vi": 89,
      "vice": 90,
      "service": 91,
      "lo": 92,
      "999999999999999999999999": 93,
      "pro": 94,
      "ed": 95,
      "dear": 96,
      "iar": 97,
      "id": 98,
      "eck": 99,
      "cess": 100,
      "check": 101,
      "process": 102,
      "processor": 103,
      "ecid": 104,
      "slo": 105,
      "slot": 106,
      "not": 107,
      "ou": 108,
      "atch": 109,
      "ound": 110,
      "found": 111,
      "match": 112,
      "999999": 113,
      "io": 114,
      "ted": 115,
      "ba": 116,
      "ne": 117,
      "ing": 118,
      "ef": 119,
      "sy": 120,
      "th": 121,
      "sym": 122,
      "ion": 123,
      "ask": 124,
      "mask": 125,
      "dat": 126,
      "to": 127,
      "data": 128,
      "the": 129,
      "ido": 130,
      "pe": 131,
      "new": 132,
      "serted": 133,
      "chip": 134,
      "into": 135,
      "base": 136,
      "database": 137,
      "inserted": 138,
      "um": 139,
      "ction": 140,
      "num": 141,
      "ty": 142,
      "of": 143,
      "pre": 144,
      "999999999999999999999999999": 145,
      "ut": 146,
      "orservice": 147,
      "paref": 148,
      "preparef": 149,
      "prepareforservice": 150,
      "))": 151,
      "mcard": 152,
      "sernum": 153,
      "ctn": 154,
      "mlctn": 155,
      "mcardsernum": 156,
      "part": 157,
      "type": 158,
      "mip": 159,
      "mtype": 160,
      "mlp": 161,
      "sh": 162,
      "action": 163,
      "ting": 164,
      "wn": 165,
      "down": 166,
      "shut": 167,
      "shutting": 168,
      "9999999999999999999999999999": 169,
      "..": 170,
      "99999999999999": 171,
      "er": 172,
      "ea": 173,
      "dd": 174,
      "bffff": 175,
      "dc": 176,
      "nodecard": 177,
      "eeee": 178,
      "cc": 179,
      "ca": 180,
      "re": 181,
      "ffffffff": 182,
      "db": 183,
      "da": 184,
      "df": 185,
      "....": 186,
      "9999999": 187,
      "fpr": 188,
      "le": 189,
      "err": 190,
      "fc": 191,
      "bc": 192,
      "ected": 193,
      "bf": 194,
      "ae": 195,
      "st": 196,
      "error": 197,
      "ad": 198,
      "be": 199,
      "cd": 200,
      "ra": 201,
      "cio": 202,
      "ciod": 203,
      "cf": 204,
      "al": 205,
      "eee": 206,
      "ac": 207,
      "co": 208,
      "eeeeeee": 209,
      "bb": 210,
      "cor": 211,
      "lin": 212,
      "mi": 213,
      "bd": 214,
      "fi": 215,
      "file": 216,
      "ge": 217,
      "ver": 218,
      "tor": 219,
      "af": 220,
      "link": 221,
      "is": 222,
      "ma": 223,
      "ab": 224,
      "cb": 225,
      "linkcard": 226,
      "miss": 227,
      "aa": 228,
      "ram": 229,
      "9999999999999": 230,
      "di": 231,
      "det": 232,
      "detected": 233,
      "dir": 234,
      "me": 235,
      "corr": 236,
      "fa": 237,
      "add": 238,
      "and": 239,
      "gram": 240,
      "program": 241,
      "........": 242,
      "corrected": 243,
      "eb": 244,
      "addre": 245,
      "address": 246,
      "missing": 247,
      "cond": 248,
      "gl": 249,
      "second": 250,
      "seconds": 251,
      "dcr": 252,
      "us": 253,
      "xffffffff": 254,
      "on": 255,
      "bgl": 256,
      "fe": 257,
      "fd": 258,
      "over": 259,
      "ro": 260,
      "su": 261,
      "ector": 262,
      "director": 263,
      "directory": 264,
      "for": 265,
      "te": 266,
      "il": 267,
      "such": 268,
      "nt": 269,
      "rece": 270,
      "cr": 271,
      "stat": 272,
      "recei": 273,
      "sw": 274,
      "fb": 275,
      "rat": 276,
      "val": 277,
      "torus": 278,
      "99999999999": 279,
      "valid": 280,
      "invalid": 281,
      "by": 282,
      "load": 283,
      "ima": 284,
      "image": 285,
      "loading": 286,
      "fee": 287,
      "core": 288,
      "map": 289,
      "ll": 290,
      "gene": 291,
      "mp": 292,
      "receiver": 293,
      "nc": 294,
      "fea": 295,
      "generat": 296,
      "ho": 297,
      "files": 298,
      "pt": 299,
      "ru": 300,
      "fail": 301,
      "generated": 302,
      "ran": 303,
      "test": 304,
      "home": 305,
      "being": 306,
      "na": 307,
      "this": 308,
      "done": 309,
      "it": 310,
      "ddr": 311,
      "lr": 312,
      "per": 313,
      "inst": 314,
      "nf": 315,
      "put": 316,
      "failed": 317,
      "input": 318,
      "ol": 319,
      "fff": 320,
      "log": 321,
      "pp": 322,
      "der": 323,
      "nb": 324,
      "ig": 325,
      "ruction": 326,
      "instruction": 327,
      "swl": 328,
      "ctr": 329,
      "mission": 330,
      "un": 331,
      "xer": 332,
      "ex": 333,
      "pip": 334,
      "call": 335,
      "pipe": 336,
      "calls": 337,
      "ot": 338,
      "999999999": 339,
      "ddc": 340,
      "ve": 341,
      "chdir": 342,
      "login": 343,
      "................": 344,
      "(/": 345,
      "state": 346,
      "sys": 347,
      "rom": 348,
      "root": 349,
      "gb": 350,
      "code": 351,
      "from": 352,
      "od": 353,
      "int": 354,
      "go": 355,
      "ign": 356,
      "ke": 357,
      "age": 358,
      "es": 359,
      "ts": 360,
      "status": 361,
      "alle": 362,
      "ddcm": 363,
      "tr": 364,
      "pps": 365,
      "ber": 366,
      "fcc": 367,
      "apps": 368,
      "ffe": 369,
      "ses": 370,
      "ssage": 371,
      "message": 372,
      "eep": 373,
      "exce": 374,
      "ial": 375,
      "cec": 376,
      "good": 377,
      "ck": 378,
      "sen": 379,
      "cases": 380,
      "sweep": 381,
      "bol": 382,
      "symbol": 383,
      "able": 384,
      "mpi": 385,
      "scr": 386,
      "--": 387,
      "pl": 388,
      "tran": 389,
      "ur": 390,
      "ect": 391,
      "ating": 392,
      "cac": 393,
      "rank": 394,
      "trans": 395,
      "nch": 396,
      "pa": 397,
      "pas": 398,
      "tree": 399,
      "sender": 400,
      "number": 401,
      "retrans": 402,
      "retransmission": 403,
      "ni": 404,
      "cal": 405,
      "ption": 406,
      "ket": 407,
      "9999999999": 408,
      "spe": 409,
      "pac": 410,
      "sign": 411,
      "up": 412,
      "eve": 413,
      "ffa": 414,
      "synch": 415,
      "event": 416,
      "mc": 417,
      "ced": 418,
      "its": 419,
      "signal": 420,
      "bw": 421,
      "gi": 422,
      "sr": 423,
      "ti": 424,
      "mpits": 425,
      "allen": 426,
      "bwallen": 427,
      "ker": 428,
      "ib": 429,
      "serial": 430,
      "ipaddress": 431,
      "serialnumber": 432,
      "spas": 433,
      "spasm": 434,
      "nel": 435,
      "ccc": 436,
      "packet": 437,
      "sof": 438,
      "xc": 439,
      "deni": 440,
      "regi": 441,
      "ster": 442,
      "feea": 443,
      "feaa": 444,
      "testcases": 445,
      "permission": 446,
      "denied": 447,
      "register": 448,
      "fun": 449,
      "kin": 450,
      "ffb": 451,
      "pakin": 452,
      "kernel": 453,
      "ader": 454,
      "fce": 455,
      "ger": 456,
      "upt": 457,
      "lock": 458,
      "ccd": 459,
      "function": 460,
      "po": 461,
      "theader": 462,
      "errupt": 463,
      "interrupt": 464,
      "ddcmd": 465,
      "softheader": 466,
      "ic": 467,
      "ical": 468,
      "ffc": 469,
      "line": 470,
      "scratch": 471,
      "ag": 472,
      "an": 473,
      "act": 474,
      "bglscratch": 475,
      "syscalls": 476,
      "tal": 477,
      "edram": 478,
      "efc": 479,
      "total": 480,
      "ibm": 481,
      "functional": 482,
      "li": 483,
      "efe": 484,
      "rts": 485,
      "src": 486,
      "./": 487,
      "mid": 488,
      "tag": 489,
      "adb": 490,
      "ity": 491,
      "jtag": 492,
      "lce": 493,
      "xy": 494,
      "perfor": 495,
      "spelce": 496,
      "acti": 497,
      "ane": 498,
      "xa": 499,
      "ffd": 500,
      "plane": 501,
      "midplane": 502,
      "cre": 503,
      "cdb": 504,
      "cdf": 505,
      "creating": 506,
      "cda": 507,
      "bad": 508,
      "com": 509,
      "adf": 510,
      "cro": 511,
      "hy": 512,
      "im": 513,
      "ns": 514,
      "ate": 515,
      "micro": 516,
      "correct": 517,
      "exception": 518,
      "adc": 519,
      "ble": 520,
      "cdc": 521,
      "end": 522,
      "med": 523,
      "ved": 524,
      "...": 525,
      "microseconds": 526,
      "rea": 527,
      "ue": 528,
      "wi": 529,
      "dec": 530,
      "serviceaction": 531,
      "errno": 532,
      "received": 533,
      "correctable": 534,
      "endserviceaction": 535,
      "phy": 536,
      "bfe": 537,
      "gooding": 538,
      "ada": 539,
      "bff": 540,
      "eff": 541,
      "eds": 542,
      "rap": 543,
      "exceeds": 544,
      "hp": 545,
      "ir": 546,
      "time": 547,
      "xyz": 548,
      "bin": 549,
      "block": 550,
      "cp": 551,
      "eec": 552,
      "spp": 553,
      "ord": 554,
      "low": 555,
      "upon": 556,
      "performed": 557,
      "raptor": 558,
      "hpcc": 559,
      "sppm": 560,
      "fdf": 561,
      "ure": 562,
      "xyzt": 563,
      "aec": 564,
      "bfc": 565,
      "glo": 566,
      "vn": 567,
      "edc": 568,
      "fcd": 569,
      "bee": 570,
      "fu": 571,
      "ug": 572,
      "xe": 573,
      "inf": 574,
      "perat": 575,
      "cad": 576,
      "dbgl": 577,
      "tests": 578,
      "ddcmdbgl": 579,
      "ddcmdbglv": 580,
      "fl": 581,
      "sical": 582,
      "inate": 583,
      "coord": 584,
      "dime": 585,
      "nsion": 586,
      "physical": 587,
      "coordinate": 588,
      "dimension": 589,
      "ecc": 590,
      "bfd": 591,
      "star": 592,
      "man": 593,
      "ade": 594,
      "cde": 595,
      "sli": 596,
      "cee": 597,
      "ation": 598,
      "req": 599,
      "bfa": 600,
      "bfb": 601,
      "glosli": 602,
      "cdd": 603,
      "va": 604,
      "ceb": 605,
      "out": 606,
      "cont": 607,
      "comm": 608,
      "ace": 609,
      "bec": 610,
      "big": 611,
      "ede": 612,
      "ht": 613,
      "md": 614,
      "mk": 615,
      "xb": 616,
      "xf": 617,
      "ash": 618,
      "align": 619,
      "get": 620,
      "............": 621,
      "flash": 622,
      "aee": 623,
      "en": 624,
      "flo": 625,
      "fdc": 626,
      "mmi": 627,
      "uir": 628,
      "xffff": 629,
      "ecf": 630,
      "server": 631,
      "ort": 632,
      "parity": 633,
      "edb": 634,
      "bac": 635,
      "ccb": 636,
      "ment": 637,
      "run": 638,
      "failing": 639,
      "active": 640,
      "with": 641,
      "requir": 642,
      "alignment": 643,
      "required": 644,
      "aea": 645,
      "bde": 646,
      "fol": 647,
      "has": 648,
      "jmc": 649,
      "lts": 650,
      "mar": 651,
      "port": 652,
      "pjmc": 653,
      "cart": 654,
      "paralle": 655,
      "eea": 656,
      "ccf": 657,
      "resu": 658,
      "fcf": 659,
      "imb": 660,
      "read": 661,
      "pjmccart": 662,
      "parallel": 663,
      "results": 664,
      "bl": 665,
      "mperat": 666,
      "ine": 667,
      "chine": 668,
      "dom": 669,
      "nda": 670,
      "efb": 671,
      "efd": 672,
      "cca": 673,
      "fcb": 674,
      "gent": 675,
      "machine": 676,
      "temperat": 677,
      "random": 678,
      "urgent": 679,
      "point": 680,
      "contro": 681,
      "follow": 682,
      "temperature": 683,
      "cur": 684,
      "iz": 685,
      "latch": 686,
      "ok": 687,
      "asserted": 688,
      "proper": 689,
      "ount": 690,
      "res": 691,
      "dac": 692,
      "fefff": 693,
      "ller": 694,
      "unic": 695,
      "ties": 696,
      "ang": 697,
      "exceptions": 698,
      "communic": 699,
      "followup": 700,
      "properties": 701,
      "//": 702,
      "aed": 703,
      "aef": 704,
      "acc": 705,
      "ku": 706,
      "min": 707,
      "ter": 708,
      "ffea": 709,
      "ffffffe": 710,
      "eef": 711,
      "edf": 712,
      "aeb": 713,
      "all": 714,
      "max": 715,
      "........................": 716,
      "german": 717,
      "interrupts": 718,
      "vnm": 719,
      "func": 720,
      "germann": 721,
      "ava": 722,
      "fef": 723,
      "java": 724,
      "deb": 725,
      "cea": 726,
      "eda": 727,
      "cable": 728,
      "dbc": 729,
      "afa": 730,
      "crit": 731,
      "spent": 732,
      "activ": 733,
      "been": 734,
      "critical": 735,
      "::": 736,
      "bea": 737,
      "bbc": 738,
      "bit": 739,
      "fbc": 740,
      "mo": 741,
      "mmc": 742,
      "opt": 743,
      "ri": 744,
      "use": 745,
      "wer": 746,
      "ffaa": 747,
      "device": 748,
      "doe": 749,
      "vpes": 750,
      "efa": 751,
      "rese": 752,
      "acb": 753,
      "cop": 754,
      "mira": 755,
      "afb": 756,
      "mem": 757,
      "tes": 758,
      "power": 759,
      "cpmd": 760,
      "mmcs": 761,
      "ap": 762,
      "abd": 763,
      "bdf": 764,
      "cce": 765,
      "cfc": 766,
      "ms": 767,
      "mount": 768,
      "rec": 769,
      "edd": 770,
      "cab": 771,
      "dad": 772,
      "stab": 773,
      "errors": 774,
      "dirs": 775,
      "ille": 776,
      "perf": 777,
      "floating": 778,
      "blue": 779,
      "miranda": 780,
      "abe": 781,
      "aac": 782,
      "bba": 783,
      "cbc": 784,
      "el": 785,
      "ebc": 786,
      "fec": 787,
      "fac": 788,
      "lang": 789,
      "xce": 790,
      "arget": 791,
      "init": 792,
      "che": 793,
      "eca": 794,
      "ated": 795,
      "fffffff": 796,
      "baa": 797,
      "prep": 798,
      "eac": 799,
      "dcc": 800,
      "rent": 801,
      "aler": 802,
      "bglio": 803,
      "registers": 804,
      "current": 805,
      "communication": 806,
      "reset": 807,
      "()": 808,
      "afc": 809,
      "bu": 810,
      "bdc": 811,
      "bda": 812,
      "clock": 813,
      "dr": 814,
      "gal": 815,
      "hi": 816,
      "ij": 817,
      "ly": 818,
      "nect": 819,
      "rce": 820,
      "target": 821,
      "was": 822,
      "whi": 823,
      "xd": 824,
      "deactiv": 825,
      "ory": 826,
      "eeb": 827,
      "eed": 828,
      "ource": 829,
      "dcd": 830,
      "caf": 831,
      "resh": 832,
      "bcb": 833,
      "con": 834,
      "coll": 835,
      "aaa": 836,
      "old": 837,
      "started": 838,
      "mini": 839,
      "memory": 840,
      "illegal": 841,
      "xception": 842,
      "deactivated": 843,
      "acd": 844,
      "cle": 845,
      "cbb": 846,
      "fp": 847,
      "fae": 848,
      "gr": 849,
      "ike": 850,
      "pgood": 851,
      "sram": 852,
      "ulr": 853,
      "vol": 854,
      "are": 855,
      "ecd": 856,
      "ates": 857,
      "eexception": 858,
      "too": 859,
      "caug": 860,
      "rail": 861,
      "ility": 862,
      "stateexception": 863,
      "mpgood": 864,
      "....................": 865,
      "ance": 866,
      "stability": 867,
      "currently": 868,
      "illegalstateexception": 869,
      "clear": 870,
      "ulrike": 871,
      "volt": 872,
      "caught": 873,
      "aba": 874,
      "aca": 875,
      "abc": 876,
      "aae": 877,
      "acf": 878,
      "aab": 879,
      "bo": 880,
      "bs": 881,
      "beck": 882,
      "bcc": 883,
      "dur": 884,
      "ece": 885,
      "ebe": 886,
      "hand": 887,
      "iku": 888,
      "lu": 889,
      "ler": 890,
      "rbs": 891,
      "sing": 892,
      "sle": 893,
      "yates": 894,
      "orbeck": 895,
      "eer": 896,
      "umt": 897,
      "eae": 898,
      "dca": 899,
      "afd": 900,
      "mana": 901,
      "static": 902,
      "instance": 903,
      "going": 904,
      "imum": 905,
      "wires": 906,
      "enable": 907,
      "controller": 908,
      "maximum": 909,
      "tested": 910,
      "initial": 911,
      "during": 912,
      "handler": 913,
      "ikuo": 914,
      "single": 915,
      "manager": 916,
      "cbf": 917,
      "dce": 918,
      "ebd": 919,
      "fde": 920,
      "so": 921,
      "source": 922,
      "ul": 923,
      "wor": 924,
      "ded": 925,
      "chcontroller": 926,
      "aeger": 927,
      "swit": 928,
      "midplaneswit": 929,
      "draeger": 930,
      "box": 931,
      "initializ": 932,
      "work": 933,
      "midplaneswitchcontroller": 934,
      "bef": 935,
      "bbe": 936,
      "ebf": 937,
      "fdd": 938,
      "fdb": 939,
      "fbb": 940,
      "fbd": 941,
      "fab": 942,
      "hpl": 943,
      "ime": 944,
      "lig": 945,
      "mer": 946,
      "mdc": 947,
      "msr": 948,
      "sum": 949,
      "sod": 950,
      "user": 951,
      "zer": 952,
      "dee": 953,
      "deve": 954,
      "cecc": 955,
      "sert": 956,
      "ffffff": 957,
      "assert": 958,
      "edu": 959,
      "bae": 960,
      "thresh": 961,
      "../": 962,
      "eaa": 963,
      "cae": 964,
      "cache": 965,
      "daf": 966,
      "strea": 967,
      "steer": 968,
      "copro": 969,
      "exe": 970,
      "esr": 971,
      "timeout": 972,
      "info": 973,
      "mary": 974,
      "fpscr": 975,
      "ulrikey": 976,
      "soc": 977,
      "light": 978,
      "mdcask": 979,
      "summary": 980,
      "zero": 981,
      "threshold": 982,
      "stream": 983,
      "://": 984,
      "br": 985,
      "bdb": 986,
      "cbe": 987,
      "fba": 988,
      "lp": 989,
      "ock": 990,
      "uble": 991,
      "dea": 992,
      "def": 993,
      "non": 994,
      "cef": 995,
      "double": 996,
      "shock": 997,
      "erno": 998,
      "eab": 999,
      "ddb": 1000,
      "ccce": 1001,
      "cccc": 1002,
      "cccd": 1003,
      "caa": 1004,
      "dfc": 1005,
      "cfd": 1006,
      "cfe": 1007,
      "afe": 1008,
      "mand": 1009,
      "onnect": 1010,
      "ntime": 1011,
      "runtime": 1012,
      "blocks": 1013,
      "full": 1014,
      "inferno": 1015,
      "mode": 1016,
      "reconnect": 1017,
      "bluelight": 1018,
      "while": 1019,
      "initializing": 1020,
      "socket": 1021,
      "aad": 1022,
      "abb": 1023,
      "ams": 1024,
      "cba": 1025,
      "cmc": 1026,
      "ds": 1027,
      "dde": 1028,
      "fca": 1029,
      "fcac": 1030,
      "hum": 1031,
      "mb": 1032,
      "ope": 1033,
      "rfi": 1034,
      "wil": 1035,
      "des": 1036,
      "cece": 1037,
      "sel": 1038,
      "vicar": 1039,
      "loc": 1040,
      "proxy": 1041,
      "proble": 1042,
      "iolog": 1043,
      "idoproxy": 1044,
      "pes": 1045,
      "sher": 1046,
      "dda": 1047,
      "ddd": 1048,
      "dcf": 1049,
      "cacc": 1050,
      "dbproperties": 1051,
      "daa": 1052,
      "bcd": 1053,
      "ste": 1054,
      "stre": 1055,
      "bbd": 1056,
      "vers": 1057,
      "reception": 1058,
      "nfs": 1059,
      "logs": 1060,
      "pap": 1061,
      "liams": 1062,
      "usedatabase": 1063,
      "brdes": 1064,
      "hummer": 1065,
      "open": 1066,
      "rfisher": 1067,
      "williams": 1068,
      "ame": 1069,
      "bce": 1070,
      "bed": 1071,
      "bmi": 1072,
      "dp": 1073,
      "dff": 1074,
      "dis": 1075,
      "eba": 1076,
      "fed": 1077,
      "fda": 1078,
      "fad": 1079,
      "gh": 1080,
      "ix": 1081,
      "jeff": 1082,
      "kpt": 1083,
      "mme": 1084,
      "operat": 1085,
      "redu": 1086,
      "sca": 1087,
      "tra": 1088,
      "ux": 1089,
      "wri": 1090,
      "xl": 1091,
      "ying": 1092,
      "cecb": 1093,
      "chkpt": 1094,
      "bab": 1095,
      "typas": 1096,
      "ofdir": 1097,
      "eaf": 1098,
      "ddf": 1099,
      "retr": 1100,
      "dfe": 1101,
      "bcf": 1102,
      "cfa": 1103,
      "access": 1104,
      "comp": 1105,
      "mit": 1106,
      "may": 1107,
      "feff": 1108,
      "crc": 1109,
      "homme": 1110,
      "untested": 1111,
      ".................": 1112,
      "scrip": 1113,
      "antypas": 1114,
      "performan": 1115,
      "cdbc": 1116,
      "...............": 1117,
      "control": 1118,
      "debug": 1119,
      "alert": 1120,
      "lustre": 1121,
      "slept": 1122,
      "userfunc": 1123,
      "devel": 1124,
      "steering": 1125,
      "select": 1126,
      "bmiller": 1127,
      "operation": 1128,
      "write": 1129,
      "ofdirty": 1130,
      "retrying": 1131,
      "performance": 1132,
      "ause": 1133,
      "but": 1134,
      "bdd": 1135,
      "bot": 1136,
      "cj": 1137,
      "cx": 1138,
      "fbf": 1139,
      "fbe": 1140,
      "hn": 1141,
      "la": 1142,
      "lto": 1143,
      "mu": 1144,
      "mon": 1145,
      "mod": 1146,
      "sto": 1147,
      "sol": 1148,
      "tch": 1149,
      "xfffff": 1150,
      "descrip": 1151,
      "cedc": 1152,
      "cebc": 1153,
      "ore": 1154,
      "asic": 1155,
      "eeno": 1156,
      "net": 1157,
      "nex": 1158,
      "efdc": 1159,
      "efdb": 1160,
      "tomand": 1161,
      "ccdc": 1162,
      "capt": 1163,
      "dbf": 1164,
      "dae": 1165,
      "dahn": 1166,
      "letest": 1167,
      "str": 1168,
      "beb": 1169,
      "cons": 1170,
      ".........": 1171,
      "tech": 1172,
      "temp": 1173,
      "uncorrectable": 1174,
      "caltech": 1175,
      "pack": 1176,
      "linear": 1177,
      "limit": 1178,
      "cdfc": 1179,
      "start": 1180,
      "kubot": 1181,
      "bluegene": 1182,
      "buber": 1183,
      "greeno": 1184,
      "dsmc": 1185,
      "idoproxydb": 1186,
      "disable": 1187,
      "scaletest": 1188,
      "auselto": 1189,
      "cxx": 1190,
      "solvers": 1191,
      "descriptor": 1192,
      "tomandjeff": 1193,
      "capture": 1194,
      "kubota": 1195,
      "auselton": 1196,
      "adec": 1197,
      "cat": 1198,
      "cdec": 1199,
      "dty": 1200,
      "faa": 1201,
      "hw": 1202,
      "hac": 1203,
      "jgh": 1204,
      "kb": 1205,
      "ky": 1206,
      "mas": 1207,
      "mgr": 1208,
      "nal": 1209,
      "pw": 1210,
      "qb": 1211,
      "que": 1212,
      "qbox": 1213,
      "rm": 1214,
      "rst": 1215,
      "rit": 1216,
      "rky": 1217,
      "scal": 1218,
      "scat": 1219,
      "wel": 1220,
      "writ": 1221,
      "ffca": 1222,
      "dev": 1223,
      "dedc": 1224,
      "deac": 1225,
      "sent": 1226,
      "ffffc": 1227,
      "pref": 1228,
      "prefe": 1229,
      "ast": 1230,
      "ndy": 1231,
      "pare": 1232,
      "efda": 1233,
      "efdf": 1234,
      "efcd": 1235,
      "press": 1236,
      "shutdown": 1237,
      "ddbc": 1238,
      "ccfc": 1239,
      "cada": 1240,
      "rel": 1241,
      "......": 1242,
      "lete": 1243,
      "fcdc": 1244,
      "bfdc": 1245,
      "store": 1246,
      "ben": 1247,
      "bench": 1248,
      "ciostream": 1249,
      "come": 1250,
      "bbb": 1251,
      "lines": 1252,
      "first": 1253,
      "mail": 1254,
      "bglmas": 1255,
      "form": 1256,
      "ten": 1257,
      "mapfile": 1258,
      "lla": 1259,
      "testqbox": 1260,
      "ition": 1261,
      "exec": 1262,
      "plb": 1263,
      "jtagid": 1264,
      "compare": 1265,
      "cdcc": 1266,
      ".............": 1267,
      "env": 1268,
      "serverdb": 1269,
      "parityalignment": 1270,
      "mark": 1271,
      ".........................": 1272,
      "apc": 1273,
      "miniben": 1274,
      "sodscal": 1275,
      "location": 1276,
      "problem": 1277,
      "stella": 1278,
      "opening": 1279,
      "complete": 1280,
      "feffed": 1281,
      "hommes": 1282,
      "debugger": 1283,
      "cjmu": 1284,
      "dtyp": 1285,
      "hack": 1286,
      "scatter": 1287,
      "welcome": 1288,
      "written": 1289,
      "prefix": 1290,
      "prefetch": 1291,
      "benchmark": 1292,
      "mailbox": 1293,
      "bglmaster": 1294,
      "sodscaling": 1295,
      "cjmundy": 1296,
      "abf": 1297,
      "aaf": 1298,
      "bro": 1299,
      "clo": 1300,
      "cbd": 1301,
      "cddc": 1302,
      "ccec": 1303,
      "dba": 1304,
      "dup": 1305,
      "ddec": 1306,
      "ebb": 1307,
      "fcec": 1308,
      "hang": 1309,
      "iwhi": 1310,
      "jul": 1311,
      "pected": 1312,
      "round": 1313,
      "siz": 1314,
      "same": 1315,
      "tun": 1316,
      "unex": 1317,
      "we": 1318,
      "xbf": 1319,
      "xhpl": 1320,
      "fft": 1321,
      "ffer": 1322,
      "ffbc": 1323,
      "decd": 1324,
      "incomplete": 1325,
      "ceec": 1326,
      "cardsto": 1327,
      "send": 1328,
      "chcardsto": 1329,
      "ecb": 1330,
      "baf": 1331,
      "baker": 1332,
      "efde": 1333,
      "efea": 1334,
      "efcc": 1335,
      "efbc": 1336,
      "ead": 1337,
      "dddc": 1338,
      "dccc": 1339,
      "dcfc": 1340,
      "cccb": 1341,
      "caca": 1342,
      "dbe": 1343,
      "dbg": 1344,
      "dab": 1345,
      "fcbc": 1346,
      "acdc": 1347,
      "linux": 1348,
      "linpack": 1349,
      "abl": 1350,
      "addc": 1351,
      "addr": 1352,
      "roff": 1353,
      "ild": 1354,
      "generating": 1355,
      "name": 1356,
      "ppc": 1357,
      "..................": 1358,
      "...................": 1359,
      "romio": 1360,
      "codes": 1361,
      "inter": 1362,
      "ages": 1363,
      "tsch": 1364,
      "bertsch": 1365,
      "fccc": 1366,
      "ible": 1367,
      "cdac": 1368,
      "adcc": 1369,
      "fdfa": 1370,
      "fdfc": 1371,
      "starting": 1372,
      "..............": 1373,
      "enabl": 1374,
      "xffffc": 1375,
      "ready": 1376,
      "reading": 1377,
      "ndant": 1378,
      "communicating": 1379,
      "...........................": 1380,
      "testing": 1381,
      "alerts": 1382,
      "buffer": 1383,
      "nection": 1384,
      "connection": 1385,
      ".....................": 1386,
      "sles": 1387,
      "fulltest": 1388,
      "fady": 1389,
      "redundant": 1390,
      "pwroff": 1391,
      "format": 1392,
      "close": 1393,
      "iwhichcardsto": 1394,
      "size": 1395,
      "tuned": 1396,
      "unexpected": 1397,
      "iwhichcardstopwroff": 1398,
      "/)": 1399,
      "/../": 1400,
      "==": 1401,
      "am": 1402,
      "aver": 1403,
      "bca": 1404,
      "bis": 1405,
      "bffc": 1406,
      "cs": 1407,
      "cff": 1408,
      "cpp": 1409,
      "count": 1410,
      "dcec": 1411,
      "ess": 1412,
      "eof": 1413,
      "efff": 1414,
      "effa": 1415,
      "ewe": 1416,
      "fg": 1417,
      "fm": 1418,
      "faf": 1419,
      "feb": 1420,
      "fced": 1421,
      "gu": 1422,
      "gni": 1423,
      "hit": 1424,
      "itor": 1425,
      "kmap": 1426,
      "lb": 1427,
      "lw": 1428,
      "lib": 1429,
      "my": 1430,
      "mul": 1431,
      "ng": 1432,
      "nk": 1433,
      "ob": 1434,
      "ole": 1435,
      "ogni": 1436,
      "pur": 1437,
      "rt": 1438,
      "ref": 1439,
      "sses": 1440,
      "sic": 1441,
      "ta": 1442,
      "tx": 1443,
      "tadd": 1444,
      "table": 1445,
      "tur": 1446,
      "tue": 1447,
      "vx": 1448,
      "xaa": 1449,
      "yun": 1450,
      "ygi": 1451,
      "zed": 1452,
      "ffdc": 1453,
      "fffc": 1454,
      "ffac": 1455,
      "ffcb": 1456,
      "ard": 1457,
      "demo": 1458,
      "norm": 1459,
      "cefc": 1460,
      "cebf": 1461,
      "cecf": 1462,
      "ceac": 1463,
      "parmd": 1464,
      "loewe": 1465,
      "efce": 1466,
      "efec": 1467,
      "efed": 1468,
      "efba": 1469,
      "efca": 1470,
      "efcf": 1471,
      "idos": 1472,
      "idochip": 1473,
      "idomar": 1474,
      "ump": 1475,
      "partad": 1476,
      "ddcc": 1477,
      "dcb": 1478,
      "dcdc": 1479,
      "dcbc": 1480,
      "cace": 1481,
      "cabc": 1482,
      "cacf": 1483,
      "rever": 1484,
      "restarting": 1485,
      "dbd": 1486,
      "dblw": 1487,
      "dace": 1488,
      "daec": 1489,
      "dfa": 1490,
      "dfd": 1491,
      "dfcc": 1492,
      "dfbc": 1493,
      ".....": 1494,
      ".......": 1495,
      "fcde": 1496,
      "bfec": 1497,
      "ral": 1498,
      "aliz": 1499,
      "acbc": 1500,
      "condition": 1501,
      "ong": 1502,
      "bglidochip": 1503,
      "tent": 1504,
      "ill": 1505,
      "llap": 1506,
      "general": 1507,
      "mps": 1508,
      "pping": 1509,
      "under": 1510,
      "unable": 1511,
      "unrec": 1512,
      "express": 1513,
      "ken": 1514,
      "mpich": 1515,
      "-->": 1516,
      "plus": 1517,
      "treeaddr": 1518,
      "niel": 1519,
      "fcea": 1520,
      "fceb": 1521,
      "pose": 1522,
      "efeff": 1523,
      "adbc": 1524,
      "adac": 1525,
      "cpu": 1526,
      "fdcc": 1527,
      "minus": 1528,
      "activating": 1529,
      "river": 1530,
      "confi": 1531,
      "content": 1532,
      "dcache": 1533,
      "fully": 1534,
      "accessible": 1535,
      "develf": 1536,
      "ofdirtylines": 1537,
      "ofdirtydblw": 1538,
      "law": 1539,
      "monitor": 1540,
      "strong": 1541,
      "console": 1542,
      "testqboxhang": 1543,
      "internal": 1544,
      "averages": 1545,
      "csar": 1546,
      "counter": 1547,
      "essl": 1548,
      "fgygi": 1549,
      "ognized": 1550,
      "purpose": 1551,
      "refresh": 1552,
      "txt": 1553,
      "taddriver": 1554,
      "yunsic": 1555,
      "normaliz": 1556,
      "idomarsh": 1557,
      "reverse": 1558,
      "unrecognized": 1559,
      "expression": 1560,
      "nielsen": 1561,
      "contention": 1562,
      "ofdirtydblword": 1563,
      "normalized": 1564,
      "):": 1565,
      ")........................": 1566,
      "ale": 1567,
      "ail": 1568,
      "acec": 1569,
      "acac": 1570,
      "accc": 1571,
      "aefe": 1572,
      "abac": 1573,
      "bg": 1574,
      "bffd": 1575,
      "bri": 1576,
      "ci": 1577,
      "cpes": 1578,
      "claw": 1579,
      "due": 1580,
      "ep": 1581,
      "ent": 1582,
      "effe": 1583,
      "effb": 1584,
      "effc": 1585,
      "effd": 1586,
      "fr": 1587,
      "fy": 1588,
      "fddc": 1589,
      "flow": 1590,
      "hel": 1591,
      "iad": 1592,
      "ider": 1593,
      "ify": 1594,
      "jor": 1595,
      "ject": 1596,
      "jag": 1597,
      "ls": 1598,
      "leep": 1599,
      "late": 1600,
      "mf": 1601,
      "nl": 1602,
      "own": 1603,
      "pec": 1604,
      "pth": 1605,
      "pcounter": 1606,
      "smi": 1607,
      "sam": 1608,
      "sleep": 1609,
      "spec": 1610,
      "tip": 1611,
      "teb": 1612,
      "tlb": 1613,
      "ush": 1614,
      "una": 1615,
      "ues": 1616,
      "uation": 1617,
      "wa": 1618,
      "wid": 1619,
      "ware": 1620,
      "ward": 1621,
      "xda": 1622,
      "xad": 1623,
      "xfa": 1624,
      "ffde": 1625,
      "ffce": 1626,
      "ffcc": 1627,
      "ffae": 1628,
      "ffcd": 1629,
      "fffe": 1630,
      "dede": 1631,
      "dedd": 1632,
      "decc": 1633,
      "debc": 1634,
      "depth": 1635,
      "nosleep": 1636,
      "inex": 1637,
      "inity": 1638,
      "inuation": 1639,
      "cedd": 1640,
      "cecd": 1641,
      "cebd": 1642,
      "cesses": 1643,
      "seque": 1644,
      "char": 1645,
      "child": 1646,
      "chown": 1647,
      "order": 1648,
      "ffffca": 1649,
      "ndir": 1650,
      "ndwid": 1651,
      "parame": 1652,
      "eedc": 1653,
      "fffffe": 1654,
      "servicemailbox": 1655,
      "lop": 1656,
      "lone": 1657,
      "processes": 1658,
      "iostate": 1659,
      "ioexception": 1660,
      "bandwid": 1661,
      "efee": 1662,
      "efef": 1663,
      "efdd": 1664,
      "efbf": 1665,
      "efbe": 1666,
      "efac": 1667,
      "efbb": 1668,
      "efbd": 1669,
      "efcb": 1670,
      "efeb": 1671,
      "eflu": 1672,
      "toward": 1673,
      "ther": 1674,
      "news": 1675,
      "prest": 1676,
      "eam": 1677,
      "ddfc": 1678,
      "ddac": 1679,
      "ccbc": 1680,
      "ccbf": 1681,
      "cccf": 1682,
      "can": 1683,
      "caec": 1684,
      "cadc": 1685,
      "cafc": 1686,
      "cabf": 1687,
      "cacd": 1688,
      "caac": 1689,
      "cabd": 1690,
      "repl": 1691,
      "dbb": 1692,
      "dbdc": 1693,
      "dacb": 1694,
      "dfb": 1695,
      "dfed": 1696,
      "dfac": 1697,
      "dfbb": 1698,
      "errstr": 1699,
      "fcff": 1700,
      "fcce": 1701,
      "fcdd": 1702,
      "fcdb": 1703,
      "fcda": 1704,
      "fcdf": 1705,
      "fcbe": 1706,
      "bfea": 1707,
      "bfbb": 1708,
      "bfeb": 1709,
      "stir": 1710,
      "rack": 1711,
      "cfb": 1712,
      "allr": 1713,
      "alloc": 1714,
      "already": 1715,
      "acing": 1716,
      "bbde": 1717,
      "fiel": 1718,
      "gete": 1719,
      "verify": 1720,
      "main": 1721,
      "major": 1722,
      "abcc": 1723,
      "abfc": 1724,
      "abbc": 1725,
      "cbea": 1726,
      "cbbc": 1727,
      "detail": 1728,
      "faec": 1729,
      "...........": 1730,
      "bgla": 1731,
      "feffff": 1732,
      "fdff": 1733,
      "sup": 1734,
      "ilable": 1735,
      "fbca": 1736,
      "fbbc": 1737,
      "byteb": 1738,
      "llnl": 1739,
      "ncy": 1740,
      "runs": 1741,
      "rundir": 1742,
      "failure": 1743,
      "perclaw": 1744,
      "loguser": 1745,
      "................................": 1746,
      "triad": 1747,
      "fccd": 1748,
      "fccf": 1749,
      "ckpt": 1750,
      "symbols": 1751,
      "pasci": 1752,
      "soft": 1753,
      "fcee": 1754,
      "fcef": 1755,
      "edrams": 1756,
      "command": 1757,
      "adfc": 1758,
      "hyperclaw": 1759,
      "adcast": 1760,
      "uest": 1761,
      "cpm": 1762,
      "infinity": 1763,
      "flush": 1764,
      "request": 1765,
      "valone": 1766,
      "vailable": 1767,
      "continuation": 1768,
      "beca": 1769,
      "getting": 1770,
      "flopcounter": 1771,
      "resource": 1772,
      "ters": 1773,
      "rich": 1774,
      "msg": 1775,
      "cabot": 1776,
      "alerio": 1777,
      "......................": 1778,
      ".......................": 1779,
      "ulriketests": 1780,
      "develop": 1781,
      "fffffffc": 1782,
      "assertion": 1783,
      "educe": 1784,
      "zerobyteb": 1785,
      "streamtriad": 1786,
      "bdbb": 1787,
      "problems": 1788,
      "papi": 1789,
      "reduce": 1790,
      "train": 1791,
      "trace": 1792,
      "modu": 1793,
      "xfffffe": 1794,
      "network": 1795,
      "consider": 1796,
      "hwstab": 1797,
      "queue": 1798,
      "mailboxmonitor": 1799,
      "broadcast": 1800,
      "enableflu": 1801,
      "multip": 1802,
      "parmdg": 1803,
      "idomarshalerio": 1804,
      "brian": 1805,
      "epstreamtriad": 1806,
      "latency": 1807,
      "smith": 1808,
      "unavailable": 1809,
      "inexact": 1810,
      "parameters": 1811,
      "servicemailboxes": 1812,
      "bandwidth": 1813,
      "presta": 1814,
      "replacing": 1815,
      "stirtur": 1816,
      "allreduce": 1817,
      "getel": 1818,
      "detailed": 1819,
      "loguserinfo": 1820,
      "flopcounters": 1821,
      "zerobytebug": 1822,
      "enableflush": 1823,
      "multiple": 1824,
      "!(": 1825,
      ")...": 1826,
      ").......": 1827,
      "*)": 1828,
      "=!(": 1829,
      "aff": 1830,
      "ant": 1831,
      "aefc": 1832,
      "affd": 1833,
      "aug": 1834,
      "afffffff": 1835,
      "amon": 1836,
      "bip": 1837,
      "bbf": 1838,
      "bffe": 1839,
      "bcec": 1840,
      "bbac": 1841,
      "cu": 1842,
      "cv": 1843,
      "cou": 1844,
      "cli": 1845,
      "cbac": 1846,
      "dy": 1847,
      "dffc": 1848,
      "dump": 1849,
      "ek": 1850,
      "emp": 1851,
      "fo": 1852,
      "fer": 1853,
      "fur": 1854,
      "fefc": 1855,
      "fdec": 1856,
      "fecc": 1857,
      "fbac": 1858,
      "fcab": 1859,
      "fcaf": 1860,
      "fdaf": 1861,
      "gp": 1862,
      "gat": 1863,
      "ging": 1864,
      "gfile": 1865,
      "gbgl": 1866,
      "gun": 1867,
      "her": 1868,
      "han": 1869,
      "ise": 1870,
      "iss": 1871,
      "ist": 1872,
      "ite": 1873,
      "ive": 1874,
      "ies": 1875,
      "iap": 1876,
      "icache": 1877,
      "kt": 1878,
      "ld": 1879,
      "lare": 1880,
      "ming": 1881,
      "mall": 1882,
      "meam": 1883,
      "ode": 1884,
      "pu": 1885,
      "pll": 1886,
      "peer": 1887,
      "pux": 1888,
      "pnet": 1889,
      "pkt": 1890,
      "qx": 1891,
      "qrt": 1892,
      "rw": 1893,
      "ring": 1894,
      "rflo": 1895,
      "rfft": 1896,
      "spar": 1897,
      "sus": 1898,
      "son": 1899,
      "spa": 1900,
      "scom": 1901,
      "scompare": 1902,
      "small": 1903,
      "sqrt": 1904,
      "tz": 1905,
      "tou": 1906,
      "tmp": 1907,
      "tru": 1908,
      "txyz": 1909,
      "ubgl": 1910,
      "vac": 1911,
      "win": 1912,
      "wra": 1913,
      "wal": 1914,
      "xff": 1915,
      "xde": 1916,
      "xef": 1917,
      "xca": 1918,
      "xdb": 1919,
      "xfc": 1920,
      "xae": 1921,
      "xbb": 1922,
      "xaf": 1923,
      "xfee": 1924,
      "xvicar": 1925,
      "yx": 1926,
      "yes": 1927,
      "ffec": 1928,
      "ffee": 1929,
      "ffba": 1930,
      "ffdb": 1931,
      "ffda": 1932,
      "ffbf": 1933,
      "ffad": 1934,
      "ffbe": 1935,
      "ffcf": 1936,
      "ffbb": 1937,
      "ffbd": 1938,
      "ffaf": 1939,
      "ffab": 1940,
      "ffadd": 1941,
      "ffbfb": 1942,
      "ffaeb": 1943,
      "ffafa": 1944,
      "ffafb": 1945,
      "arch": 1946,
      "arty": 1947,
      "aril": 1948,
      "arant": 1949,
      "dece": 1950,
      "deec": 1951,
      "deed": 1952,
      "defc": 1953,
      "debf": 1954,
      "defe": 1955,
      "denormalized": 1956,
      "noio": 1957,
      "nocomm": 1958,
      "nozerobytebug": 1959,
      "ceca": 1960,
      "cedb": 1961,
      "ceda": 1962,
      "ceab": 1963,
      "ceeb": 1964,
      "cards": 1965,
      "sever": 1966,
      "seille": 1967,
      "seek": 1968,
      "search": 1969,
      "chmod": 1970,
      "chamon": 1971,
      "ecce": 1972,
      "ecbc": 1973,
      "ecac": 1974,
      "ecise": 1975,
      "attemp": 1976,
      "oraril": 1977,
      "ffffffc": 1978,
      "precise": 1979,
      "ctl": 1980,
      "ndro": 1981,
      "eeec": 1982,
      "eebea": 1983,
      "vide": 1984,
      "visus": 1985,
      "servicenetwork": 1986,
      "lost": 1987,
      "long": 1988,
      "edde": 1989,
      "edba": 1990,
      "edda": 1991,
      "edfc": 1992,
      "edbb": 1993,
      "edfa": 1994,
      "edump": 1995,
      "bal": 1996,
      "baec": 1997,
      "badc": 1998,
      "bacc": 1999,
      "babc": 2000,
      "baac": 2001,
      "baab": 2002,
      "bank": 2003,
      "efaa": 2004,
      "efccb": 2005,
      "efaea": 2006,
      "efdbc": 2007,
      "efdcd": 2008,
      "efcfd": 2009,
      "syste": 2010,
      "syndro": 2011,
      "thunder": 2012,
      "ioni": 2013,
      "token": 2014,
      "idotrans": 2015,
      "idocli": 2016,
      "newmap": 2017,
      "present": 2018,
      "preqx": 2019,
      "partition": 2020,
      "shot": 2021,
      "erist": 2022,
      "eaae": 2023,
      "ddff": 2024,
      "ddmd": 2025,
      "bffffa": 2026,
      "bffffd": 2027,
      "dcdd": 2028,
      "dcda": 2029,
      "dcbf": 2030,
      "dcac": 2031,
      "dcode": 2032,
      "ccba": 2033,
      "ccdd": 2034,
      "ccda": 2035,
      "caee": 2036,
      "cabe": 2037,
      "caeb": 2038,
      "cause": 2039,
      "remer": 2040,
      "dbec": 2041,
      "dbfc": 2042,
      "dbbc": 2043,
      "dbfd": 2044,
      "dbremer": 2045,
      "dacc": 2046,
      "dada": 2047,
      "dafc": 2048,
      "dabc": 2049,
      "dacd": 2050,
      "dacf": 2051,
      "daac": 2052,
      "len": 2053,
      "errhan": 2054,
      "fcfc": 2055,
      "fcffe": 2056,
      "fcbfa": 2057,
      "fcdcf": 2058,
      "fcdbf": 2059,
      "bcdc": 2060,
      "bcast": 2061,
      "bfee": 2062,
      "bfed": 2063,
      "bfac": 2064,
      "bfaf": 2065,
      "bfdea": 2066,
      "aeec": 2067,
      "stu": 2068,
      "still": 2069,
      "adv": 2070,
      "bebd": 2071,
      "cdfffe": 2072,
      "rai": 2073,
      "cfaf": 2074,
      "ality": 2075,
      "allocation": 2076,
      "acs": 2077,
      "acfc": 2078,
      "acbf": 2079,
      "acbb": 2080,
      "conc": 2081,
      "bbca": 2082,
      "coredump": 2083,
      "linadv": 2084,
      "miscompare": 2085,
      "bdir": 2086,
      "fier": 2087,
      "afbb": 2088,
      "after": 2089,
      "abec": 2090,
      "abdc": 2091,
      "abdb": 2092,
      "cbec": 2093,
      "cbdc": 2094,
      "cbcc": 2095,
      "cbfc": 2096,
      "aaec": 2097,
      "aaba": 2098,
      "aadc": 2099,
      "aacc": 2100,
      "aada": 2101,
      "aaac": 2102,
      "divac": 2103,
      "divide": 2104,
      "face": 2105,
      "fadc": 2106,
      "facc": 2107,
      "fafc": 2108,
      "fabc": 2109,
      "ebde": 2110,
      "ebee": 2111,
      "ebba": 2112,
      "ebea": 2113,
      "ebdb": 2114,
      "ebda": 2115,
      "usr": 2116,
      "bglerr": 2117,
      "bglcode": 2118,
      "fefffff": 2119,
      "febc": 2120,
      "febf": 2121,
      "fdfffff": 2122,
      "suite": 2123,
      "force": 2124,
      "ntial": 2125,
      "receive": 2126,
      "fbba": 2127,
      "fbdc": 2128,
      "fbcc": 2129,
      "fbda": 2130,
      "ration": 2131,
      "mapfiles": 2132,
      "ncate": 2133,
      "feac": 2134,
      "fead": 2135,
      "feaf": 2136,
      "testsuite": 2137,
      "nan": 2138,
      "ddrsize": 2139,
      "person": 2140,
      "oldcode": 2141,
      "ctrs": 2142,
      "unsign": 2143,
      "exter": 2144,
      "............................": 2145,
      "gov": 2146,
      "fccb": 2147,
      "fccff": 2148,
      "fccce": 2149,
      "fccbf": 2150,
      "fcccf": 2151,
      "fccfe": 2152,
      "ckap": 2153,
      "pani": 2154,
      "ffaec": 2155,
      "ffaed": 2156,
      "ffadc": 2157,
      "timed": 2158,
      "nels": 2159,
      "ffbff": 2160,
      "ffbdf": 2161,
      "fcebd": 2162,
      "fcecb": 2163,
      "poll": 2164,
      "ddcmdgbgl": 2165,
      "ics": 2166,
      "ffcdf": 2167,
      "acterist": 2168,
      "efcfc": 2169,
      "efcbc": 2170,
      "efcbd": 2171,
      "performing": 2172,
      "cdadc": 2173,
      "imprecise": 2174,
      "declare": 2175,
      "eecc": 2176,
      "bfcb": 2177,
      "global": 2178,
      "output": 2179,
      "comms": 2180,
      "edea": 2181,
      "edef": 2182,
      "edefb": 2183,
      "float": 2184,
      "xffffb": 2185,
      "xffffd": 2186,
      "xffffff": 2187,
      "xfffffff": 2188,
      "aeac": 2189,
      "bdea": 2190,
      "bdee": 2191,
      "marseille": 2192,
      "portmgr": 2193,
      "blacs": 2194,
      "fcbea": 2195,
      "curioni": 2196,
      "fefefeff": 2197,
      "debcc": 2198,
      "beab": 2199,
      "ffaaa": 2200,
      "resets": 2201,
      "bdfa": 2202,
      "msgh": 2203,
      "recv": 2204,
      "bbab": 2205,
      "build": 2206,
      "bdcb": 2207,
      "bdab": 2208,
      "version": 2209,
      "lapack": 2210,
      "mods": 2211,
      "stopping": 2212,
      "next": 2213,
      "efdcb": 2214,
      "efdbd": 2215,
      "temporaril": 2216,
      "efdfd": 2217,
      "pressing": 2218,
      "broken": 2219,
      "fftw": 2220,
      "sending": 2221,
      "enabled": 2222,
      "closed": 2223,
      "/../../": 2224,
      "fmmods": 2225,
      "guarant": 2226,
      "guration": 2227,
      "object": 2228,
      "underflow": 2229,
      "configfile": 2230,
      "configuration": 2231,
      "consoleip": 2232,
      "consoleport": 2233,
      "entmgr": 2234,
      "fraction": 2235,
      "hello": 2236,
      "samrai": 2237,
      "special": 2238,
      "wait": 2239,
      "sequential": 2240,
      "characterist": 2241,
      "ordered": 2242,
      "cannot": 2243,
      "allocate": 2244,
      "fields": 2245,
      "suppressing": 2246,
      "software": 2247,
      "module": 2248,
      "stirturbdir": 2249,
      "biparty": 2250,
      "cupps": 2251,
      "cvs": 2252,
      "could": 2253,
      "empty": 2254,
      "further": 2255,
      "gather": 2256,
      "gunnels": 2257,
      "issues": 2258,
      "rflomp": 2259,
      "sparing": 2260,
      "space": 2261,
      "scomerror": 2262,
      "tzyx": 2263,
      "touch": 2264,
      "truncate": 2265,
      "winerr": 2266,
      "wray": 2267,
      "walk": 2268,
      "severed": 2269,
      "chamonix": 2270,
      "attempting": 2271,
      "servicenetworkcharacterist": 2272,
      "system": 2273,
      "syndrome": 2274,
      "idotransportmgr": 2275,
      "idoclientmgr": 2276,
      "newmaps": 2277,
      "shots": 2278,
      "caused": 2279,
      "receivetrain": 2280,
      "personality": 2281,
      "unsigned": 2282,
      "external": 2283,
      "ckapfer": 2284,
      "panic": 2285,
      "ddcmdgbglv": 2286,
      "declareservicenetworkcharacterist": 2287,
      "marseillebgl": 2288,
      "msghdr": 2289,
      "temporarily": 2290,
      "guaranteed": 2291,
      "stirturbdirect": 2292,
      "bipartyz": 2293,
      "declareservicenetworkcharacteristics": 2294,
      "&)": 2295,
      "&,": 2296,
      ")'": 2297,
      ")...........................": 2298,
      ")......................": 2299,
      ").......................": 2300,
      "*,": 2301,
      "*&)": 2302,
      "->": 2303,
      "/.": 2304,
      "/./": 2305,
      "?/": 2306,
      "ay": 2307,
      "aut": 2308,
      "aeee": 2309,
      "aedc": 2310,
      "afcb": 2311,
      "aafa": 2312,
      "affaa": 2313,
      "acaf": 2314,
      "aux": 2315,
      "batch": 2316,
      "bne": 2317,
      "bus": 2318,
      "bll": 2319,
      "bfff": 2320,
      "bcac": 2321,
      "bits": 2322,
      "bffb": 2323,
      "bdec": 2324,
      "bvn": 2325,
      "bedc": 2326,
      "bug": 2327,
      "bceb": 2328,
      "bccb": 2329,
      "befb": 2330,
      "beda": 2331,
      "bdbc": 2332,
      "bcab": 2333,
      "bates": 2334,
      "bcaa": 2335,
      "bpnet": 2336,
      "cn": 2337,
      "cw": 2338,
      "cfff": 2339,
      "cffa": 2340,
      "cbad": 2341,
      "cstar": 2342,
      "cbfb": 2343,
      "cceb": 2344,
      "cmd": 2345,
      "cffea": 2346,
      "cnk": 2347,
      "dg": 2348,
      "du": 2349,
      "dge": 2350,
      "dram": 2351,
      "dffa": 2352,
      "dffd": 2353,
      "dbac": 2354,
      "dfffffff": 2355,
      "dlb": 2356,
      "et": 2357,
      "effff": 2358,
      "efffff": 2359,
      "est": 2360,
      "edec": 2361,
      "ecee": 2362,
      "ebfa": 2363,
      "ebfb": 2364,
      "eceb": 2365,
      "ebaa": 2366,
      "ebae": 2367,
      "ebbd": 2368,
      "ether": 2369,
      "fsy": 2370,
      "fstat": 2371,
      "ftest": 2372,
      "fedc": 2373,
      "ftests": 2374,
      "fbfb": 2375,
      "fdac": 2376,
      "fdbc": 2377,
      "fafa": 2378,
      "fbaa": 2379,
      "fchown": 2380,
      "fchmod": 2381,
      "ftruncate": 2382,
      "gs": 2383,
      "gin": 2384,
      "ged": 2385,
      "gid": 2386,
      "gum": 2387,
      "gcc": 2388,
      "groot": 2389,
      "gapps": 2390,
      "gate": 2391,
      "grap": 2392,
      "gctl": 2393,
      "hid": 2394,
      "hig": 2395,
      "hul": 2396,
      "hard": 2397,
      "ior": 2398,
      "ivi": 2399,
      "ited": 2400,
      "ieee": 2401,
      "icb": 2402,
      "imp": 2403,
      "iet": 2404,
      "jrat": 2405,
      "jng": 2406,
      "job": 2407,
      "keb": 2408,
      "ktest": 2409,
      "kill": 2410,
      "lar": 2411,
      "lbe": 2412,
      "lstat": 2413,
      "lnk": 2414,
      "lchown": 2415,
      "lseek": 2416,
      "mm": 2417,
      "merr": 2418,
      "mbl": 2419,
      "mmu": 2420,
      "malloc": 2421,
      "nm": 2422,
      "np": 2423,
      "nu": 2424,
      "nce": 2425,
      "nted": 2426,
      "ning": 2427,
      "nle": 2428,
      "nected": 2429,
      "nve": 2430,
      "ncom": 2431,
      "nglo": 2432,
      "nded": 2433,
      "nmsg": 2434,
      "oo": 2435,
      "oid": 2436,
      "ool": 2437,
      "option": 2438,
      "pid": 2439,
      "ping": 2440,
      "pad": 2441,
      "page": 2442,
      "pdbg": 2443,
      "pages": 2444,
      "qs": 2445,
      "qu": 2446,
      "qw": 2447,
      "rs": 2448,
      "ry": 2449,
      "rou": 2450,
      "sn": 2451,
      "sor": 2452,
      "sopt": 2453,
      "sla": 2454,
      "slaw": 2455,
      "snan": 2456,
      "sgs": 2457,
      "tc": 2458,
      "tsh": 2459,
      "tit": 2460,
      "trap": 2461,
      "tlbe": 2462,
      "uid": 2463,
      "umask": 2464,
      "ual": 2465,
      "udp": 2466,
      "vt": 2467,
      "vaddr": 2468,
      "vbuffer": 2469,
      "vtrace": 2470,
      "void": 2471,
      "ws": 2472,
      "wed": 2473,
      "watch": 2474,
      "xec": 2475,
      "xed": 2476,
      "xba": 2477,
      "xdc": 2478,
      "xbc": 2479,
      "xbe": 2480,
      "xcd": 2481,
      "xac": 2482,
      "xbd": 2483,
      "xab": 2484,
      "xcb": 2485,
      "xfe": 2486,
      "xfd": 2487,
      "xfb": 2488,
      "xfff": 2489,
      "xffd": 2490,
      "xbfe": 2491,
      "xfcd": 2492,
      "xbfa": 2493,
      "xafd": 2494,
      "yur": 2495,
      "||": 2496,
      "fffa": 2497,
      "fffd": 2498,
      "fffb": 2499,
      "ffcec": 2500,
      "ffced": 2501,
      "ffbfe": 2502,
      "ffbfd": 2503,
      "ffcee": 2504,
      "ffbfa": 2505,
      "ffacb": 2506,
      "ffbaa": 2507,
      "ffdcc": 2508,
      "ffdcd": 2509,
      "ffcaf": 2510,
      "ffbcb": 2511,
      "ffbae": 2512,
      "ffcae": 2513,
      "ffcef": 2514,
      "ffcaa": 2515,
      "ffafe": 2516,
      "ffdda": 2517,
      "ffbbd": 2518,
      "ffbab": 2519,
      "ffdbf": 2520,
      "ffbbb": 2521,
      "ffbaf": 2522,
      "argum": 2523,
      "den": 2524,
      "dedf": 2525,
      "debb": 2526,
      "debd": 2527,
      "deab": 2528,
      "deeb": 2529,
      "defb": 2530,
      "deeca": 2531,
      "degroot": 2532,
      "nop": 2533,
      "nopr": 2534,
      "noni": 2535,
      "nova": 2536,
      "noapc": 2537,
      "ink": 2538,
      "inform": 2539,
      "inject": 2540,
      "cedf": 2541,
      "cebe": 2542,
      "cebb": 2543,
      "cefd": 2544,
      "cept": 2545,
      "sembl": 2546,
      "setit": 2547,
      "chch": 2548,
      "ching": 2549,
      "ecff": 2550,
      "ecde": 2551,
      "ecba": 2552,
      "eccc": 2553,
      "ecda": 2554,
      "ecae": 2555,
      "ecad": 2556,
      "ecbb": 2557,
      "ecaf": 2558,
      "ecfa": 2559,
      "ecfe": 2560,
      "ecccc": 2561,
      "ecdca": 2562,
      "ecvbuffer": 2563,
      "atall": 2564,
      "ative": 2565,
      "served": 2566,
      "dog": 2567,
      "domain": 2568,
      "orage": 2569,
      "ffffe": 2570,
      "ffffffd": 2571,
      "privi": 2572,
      "ason": 2573,
      "assembl": 2574,
      "ssible": 2575,
      "ctest": 2576,
      "ctool": 2577,
      "eece": 2578,
      "eeba": 2579,
      "eedb": 2580,
      "eefc": 2581,
      "eebc": 2582,
      "eebf": 2583,
      "eeae": 2584,
      "eebb": 2585,
      "eebd": 2586,
      "mlink": 2587,
      "fffffc": 2588,
      "fffffd": 2589,
      "fffffefa": 2590,
      "virt": 2591,
      "loor": 2592,
      "local": 2593,
      "loader": 2594,
      "longlo": 2595,
      "prof": 2596,
      "eddc": 2597,
      "edcc": 2598,
      "edca": 2599,
      "eddf": 2600,
      "edbc": 2601,
      "edac": 2602,
      "edaa": 2603,
      "edbae": 2604,
      "iary": 2605,
      "idx": 2606,
      "idmp": 2607,
      "cessive": 2608,
      "bafc": 2609,
      "babf": 2610,
      "baae": 2611,
      "babb": 2612,
      "bacb": 2613,
      "baeb": 2614,
      "back": 2615,
      "neare": 2616,
      "efad": 2617,
      "efddc": 2618,
      "efccc": 2619,
      "efccd": 2620,
      "efefe": 2621,
      "efadf": 2622,
      "efbfe": 2623,
      "efbfc": 2624,
      "efedc": 2625,
      "efbfd": 2626,
      "efecf": 2627,
      "efedb": 2628,
      "efeea": 2629,
      "efefd": 2630,
      "efcca": 2631,
      "efeef": 2632,
      "efdeb": 2633,
      "efafb": 2634,
      "efedd": 2635,
      "efeca": 2636,
      "efbaa": 2637,
      "efdcc": 2638,
      "efeeb": 2639,
      "efcaf": 2640,
      "efbcb": 2641,
      "efecd": 2642,
      "efdca": 2643,
      "efeaa": 2644,
      "efdaf": 2645,
      "efdea": 2646,
      "efdef": 2647,
      "efcef": 2648,
      "efeab": 2649,
      "efddb": 2650,
      "efcaa": 2651,
      "efdfc": 2652,
      "efcfe": 2653,
      "efdda": 2654,
      "efddd": 2655,
      "efdcf": 2656,
      "efdaa": 2657,
      "efbcd": 2658,
      "efbbd": 2659,
      "efddf": 2660,
      "efdfe": 2661,
      "efecb": 2662,
      "efbaf": 2663,
      "efefeff": 2664,
      "symlink": 2665,
      "threa": 2666,
      "date": 2667,
      "topo": 2668,
      "toall": 2669,
      "todebugger": 2670,
      "idomsg": 2671,
      "idomsghdr": 2672,
      "idoudp": 2673,
      "newmpi": 2674,
      "newkernel": 2675,
      "newcomp": 2676,
      "newhack": 2677,
      "baseline": 2678,
      "ofda": 2679,
      "ution": 2680,
      "utime": 2681,
      "partsn": 2682,
      "short": 2683,
      "erexception": 2684,
      "eade": 2685,
      "eace": 2686,
      "eaec": 2687,
      "eadd": 2688,
      "eaca": 2689,
      "eadf": 2690,
      "eafc": 2691,
      "eabc": 2692,
      "eabf": 2693,
      "eabe": 2694,
      "eabd": 2695,
      "eapp": 2696,
      "eabea": 2697,
      "ddde": 2698,
      "ddba": 2699,
      "dddd": 2700,
      "ddca": 2701,
      "ddad": 2702,
      "ddcd": 2703,
      "ddaf": 2704,
      "ddab": 2705,
      "ddcb": 2706,
      "ddir": 2707,
      "ddabe": 2708,
      "dcu": 2709,
      "dcce": 2710,
      "dcdb": 2711,
      "dcdf": 2712,
      "dcae": 2713,
      "dccd": 2714,
      "dccf": 2715,
      "dcbd": 2716,
      "dcaf": 2717,
      "dccb": 2718,
      "dcaee": 2719,
      "nodecards": 2720,
      "ccr": 2721,
      "ccca": 2722,
      "ccdb": 2723,
      "ccbe": 2724,
      "ccac": 2725,
      "ccbd": 2726,
      "ccaf": 2727,
      "ccab": 2728,
      "ccfa": 2729,
      "ccsam": 2730,
      "cade": 2731,
      "caba": 2732,
      "caea": 2733,
      "cadd": 2734,
      "cadb": 2735,
      "cacb": 2736,
      "caaa": 2737,
      "caeeb": 2738,
      "caffee": 2739,
      "canoni": 2740,
      "caching": 2741,
      "renc": 2742,
      "retag": 2743,
      "restarted": 2744,
      "rename": 2745,
      "regctl": 2746,
      "reserved": 2747,
      "reason": 2748,
      "dbde": 2749,
      "dbea": 2750,
      "dbdd": 2751,
      "dbcc": 2752,
      "dbcr": 2753,
      "dbsr": 2754,
      "dblock": 2755,
      "daea": 2756,
      "dadc": 2757,
      "dadf": 2758,
      "dabf": 2759,
      "dabb": 2760,
      "dabd": 2761,
      "daaf": 2762,
      "dafdc": 2763,
      "daabd": 2764,
      "daabe": 2765,
      "dfde": 2766,
      "dfec": 2767,
      "dfdc": 2768,
      "dfbf": 2769,
      "dfae": 2770,
      "dfcf": 2771,
      "dfcb": 2772,
      "dfdac": 2773,
      "dfafa": 2774,
      "leme": 2775,
      "leve": 2776,
      "leged": 2777,
      "errecvbuffer": 2778,
      "fcba": 2779,
      "fcbf": 2780,
      "fcbb": 2781,
      "fcbd": 2782,
      "fcfa": 2783,
      "fcfd": 2784,
      "fcfff": 2785,
      "fcddc": 2786,
      "fcfcc": 2787,
      "fccec": 2788,
      "fcffd": 2789,
      "fcdec": 2790,
      "fcbfe": 2791,
      "fcbff": 2792,
      "fcfcd": 2793,
      "fcbfb": 2794,
      "fcceb": 2795,
      "fcbec": 2796,
      "fcbac": 2797,
      "fcbde": 2798,
      "fcfcb": 2799,
      "fcdeb": 2800,
      "fccea": 2801,
      "fcbaa": 2802,
      "fcdcd": 2803,
      "fcdca": 2804,
      "fcded": 2805,
      "fcdaf": 2806,
      "fcddb": 2807,
      "fcddd": 2808,
      "fcdaa": 2809,
      "fcbab": 2810,
      "fcdfe": 2811,
      "fcbcf": 2812,
      "fcdae": 2813,
      "fcbeb": 2814,
      "fcbbb": 2815,
      "fcdbe": 2816,
      "fcdab": 2817,
      "fcdbd": 2818,
      "fcdfd": 2819,
      "bcda": 2820,
      "bcfc": 2821,
      "bcbc": 2822,
      "bcbf": 2823,
      "bcbe": 2824,
      "bfde": 2825,
      "bfcc": 2826,
      "bfca": 2827,
      "bfda": 2828,
      "bfbf": 2829,
      "bfab": 2830,
      "bfaa": 2831,
      "bfdac": 2832,
      "bfbab": 2833,
      "bfbaf": 2834,
      "bfdab": 2835,
      "bfcefc": 2836,
      "aede": 2837,
      "aebf": 2838,
      "aebe": 2839,
      "aebb": 2840,
      "aebd": 2841,
      "aeffa": 2842,
      "stand": 2843,
      "stro": 2844,
      "stname": 2845,
      "storage": 2846,
      "adce": 2847,
      "added": 2848,
      "beba": 2849,
      "bebc": 2850,
      "bebf": 2851,
      "bebe": 2852,
      "bebb": 2853,
      "bebfdc": 2854,
      "begin": 2855,
      "cdde": 2856,
      "cdce": 2857,
      "ciodb": 2858,
      "cfde": 2859,
      "cfee": 2860,
      "cfca": 2861,
      "cfbc": 2862,
      "cfecf": 2863,
      "cflu": 2864,
      "cfdddc": 2865,
      "cfloor": 2866,
      "aleam": 2867,
      "alerrecvbuffer": 2868,
      "acdd": 2869,
      "acda": 2870,
      "acbd": 2871,
      "accec": 2872,
      "accept": 2873,
      "bbec": 2874,
      "bbdc": 2875,
      "bbdb": 2876,
      "bbbb": 2877,
      "bbccf": 2878,
      "bbdee": 2879,
      "linfo": 2880,
      "mib": 2881,
      "micr": 2882,
      "bdde": 2883,
      "filesystem": 2884,
      "gen": 2885,
      "getr": 2886,
      "verbo": 2887,
      "afde": 2888,
      "afcc": 2889,
      "afdb": 2890,
      "afbc": 2891,
      "afbe": 2892,
      "afbd": 2893,
      "afebf": 2894,
      "iso": 2895,
      "make": 2896,
      "maxb": 2897,
      "makeb": 2898,
      "abed": 2899,
      "abef": 2900,
      "abea": 2901,
      "abdd": 2902,
      "abca": 2903,
      "cbde": 2904,
      "cbba": 2905,
      "cbdd": 2906,
      "cbca": 2907,
      "cbrt": 2908,
      "linkcards": 2909,
      "aaee": 2910,
      "aafc": 2911,
      "aabc": 2912,
      "aabf": 2913,
      "aacd": 2914,
      "aabb": 2915,
      "aaaf": 2916,
      "died": 2917,
      "mehul": 2918,
      "corrupt": 2919,
      "fade": 2920,
      "faee": 2921,
      "faef": 2922,
      "fabf": 2923,
      "faad": 2924,
      "fabd": 2925,
      "facee": 2926,
      "faecd": 2927,
      "faedbae": 2928,
      "adda": 2929,
      "ebce": 2930,
      "ebed": 2931,
      "ebca": 2932,
      "ebbc": 2933,
      "ebeee": 2934,
      "addresses": 2935,
      "glp": 2936,
      "dcrs": 2937,
      "usage": 2938,
      "only": 2939,
      "bglc": 2940,
      "bglsys": 2941,
      "bglctl": 2942,
      "bglpersonality": 2943,
      "feec": 2944,
      "febd": 2945,
      "feffe": 2946,
      "fetch": 2947,
      "fdde": 2948,
      "fdffc": 2949,
      "fdffffe": 2950,
      "overable": 2951,
      "overflow": 2952,
      "rocstar": 2953,
      "rows": 2954,
      "rocflu": 2955,
      "subne": 2956,
      "directories": 2957,
      "texception": 2958,
      "tetsh": 2959,
      "iliary": 2960,
      "ntry": 2961,
      "fbde": 2962,
      "fbec": 2963,
      "fbef": 2964,
      "fbdb": 2965,
      "fbfc": 2966,
      "fbbf": 2967,
      "fbbe": 2968,
      "fbbae": 2969,
      "values": 2970,
      "validate": 2971,
      "byte": 2972,
      "feeb": 2973,
      "feeaa": 2974,
      "mapping": 2975,
      "lling": 2976,
      "llpoint": 2977,
      "llseek": 2978,
      "mpxl": 2979,
      "mpill": 2980,
      "feab": 2981,
      "feaaa": 2982,
      "hot": 2983,
      "hostname": 2984,
      "ptarget": 2985,
      "testscrip": 2986,
      "testlong": 2987,
      "itz": 2988,
      "instr": 2989,
      "install": 2990,
      "logfile": 2991,
      "logical": 2992,
      "logies": 2993,
      "pped": 2994,
      "ppcfloor": 2995,
      "unlink": 2996,
      "unit": 2997,
      "unimp": 2998,
      "exit": 2999,
      "exited": 3000,
      "excessive": 3001,
      "....................................": 3002,
      ".................................": 3003,
      "...............................": 3004,
      ".............................": 3005,
      "kei": 3006,
      "ketexception": 3007,
      "fcca": 3008,
      "fccde": 3009,
      "fccba": 3010,
      "fccdd": 3011,
      "fccdf": 3012,
      "fccae": 3013,
      "fccbe": 3014,
      "fcccd": 3015,
      "fccac": 3016,
      "fccbb": 3017,
      "fccbd": 3018,
      "fccaf": 3019,
      "fccab": 3020,
      "fccaa": 3021,
      "fccfa": 3022,
      "fccfd": 3023,
      "fccfb": 3024,
      "cecfc": 3025,
      "sensor": 3026,
      "mpihp": 3027,
      "plic": 3028,
      "pavtrace": 3029,
      "update": 3030,
      "ffaff": 3031,
      "ffade": 3032,
      "ffaee": 3033,
      "ffaea": 3034,
      "ffacc": 3035,
      "ffaca": 3036,
      "ffadb": 3037,
      "ffada": 3038,
      "ffadf": 3039,
      "ffafc": 3040,
      "ffabf": 3041,
      "ffaae": 3042,
      "ffacf": 3043,
      "ffaac": 3044,
      "ffaaf": 3045,
      "ffaab": 3046,
      "functest": 3047,
      "ffbde": 3048,
      "ffbec": 3049,
      "ffbed": 3050,
      "ffbcc": 3051,
      "ffbca": 3052,
      "ffbdb": 3053,
      "ffbda": 3054,
      "ffbfc": 3055,
      "ffbbc": 3056,
      "ffbbf": 3057,
      "ffbbe": 3058,
      "ffbffbff": 3059,
      "fceff": 3060,
      "fceec": 3061,
      "fceed": 3062,
      "fcecc": 3063,
      "fceca": 3064,
      "fcedb": 3065,
      "fceda": 3066,
      "fcebc": 3067,
      "fcebf": 3068,
      "fceae": 3069,
      "fcead": 3070,
      "fcebe": 3071,
      "fcecd": 3072,
      "fcebb": 3073,
      "fceaf": 3074,
      "fceeb": 3075,
      "fcefe": 3076,
      "fcefd": 3077,
      "pop": 3078,
      "popt": 3079,
      "possible": 3080,
      "icbcast": 3081,
      "ffcde": 3082,
      "ffcbc": 3083,
      "ffcbf": 3084,
      "ffcbb": 3085,
      "ffcbd": 3086,
      "scratchpad": 3087,
      "agging": 3088,
      "efcda": 3089,
      "efcdf": 3090,
      "efcbe": 3091,
      "efcbb": 3092,
      "efcbad": 3093,
      "list": 3094,
      "efece": 3095,
      "efebc": 3096,
      "efebb": 3097,
      "efebd": 3098,
      "adbe": 3099,
      "xaed": 3100,
      "xabb": 3101,
      "ffdce": 3102,
      "cdbe": 3103,
      "cdfbab": 3104,
      "commit": 3105,
      "adfa": 3106,
      "imer": 3107,
      "microloader": 3108,
      "adcb": 3109,
      "cdca": 3110,
      "cdcf": 3111,
      "readdir": 3112,
      "readblock": 3113,
      "bffee": 3114,
      "bffea": 3115,
      "bffbc": 3116,
      "bffcf": 3117,
      "bffac": 3118,
      "bffdea": 3119,
      "effef": 3120,
      "effca": 3121,
      "effbc": 3122,
      "effbb": 3123,
      "effbd": 3124,
      "effab": 3125,
      "effcb": 3126,
      "effaa": 3127,
      "efffe": 3128,
      "efffd": 3129,
      "irq": 3130,
      "times": 3131,
      "timeofda": 3132,
      "cpgrap": 3133,
      "eecb": 3134,
      "sppmopt": 3135,
      "fdfb": 3136,
      "fdfe": 3137,
      "fdfdb": 3138,
      "fdfdf": 3139,
      "fdfae": 3140,
      "fdfac": 3141,
      "fdfeabe": 3142,
      "bfcf": 3143,
      "bfcbd": 3144,
      "glob": 3145,
      "fcdff": 3146,
      "fcdce": 3147,
      "beeb": 3148,
      "beeaab": 3149,
      "ugh": 3150,
      "flagging": 3151,
      "adea": 3152,
      "cdea": 3153,
      "cdee": 3154,
      "bfbec": 3155,
      "outstand": 3156,
      "contig": 3157,
      "acef": 3158,
      "acebf": 3159,
      "becb": 3160,
      "becd": 3161,
      "mkdir": 3162,
      "xbbe": 3163,
      "xfed": 3164,
      "xfefefeff": 3165,
      "aligned": 3166,
      "getcw": 3167,
      "getgid": 3168,
      "getpid": 3169,
      "getuid": 3170,
      "gettimeofda": 3171,
      "aeea": 3172,
      "aeedf": 3173,
      "fdcff": 3174,
      "xffffcb": 3175,
      "xffffffe": 3176,
      "xfffffffe": 3177,
      "runrecv": 3178,
      "running": 3179,
      "bdeb": 3180,
      "bdef": 3181,
      "bdece": 3182,
      "bdecc": 3183,
      "bdeae": 3184,
      "bdeaa": 3185,
      "bdecab": 3186,
      "fold": 3187,
      "portion": 3188,
      "fcfdb": 3189,
      "fcfda": 3190,
      "fcfbf": 3191,
      "fcfbe": 3192,
      "fcfbd": 3193,
      "fcfab": 3194,
      "fcfaa": 3195,
      "readv": 3196,
      "readlink": 3197,
      "blas": 3198,
      "blast": 3199,
      "efbef": 3200,
      "efbcc": 3201,
      "efbda": 3202,
      "efbbc": 3203,
      "efbbe": 3204,
      "efdff": 3205,
      "efdce": 3206,
      "fcbce": 3207,
      "fcbba": 3208,
      "fcbdd": 3209,
      "fcbdf": 3210,
      "randomaccess": 3211,
      "controlling": 3212,
      "///": 3213,
      "aefee": 3214,
      "accad": 3215,
      "minated": 3216,
      "terminated": 3217,
      "ffeaeb": 3218,
      "allc": 3219,
      "allgather": 3220,
      "alltoall": 3221,
      "..........................": 3222,
      "fefcd": 3223,
      "fefcf": 3224,
      "fefab": 3225,
      "fefeb": 3226,
      "fefafa": 3227,
      "fefabb": 3228,
      "ceabe": 3229,
      "afabf": 3230,
      "beac": 3231,
      "bead": 3232,
      "bbcb": 3233,
      "fbcd": 3234,
      "fbcbeb": 3235,
      "miranova": 3236,
      "memtest": 3237,
      "memmon": 3238,
      "apu": 3239,
      "bdfc": 3240,
      "bdfe": 3241,
      "bdfea": 3242,
      "cceea": 3243,
      "cceda": 3244,
      "recoverable": 3245,
      "bbae": 3246,
      "bbade": 3247,
      "bbadbe": 3248,
      "fecb": 3249,
      "fecfc": 3250,
      "chemb": 3251,
      "()'": 3252,
      "afcbf": 3253,
      "busy": 3254,
      "bdae": 3255,
      "drv": 3256,
      "targetclose": 3257,
      "xdcef": 3258,
      "const": 3259,
      "connected": 3260,
      "aaabc": 3261,
      "oldkernel": 3262,
      "ground": 3263,
      "clearport": 3264,
      "acfa": 3265,
      "bccac": 3266,
      "lukei": 3267,
      "dcaaf": 3268,
      "fdee": 3269,
      "fdef": 3270,
      "fdead": 3271,
      "soon": 3272,
      "ullen": 3273,
      "ulative": 3274,
      "initialization": 3275,
      "initializeapp": 3276,
      "befcc": 3277,
      "bbeb": 3278,
      "fdbb": 3279,
      "fdbdf": 3280,
      "fdbbf": 3281,
      "fbbb": 3282,
      "fabea": 3283,
      "fabdd": 3284,
      "fabda": 3285,
      "fffffffa": 3286,
      "fffffffe": 3287,
      "fffffffb": 3288,
      "dafca": 3289,
      "coproc": 3290,
      "socketexception": 3291,
      "brk": 3292,
      "cbeb": 3293,
      "fbab": 3294,
      "defbf": 3295,
      "noncontig": 3296,
      "ccccccc": 3297,
      "cccccccd": 3298,
      "selftest": 3299,
      "stepping": 3300,
      "streitz": 3301,
      "dffacb": 3302,
      "disconnected": 3303,
      "fdae": 3304,
      "fdaea": 3305,
      "jeffgreeno": 3306,
      "scancom": 3307,
      "trapping": 3308,
      "trapped": 3309,
      "fefffc": 3310,
      "controldescriptor": 3311,
      "writev": 3312,
      "writelog": 3313,
      "cjm": 3314,
      "fbfee": 3315,
      "xfffffef": 3316,
      "xfffffdc": 3317,
      "xfffffebc": 3318,
      "orestart": 3319,
      "efdbb": 3320,
      "efdbe": 3321,
      "pwd": 3322,
      "rmw": 3323,
      "rmdir": 3324,
      "efdab": 3325,
      "efdfb": 3326,
      "fcdcb": 3327,
      "execution": 3328,
      "prefetching": 3329,
      "prefetches": 3330,
      "dbaaf": 3331,
      "hangtest": 3332,
      "xbfaeb": 3333,
      "sendpacket": 3334,
      "sendmsg": 3335,
      "sendtrain": 3336,
      "interface": 3337,
      "bffcbf": 3338,
      "fmm": 3339,
      "libvisus": 3340,
      "multi": 3341,
      "obar": 3342,
      "tau": 3343,
      "turn": 3344,
      "xaade": 3345,
      "efcfb": 3346,
      "refreshes": 3347,
      "idomarshalerrecvbuffer": 3348,
      "bglinfo": 3349,
      "freed": 3350,
      "hellow": 3351,
      "speculative": 3352,
      "wave": 3353,
      "xdaabe": 3354,
      "nosleepyes": 3355,
      "nosleepnocomm": 3356,
      "sequence": 3357,
      "ordering": 3358,
      "bbdeba": 3359,
      "field": 3360,
      "verifystu": 3361,
      "failures": 3362,
      "flushing": 3363,
      "modulo": 3364,
      "stirturbpnet": 3365,
      "bffebcbe": 3366,
      "dyna": 3367,
      "foobar": 3368,
      "pull": 3369,
      "xfffead": 3370,
      "xfcffd": 3371,
      "yeszerobytebug": 3372,
      "nocommnosleep": 3373,
      "ddmdv": 3374,
      "fcbfabd": 3375,
      "bcastv": 3376,
      "bfeefe": 3377,
      "bfafec": 3378,
      "study": 3379,
      "aaecab": 3380,
      "pollcontroldescriptor": 3381,
      "recvmsghdr": 3382,
      "gathering": 3383,
      "walkup": 3384,
      "systemcontroller": 3385,
      "ayoo": 3386,
      "autorestart": 3387,
      "auxiliary": 3388,
      "batchfiles": 3389,
      "cnvt": 3390,
      "cmdline": 3391,
      "dgtest": 3392,
      "duplic": 3393,
      "dgemm": 3394,
      "ethernet": 3395,
      "fsync": 3396,
      "hidden": 3397,
      "high": 3398,
      "hardware": 3399,
      "icbi": 3400,
      "jratt": 3401,
      "large": 3402,
      "lnkck": 3403,
      "nullpoint": 3404,
      "nlev": 3405,
      "nmsglen": 3406,
      "quiet": 3407,
      "rounded": 3408,
      "slave": 3409,
      "slawrenc": 3410,
      "tlbentry": 3411,
      "watchdog": 3412,
      "xedcb": 3413,
      "yuri": 3414,
      "fffbccf": 3415,
      "ffddaff": 3416,
      "argument": 3417,
      "noprint": 3418,
      "information": 3419,
      "injection": 3420,
      "setitimer": 3421,
      "chcham": 3422,
      "atallbegin": 3423,
      "domains": 3424,
      "privileged": 3425,
      "assembly": 3426,
      "ctools": 3427,
      "virtual": 3428,
      "longlong": 3429,
      "background": 3430,
      "nearest": 3431,
      "threaded": 3432,
      "topologies": 3433,
      "idoudpmgr": 3434,
      "ddddddd": 3435,
      "ccsamef": 3436,
      "canonical": 3437,
      "retagging": 3438,
      "lemented": 3439,
      "level": 3440,
      "strobe": 3441,
      "aleamr": 3442,
      "acceptance": 3443,
      "micron": 3444,
      "getrusage": 3445,
      "verbose": 3446,
      "maxbug": 3447,
      "makebglp": 3448,
      "bglctlpavtrace": 3449,
      "fdffcbe": 3450,
      "rocfluidmp": 3451,
      "subnets": 3452,
      "tetshhot": 3453,
      "mpxlc": 3454,
      "ptargetmgr": 3455,
      "testscripts": 3456,
      "unimplemented": 3457,
      "mpihpm": 3458,
      "functests": 3459,
      "cpgraph": 3460,
      "beeaabff": 3461,
      "outstanding": 3462,
      "getcwd": 3463,
      "gettimeofday": 3464,
      "chembio": 3465,
      "initializeappmemory": 3466,
      "jeffgreenough": 3467,
      "sendmsgtodebugger": 3468,
      "nosleepyescomm": 3469,
      "sequencer": 3470,
      "verifystuff": 3471,
      "pollcontroldescriptors": 3472,
      "duplicate": 3473,
      "nullpointerexception": 3474
    },
    "merges": [
      "9 9",
      "99 99",
      "f f",
      "9999 9999",
      "a r",
      "99 9",
      "d e",
      "n o",
      "i n",
      "c e",
      "c ar",
      "car d",
      "s e",
      "c h",
      "no de",
      "e c",
      "a t",
      "se r",
      "9999 9",
      ") ,",
      "99999999 99999999",
      "d o",
      "o r",
      "ff ff",
      "v p",
      "vp d",
      "p r",
      "i p",
      "a s",
      "s s",
      "c t",
      "n d",
      "p ar",
      "e e",
      "m l",
      "ffff f",
      "v i",
      "vi ce",
      "ser vice",
      "l o",
      "9999999999999999 99999999",
      "pr o",
      "e d",
      "de ar",
      "i ar",
      "i d",
      "ec k",
      "ce ss",
      "ch eck",
      "pro cess",
      "process or",
      "ec id",
      "s lo",
      "slo t",
      "no t",
      "o u",
      "at ch",
      "ou nd",
      "f ound",
      "m atch",
      "9999 99",
      "i o",
      "t ed",
      "b a",
      "n e",
      "in g",
      "e f",
      "s y",
      "t h",
      "sy m",
      "io n",
      "as k",
      "m ask",
      "d at",
      "t o",
      "dat a",
      "th e",
      "i do",
      "p e",
      "ne w",
      "ser ted",
      "ch ip",
      "in to",
      "ba se",
      "data base",
      "in serted",
      "u m",
      "ct ion",
      "n um",
      "t y",
      "o f",
      "pr e",
      "999999999999999999999999 999",
      "u t",
      "or service",
      "par ef",
      "pre paref",
      "preparef orservice",
      ") )",
      "m card",
      "ser num",
      "ct n",
      "ml ctn",
      "mcard sernum",
      "par t",
      "ty pe",
      "m ip",
      "m type",
      "ml p",
      "s h",
      "a ction",
      "t ing",
      "w n",
      "do wn",
      "sh ut",
      "shut ting",
      "999999999999999999999999 9999",
      ". .",
      "99999999 999999",
      "e r",
      "e a",
      "d d",
      "b ffff",
      "d c",
      "node card",
      "ee ee",
      "c c",
      "c a",
      "r e",
      "ffff ffff",
      "d b",
      "d a",
      "d f",
      ".. ..",
      "9999 999",
      "f pr",
      "l e",
      "er r",
      "f c",
      "b c",
      "ec ted",
      "b f",
      "a e",
      "s t",
      "err or",
      "a d",
      "b e",
      "c d",
      "r a",
      "c io",
      "cio d",
      "c f",
      "a l",
      "ee e",
      "a c",
      "c o",
      "eeee eee",
      "b b",
      "c or",
      "l in",
      "m i",
      "b d",
      "f i",
      "fi le",
      "g e",
      "v er",
      "t or",
      "a f",
      "lin k",
      "i s",
      "m a",
      "a b",
      "c b",
      "link card",
      "mi ss",
      "a a",
      "ra m",
      "99999999 99999",
      "d i",
      "de t",
      "det ected",
      "di r",
      "m e",
      "cor r",
      "f a",
      "a dd",
      "a nd",
      "g ram",
      "pro gram",
      ".... ....",
      "corr ected",
      "e b",
      "add re",
      "addre ss",
      "miss ing",
      "co nd",
      "g l",
      "se cond",
      "second s",
      "dc r",
      "u s",
      "x ffffffff",
      "o n",
      "b gl",
      "f e",
      "f d",
      "o ver",
      "r o",
      "s u",
      "ec tor",
      "dir ector",
      "director y",
      "f or",
      "t e",
      "i l",
      "su ch",
      "n t",
      "re ce",
      "c r",
      "st at",
      "rece i",
      "s w",
      "f b",
      "r at",
      "v al",
      "tor us",
      "99999999 999",
      "val id",
      "in valid",
      "b y",
      "lo ad",
      "i ma",
      "ima ge",
      "load ing",
      "f ee",
      "cor e",
      "ma p",
      "l l",
      "ge ne",
      "m p",
      "recei ver",
      "n c",
      "f ea",
      "gene rat",
      "h o",
      "file s",
      "p t",
      "r u",
      "fa il",
      "generat ed",
      "ra n",
      "te st",
      "ho me",
      "be ing",
      "n a",
      "th is",
      "do ne",
      "i t",
      "dd r",
      "l r",
      "pe r",
      "in st",
      "n f",
      "p ut",
      "fail ed",
      "in put",
      "o l",
      "ff f",
      "lo g",
      "p p",
      "de r",
      "n b",
      "i g",
      "ru ction",
      "inst ruction",
      "sw l",
      "ct r",
      "miss ion",
      "u n",
      "x er",
      "e x",
      "p ip",
      "ca ll",
      "pip e",
      "call s",
      "o t",
      "99999999 9",
      "dd c",
      "v e",
      "ch dir",
      "log in",
      "........ ........",
      "( /",
      "stat e",
      "sy s",
      "ro m",
      "ro ot",
      "g b",
      "co de",
      "f rom",
      "o d",
      "in t",
      "g o",
      "ig n",
      "k e",
      "a ge",
      "e s",
      "t s",
      "stat us",
      "al le",
      "ddc m",
      "t r",
      "pp s",
      "b er",
      "f cc",
      "a pps",
      "ff e",
      "se s",
      "ss age",
      "me ssage",
      "ee p",
      "ex ce",
      "i al",
      "ce c",
      "go od",
      "c k",
      "se n",
      "ca ses",
      "sw eep",
      "b ol",
      "sym bol",
      "ab le",
      "mp i",
      "s cr",
      "- -",
      "p l",
      "t ran",
      "u r",
      "ec t",
      "at ing",
      "ca c",
      "ran k",
      "tran s",
      "n ch",
      "p a",
      "p as",
      "tr ee",
      "sen der",
      "num ber",
      "re trans",
      "retrans mission",
      "n i",
      "ca l",
      "pt ion",
      "ke t",
      "99999999 99",
      "s pe",
      "p ac",
      "s ign",
      "u p",
      "e ve",
      "ff a",
      "sy nch",
      "eve nt",
      "m c",
      "ce d",
      "it s",
      "sign al",
      "b w",
      "g i",
      "s r",
      "t i",
      "mp its",
      "alle n",
      "bw allen",
      "k er",
      "i b",
      "ser ial",
      "ip address",
      "serial number",
      "s pas",
      "spas m",
      "ne l",
      "cc c",
      "pac ket",
      "s of",
      "x c",
      "de ni",
      "re gi",
      "st er",
      "fee a",
      "fea a",
      "test cases",
      "per mission",
      "deni ed",
      "regi ster",
      "f un",
      "k in",
      "ff b",
      "pa kin",
      "ker nel",
      "a der",
      "f ce",
      "g er",
      "u pt",
      "lo ck",
      "cc d",
      "fun ction",
      "p o",
      "the ader",
      "err upt",
      "int errupt",
      "ddcm d",
      "sof theader",
      "i c",
      "i cal",
      "ff c",
      "lin e",
      "scr atch",
      "a g",
      "a n",
      "a ct",
      "bgl scratch",
      "sys calls",
      "t al",
      "ed ram",
      "ef c",
      "to tal",
      "ib m",
      "function al",
      "l i",
      "ef e",
      "r ts",
      "sr c",
      ". /",
      "m id",
      "t ag",
      "a db",
      "i ty",
      "j tag",
      "l ce",
      "x y",
      "per for",
      "spe lce",
      "act i",
      "a ne",
      "x a",
      "ff d",
      "pl ane",
      "mid plane",
      "c re",
      "c db",
      "c df",
      "cre ating",
      "c da",
      "ba d",
      "co m",
      "a df",
      "c ro",
      "h y",
      "i m",
      "n s",
      "at e",
      "mi cro",
      "corr ect",
      "exce ption",
      "a dc",
      "b le",
      "c dc",
      "e nd",
      "m ed",
      "v ed",
      ".. .",
      "micro seconds",
      "r ea",
      "u e",
      "w i",
      "de c",
      "service action",
      "err no",
      "recei ved",
      "correct able",
      "end serviceaction",
      "p hy",
      "bf e",
      "good ing",
      "a da",
      "b ff",
      "e ff",
      "ed s",
      "ra p",
      "exce eds",
      "h p",
      "i r",
      "ti me",
      "xy z",
      "b in",
      "b lock",
      "c p",
      "e ec",
      "s pp",
      "or d",
      "lo w",
      "up on",
      "perfor med",
      "rap tor",
      "hp cc",
      "spp m",
      "f df",
      "u re",
      "xyz t",
      "a ec",
      "b fc",
      "g lo",
      "v n",
      "ed c",
      "fc d",
      "b ee",
      "f u",
      "u g",
      "x e",
      "in f",
      "pe rat",
      "ca d",
      "db gl",
      "test s",
      "ddcm dbgl",
      "ddcmdbgl v",
      "f l",
      "s ical",
      "in ate",
      "co ord",
      "di me",
      "ns ion",
      "phy sical",
      "coord inate",
      "dime nsion",
      "ec c",
      "bf d",
      "st ar",
      "ma n",
      "a de",
      "c de",
      "s li",
      "ce e",
      "at ion",
      "re q",
      "bf a",
      "bf b",
      "glo sli",
      "c dd",
      "v a",
      "ce b",
      "ou t",
      "co nt",
      "com m",
      "a ce",
      "b ec",
      "b ig",
      "e de",
      "h t",
      "m d",
      "m k",
      "x b",
      "x f",
      "as h",
      "al ign",
      "ge t",
      "........ ....",
      "fl ash",
      "a ee",
      "e n",
      "f lo",
      "f dc",
      "m mi",
      "u ir",
      "x ffff",
      "ec f",
      "ser ver",
      "or t",
      "par ity",
      "ed b",
      "ba c",
      "cc b",
      "me nt",
      "ru n",
      "fail ing",
      "acti ve",
      "wi th",
      "req uir",
      "align ment",
      "requir ed",
      "a ea",
      "b de",
      "f ol",
      "h as",
      "j mc",
      "l ts",
      "m ar",
      "p ort",
      "p jmc",
      "car t",
      "par alle",
      "ee a",
      "cc f",
      "re su",
      "fc f",
      "im b",
      "rea d",
      "pjmc cart",
      "paralle l",
      "resu lts",
      "b l",
      "m perat",
      "in e",
      "ch ine",
      "do m",
      "nd a",
      "ef b",
      "ef d",
      "cc a",
      "fc b",
      "ge nt",
      "ma chine",
      "te mperat",
      "ran dom",
      "ur gent",
      "po int",
      "cont ro",
      "fol low",
      "temperat ure",
      "c ur",
      "i z",
      "l atch",
      "o k",
      "as serted",
      "pro per",
      "ou nt",
      "re s",
      "da c",
      "fe fff",
      "ll er",
      "un ic",
      "ti es",
      "an g",
      "exception s",
      "comm unic",
      "follow up",
      "proper ties",
      "/ /",
      "a ed",
      "a ef",
      "a cc",
      "k u",
      "m in",
      "t er",
      "ff ea",
      "ffff ffe",
      "ee f",
      "ed f",
      "ae b",
      "al l",
      "ma x",
      "................ ........",
      "ger man",
      "interrupt s",
      "vn m",
      "fu nc",
      "german n",
      "a va",
      "f ef",
      "j ava",
      "de b",
      "ce a",
      "ed a",
      "ca ble",
      "db c",
      "af a",
      "cr it",
      "spe nt",
      "acti v",
      "bee n",
      "crit ical",
      ": :",
      "b ea",
      "b bc",
      "b it",
      "f bc",
      "m o",
      "m mc",
      "o pt",
      "r i",
      "u se",
      "w er",
      "ff aa",
      "de vice",
      "do e",
      "vp es",
      "ef a",
      "re se",
      "ac b",
      "co p",
      "mi ra",
      "af b",
      "me m",
      "te s",
      "po wer",
      "cp md",
      "mmc s",
      "a p",
      "a bd",
      "b df",
      "c ce",
      "c fc",
      "m s",
      "m ount",
      "r ec",
      "ed d",
      "ca b",
      "da d",
      "st ab",
      "error s",
      "dir s",
      "il le",
      "per f",
      "flo ating",
      "bl ue",
      "mira nda",
      "a be",
      "a ac",
      "b ba",
      "c bc",
      "e l",
      "e bc",
      "f ec",
      "f ac",
      "l ang",
      "x ce",
      "ar get",
      "in it",
      "ch e",
      "ec a",
      "at ed",
      "ffff fff",
      "ba a",
      "pre p",
      "ea c",
      "dc c",
      "re nt",
      "al er",
      "bgl io",
      "register s",
      "cur rent",
      "communic ation",
      "rese t",
      "( )",
      "a fc",
      "b u",
      "b dc",
      "b da",
      "c lock",
      "d r",
      "g al",
      "h i",
      "i j",
      "l y",
      "n ect",
      "r ce",
      "t arget",
      "w as",
      "w hi",
      "x d",
      "de activ",
      "or y",
      "ee b",
      "ee d",
      "ou rce",
      "dc d",
      "ca f",
      "re sh",
      "bc b",
      "co n",
      "co ll",
      "aa a",
      "ol d",
      "star ted",
      "min i",
      "mem ory",
      "ille gal",
      "xce ption",
      "deactiv ated",
      "a cd",
      "c le",
      "c bb",
      "f p",
      "f ae",
      "g r",
      "i ke",
      "p good",
      "s ram",
      "u lr",
      "v ol",
      "ar e",
      "ec d",
      "at es",
      "ee xception",
      "to o",
      "ca ug",
      "ra il",
      "il ity",
      "stat eexception",
      "mp good",
      "................ ....",
      "an ce",
      "stab ility",
      "current ly",
      "illegal stateexception",
      "cle ar",
      "ulr ike",
      "vol t",
      "caug ht",
      "a ba",
      "a ca",
      "a bc",
      "a ae",
      "a cf",
      "a ab",
      "b o",
      "b s",
      "b eck",
      "b cc",
      "d ur",
      "e ce",
      "e be",
      "h and",
      "i ku",
      "l u",
      "l er",
      "r bs",
      "s ing",
      "s le",
      "y ates",
      "or beck",
      "ee r",
      "um t",
      "ea e",
      "dc a",
      "af d",
      "ma na",
      "stat ic",
      "inst ance",
      "go ing",
      "im um",
      "wi res",
      "en able",
      "contro ller",
      "max imum",
      "tes ted",
      "init ial",
      "dur ing",
      "hand ler",
      "iku o",
      "sing le",
      "mana ger",
      "c bf",
      "d ce",
      "e bd",
      "f de",
      "s o",
      "s ource",
      "u l",
      "w or",
      "de d",
      "ch controller",
      "ae ger",
      "sw it",
      "midplane swit",
      "dr aeger",
      "bo x",
      "initial iz",
      "wor k",
      "midplaneswit chcontroller",
      "b ef",
      "b be",
      "e bf",
      "f dd",
      "f db",
      "f bb",
      "f bd",
      "f ab",
      "h pl",
      "i me",
      "l ig",
      "m er",
      "m dc",
      "m sr",
      "s um",
      "s od",
      "u ser",
      "z er",
      "de e",
      "de ve",
      "ce cc",
      "ser t",
      "ffff ff",
      "as sert",
      "ed u",
      "ba e",
      "th resh",
      ".. /",
      "ea a",
      "ca e",
      "ca che",
      "da f",
      "st rea",
      "st eer",
      "co pro",
      "ex e",
      "es r",
      "time out",
      "inf o",
      "mar y",
      "fp scr",
      "ulrike y",
      "so c",
      "lig ht",
      "mdc ask",
      "sum mary",
      "zer o",
      "thresh old",
      "strea m",
      ": //",
      "b r",
      "b db",
      "c be",
      "f ba",
      "l p",
      "o ck",
      "u ble",
      "de a",
      "de f",
      "no n",
      "ce f",
      "do uble",
      "sh ock",
      "er no",
      "ea b",
      "dd b",
      "cc ce",
      "cc cc",
      "cc cd",
      "ca a",
      "df c",
      "cf d",
      "cf e",
      "af e",
      "ma nd",
      "on nect",
      "nt ime",
      "ru ntime",
      "block s",
      "fu ll",
      "inf erno",
      "mo de",
      "rec onnect",
      "blue light",
      "whi le",
      "initializ ing",
      "soc ket",
      "a ad",
      "a bb",
      "a ms",
      "c ba",
      "c mc",
      "d s",
      "d de",
      "f ca",
      "f cac",
      "h um",
      "m b",
      "o pe",
      "r fi",
      "w il",
      "de s",
      "ce ce",
      "se l",
      "vi car",
      "lo c",
      "pro xy",
      "pro ble",
      "io log",
      "ido proxy",
      "pe s",
      "sh er",
      "dd a",
      "dd d",
      "dc f",
      "ca cc",
      "db properties",
      "da a",
      "bc d",
      "st e",
      "st re",
      "bb d",
      "ver s",
      "rece ption",
      "nf s",
      "log s",
      "pa p",
      "li ams",
      "use database",
      "br des",
      "hum mer",
      "ope n",
      "rfi sher",
      "wil liams",
      "a me",
      "b ce",
      "b ed",
      "b mi",
      "d p",
      "d ff",
      "d is",
      "e ba",
      "f ed",
      "f da",
      "f ad",
      "g h",
      "i x",
      "j eff",
      "k pt",
      "m me",
      "o perat",
      "r edu",
      "s ca",
      "t ra",
      "u x",
      "w ri",
      "x l",
      "y ing",
      "ce cb",
      "ch kpt",
      "ba b",
      "ty pas",
      "of dir",
      "ea f",
      "dd f",
      "re tr",
      "df e",
      "bc f",
      "cf a",
      "ac cess",
      "co mp",
      "mi t",
      "ma y",
      "fe ff",
      "cr c",
      "ho mme",
      "un tested",
      "................ .",
      "scr ip",
      "an typas",
      "perfor man",
      "cdb c",
      "............ ...",
      "contro l",
      "deb ug",
      "aler t",
      "lu stre",
      "sle pt",
      "user func",
      "deve l",
      "steer ing",
      "sel ect",
      "bmi ller",
      "operat ion",
      "wri te",
      "ofdir ty",
      "retr ying",
      "performan ce",
      "a use",
      "b ut",
      "b dd",
      "b ot",
      "c j",
      "c x",
      "f bf",
      "f be",
      "h n",
      "l a",
      "l to",
      "m u",
      "m on",
      "m od",
      "s to",
      "s ol",
      "t ch",
      "x fffff",
      "de scrip",
      "ce dc",
      "ce bc",
      "or e",
      "as ic",
      "ee no",
      "ne t",
      "ne x",
      "ef dc",
      "ef db",
      "to mand",
      "cc dc",
      "ca pt",
      "db f",
      "da e",
      "da hn",
      "le test",
      "st r",
      "be b",
      "co ns",
      "........ .",
      "te ch",
      "te mp",
      "un correctable",
      "cal tech",
      "pac k",
      "line ar",
      "li mit",
      "cdf c",
      "star t",
      "ku bot",
      "blue gene",
      "bu ber",
      "gr eeno",
      "ds mc",
      "idoproxy db",
      "dis able",
      "sca letest",
      "ause lto",
      "cx x",
      "sol vers",
      "descrip tor",
      "tomand jeff",
      "capt ure",
      "kubot a",
      "auselto n",
      "a dec",
      "c at",
      "c dec",
      "d ty",
      "f aa",
      "h w",
      "h ac",
      "j gh",
      "k b",
      "k y",
      "m as",
      "m gr",
      "n al",
      "p w",
      "q b",
      "q ue",
      "q box",
      "r m",
      "r st",
      "r it",
      "r ky",
      "s cal",
      "s cat",
      "w el",
      "w rit",
      "ff ca",
      "de v",
      "de dc",
      "de ac",
      "se nt",
      "ffff c",
      "pr ef",
      "pr efe",
      "as t",
      "nd y",
      "par e",
      "ef da",
      "ef df",
      "ef cd",
      "pre ss",
      "shut down",
      "dd bc",
      "cc fc",
      "ca da",
      "re l",
      ".... ..",
      "le te",
      "fc dc",
      "bf dc",
      "st ore",
      "be n",
      "be nch",
      "cio stream",
      "co me",
      "bb b",
      "lin es",
      "fi rst",
      "ma il",
      "bgl mas",
      "for m",
      "te n",
      "map file",
      "ll a",
      "test qbox",
      "it ion",
      "ex ec",
      "pl b",
      "jtag id",
      "com pare",
      "cdc c",
      "............ .",
      "en v",
      "server db",
      "parity alignment",
      "mar k",
      "........................ .",
      "ap c",
      "mini ben",
      "sod scal",
      "loc ation",
      "proble m",
      "ste lla",
      "open ing",
      "comp lete",
      "feff ed",
      "homme s",
      "debug ger",
      "cj mu",
      "dty p",
      "hac k",
      "scat ter",
      "wel come",
      "writ ten",
      "pref ix",
      "prefe tch",
      "bench mark",
      "mail box",
      "bglmas ter",
      "sodscal ing",
      "cjmu ndy",
      "a bf",
      "a af",
      "b ro",
      "c lo",
      "c bd",
      "c ddc",
      "c cec",
      "d ba",
      "d up",
      "d dec",
      "e bb",
      "f cec",
      "h ang",
      "i whi",
      "j ul",
      "p ected",
      "r ound",
      "s iz",
      "s ame",
      "t un",
      "u nex",
      "w e",
      "x bf",
      "x hpl",
      "ff t",
      "ff er",
      "ff bc",
      "de cd",
      "in complete",
      "ce ec",
      "card sto",
      "se nd",
      "ch cardsto",
      "ec b",
      "ba f",
      "ba ker",
      "ef de",
      "ef ea",
      "ef cc",
      "ef bc",
      "ea d",
      "dd dc",
      "dc cc",
      "dc fc",
      "cc cb",
      "ca ca",
      "db e",
      "db g",
      "da b",
      "fc bc",
      "ac dc",
      "lin ux",
      "lin pack",
      "ab l",
      "add c",
      "add r",
      "ro ff",
      "il d",
      "generat ing",
      "na me",
      "pp c",
      "................ ..",
      "................ ...",
      "rom io",
      "code s",
      "int er",
      "age s",
      "ts ch",
      "ber tsch",
      "fcc c",
      "ib le",
      "cda c",
      "adc c",
      "fdf a",
      "fdf c",
      "star ting",
      "............ ..",
      "en abl",
      "xffff c",
      "read y",
      "read ing",
      "nda nt",
      "communic ating",
      "........................ ...",
      "tes ting",
      "aler ts",
      "bu ffer",
      "nect ion",
      "con nection",
      ".................... .",
      "sle s",
      "full test",
      "fad y",
      "redu ndant",
      "pw roff",
      "form at",
      "clo se",
      "iwhi chcardsto",
      "siz e",
      "tun ed",
      "unex pected",
      "iwhichcardsto pwroff",
      "/ )",
      "/ ../",
      "= =",
      "a m",
      "a ver",
      "b ca",
      "b is",
      "b ffc",
      "c s",
      "c ff",
      "c pp",
      "c ount",
      "d cec",
      "e ss",
      "e of",
      "e fff",
      "e ffa",
      "e we",
      "f g",
      "f m",
      "f af",
      "f eb",
      "f ced",
      "g u",
      "g ni",
      "h it",
      "i tor",
      "k map",
      "l b",
      "l w",
      "l ib",
      "m y",
      "m ul",
      "n g",
      "n k",
      "o b",
      "o le",
      "o gni",
      "p ur",
      "r t",
      "r ef",
      "s ses",
      "s ic",
      "t a",
      "t x",
      "t add",
      "t able",
      "t ur",
      "t ue",
      "v x",
      "x aa",
      "y un",
      "y gi",
      "z ed",
      "ff dc",
      "ff fc",
      "ff ac",
      "ff cb",
      "ar d",
      "de mo",
      "no rm",
      "ce fc",
      "ce bf",
      "ce cf",
      "ce ac",
      "par md",
      "lo ewe",
      "ef ce",
      "ef ec",
      "ef ed",
      "ef ba",
      "ef ca",
      "ef cf",
      "ido s",
      "ido chip",
      "ido mar",
      "um p",
      "part ad",
      "dd cc",
      "dc b",
      "dc dc",
      "dc bc",
      "ca ce",
      "ca bc",
      "ca cf",
      "re ver",
      "re starting",
      "db d",
      "db lw",
      "da ce",
      "da ec",
      "df a",
      "df d",
      "df cc",
      "df bc",
      ".... .",
      ".... ...",
      "fc de",
      "bf ec",
      "ra l",
      "al iz",
      "ac bc",
      "cond ition",
      "on g",
      "bgl idochip",
      "te nt",
      "il l",
      "ll ap",
      "gene ral",
      "mp s",
      "pp ing",
      "un der",
      "un able",
      "un rec",
      "ex press",
      "ke n",
      "mpi ch",
      "-- >",
      "pl us",
      "tree addr",
      "ni el",
      "fce a",
      "fce b",
      "po se",
      "efe ff",
      "adb c",
      "ada c",
      "cp u",
      "fdc c",
      "min us",
      "activ ating",
      "ri ver",
      "con fi",
      "con tent",
      "dca che",
      "full y",
      "access ible",
      "devel f",
      "ofdirty lines",
      "ofdirty dblw",
      "la w",
      "mon itor",
      "str ong",
      "cons ole",
      "testqbox hang",
      "inter nal",
      "aver ages",
      "cs ar",
      "count er",
      "ess l",
      "fg ygi",
      "ogni zed",
      "pur pose",
      "ref resh",
      "tx t",
      "tadd river",
      "yun sic",
      "norm aliz",
      "idomar sh",
      "rever se",
      "unrec ognized",
      "express ion",
      "niel sen",
      "content ion",
      "ofdirtydblw ord",
      "normaliz ed",
      ") :",
      ") ........................",
      "a le",
      "a il",
      "a cec",
      "a cac",
      "a ccc",
      "a efe",
      "a bac",
      "b g",
      "b ffd",
      "b ri",
      "c i",
      "c pes",
      "c law",
      "d ue",
      "e p",
      "e nt",
      "e ffe",
      "e ffb",
      "e ffc",
      "e ffd",
      "f r",
      "f y",
      "f ddc",
      "f low",
      "h el",
      "i ad",
      "i der",
      "i fy",
      "j or",
      "j ect",
      "j ag",
      "l s",
      "l eep",
      "l ate",
      "m f",
      "n l",
      "o wn",
      "p ec",
      "p th",
      "p counter",
      "s mi",
      "s am",
      "s leep",
      "s pec",
      "t ip",
      "t eb",
      "t lb",
      "u sh",
      "u na",
      "u es",
      "u ation",
      "w a",
      "w id",
      "w are",
      "w ard",
      "x da",
      "x ad",
      "x fa",
      "ff de",
      "ff ce",
      "ff cc",
      "ff ae",
      "ff cd",
      "ff fe",
      "de de",
      "de dd",
      "de cc",
      "de bc",
      "de pth",
      "no sleep",
      "in ex",
      "in ity",
      "in uation",
      "ce dd",
      "ce cd",
      "ce bd",
      "ce sses",
      "se que",
      "ch ar",
      "ch ild",
      "ch own",
      "or der",
      "ffff ca",
      "nd ir",
      "nd wid",
      "par ame",
      "ee dc",
      "fffff e",
      "service mailbox",
      "lo p",
      "lo ne",
      "pro cesses",
      "io state",
      "io exception",
      "ba ndwid",
      "ef ee",
      "ef ef",
      "ef dd",
      "ef bf",
      "ef be",
      "ef ac",
      "ef bb",
      "ef bd",
      "ef cb",
      "ef eb",
      "ef lu",
      "to ward",
      "the r",
      "new s",
      "pre st",
      "ea m",
      "dd fc",
      "dd ac",
      "cc bc",
      "cc bf",
      "cc cf",
      "ca n",
      "ca ec",
      "ca dc",
      "ca fc",
      "ca bf",
      "ca cd",
      "ca ac",
      "ca bd",
      "re pl",
      "db b",
      "db dc",
      "da cb",
      "df b",
      "df ed",
      "df ac",
      "df bb",
      "err str",
      "fc ff",
      "fc ce",
      "fc dd",
      "fc db",
      "fc da",
      "fc df",
      "fc be",
      "bf ea",
      "bf bb",
      "bf eb",
      "st ir",
      "ra ck",
      "cf b",
      "al lr",
      "al loc",
      "al ready",
      "ac ing",
      "bb de",
      "fi el",
      "ge te",
      "ver ify",
      "ma in",
      "ma jor",
      "ab cc",
      "ab fc",
      "ab bc",
      "cb ea",
      "cb bc",
      "det ail",
      "fa ec",
      "........ ...",
      "bgl a",
      "fe ffff",
      "fd ff",
      "su p",
      "il able",
      "fb ca",
      "fb bc",
      "by teb",
      "ll nl",
      "nc y",
      "ru ns",
      "ru ndir",
      "fail ure",
      "per claw",
      "log user",
      "................ ................",
      "tr iad",
      "fcc d",
      "fcc f",
      "ck pt",
      "symbol s",
      "pas ci",
      "sof t",
      "fce e",
      "fce f",
      "edram s",
      "com mand",
      "adf c",
      "hy perclaw",
      "adc ast",
      "ue st",
      "cp m",
      "inf inity",
      "fl ush",
      "req uest",
      "va lone",
      "va ilable",
      "cont inuation",
      "bec a",
      "get ting",
      "flo pcounter",
      "res ource",
      "ter s",
      "ri ch",
      "ms g",
      "cab ot",
      "aler io",
      ".................... ..",
      ".................... ...",
      "ulrike tests",
      "deve lop",
      "ffffff fc",
      "assert ion",
      "edu ce",
      "zero byteb",
      "stream triad",
      "bdb b",
      "proble ms",
      "pap i",
      "redu ce",
      "tra in",
      "tra ce",
      "mod u",
      "xfffff e",
      "net work",
      "cons ider",
      "hw stab",
      "que ue",
      "mailbox monitor",
      "bro adcast",
      "enabl eflu",
      "mul tip",
      "parmd g",
      "idomarsh alerio",
      "bri an",
      "ep streamtriad",
      "late ncy",
      "smi th",
      "una vailable",
      "inex act",
      "parame ters",
      "servicemailbox es",
      "bandwid th",
      "prest a",
      "repl acing",
      "stir tur",
      "allr educe",
      "gete l",
      "detail ed",
      "loguser info",
      "flopcounter s",
      "zerobyteb ug",
      "enableflu sh",
      "multip le",
      "! (",
      ") ...",
      ") .......",
      "* )",
      "= !(",
      "a ff",
      "a nt",
      "a efc",
      "a ffd",
      "a ug",
      "a fffffff",
      "a mon",
      "b ip",
      "b bf",
      "b ffe",
      "b cec",
      "b bac",
      "c u",
      "c v",
      "c ou",
      "c li",
      "c bac",
      "d y",
      "d ffc",
      "d ump",
      "e k",
      "e mp",
      "f o",
      "f er",
      "f ur",
      "f efc",
      "f dec",
      "f ecc",
      "f bac",
      "f cab",
      "f caf",
      "f daf",
      "g p",
      "g at",
      "g ing",
      "g file",
      "g bgl",
      "g un",
      "h er",
      "h an",
      "i se",
      "i ss",
      "i st",
      "i te",
      "i ve",
      "i es",
      "i ap",
      "i cache",
      "k t",
      "l d",
      "l are",
      "m ing",
      "m all",
      "m eam",
      "o de",
      "p u",
      "p ll",
      "p eer",
      "p ux",
      "p net",
      "p kt",
      "q x",
      "q rt",
      "r w",
      "r ing",
      "r flo",
      "r fft",
      "s par",
      "s us",
      "s on",
      "s pa",
      "s com",
      "s compare",
      "s mall",
      "s qrt",
      "t z",
      "t ou",
      "t mp",
      "t ru",
      "t xyz",
      "u bgl",
      "v ac",
      "w in",
      "w ra",
      "w al",
      "x ff",
      "x de",
      "x ef",
      "x ca",
      "x db",
      "x fc",
      "x ae",
      "x bb",
      "x af",
      "x fee",
      "x vicar",
      "y x",
      "y es",
      "ff ec",
      "ff ee",
      "ff ba",
      "ff db",
      "ff da",
      "ff bf",
      "ff ad",
      "ff be",
      "ff cf",
      "ff bb",
      "ff bd",
      "ff af",
      "ff ab",
      "ff add",
      "ff bfb",
      "ff aeb",
      "ff afa",
      "ff afb",
      "ar ch",
      "ar ty",
      "ar il",
      "ar ant",
      "de ce",
      "de ec",
      "de ed",
      "de fc",
      "de bf",
      "de fe",
      "de normalized",
      "no io",
      "no comm",
      "no zerobytebug",
      "ce ca",
      "ce db",
      "ce da",
      "ce ab",
      "ce eb",
      "card s",
      "se ver",
      "se ille",
      "se ek",
      "se arch",
      "ch mod",
      "ch amon",
      "ec ce",
      "ec bc",
      "ec ac",
      "ec ise",
      "at temp",
      "or aril",
      "ffff ffc",
      "pr ecise",
      "ct l",
      "nd ro",
      "ee ec",
      "ee bea",
      "vi de",
      "vi sus",
      "service network",
      "lo st",
      "lo ng",
      "ed de",
      "ed ba",
      "ed da",
      "ed fc",
      "ed bb",
      "ed fa",
      "ed ump",
      "ba l",
      "ba ec",
      "ba dc",
      "ba cc",
      "ba bc",
      "ba ac",
      "ba ab",
      "ba nk",
      "ef aa",
      "ef ccb",
      "ef aea",
      "ef dbc",
      "ef dcd",
      "ef cfd",
      "sy ste",
      "sy ndro",
      "th under",
      "ion i",
      "to ken",
      "ido trans",
      "ido cli",
      "new map",
      "pre sent",
      "pre qx",
      "part ition",
      "sh ot",
      "er ist",
      "ea ae",
      "dd ff",
      "dd md",
      "bffff a",
      "bffff d",
      "dc dd",
      "dc da",
      "dc bf",
      "dc ac",
      "dc ode",
      "cc ba",
      "cc dd",
      "cc da",
      "ca ee",
      "ca be",
      "ca eb",
      "ca use",
      "re mer",
      "db ec",
      "db fc",
      "db bc",
      "db fd",
      "db remer",
      "da cc",
      "da da",
      "da fc",
      "da bc",
      "da cd",
      "da cf",
      "da ac",
      "le n",
      "err han",
      "fc fc",
      "fc ffe",
      "fc bfa",
      "fc dcf",
      "fc dbf",
      "bc dc",
      "bc ast",
      "bf ee",
      "bf ed",
      "bf ac",
      "bf af",
      "bf dea",
      "ae ec",
      "st u",
      "st ill",
      "ad v",
      "be bd",
      "cd fffe",
      "ra i",
      "cf af",
      "al ity",
      "al location",
      "ac s",
      "ac fc",
      "ac bf",
      "ac bb",
      "co nc",
      "bb ca",
      "cor edump",
      "lin adv",
      "mi scompare",
      "bd ir",
      "fi er",
      "af bb",
      "af ter",
      "ab ec",
      "ab dc",
      "ab db",
      "cb ec",
      "cb dc",
      "cb cc",
      "cb fc",
      "aa ec",
      "aa ba",
      "aa dc",
      "aa cc",
      "aa da",
      "aa ac",
      "di vac",
      "di vide",
      "fa ce",
      "fa dc",
      "fa cc",
      "fa fc",
      "fa bc",
      "eb de",
      "eb ee",
      "eb ba",
      "eb ea",
      "eb db",
      "eb da",
      "us r",
      "bgl err",
      "bgl code",
      "fe fffff",
      "fe bc",
      "fe bf",
      "fd fffff",
      "su ite",
      "for ce",
      "nt ial",
      "recei ve",
      "fb ba",
      "fb dc",
      "fb cc",
      "fb da",
      "rat ion",
      "map files",
      "nc ate",
      "fea c",
      "fea d",
      "fea f",
      "test suite",
      "na n",
      "ddr size",
      "per son",
      "ol dcode",
      "ctr s",
      "un sign",
      "ex ter",
      "................ ............",
      "go v",
      "fcc b",
      "fcc ff",
      "fcc ce",
      "fcc bf",
      "fcc cf",
      "fcc fe",
      "ck ap",
      "pa ni",
      "ffa ec",
      "ffa ed",
      "ffa dc",
      "ti med",
      "nel s",
      "ffb ff",
      "ffb df",
      "fce bd",
      "fce cb",
      "po ll",
      "ddcmd gbgl",
      "ic s",
      "ffc df",
      "act erist",
      "efc fc",
      "efc bc",
      "efc bd",
      "perfor ming",
      "cda dc",
      "im precise",
      "dec lare",
      "eec c",
      "bfc b",
      "glo bal",
      "out put",
      "comm s",
      "ede a",
      "ede f",
      "ede fb",
      "flo at",
      "xffff b",
      "xffff d",
      "xffff ff",
      "xffff fff",
      "aea c",
      "bde a",
      "bde e",
      "mar seille",
      "port mgr",
      "bl acs",
      "fcb ea",
      "cur ioni",
      "fef efeff",
      "deb cc",
      "bea b",
      "ffaa a",
      "rese ts",
      "bdf a",
      "ms gh",
      "rec v",
      "bba b",
      "bu ild",
      "bdc b",
      "bda b",
      "vers ion",
      "la pack",
      "mod s",
      "sto pping",
      "nex t",
      "efdc b",
      "efdb d",
      "temp oraril",
      "efdf d",
      "press ing",
      "bro ken",
      "fft w",
      "send ing",
      "enabl ed",
      "close d",
      "/../ ../",
      "fm mods",
      "gu arant",
      "gu ration",
      "ob ject",
      "under flow",
      "confi gfile",
      "confi guration",
      "console ip",
      "console port",
      "ent mgr",
      "fr action",
      "hel lo",
      "sam rai",
      "spec ial",
      "wa it",
      "seque ntial",
      "char acterist",
      "order ed",
      "can not",
      "alloc ate",
      "fiel ds",
      "sup pressing",
      "soft ware",
      "modu le",
      "stirtur bdir",
      "bip arty",
      "cu pps",
      "cv s",
      "cou ld",
      "emp ty",
      "fur ther",
      "gat her",
      "gun nels",
      "iss ues",
      "rflo mp",
      "spar ing",
      "spa ce",
      "scom error",
      "tz yx",
      "tou ch",
      "tru ncate",
      "win err",
      "wra y",
      "wal k",
      "sever ed",
      "chamon ix",
      "attemp ting",
      "servicenetwork characterist",
      "syste m",
      "syndro me",
      "idotrans portmgr",
      "idocli entmgr",
      "newmap s",
      "shot s",
      "cause d",
      "receive train",
      "person ality",
      "unsign ed",
      "exter nal",
      "ckap fer",
      "pani c",
      "ddcmdgbgl v",
      "declare servicenetworkcharacterist",
      "marseille bgl",
      "msgh dr",
      "temporaril y",
      "guarant eed",
      "stirturbdir ect",
      "biparty z",
      "declareservicenetworkcharacterist ics",
      "& )",
      "& ,",
      ") '",
      ") ...........................",
      ") ......................",
      ") .......................",
      "* ,",
      "* &)",
      "- >",
      "/ .",
      "/ ./",
      "? /",
      "a y",
      "a ut",
      "a eee",
      "a edc",
      "a fcb",
      "a afa",
      "a ffaa",
      "a caf",
      "a ux",
      "b atch",
      "b ne",
      "b us",
      "b ll",
      "b fff",
      "b cac",
      "b its",
      "b ffb",
      "b dec",
      "b vn",
      "b edc",
      "b ug",
      "b ceb",
      "b ccb",
      "b efb",
      "b eda",
      "b dbc",
      "b cab",
      "b ates",
      "b caa",
      "b pnet",
      "c n",
      "c w",
      "c fff",
      "c ffa",
      "c bad",
      "c star",
      "c bfb",
      "c ceb",
      "c md",
      "c ffea",
      "c nk",
      "d g",
      "d u",
      "d ge",
      "d ram",
      "d ffa",
      "d ffd",
      "d bac",
      "d fffffff",
      "d lb",
      "e t",
      "e ffff",
      "e fffff",
      "e st",
      "e dec",
      "e cee",
      "e bfa",
      "e bfb",
      "e ceb",
      "e baa",
      "e bae",
      "e bbd",
      "e ther",
      "f sy",
      "f stat",
      "f test",
      "f edc",
      "f tests",
      "f bfb",
      "f dac",
      "f dbc",
      "f afa",
      "f baa",
      "f chown",
      "f chmod",
      "f truncate",
      "g s",
      "g in",
      "g ed",
      "g id",
      "g um",
      "g cc",
      "g root",
      "g apps",
      "g ate",
      "g rap",
      "g ctl",
      "h id",
      "h ig",
      "h ul",
      "h ard",
      "i or",
      "i vi",
      "i ted",
      "i eee",
      "i cb",
      "i mp",
      "i et",
      "j rat",
      "j ng",
      "j ob",
      "k eb",
      "k test",
      "k ill",
      "l ar",
      "l be",
      "l stat",
      "l nk",
      "l chown",
      "l seek",
      "m m",
      "m err",
      "m bl",
      "m mu",
      "m alloc",
      "n m",
      "n p",
      "n u",
      "n ce",
      "n ted",
      "n ing",
      "n le",
      "n ected",
      "n ve",
      "n com",
      "n glo",
      "n ded",
      "n msg",
      "o o",
      "o id",
      "o ol",
      "o ption",
      "p id",
      "p ing",
      "p ad",
      "p age",
      "p dbg",
      "p ages",
      "q s",
      "q u",
      "q w",
      "r s",
      "r y",
      "r ou",
      "s n",
      "s or",
      "s opt",
      "s la",
      "s law",
      "s nan",
      "s gs",
      "t c",
      "t sh",
      "t it",
      "t rap",
      "t lbe",
      "u id",
      "u mask",
      "u al",
      "u dp",
      "v t",
      "v addr",
      "v buffer",
      "v trace",
      "v oid",
      "w s",
      "w ed",
      "w atch",
      "x ec",
      "x ed",
      "x ba",
      "x dc",
      "x bc",
      "x be",
      "x cd",
      "x ac",
      "x bd",
      "x ab",
      "x cb",
      "x fe",
      "x fd",
      "x fb",
      "x fff",
      "x ffd",
      "x bfe",
      "x fcd",
      "x bfa",
      "x afd",
      "y ur",
      "| |",
      "ff fa",
      "ff fd",
      "ff fb",
      "ff cec",
      "ff ced",
      "ff bfe",
      "ff bfd",
      "ff cee",
      "ff bfa",
      "ff acb",
      "ff baa",
      "ff dcc",
      "ff dcd",
      "ff caf",
      "ff bcb",
      "ff bae",
      "ff cae",
      "ff cef",
      "ff caa",
      "ff afe",
      "ff dda",
      "ff bbd",
      "ff bab",
      "ff dbf",
      "ff bbb",
      "ff baf",
      "ar gum",
      "de n",
      "de df",
      "de bb",
      "de bd",
      "de ab",
      "de eb",
      "de fb",
      "de eca",
      "de groot",
      "no p",
      "no pr",
      "no ni",
      "no va",
      "no apc",
      "in k",
      "in form",
      "in ject",
      "ce df",
      "ce be",
      "ce bb",
      "ce fd",
      "ce pt",
      "se mbl",
      "se tit",
      "ch ch",
      "ch ing",
      "ec ff",
      "ec de",
      "ec ba",
      "ec cc",
      "ec da",
      "ec ae",
      "ec ad",
      "ec bb",
      "ec af",
      "ec fa",
      "ec fe",
      "ec ccc",
      "ec dca",
      "ec vbuffer",
      "at all",
      "at ive",
      "ser ved",
      "do g",
      "do main",
      "or age",
      "ffff e",
      "ffff ffd",
      "pr ivi",
      "as on",
      "as sembl",
      "ss ible",
      "ct est",
      "ct ool",
      "ee ce",
      "ee ba",
      "ee db",
      "ee fc",
      "ee bc",
      "ee bf",
      "ee ae",
      "ee bb",
      "ee bd",
      "ml ink",
      "fffff c",
      "fffff d",
      "fffff efa",
      "vi rt",
      "lo or",
      "lo cal",
      "lo ader",
      "lo nglo",
      "pro f",
      "ed dc",
      "ed cc",
      "ed ca",
      "ed df",
      "ed bc",
      "ed ac",
      "ed aa",
      "ed bae",
      "iar y",
      "id x",
      "id mp",
      "cess ive",
      "ba fc",
      "ba bf",
      "ba ae",
      "ba bb",
      "ba cb",
      "ba eb",
      "ba ck",
      "ne are",
      "ef ad",
      "ef ddc",
      "ef ccc",
      "ef ccd",
      "ef efe",
      "ef adf",
      "ef bfe",
      "ef bfc",
      "ef edc",
      "ef bfd",
      "ef ecf",
      "ef edb",
      "ef eea",
      "ef efd",
      "ef cca",
      "ef eef",
      "ef deb",
      "ef afb",
      "ef edd",
      "ef eca",
      "ef baa",
      "ef dcc",
      "ef eeb",
      "ef caf",
      "ef bcb",
      "ef ecd",
      "ef dca",
      "ef eaa",
      "ef daf",
      "ef dea",
      "ef def",
      "ef cef",
      "ef eab",
      "ef ddb",
      "ef caa",
      "ef dfc",
      "ef cfe",
      "ef dda",
      "ef ddd",
      "ef dcf",
      "ef daa",
      "ef bcd",
      "ef bbd",
      "ef ddf",
      "ef dfe",
      "ef ecb",
      "ef baf",
      "ef efeff",
      "sy mlink",
      "th rea",
      "dat e",
      "to po",
      "to all",
      "to debugger",
      "ido msg",
      "ido msghdr",
      "ido udp",
      "new mpi",
      "new kernel",
      "new comp",
      "new hack",
      "base line",
      "of da",
      "ut ion",
      "ut ime",
      "part sn",
      "sh ort",
      "er exception",
      "ea de",
      "ea ce",
      "ea ec",
      "ea dd",
      "ea ca",
      "ea df",
      "ea fc",
      "ea bc",
      "ea bf",
      "ea be",
      "ea bd",
      "ea pp",
      "ea bea",
      "dd de",
      "dd ba",
      "dd dd",
      "dd ca",
      "dd ad",
      "dd cd",
      "dd af",
      "dd ab",
      "dd cb",
      "dd ir",
      "dd abe",
      "dc u",
      "dc ce",
      "dc db",
      "dc df",
      "dc ae",
      "dc cd",
      "dc cf",
      "dc bd",
      "dc af",
      "dc cb",
      "dc aee",
      "nodecard s",
      "cc r",
      "cc ca",
      "cc db",
      "cc be",
      "cc ac",
      "cc bd",
      "cc af",
      "cc ab",
      "cc fa",
      "cc sam",
      "ca de",
      "ca ba",
      "ca ea",
      "ca dd",
      "ca db",
      "ca cb",
      "ca aa",
      "ca eeb",
      "ca ffee",
      "ca noni",
      "ca ching",
      "re nc",
      "re tag",
      "re started",
      "re name",
      "re gctl",
      "re served",
      "re ason",
      "db de",
      "db ea",
      "db dd",
      "db cc",
      "db cr",
      "db sr",
      "db lock",
      "da ea",
      "da dc",
      "da df",
      "da bf",
      "da bb",
      "da bd",
      "da af",
      "da fdc",
      "da abd",
      "da abe",
      "df de",
      "df ec",
      "df dc",
      "df bf",
      "df ae",
      "df cf",
      "df cb",
      "df dac",
      "df afa",
      "le me",
      "le ve",
      "le ged",
      "err ecvbuffer",
      "fc ba",
      "fc bf",
      "fc bb",
      "fc bd",
      "fc fa",
      "fc fd",
      "fc fff",
      "fc ddc",
      "fc fcc",
      "fc cec",
      "fc ffd",
      "fc dec",
      "fc bfe",
      "fc bff",
      "fc fcd",
      "fc bfb",
      "fc ceb",
      "fc bec",
      "fc bac",
      "fc bde",
      "fc fcb",
      "fc deb",
      "fc cea",
      "fc baa",
      "fc dcd",
      "fc dca",
      "fc ded",
      "fc daf",
      "fc ddb",
      "fc ddd",
      "fc daa",
      "fc bab",
      "fc dfe",
      "fc bcf",
      "fc dae",
      "fc beb",
      "fc bbb",
      "fc dbe",
      "fc dab",
      "fc dbd",
      "fc dfd",
      "bc da",
      "bc fc",
      "bc bc",
      "bc bf",
      "bc be",
      "bf de",
      "bf cc",
      "bf ca",
      "bf da",
      "bf bf",
      "bf ab",
      "bf aa",
      "bf dac",
      "bf bab",
      "bf baf",
      "bf dab",
      "bf cefc",
      "ae de",
      "ae bf",
      "ae be",
      "ae bb",
      "ae bd",
      "ae ffa",
      "st and",
      "st ro",
      "st name",
      "st orage",
      "ad ce",
      "ad ded",
      "be ba",
      "be bc",
      "be bf",
      "be be",
      "be bb",
      "be bfdc",
      "be gin",
      "cd de",
      "cd ce",
      "cio db",
      "cf de",
      "cf ee",
      "cf ca",
      "cf bc",
      "cf ecf",
      "cf lu",
      "cf dddc",
      "cf loor",
      "al eam",
      "al errecvbuffer",
      "ac dd",
      "ac da",
      "ac bd",
      "ac cec",
      "ac cept",
      "bb ec",
      "bb dc",
      "bb db",
      "bb bb",
      "bb ccf",
      "bb dee",
      "lin fo",
      "mi b",
      "mi cr",
      "bd de",
      "file system",
      "ge n",
      "ge tr",
      "ver bo",
      "af de",
      "af cc",
      "af db",
      "af bc",
      "af be",
      "af bd",
      "af ebf",
      "is o",
      "ma ke",
      "ma xb",
      "ma keb",
      "ab ed",
      "ab ef",
      "ab ea",
      "ab dd",
      "ab ca",
      "cb de",
      "cb ba",
      "cb dd",
      "cb ca",
      "cb rt",
      "linkcard s",
      "aa ee",
      "aa fc",
      "aa bc",
      "aa bf",
      "aa cd",
      "aa bb",
      "aa af",
      "di ed",
      "me hul",
      "corr upt",
      "fa de",
      "fa ee",
      "fa ef",
      "fa bf",
      "fa ad",
      "fa bd",
      "fa cee",
      "fa ecd",
      "fa edbae",
      "add a",
      "eb ce",
      "eb ed",
      "eb ca",
      "eb bc",
      "eb eee",
      "addre sses",
      "gl p",
      "dcr s",
      "us age",
      "on ly",
      "bgl c",
      "bgl sys",
      "bgl ctl",
      "bgl personality",
      "fe ec",
      "fe bd",
      "fe ffe",
      "fe tch",
      "fd de",
      "fd ffc",
      "fd ffffe",
      "over able",
      "over flow",
      "ro cstar",
      "ro ws",
      "ro cflu",
      "su bne",
      "director ies",
      "te xception",
      "te tsh",
      "il iary",
      "nt ry",
      "fb de",
      "fb ec",
      "fb ef",
      "fb db",
      "fb fc",
      "fb bf",
      "fb be",
      "fb bae",
      "val ues",
      "valid ate",
      "by te",
      "fee b",
      "fee aa",
      "map ping",
      "ll ing",
      "ll point",
      "ll seek",
      "mp xl",
      "mp ill",
      "fea b",
      "fea aa",
      "ho t",
      "ho stname",
      "pt arget",
      "test scrip",
      "test long",
      "it z",
      "inst r",
      "inst all",
      "log file",
      "log ical",
      "log ies",
      "pp ed",
      "pp cfloor",
      "un link",
      "un it",
      "un imp",
      "ex it",
      "ex ited",
      "ex cessive",
      "................ ....................",
      "................ .................",
      "................ ...............",
      "................ .............",
      "ke i",
      "ke texception",
      "fcc a",
      "fcc de",
      "fcc ba",
      "fcc dd",
      "fcc df",
      "fcc ae",
      "fcc be",
      "fcc cd",
      "fcc ac",
      "fcc bb",
      "fcc bd",
      "fcc af",
      "fcc ab",
      "fcc aa",
      "fcc fa",
      "fcc fd",
      "fcc fb",
      "cec fc",
      "sen sor",
      "mpi hp",
      "pl ic",
      "pa vtrace",
      "up date",
      "ffa ff",
      "ffa de",
      "ffa ee",
      "ffa ea",
      "ffa cc",
      "ffa ca",
      "ffa db",
      "ffa da",
      "ffa df",
      "ffa fc",
      "ffa bf",
      "ffa ae",
      "ffa cf",
      "ffa ac",
      "ffa af",
      "ffa ab",
      "fun ctest",
      "ffb de",
      "ffb ec",
      "ffb ed",
      "ffb cc",
      "ffb ca",
      "ffb db",
      "ffb da",
      "ffb fc",
      "ffb bc",
      "ffb bf",
      "ffb be",
      "ffb ffbff",
      "fce ff",
      "fce ec",
      "fce ed",
      "fce cc",
      "fce ca",
      "fce db",
      "fce da",
      "fce bc",
      "fce bf",
      "fce ae",
      "fce ad",
      "fce be",
      "fce cd",
      "fce bb",
      "fce af",
      "fce eb",
      "fce fe",
      "fce fd",
      "po p",
      "po pt",
      "po ssible",
      "ic bcast",
      "ffc de",
      "ffc bc",
      "ffc bf",
      "ffc bb",
      "ffc bd",
      "scratch pad",
      "ag ging",
      "efc da",
      "efc df",
      "efc be",
      "efc bb",
      "efc bad",
      "li st",
      "efe ce",
      "efe bc",
      "efe bb",
      "efe bd",
      "adb e",
      "xa ed",
      "xa bb",
      "ffd ce",
      "cdb e",
      "cdf bab",
      "com mit",
      "adf a",
      "im er",
      "micro loader",
      "adc b",
      "cdc a",
      "cdc f",
      "rea ddir",
      "rea dblock",
      "bff ee",
      "bff ea",
      "bff bc",
      "bff cf",
      "bff ac",
      "bff dea",
      "eff ef",
      "eff ca",
      "eff bc",
      "eff bb",
      "eff bd",
      "eff ab",
      "eff cb",
      "eff aa",
      "eff fe",
      "eff fd",
      "ir q",
      "time s",
      "time ofda",
      "cp grap",
      "eec b",
      "sppm opt",
      "fdf b",
      "fdf e",
      "fdf db",
      "fdf df",
      "fdf ae",
      "fdf ac",
      "fdf eabe",
      "bfc f",
      "bfc bd",
      "glo b",
      "fcd ff",
      "fcd ce",
      "bee b",
      "bee aab",
      "ug h",
      "fl agging",
      "ade a",
      "cde a",
      "cde e",
      "bfb ec",
      "out stand",
      "cont ig",
      "ace f",
      "ace bf",
      "bec b",
      "bec d",
      "mk dir",
      "xb be",
      "xf ed",
      "xf efefeff",
      "align ed",
      "get cw",
      "get gid",
      "get pid",
      "get uid",
      "get timeofda",
      "aee a",
      "aee df",
      "fdc ff",
      "xffff cb",
      "xffff ffe",
      "xffff fffe",
      "run recv",
      "run ning",
      "bde b",
      "bde f",
      "bde ce",
      "bde cc",
      "bde ae",
      "bde aa",
      "bde cab",
      "fol d",
      "port ion",
      "fcf db",
      "fcf da",
      "fcf bf",
      "fcf be",
      "fcf bd",
      "fcf ab",
      "fcf aa",
      "read v",
      "read link",
      "bl as",
      "bl ast",
      "efb ef",
      "efb cc",
      "efb da",
      "efb bc",
      "efb be",
      "efd ff",
      "efd ce",
      "fcb ce",
      "fcb ba",
      "fcb dd",
      "fcb df",
      "random access",
      "contro lling",
      "// /",
      "aef ee",
      "acc ad",
      "min ated",
      "ter minated",
      "ffea eb",
      "all c",
      "all gather",
      "all toall",
      "........................ ..",
      "fef cd",
      "fef cf",
      "fef ab",
      "fef eb",
      "fef afa",
      "fef abb",
      "cea be",
      "afa bf",
      "bea c",
      "bea d",
      "bbc b",
      "fbc d",
      "fbc beb",
      "mira nova",
      "mem test",
      "mem mon",
      "ap u",
      "bdf c",
      "bdf e",
      "bdf ea",
      "cce ea",
      "cce da",
      "rec overable",
      "bba e",
      "bba de",
      "bba dbe",
      "fec b",
      "fec fc",
      "che mb",
      "() '",
      "afc bf",
      "bu sy",
      "bda e",
      "dr v",
      "target close",
      "xd cef",
      "con st",
      "con nected",
      "aaa bc",
      "old kernel",
      "gr ound",
      "clear port",
      "acf a",
      "bcc ac",
      "lu kei",
      "dca af",
      "fde e",
      "fde f",
      "fde ad",
      "so on",
      "ul len",
      "ul ative",
      "initializ ation",
      "initializ eapp",
      "bef cc",
      "bbe b",
      "fdb b",
      "fdb df",
      "fdb bf",
      "fbb b",
      "fab ea",
      "fab dd",
      "fab da",
      "ffffff fa",
      "ffffff fe",
      "ffffff fb",
      "daf ca",
      "copro c",
      "soc ketexception",
      "br k",
      "cbe b",
      "fba b",
      "def bf",
      "non contig",
      "cccc ccc",
      "cccc cccd",
      "sel ftest",
      "ste pping",
      "stre itz",
      "dff acb",
      "dis connected",
      "fda e",
      "fda ea",
      "jeff greeno",
      "sca ncom",
      "tra pping",
      "tra pped",
      "feff fc",
      "control descriptor",
      "write v",
      "write log",
      "cj m",
      "fbf ee",
      "xfffff ef",
      "xfffff dc",
      "xfffff ebc",
      "ore start",
      "efdb b",
      "efdb e",
      "pw d",
      "rm w",
      "rm dir",
      "efda b",
      "efdf b",
      "fcdc b",
      "exec ution",
      "prefetch ing",
      "prefetch es",
      "dba af",
      "hang test",
      "xbf aeb",
      "send packet",
      "send msg",
      "send train",
      "inter face",
      "bffc bf",
      "fm m",
      "lib visus",
      "mul ti",
      "ob ar",
      "ta u",
      "tur n",
      "xaa de",
      "efcf b",
      "refresh es",
      "idomarsh alerrecvbuffer",
      "bg linfo",
      "fr eed",
      "hel low",
      "spec ulative",
      "wa ve",
      "xda abe",
      "nosleep yes",
      "nosleep nocomm",
      "seque nce",
      "order ing",
      "bbde ba",
      "fiel d",
      "verify stu",
      "failure s",
      "flush ing",
      "modu lo",
      "stirtur bpnet",
      "bffe bcbe",
      "dy na",
      "fo obar",
      "pu ll",
      "xff fead",
      "xfc ffd",
      "yes zerobytebug",
      "nocomm nosleep",
      "ddmd v",
      "fcbfa bd",
      "bcast v",
      "bfee fe",
      "bfaf ec",
      "stu dy",
      "aaec ab",
      "poll controldescriptor",
      "recv msghdr",
      "gather ing",
      "walk up",
      "system controller",
      "ay oo",
      "aut orestart",
      "aux iliary",
      "batch files",
      "cn vt",
      "cmd line",
      "dg test",
      "du plic",
      "dge mm",
      "ether net",
      "fsy nc",
      "hid den",
      "hig h",
      "hard ware",
      "icb i",
      "jrat t",
      "lar ge",
      "lnk ck",
      "nu llpoint",
      "nle v",
      "nmsg len",
      "qu iet",
      "rou nded",
      "sla ve",
      "slaw renc",
      "tlbe ntry",
      "watch dog",
      "xed cb",
      "yur i",
      "fffb ccf",
      "ffdda ff",
      "argum ent",
      "nopr int",
      "inform ation",
      "inject ion",
      "setit imer",
      "chch am",
      "atall begin",
      "domain s",
      "privi leged",
      "assembl y",
      "ctool s",
      "virt ual",
      "longlo ng",
      "back ground",
      "neare st",
      "threa ded",
      "topo logies",
      "idoudp mgr",
      "dddd ddd",
      "ccsam ef",
      "canoni cal",
      "retag ging",
      "leme nted",
      "leve l",
      "stro be",
      "aleam r",
      "accept ance",
      "micr on",
      "getr usage",
      "verbo se",
      "maxb ug",
      "makeb glp",
      "bglctl pavtrace",
      "fdffc be",
      "rocflu idmp",
      "subne ts",
      "tetsh hot",
      "mpxl c",
      "ptarget mgr",
      "testscrip ts",
      "unimp lemented",
      "mpihp m",
      "functest s",
      "cpgrap h",
      "beeaab ff",
      "outstand ing",
      "getcw d",
      "gettimeofda y",
      "chemb io",
      "initializeapp memory",
      "jeffgreeno ugh",
      "sendmsg todebugger",
      "nosleepyes comm",
      "sequence r",
      "verifystu ff",
      "pollcontroldescriptor s",
      "duplic ate",
      "nullpoint erexception"
    ]
  }
}