{
  "version": "1.0",
  "truncation": null,
  "padding": null,
  "added_tokens": [
    {
      "id": 0,
      "content": "<pad>",
      "single_word": false,
      "lstrip": false,
      "rstrip": false,
      "normalized": false,
      "special": true
    },
    {
      "id": 1,
      "content": "<unk>",
      "single_word": false,
      "lstrip": false,
      "rstrip": false,
      "normalized": false,
      "special": true
    },
    {
      "id": 2,
      "content": " ",
      "single_word": false,
      "lstrip": false,
      "rstrip": false,
      "normalized": false,
      "special": true
    }
  ],
  "normalizer": {
    "type": "Sequence",
    "normalizers": [
      {
        "type": "NFKC"
      },
      {
        "type": "Lowercase"
      }
    ]
  },
  "pre_tokenizer": {
    "type": "Sequence",
    "pretokenizers": [
      {
        "type": "Whitespace"
      },
      {
        "type": "ByteLevel",
        "add_prefix_space": false,
        "trim_offsets": true,
        "use_regex": true
      }
    ]
  },
  "post_processor": {
    "type": "ByteLevel",
    "add_prefix_space": true,
    "trim_offsets": false,
    "use_regex": true
  },
  "decoder": null,
  "model": {
    "type": "BPE",
    "dropout": null,
    "unk_token": null,
    "continuing_subword_prefix": null,
    "end_of_word_suffix": null,
    "fuse_unk": false,
    "byte_fallback": false,
    "ignore_merges": false,
    "vocab": {
      "<pad>": 0,
      "<unk>": 1,
      " ": 2,
      "!": 3,
      "#": 4,
      "$": 5,
      "%": 6,
      "&": 7,
      "'": 8,
      "(": 9,
      ")": 10,
      "*": 11,
      "+": 12,
      ",": 13,
      "-": 14,
      ".": 15,
      "/": 16,
      "9": 17,
      ":": 18,
      ";": 19,
      "<": 20,
      "=": 21,
      ">": 22,
      "?": 23,
      "@": 24,
      "[": 25,
      "\\": 26,
      "]": 27,
      "_": 28,
      "`": 29,
      "a": 30,
      "b": 31,
      "c": 32,
      "d": 33,
      "e": 34,
      "f": 35,
      "g": 36,
      "h": 37,
      "i": 38,
      "j": 39,
      "k": 40,
      "l": 41,
      "m": 42,
      "n": 43,
      "o": 44,
      "p": 45,
      "q": 46,
      "r": 47,
      "s": 48,
      "t": 49,
      "u": 50,
      "v": 51,
      "w": 52,
      "x": 53,
      "y": 54,
      "z": 55,
      "|": 56,
      "99": 57,
      "9999": 58,
      "ff": 59,
      "99999999": 60,
      "ar": 61,
      "999": 62,
      "de": 63,
      "se": 64,
      "no": 65,
      "in": 66,
      "ce": 67,
      "car": 68,
      "card": 69,
      "node": 70,
      "ch": 71,
      "at": 72,
      "99999": 73,
      "ec": 74,
      "or": 75,
      "ser": 76,
      "do": 77,
      "ffff": 78,
      "),": 79,
      "pr": 80,
      "9999999999999999": 81,
      "vp": 82,
      "vpd": 83,
      "ip": 84,
      "ed": 85,
      "on": 86,
      "ss": 87,
      "pro": 88,
      "lo": 89,
      "id": 90,
      "ou": 91,
      "serv": 92,
      "as": 93,
      "ct": 94,
      "ee": 95,
      "nd": 96,
      "par": 97,
      "ion": 98,
      "fffff": 99,
      "ml": 100,
      "ice": 101,
      "service": 102,
      "999999999999999999999999": 103,
      "dear": 104,
      "iar": 105,
      "proce": 106,
      "not": 107,
      "999999": 108,
      "eck": 109,
      "process": 110,
      "check": 111,
      "processor": 112,
      "ecid": 113,
      "slo": 114,
      "slot": 115,
      "atch": 116,
      "th": 117,
      "ound": 118,
      "match": 119,
      "found": 120,
      "er": 121,
      "ab": 122,
      "ing": 123,
      "ne": 124,
      "sy": 125,
      "ted": 126,
      "for": 127,
      "pe": 128,
      "the": 129,
      "st": 130,
      "tt": 131,
      "to": 132,
      "sym": 133,
      "of": 134,
      "ask": 135,
      "dat": 136,
      "sh": 137,
      "mask": 138,
      "new": 139,
      "ase": 140,
      "ido": 141,
      "serted": 142,
      "um": 143,
      "chip": 144,
      "into": 145,
      "abase": 146,
      "database": 147,
      "inserted": 148,
      "ction": 149,
      "ty": 150,
      "num": 151,
      "pre": 152,
      "efor": 153,
      "type": 154,
      "999999999999999999999999999": 155,
      "parefor": 156,
      "preparefor": 157,
      "prepareforservice": 158,
      "))": 159,
      "mcard": 160,
      "sernum": 161,
      "ctn": 162,
      "mlctn": 163,
      "mcardsernum": 164,
      "part": 165,
      "mip": 166,
      "mtype": 167,
      "mlp": 168,
      "action": 169,
      "wn": 170,
      "shu": 171,
      "down": 172,
      "tting": 173,
      "shutting": 174,
      "9999999999999999999999999999": 175,
      "le": 176,
      "nt": 177,
      "..": 178,
      "99999999999999": 179,
      "om": 180,
      "re": 181,
      "ad": 182,
      "li": 183,
      "ea": 184,
      "com": 185,
      "im": 186,
      "te": 187,
      "by": 188,
      "hk": 189,
      "xy": 190,
      "ssion": 191,
      "proxy": 192,
      "bffff": 193,
      "fe": 194,
      "session": 195,
      "dc": 196,
      "ent": 197,
      "eeee": 198,
      "nodecard": 199,
      "ime": 200,
      "fi": 201,
      "9999999": 202,
      "cc": 203,
      "con": 204,
      "time": 205,
      "tes": 206,
      "bytes": 207,
      "file": 208,
      "err": 209,
      "kb": 210,
      "ge": 211,
      "ac": 212,
      "error": 213,
      "cd": 214,
      "ffffffff": 215,
      "is": 216,
      "ma": 217,
      "al": 218,
      "db": 219,
      "dd": 220,
      "fc": 221,
      "....": 222,
      "stat": 223,
      "ect": 224,
      "ected": 225,
      "iv": 226,
      "da": 227,
      "clo": 228,
      "df": 229,
      "fpr": 230,
      "close": 231,
      "bc": 232,
      "ba": 233,
      "od": 234,
      "ok": 235,
      "cu": 236,
      "rece": 237,
      "receiv": 238,
      "ae": 239,
      "be": 240,
      "edu": 241,
      "ir": 242,
      "cse": 243,
      "cuhk": 244,
      "an": 245,
      "bf": 246,
      "ex": 247,
      "ps": 248,
      "il": 249,
      "ci": 250,
      "gh": 251,
      "ciod": 252,
      "fa": 253,
      "ot": 254,
      "rou": 255,
      "throu": 256,
      "through": 257,
      "lin": 258,
      "eee": 259,
      "cf": 260,
      "em": 261,
      "bd": 262,
      "cli": 263,
      "out": 264,
      "pen": 265,
      "client": 266,
      "open": 267,
      "eeeeeee": 268,
      "received": 269,
      "un": 270,
      "state": 271,
      "syst": 272,
      "system": 273,
      "bb": 274,
      "cor": 275,
      "filesystem": 276,
      "erfilesystem": 277,
      "htt": 278,
      "https": 279,
      "ca": 280,
      "sent": 281,
      "life": 282,
      "lifetime": 283,
      "mi": 284,
      "link": 285,
      "timeout": 286,
      "conn": 287,
      "and": 288,
      "9999999999": 289,
      "sessionid": 290,
      "ef": 291,
      "af": 292,
      "connect": 293,
      "ra": 294,
      "det": 295,
      "detected": 296,
      "cb": 297,
      "us": 298,
      "linkcard": 299,
      "si": 300,
      "pon": 301,
      "main": 302,
      "ated": 303,
      "domain": 304,
      "ram": 305,
      "aa": 306,
      "9999999999999": 307,
      "able": 308,
      "lu": 309,
      "av": 310,
      "ter": 311,
      "wi": 312,
      "compon": 313,
      "component": 314,
      "so": 315,
      "connection": 316,
      "dir": 317,
      "wid": 318,
      "ck": 319,
      "corr": 320,
      "lust": 321,
      "ro": 322,
      "add": 323,
      "ede": 324,
      "clust": 325,
      "fd": 326,
      "gram": 327,
      "ava": 328,
      "program": 329,
      "exce": 330,
      "........": 331,
      "go": 332,
      "corrected": 333,
      "ds": 334,
      "eb": 335,
      "ilable": 336,
      "available": 337,
      "est": 338,
      "ts": 339,
      "with": 340,
      "ssing": 341,
      "sc": 342,
      "ver": 343,
      "addre": 344,
      "missing": 345,
      "address": 346,
      "dcr": 347,
      "age": 348,
      "clusterfilesystem": 349,
      "secon": 350,
      "seconds": 351,
      "ation": 352,
      "et": 353,
      "su": 354,
      "gl": 355,
      "chan": 356,
      "lish": 357,
      "ablish": 358,
      "establish": 359,
      "ms": 360,
      "xffffffff": 361,
      "net": 362,
      "min": 363,
      "hi": 364,
      "mp": 365,
      "change": 366,
      "unavailable": 367,
      "over": 368,
      "got": 369,
      "sed": 370,
      "bgl": 371,
      "sock": 372,
      "ory": 373,
      "proces": 374,
      "whi": 375,
      "processed": 376,
      "pir": 377,
      "expir": 378,
      "established": 379,
      "iated": 380,
      "negot": 381,
      "negotiated": 382,
      "termin": 383,
      "eded": 384,
      "exceeded": 385,
      "termination": 386,
      "socket": 387,
      "expiring": 388,
      "ffffff": 389,
      "closed": 390,
      "direct": 391,
      "tor": 392,
      "serverfilesystem": 393,
      "directory": 394,
      "bo": 395,
      "which": 396,
      "og": 397,
      "--": 398,
      "had": 399,
      "per": 400,
      "goog": 401,
      "google": 402,
      "co": 403,
      "served": 404,
      "such": 405,
      "root": 406,
      "999999999": 407,
      "val": 408,
      "ger": 409,
      "ap": 410,
      "fb": 411,
      "99999999999": 412,
      "valid": 413,
      "up": 414,
      "fail": 415,
      "torus": 416,
      "ading": 417,
      "fee": 418,
      "hwid": 419,
      "image": 420,
      "sw": 421,
      "invalid": 422,
      "hom": 423,
      "cr": 424,
      "loading": 425,
      "get": 426,
      "core": 427,
      "wwid": 428,
      "scsi": 429,
      "lon": 430,
      "map": 431,
      "status": 432,
      "home": 433,
      "gen": 434,
      "ni": 435,
      "tar": 436,
      "failed": 437,
      "target": 438,
      "vi": 439,
      "receiver": 440,
      "gener": 441,
      "cal": 442,
      "pu": 443,
      "ww": 444,
      "longer": 445,
      "files": 446,
      "fea": 447,
      "md": 448,
      "fffffffe": 449,
      "generated": 450,
      "tr": 451,
      "sets": 452,
      "test": 453,
      "consi": 454,
      "ack": 455,
      "inconsi": 456,
      "nodesets": 457,
      "stent": 458,
      "inconsistent": 459,
      "log": 460,
      "ix": 461,
      "na": 462,
      "this": 463,
      "being": 464,
      "nc": 465,
      "qu": 466,
      "wor": 467,
      "done": 468,
      "inst": 469,
      "code": 470,
      "ld": 471,
      "work": 472,
      "ic": 473,
      "ddr": 474,
      "lr": 475,
      "ru": 476,
      "pt": 477,
      "put": 478,
      "input": 479,
      "sn": 480,
      "server": 481,
      "nf": 482,
      "network": 483,
      "der": 484,
      "ls": 485,
      "cou": 486,
      "me": 487,
      "nb": 488,
      "instru": 489,
      "instruction": 490,
      "ll": 491,
      "domains": 492,
      "nodes": 493,
      "mpi": 494,
      "targeting": 495,
      "hw": 496,
      "unix": 497,
      "mand": 498,
      "swl": 499,
      "could": 500,
      "mission": 501,
      "ctr": 502,
      "xer": 503,
      "data": 504,
      "command": 505,
      "pip": 506,
      "login": 507,
      "pipe": 508,
      "inter": 509,
      "fff": 510,
      "gi": 511,
      "ddc": 512,
      "chdir": 513,
      "(/": 514,
      "-[": 515,
      "ffe": 516,
      "................": 517,
      "rom": 518,
      "niff": 519,
      "ub": 520,
      "it": 521,
      "gb": 522,
      "has": 523,
      "sp": 524,
      "faa": 525,
      "from": 526,
      "eeper": 527,
      "gn": 528,
      "es": 529,
      "deo": 530,
      "ating": 531,
      "video": 532,
      "fo": 533,
      "ran": 534,
      "---": 535,
      "idu": 536,
      "temp": 537,
      "baidu": 538,
      "pl": 539,
      "int": 540,
      "edfaa": 541,
      "googlevideo": 542,
      "ption": 543,
      "img": 544,
      "cn": 545,
      "www": 546,
      "alle": 547,
      "cmd": 548,
      "ber": 549,
      "fcc": 550,
      "bol": 551,
      "sen": 552,
      "apps": 553,
      "back": 554,
      "orum": 555,
      "ssage": 556,
      "eep": 557,
      "face": 558,
      "quorum": 559,
      "message": 560,
      "fda": 561,
      "retr": 562,
      "good": 563,
      "backup": 564,
      "en": 565,
      "ve": 566,
      "tree": 567,
      "fun": 568,
      "po": 569,
      "spe": 570,
      "cec": 571,
      "sweep": 572,
      "case": 573,
      "cac": 574,
      "cases": 575,
      "fu": 576,
      "boot": 577,
      "mb": 578,
      "pa": 579,
      "ta": 580,
      "can": 581,
      "full": 582,
      "nch": 583,
      "sender": 584,
      "ev": 585,
      "smission": 586,
      "ansmission": 587,
      "interface": 588,
      "retransmission": 589,
      "event": 590,
      "ur": 591,
      "symbol": 592,
      "via": 593,
      "rank": 594,
      "ook": 595,
      "nel": 596,
      "alt": 597,
      "static": 598,
      "number": 599,
      "sign": 600,
      "calls": 601,
      "cre": 602,
      "mc": 603,
      "synch": 604,
      "star": 605,
      "bw": 606,
      "llo": 607,
      "ced": 608,
      "box": 609,
      "hu": 610,
      "pack": 611,
      "zook": 612,
      "ffb": 613,
      "exception": 614,
      "allen": 615,
      "signal": 616,
      "bwallen": 617,
      "zookeeper": 618,
      "bm": 619,
      "ial": 620,
      "ker": 621,
      "tch": 622,
      "ate": 623,
      "scr": 624,
      "io": 625,
      "sr": 626,
      "xc": 627,
      "fcd": 628,
      "sof": 629,
      "mpits": 630,
      "efc": 631,
      "sion": 632,
      "we": 633,
      "ffa": 634,
      "sys": 635,
      "scal": 636,
      "wer": 637,
      "ster": 638,
      "requ": 639,
      "regi": 640,
      "testcases": 641,
      "register": 642,
      "act": 643,
      "kin": 644,
      "tal": 645,
      "deni": 646,
      "serial": 647,
      "ipaddress": 648,
      "errup": 649,
      "fdfe": 650,
      "permission": 651,
      "feea": 652,
      "feaa": 653,
      "interrup": 654,
      "pakin": 655,
      "packet": 656,
      "kernel": 657,
      "denied": 658,
      "serialnumber": 659,
      "ali": 660,
      "ure": 661,
      "doub": 662,
      "ader": 663,
      "fce": 664,
      "qq": 665,
      "swi": 666,
      "eds": 667,
      "asm": 668,
      "adc": 669,
      "ccc": 670,
      "ccd": 671,
      "line": 672,
      "cluster": 673,
      "ddcmd": 674,
      "spasm": 675,
      "function": 676,
      "switch": 677,
      "user": 678,
      "xid": 679,
      "pla": 680,
      "scratch": 681,
      "dro": 682,
      "ph": 683,
      "syscal": 684,
      "theader": 685,
      "cdn": 686,
      "bglscratch": 687,
      "tag": 688,
      "src": 689,
      "softheader": 690,
      "activ": 691,
      "drop": 692,
      "syscalls": 693,
      "ibm": 694,
      "ple": 695,
      "dropbox": 696,
      "bff": 697,
      "bad": 698,
      "cp": 699,
      "ort": 700,
      "edram": 701,
      "fffffe": 702,
      "total": 703,
      "functional": 704,
      "cro": 705,
      "ting": 706,
      "lock": 707,
      "max": 708,
      "micro": 709,
      "follo": 710,
      "./": 711,
      "bfe": 712,
      "mid": 713,
      "rts": 714,
      "xa": 715,
      "local": 716,
      "man": 717,
      "cur": 718,
      "block": 719,
      "jtag": 720,
      "lce": 721,
      "ment": 722,
      "mod": 723,
      "comple": 724,
      "perfor": 725,
      "spelce": 726,
      "med": 727,
      "ffc": 728,
      "ada": 729,
      "cannot": 730,
      "plane": 731,
      "midplane": 732,
      "efe": 733,
      "sol": 734,
      "apsh": 735,
      "snapsh": 736,
      "creating": 737,
      ":/": 738,
      "ature": 739,
      "erature": 740,
      "res": 741,
      "exceeds": 742,
      "temperature": 743,
      "end": 744,
      "fdb": 745,
      "gou": 746,
      "was": 747,
      "adb": 748,
      "cont": 749,
      "ild": 750,
      "sogou": 751,
      "correct": 752,
      "modu": 753,
      "eff": 754,
      "pm": 755,
      "che": 756,
      "stor": 757,
      "adf": 758,
      "microseconds": 759,
      "module": 760,
      "java": 761,
      "kn": 762,
      "tmp": 763,
      "dec": 764,
      "child": 765,
      "serviceaction": 766,
      "...": 767,
      "endserviceaction": 768,
      "correctable": 769,
      "bee": 770,
      "cdc": 771,
      "ly": 772,
      "run": 773,
      "info": 774,
      "ath": 775,
      "attemp": 776,
      "lib": 777,
      "errno": 778,
      "rap": 779,
      "gooding": 780,
      "phy": 781,
      "hp": 782,
      "las": 783,
      "mar": 784,
      "ffd": 785,
      "eer": 786,
      "cdf": 787,
      "iti": 788,
      "bin": 789,
      "cce": 790,
      "dn": 791,
      "path": 792,
      "var": 793,
      "resol": 794,
      "xyz": 795,
      "cda": 796,
      "resolve": 797,
      "eec": 798,
      "tdown": 799,
      "upon": 800,
      "xfffffffe": 801,
      "zxid": 802,
      "edc": 803,
      "shutdown": 804,
      "lick": 805,
      "ffffffe": 806,
      "gith": 807,
      "sppm": 808,
      "fdae": 809,
      "performed": 810,
      "raptor": 811,
      "hpcc": 812,
      "bu": 813,
      "bfc": 814,
      "keeper": 815,
      "port": 816,
      "sin": 817,
      "eclick": 818,
      "cdb": 819,
      "bfb": 820,
      "storage": 821,
      "xyzt": 822,
      "aec": 823,
      "bi": 824,
      "el": 825,
      "nsion": 826,
      "vn": 827,
      "xe": 828,
      "tent": 829,
      "content": 830,
      "ang": 831,
      "usr": 832,
      "snapshot": 833,
      "sina": 834,
      "ade": 835,
      "cs": 836,
      "cad": 837,
      "glo": 838,
      "ite": 839,
      "mdb": 840,
      "xf": 841,
      "set": 842,
      "sho": 843,
      "glv": 844,
      "ication": 845,
      "interconnect": 846,
      "ddcmdb": 847,
      "interrupt": 848,
      "active": 849,
      "contro": 850,
      "ddcmdbglv": 851,
      "din": 852,
      "dime": 853,
      "leclick": 854,
      "fffe": 855,
      "ordin": 856,
      "bfd": 857,
      "sical": 858,
      "coordin": 859,
      "fdaf": 860,
      "request": 861,
      "doubleclick": 862,
      "physical": 863,
      "github": 864,
      "dimension": 865,
      "coordinate": 866,
      "yt": 867,
      "start": 868,
      "cde": 869,
      "flo": 870,
      "ik": 871,
      "mem": 872,
      "sli": 873,
      "tion": 874,
      "ecc": 875,
      "tests": 876,
      "wei": 877,
      "attempting": 878,
      "glosli": 879,
      "ace": 880,
      "ache": 881,
      "cab": 882,
      "dac": 883,
      "flas": 884,
      "ity": 885,
      "led": 886,
      "xb": 887,
      "are": 888,
      "cee": 889,
      "asserted": 890,
      "cdd": 891,
      "fcb": 892,
      "bfa": 893,
      "ght": 894,
      "mini": 895,
      "flash": 896,
      "fdf": 897,
      "lt": 898,
      "mk": 899,
      "peer": 900,
      "ue": 901,
      "sec": 902,
      "ine": 903,
      "org": 904,
      "ccb": 905,
      "all": 906,
      "efd": 907,
      "............": 908,
      "vel": 909,
      "been": 910,
      "weibo": 911,
      "bec": 912,
      "befor": 913,
      "mmi": 914,
      "dev": 915,
      "ceb": 916,
      "celed": 917,
      "ecf": 918,
      "edb": 919,
      "eea": 920,
      "renew": 921,
      "read": 922,
      "reset": 923,
      "comm": 924,
      "dbc": 925,
      "ired": 926,
      "api": 927,
      "failing": 928,
      "canceled": 929,
      "required": 930,
      "completion": 931,
      "before": 932,
      "bea": 933,
      "fdc": 934,
      "gent": 935,
      "ies": 936,
      "lts": 937,
      "pj": 938,
      "resu": 939,
      "ccf": 940,
      "errors": 941,
      "version": 942,
      "criti": 943,
      "power": 944,
      "align": 945,
      "follow": 946,
      "big": 947,
      "csdn": 948,
      "results": 949,
      "critical": 950,
      "**": 951,
      "aee": 952,
      "mo": 953,
      "sid": 954,
      "cart": 955,
      "chine": 956,
      "dom": 957,
      "ast": 958,
      "paralle": 959,
      "parity": 960,
      "abc": 961,
      "rent": 962,
      "ten": 963,
      "machine": 964,
      "fcf": 965,
      "aeb": 966,
      "efb": 967,
      "apache": 968,
      "random": 969,
      "quorumserver": 970,
      "quorumpeer": 971,
      "env": 972,
      "urgent": 973,
      "mccart": 974,
      "double": 975,
      "follower": 976,
      "current": 977,
      "pjmccart": 978,
      "alignment": 979,
      "parallel": 980,
      "acc": 981,
      "dr": 982,
      "latch": 983,
      "ler": 984,
      "ning": 985,
      "oo": 986,
      "pp": 987,
      "tx": 988,
      "ties": 989,
      "ffffe": 990,
      "edf": 991,
      "proper": 992,
      "abd": 993,
      "imb": 994,
      "fefff": 995,
      "cca": 996,
      "sohu": 997,
      "commun": 998,
      "followup": 999,
      "properties": 1000,
      "bbc": 1001,
      "efa": 1002,
      "rec": 1003,
      "ffea": 1004,
      "eef": 1005,
      "aef": 1006,
      "fffffff": 1007,
      "crite": 1008,
      "func": 1009,
      "interrupts": 1010,
      "vnm": 1011,
      "criteo": 1012,
      "ah": 1013,
      "am": 1014,
      "aed": 1015,
      "aea": 1016,
      "bde": 1017,
      "ble": 1018,
      "cable": 1019,
      "fbc": 1020,
      "js": 1021,
      "opt": 1022,
      "sing": 1023,
      "eda": 1024,
      "thre": 1025,
      "dcd": 1026,
      "mail": 1027,
      "........................": 1028,
      "point": 1029,
      "spent": 1030,
      "exceptions": 1031,
      "::": 1032,
      "bg": 1033,
      "bs": 1034,
      "cfc": 1035,
      "ist": 1036,
      "mir": 1037,
      "mmc": 1038,
      "use": 1039,
      "xffff": 1040,
      "inf": 1041,
      "vpes": 1042,
      "ount": 1043,
      "abe": 1044,
      "acb": 1045,
      "cau": 1046,
      "cop": 1047,
      "german": 1048,
      "apis": 1049,
      "usercontent": 1050,
      "cpmd": 1051,
      "shold": 1052,
      "device": 1053,
      "threshold": 1054,
      "mmcs": 1055,
      "germann": 1056,
      "aac": 1057,
      "br": 1058,
      "blu": 1059,
      "bit": 1060,
      "cbc": 1061,
      "dad": 1062,
      "fac": 1063,
      "gr": 1064,
      "ij": 1065,
      "wh": 1066,
      "xd": 1067,
      "yah": 1068,
      "ffaa": 1069,
      "cea": 1070,
      "doe": 1071,
      "edd": 1072,
      "stab": 1073,
      "too": 1074,
      "level": 1075,
      "revalid": 1076,
      "fig": 1077,
      "config": 1078,
      "ille": 1079,
      "anda": 1080,
      "afb": 1081,
      "sub": 1082,
      "coll": 1083,
      "miranda": 1084,
      "blue": 1085,
      "yahoo": 1086,
      "revalidating": 1087,
      ":-": 1088,
      "aab": 1089,
      "cxid": 1090,
      "ebc": 1091,
      "fde": 1092,
      "fec": 1093,
      "hdf": 1094,
      "lang": 1095,
      "mn": 1096,
      "mount": 1097,
      "ntype": 1098,
      "qpath": 1099,
      "wr": 1100,
      "xce": 1101,
      "nodeex": 1102,
      "eca": 1103,
      "onment": 1104,
      "processing": 1105,
      "synd": 1106,
      "prep": 1107,
      "reqpath": 1108,
      "ads": 1109,
      "eac": 1110,
      "dcc": 1111,
      "errorcode": 1112,
      "aler": 1113,
      "ironment": 1114,
      "dirs": 1115,
      "fdmn": 1116,
      "succe": 1117,
      "ixin": 1118,
      "enable": 1119,
      "create": 1120,
      "starting": 1121,
      "weixin": 1122,
      "registers": 1123,
      "manhu": 1124,
      "curi": 1125,
      "bug": 1126,
      "keeperexception": 1127,
      "keepererrorcode": 1128,
      "sinaimg": 1129,
      "control": 1130,
      "environment": 1131,
      "txntype": 1132,
      "communication": 1133,
      "ists": 1134,
      "when": 1135,
      "hdfs": 1136,
      "nodeexists": 1137,
      "success": 1138,
      "afc": 1139,
      "bdc": 1140,
      "bcc": 1141,
      "bdf": 1142,
      "gy": 1143,
      "gal": 1144,
      "my": 1145,
      "pin": 1146,
      "rce": 1147,
      "ube": 1148,
      "yin": 1149,
      "yout": 1150,
      "deactiv": 1151,
      "ource": 1152,
      "eeb": 1153,
      "nex": 1154,
      "nez": 1155,
      "reading": 1156,
      "lio": 1157,
      "mana": 1158,
      "clock": 1159,
      "bcb": 1160,
      "baa": 1161,
      "while": 1162,
      "commands": 1163,
      "started": 1164,
      "floating": 1165,
      "bglio": 1166,
      "caught": 1167,
      "illegal": 1168,
      "subcommands": 1169,
      "xception": 1170,
      "pinyin": 1171,
      "youtube": 1172,
      "deactivated": 1173,
      "manager": 1174,
      "()": 1175,
      "cle": 1176,
      "cbb": 1177,
      "cation": 1178,
      "dis": 1179,
      "eed": 1180,
      "fab": 1181,
      "ili": 1182,
      "olt": 1183,
      "pan": 1184,
      "pgood": 1185,
      "sram": 1186,
      "ulr": 1187,
      "volt": 1188,
      "wa": 1189,
      "xx": 1190,
      "cent": 1191,
      "atar": 1192,
      "proble": 1193,
      "eexception": 1194,
      "typ": 1195,
      "aca": 1196,
      "acd": 1197,
      "stateexception": 1198,
      "ance": 1199,
      "clients": 1200,
      "rail": 1201,
      "aaa": 1202,
      "mpgood": 1203,
      "perf": 1204,
      "googleapis": 1205,
      "googlesynd": 1206,
      "ller": 1207,
      "ike": 1208,
      "memory": 1209,
      "currently": 1210,
      "stabili": 1211,
      "illegalstateexception": 1212,
      "clear": 1213,
      "ulrike": 1214,
      "googlesyndication": 1215,
      "stability": 1216,
      "afe": 1217,
      "aae": 1218,
      "afa": 1219,
      "beck": 1220,
      "bac": 1221,
      "bda": 1222,
      "bba": 1223,
      "bffe": 1224,
      "cbf": 1225,
      "ding": 1226,
      "dur": 1227,
      "ece": 1228,
      "fae": 1229,
      "hand": 1230,
      "lp": 1231,
      "rbs": 1232,
      "sle": 1233,
      "tw": 1234,
      "uo": 1235,
      "ux": 1236,
      "war": 1237,
      "zer": 1238,
      "inni": 1239,
      "ecd": 1240,
      "orbeck": 1241,
      "stre": 1242,
      "umt": 1243,
      "eae": 1244,
      "imum": 1245,
      "acf": 1246,
      "ection": 1247,
      "bcast": 1248,
      "afd": 1249,
      "ponding": 1250,
      "wires": 1251,
      "sos": 1252,
      "going": 1253,
      "instance": 1254,
      "mesos": 1255,
      "....................": 1256,
      "mbi": 1257,
      "fully": 1258,
      "maximum": 1259,
      "responding": 1260,
      "controller": 1261,
      "ytimg": 1262,
      "ikuo": 1263,
      "single": 1264,
      "manhua": 1265,
      "during": 1266,
      "handler": 1267,
      "innity": 1268,
      "ant": 1269,
      "ambi": 1270,
      "bro": 1271,
      "dp": 1272,
      "ebe": 1273,
      "ebd": 1274,
      "fan": 1275,
      "gstatic": 1276,
      "lb": 1277,
      "mu": 1278,
      "pected": 1279,
      "source": 1280,
      "unex": 1281,
      "yat": 1282,
      "zz": 1283,
      "zhi": 1284,
      "initi": 1285,
      "aba": 1286,
      "share": 1287,
      "tech": 1288,
      "aeger": 1289,
      "bef": 1290,
      "bel": 1291,
      "cache": 1292,
      "scip": 1293,
      "long": 1294,
      "plus": 1295,
      "cnzz": 1296,
      "bolt": 1297,
      "aliz": 1298,
      "alicdn": 1299,
      "switchcontroller": 1300,
      "completed": 1301,
      "midplaneswitchcontroller": 1302,
      "election": 1303,
      "tencent": 1304,
      "doublemax": 1305,
      "draeger": 1306,
      "configur": 1307,
      "panic": 1308,
      "wait": 1309,
      "stream": 1310,
      "ambient": 1311,
      "unexpected": 1312,
      "yates": 1313,
      "zhihu": 1314,
      "initializ": 1315,
      "eab": 1316,
      "ebf": 1317,
      "fdd": 1318,
      "fps": 1319,
      "fbd": 1320,
      "hpl": 1321,
      "halt": 1322,
      "hang": 1323,
      "mas": 1324,
      "mer": 1325,
      "mdc": 1326,
      "sum": 1327,
      "sod": 1328,
      "ded": 1329,
      "dee": 1330,
      "debug": 1331,
      "cecc": 1332,
      "ssl": 1333,
      "ndm": 1334,
      "abb": 1335,
      "news": 1336,
      "../": 1337,
      "light": 1338,
      "eaa": 1339,
      "fef": 1340,
      "cdndm": 1341,
      "ive": 1342,
      "bae": 1343,
      "exe": 1344,
      "linux": 1345,
      "caf": 1346,
      "avatar": 1347,
      "changy": 1348,
      "msr": 1349,
      "copro": 1350,
      "ics": 1351,
      "gige": 1352,
      "ition": 1353,
      "esr": 1354,
      "running": 1355,
      "mary": 1356,
      "problem": 1357,
      "ulrikey": 1358,
      "fpscr": 1359,
      "master": 1360,
      "mdcask": 1361,
      "summary": 1362,
      "changyan": 1363,
      "//": 1364,
      "aw": 1365,
      "ale": 1366,
      "bce": 1367,
      "bdb": 1368,
      "bbe": 1369,
      "cm": 1370,
      "cas": 1371,
      "cae": 1372,
      "cbe": 1373,
      "cfa": 1374,
      "dce": 1375,
      "fbb": 1376,
      "gg": 1377,
      "gq": 1378,
      "ia": 1379,
      "ifi": 1380,
      "nect": 1381,
      "otting": 1382,
      "tre": 1383,
      "tcp": 1384,
      "vgq": 1385,
      "dea": 1386,
      "def": 1387,
      "send": 1388,
      "non": 1389,
      "cef": 1390,
      "onnect": 1391,
      "ssport": 1392,
      "propo": 1393,
      "asser": 1394,
      "erno": 1395,
      "str": 1396,
      "steer": 1397,
      "ntime": 1398,
      "eam": 1399,
      "feff": 1400,
      "cccc": 1401,
      "cccd": 1402,
      "acce": 1403,
      "fca": 1404,
      "ave": 1405,
      "ters": 1406,
      "grammar": 1407,
      "fffffffc": 1408,
      "googleusercontent": 1409,
      "runtime": 1410,
      "baidustatic": 1411,
      "passport": 1412,
      "blocks": 1413,
      "snapshotting": 1414,
      "://": 1415,
      "shock": 1416,
      "member": 1417,
      "mode": 1418,
      "tenmax": 1419,
      "reconnect": 1420,
      "inferno": 1421,
      "bluelight": 1422,
      "warning": 1423,
      "zero": 1424,
      "configured": 1425,
      "initializing": 1426,
      "trello": 1427,
      "tcpconn": 1428,
      "proposed": 1429,
      "grammarly": 1430,
      "/.": 1431,
      "ado": 1432,
      "aad": 1433,
      "ams": 1434,
      "ame": 1435,
      "cfe": 1436,
      "cba": 1437,
      "cmc": 1438,
      "dde": 1439,
      "dfe": 1440,
      "dfc": 1441,
      "fba": 1442,
      "hn": 1443,
      "hum": 1444,
      "page": 1445,
      "pix": 1446,
      "rfi": 1447,
      "ris": 1448,
      "sl": 1449,
      "tp": 1450,
      "wx": 1451,
      "wil": 1452,
      "you": 1453,
      "des": 1454,
      "sel": 1455,
      "notifi": 1456,
      "ther": 1457,
      "abf": 1458,
      "pes": 1459,
      "date": 1460,
      "sher": 1461,
      "idoproxy": 1462,
      "liams": 1463,
      "dca": 1464,
      "dcf": 1465,
      "alyt": 1466,
      "dbproperties": 1467,
      "dda": 1468,
      "fcac": 1469,
      "dao": 1470,
      "reception": 1471,
      "analyt": 1472,
      "addr": 1473,
      "channel": 1474,
      "googleads": 1475,
      "vicar": 1476,
      "logs": 1477,
      "name": 1478,
      "nfs": 1479,
      "itc": 1480,
      "speeds": 1481,
      "iolog": 1482,
      "adcast": 1483,
      "pht": 1484,
      "attempt": 1485,
      "usedatabase": 1486,
      "brdes": 1487,
      "successfully": 1488,
      "broadcast": 1489,
      "ggpht": 1490,
      "adobe": 1491,
      "hummer": 1492,
      "pixel": 1493,
      "rfisher": 1494,
      "risboot": 1495,
      "williams": 1496,
      "youdao": 1497,
      "notification": 1498,
      "analytics": 1499,
      "ag": 1500,
      "bed": 1501,
      "bcd": 1502,
      "dl": 1503,
      "dff": 1504,
      "ddb": 1505,
      "dmp": 1506,
      "dup": 1507,
      "eba": 1508,
      "ewer": 1509,
      "fed": 1510,
      "have": 1511,
      "ie": 1512,
      "jar": 1513,
      "jeff": 1514,
      "ky": 1515,
      "kpt": 1516,
      "knez": 1517,
      "mm": 1518,
      "oper": 1519,
      "red": 1520,
      "rst": 1521,
      "rma": 1522,
      "team": 1523,
      "unt": 1524,
      "xl": 1525,
      "ying": 1526,
      "zed": 1527,
      "fffc": 1528,
      "deb": 1529,
      "devel": 1530,
      "secu": 1531,
      "norma": 1532,
      "cece": 1533,
      "cecb": 1534,
      "chkpt": 1535,
      "edge": 1536,
      "load": 1537,
      "abort": 1538,
      "sync": 1539,
      "stack": 1540,
      "ofdir": 1541,
      "eaf": 1542,
      "ccce": 1543,
      "cdbc": 1544,
      "may": 1545,
      "ddd": 1546,
      "ddf": 1547,
      "daa": 1548,
      "antyp": 1549,
      "iller": 1550,
      "cfd": 1551,
      "bdimg": 1552,
      "caa": 1553,
      "cacc": 1554,
      "mit": 1555,
      "fbcdn": 1556,
      "update": 1557,
      "homme": 1558,
      "crc": 1559,
      "viewer": 1560,
      ".................": 1561,
      "ested": 1562,
      "retrying": 1563,
      "pos": 1564,
      "bmiller": 1565,
      "scrip": 1566,
      "userfunc": 1567,
      "mance": 1568,
      "performance": 1569,
      "contin": 1570,
      "last": 1571,
      "githubusercontent": 1572,
      "...............": 1573,
      "****": 1574,
      "ffffeffe": 1575,
      "write": 1576,
      "alert": 1577,
      "slept": 1578,
      "assert": 1579,
      "access": 1580,
      "select": 1581,
      "operation": 1582,
      "teamviewer": 1583,
      "untested": 1584,
      "secure": 1585,
      "ofdirty": 1586,
      "antypas": 1587,
      "au": 1588,
      "ause": 1589,
      "bdd": 1590,
      "bub": 1591,
      "cj": 1592,
      "cl": 1593,
      "cxx": 1594,
      "di": 1595,
      "dstatic": 1596,
      "fad": 1597,
      "fbe": 1598,
      "fbf": 1599,
      "ishu": 1600,
      "kub": 1601,
      "nal": 1602,
      "occ": 1603,
      "oba": 1604,
      "ping": 1605,
      "redu": 1606,
      "sca": 1607,
      "ul": 1608,
      "vm": 1609,
      "ydstatic": 1610,
      "descrip": 1611,
      "setting": 1612,
      "cedc": 1613,
      "cebc": 1614,
      "orters": 1615,
      "low": 1616,
      "asic": 1617,
      "eeno": 1618,
      "sto": 1619,
      "tomand": 1620,
      "partition": 1621,
      "letest": 1622,
      "limit": 1623,
      "hkg": 1624,
      "fetch": 1625,
      "eeeeeeee": 1626,
      "ccdc": 1627,
      "gene": 1628,
      "cdfc": 1629,
      "daf": 1630,
      "dahn": 1631,
      "bcf": 1632,
      "cio": 1633,
      "ota": 1634,
      "uncorrectable": 1635,
      "bbb": 1636,
      "efdc": 1637,
      "efdb": 1638,
      "rain": 1639,
      "lustre": 1640,
      ".........": 1641,
      "vers": 1642,
      "supp": 1643,
      "book": 1644,
      "caltech": 1645,
      "pur": 1646,
      "pubad": 1647,
      "install": 1648,
      "facebook": 1649,
      "taoba": 1650,
      "urred": 1651,
      "hui": 1652,
      "linear": 1653,
      "play": 1654,
      "complete": 1655,
      "solvers": 1656,
      "sogoucdn": 1657,
      "but": 1658,
      "sinajs": 1659,
      "lton": 1660,
      "greeno": 1661,
      "bluegene": 1662,
      "disable": 1663,
      "belnez": 1664,
      "avatars": 1665,
      "steering": 1666,
      "pagead": 1667,
      "idoproxydb": 1668,
      "auselton": 1669,
      "buber": 1670,
      "ishuhui": 1671,
      "kubota": 1672,
      "occurred": 1673,
      "scaletest": 1674,
      "descriptor": 1675,
      "tomandjeff": 1676,
      "supporters": 1677,
      "pubads": 1678,
      "taobao": 1679,
      "=/": 1680,
      "aaf": 1681,
      "adec": 1682,
      "bbd": 1683,
      "blog": 1684,
      "cpro": 1685,
      "cada": 1686,
      "cdec": 1687,
      "ddbc": 1688,
      "dtyp": 1689,
      "fm": 1690,
      "gm": 1691,
      "hack": 1692,
      "himg": 1693,
      "itt": 1694,
      "ian": 1695,
      "jgh": 1696,
      "lcom": 1697,
      "mtal": 1698,
      "pw": 1699,
      "pap": 1700,
      "pic": 1701,
      "qb": 1702,
      "qbox": 1703,
      "rky": 1704,
      "timg": 1705,
      "win": 1706,
      "ffbc": 1707,
      "ffca": 1708,
      "arch": 1709,
      "deac": 1710,
      "nos": 1711,
      "cho": 1712,
      "orted": 1713,
      "ffffc": 1714,
      "ndy": 1715,
      "pare": 1716,
      "services": 1717,
      "aborted": 1718,
      "form": 1719,
      "ste": 1720,
      "prefi": 1721,
      "prefetch": 1722,
      "rel": 1723,
      "remain": 1724,
      "compare": 1725,
      "first": 1726,
      "ccfc": 1727,
      "gemini": 1728,
      "fcdc": 1729,
      "......": 1730,
      "dae": 1731,
      "beb": 1732,
      "ben": 1733,
      "bench": 1734,
      "bfdc": 1735,
      "exec": 1736,
      "lines": 1737,
      "outs": 1738,
      "opening": 1739,
      "under": 1740,
      "capt": 1741,
      "efcd": 1742,
      "efdf": 1743,
      "addmember": 1744,
      "fdff": 1745,
      "dsk": 1746,
      "dsmc": 1747,
      "bglmaster": 1748,
      "socks": 1749,
      "apc": 1750,
      "app": 1751,
      "mapfile": 1752,
      "genvm": 1753,
      "testqbox": 1754,
      "quant": 1755,
      "serverdb": 1756,
      "count": 1757,
      "interval": 1758,
      "plb": 1759,
      "bootgenvm": 1760,
      "welcom": 1761,
      "scaling": 1762,
      "clusteraddmember": 1763,
      "jtagid": 1764,
      "store": 1765,
      "mark": 1766,
      "miniben": 1767,
      ".............": 1768,
      "parityalignment": 1769,
      "mailbox": 1770,
      "writt": 1771,
      "mundy": 1772,
      "hangouts": 1773,
      "sodscaling": 1774,
      "debugger": 1775,
      "there": 1776,
      "notifications": 1777,
      "hommes": 1778,
      "cjmundy": 1779,
      "ciostream": 1780,
      "mtalk": 1781,
      "prefix": 1782,
      "benchmark": 1783,
      "capture": 1784,
      "bootgenvmunix": 1785,
      "welcome": 1786,
      "written": 1787,
      "ama": 1788,
      "affe": 1789,
      "css": 1790,
      "cbd": 1791,
      "ccec": 1792,
      "cate": 1793,
      "cbfb": 1794,
      "dffe": 1795,
      "ddec": 1796,
      "ead": 1797,
      "ebb": 1798,
      "fre": 1799,
      "flu": 1800,
      "fcec": 1801,
      "hm": 1802,
      "iwhich": 1803,
      "ible": 1804,
      "jp": 1805,
      "jul": 1806,
      "mon": 1807,
      "mook": 1808,
      "mgr": 1809,
      "os": 1810,
      "pk": 1811,
      "pch": 1812,
      "rt": 1813,
      "round": 1814,
      "rta": 1815,
      "same": 1816,
      "tim": 1817,
      "tun": 1818,
      "va": 1819,
      "web": 1820,
      "xbf": 1821,
      "xue": 1822,
      "xhpl": 1823,
      "yun": 1824,
      "ze": 1825,
      "ffer": 1826,
      "dedc": 1827,
      "decd": 1828,
      "incomplete": 1829,
      "ceec": 1830,
      "cardsto": 1831,
      "atter": 1832,
      "ecb": 1833,
      "ffffbffe": 1834,
      "ong": 1835,
      "location": 1836,
      "serve": 1837,
      "serving": 1838,
      "assets": 1839,
      "fffffc": 1840,
      "ome": 1841,
      "addc": 1842,
      "live": 1843,
      "feb": 1844,
      "dcfc": 1845,
      "cccb": 1846,
      "tested": 1847,
      "acdc": 1848,
      "cddc": 1849,
      "cdac": 1850,
      "maj": 1851,
      "dbf": 1852,
      "dbg": 1853,
      "dddc": 1854,
      "fcbc": 1855,
      "ector": 1856,
      "baf": 1857,
      "baker": 1858,
      "anx": 1859,
      "ill": 1860,
      "linpack": 1861,
      "bdstatic": 1862,
      "linkerror": 1863,
      "efde": 1864,
      "efea": 1865,
      "efcc": 1866,
      "efbc": 1867,
      "size": 1868,
      "roff": 1869,
      "fdfc": 1870,
      "tsch": 1871,
      "scatter": 1872,
      "ages": 1873,
      "socke": 1874,
      "expired": 1875,
      "fbfffffe": 1876,
      "failure": 1877,
      "generating": 1878,
      "tri": 1879,
      "testing": 1880,
      "codes": 1881,
      "icating": 1882,
      "lla": 1883,
      "internal": 1884,
      "..................": 1885,
      "...................": 1886,
      "romio": 1887,
      "bertsch": 1888,
      "fccc": 1889,
      "caca": 1890,
      "fulltest": 1891,
      "ffbffe": 1892,
      "soft": 1893,
      "bfffe": 1894,
      "media": 1895,
      "cdcc": 1896,
      "buffer": 1897,
      "flow": 1898,
      "fdfa": 1899,
      "..............": 1900,
      "ready": 1901,
      "beacon": 1902,
      "csdnimg": 1903,
      "drive": 1904,
      "ppc": 1905,
      "txt": 1906,
      "communicating": 1907,
      ".........................": 1908,
      "...........................": 1909,
      "xffffc": 1910,
      "fdee": 1911,
      "alerts": 1912,
      "sles": 1913,
      ".....................": 1914,
      "beln": 1915,
      "unexpectedly": 1916,
      "feffed": 1917,
      "tpc": 1918,
      "continue": 1919,
      "pwroff": 1920,
      "format": 1921,
      "stella": 1922,
      "quantserve": 1923,
      "flush": 1924,
      "iwhichcardsto": 1925,
      "mookie": 1926,
      "pchome": 1927,
      "rtax": 1928,
      "timed": 1929,
      "tuned": 1930,
      "xueshu": 1931,
      "iwhichcardstopwroff": 1932,
      "/)": 1933,
      "/../": 1934,
      "ao": 1935,
      "bj": 1936,
      "bp": 1937,
      "bab": 1938,
      "bis": 1939,
      "brain": 1940,
      "cff": 1941,
      "cpu": 1942,
      "div": 1943,
      "dcec": 1944,
      "due": 1945,
      "dition": 1946,
      "eof": 1947,
      "ever": 1948,
      "efff": 1949,
      "ewe": 1950,
      "effa": 1951,
      "eue": 1952,
      "essl": 1953,
      "fced": 1954,
      "fgy": 1955,
      "gge": 1956,
      "gra": 1957,
      "hne": 1958,
      "if": 1959,
      "itor": 1960,
      "kmap": 1961,
      "kit": 1962,
      "lar": 1963,
      "lwor": 1964,
      "mps": 1965,
      "old": 1966,
      "pli": 1967,
      "qa": 1968,
      "rm": 1969,
      "sim": 1970,
      "sma": 1971,
      "scontent": 1972,
      "tc": 1973,
      "tra": 1974,
      "table": 1975,
      "tur": 1976,
      "tue": 1977,
      "tlb": 1978,
      "taddr": 1979,
      "tva": 1980,
      "ud": 1981,
      "uba": 1982,
      "uve": 1983,
      "vt": 1984,
      "vx": 1985,
      "ws": 1986,
      "wang": 1987,
      "xaa": 1988,
      "xfffffe": 1989,
      "zon": 1990,
      "ffdc": 1991,
      "ffcb": 1992,
      "999999999999": 1993,
      "arale": 1994,
      "del": 1995,
      "demo": 1996,
      "ses": 1997,
      "sene": 1998,
      "search": 1999,
      "init": 2000,
      "cefc": 2001,
      "cebf": 2002,
      "cecf": 2003,
      "doct": 2004,
      "edn": 2005,
      "loewe": 2006,
      "asia": 2007,
      "ndant": 2008,
      "parmd": 2009,
      "note": 2010,
      "thunder": 2011,
      "erages": 2012,
      "stion": 2013,
      "stir": 2014,
      "short": 2015,
      "idos": 2016,
      "idochip": 2017,
      "idomar": 2018,
      "ump": 2019,
      "pression": 2020,
      "typekit": 2021,
      "partad": 2022,
      "rever": 2023,
      "restarting": 2024,
      "refre": 2025,
      "repli": 2026,
      "adcc": 2027,
      "adac": 2028,
      "adbc": 2029,
      "lized": 2030,
      "imp": 2031,
      "tel": 2032,
      "byte": 2033,
      "bffffffe": 2034,
      "dcdc": 2035,
      "dcbc": 2036,
      "dcache": 2037,
      "conso": 2038,
      "condition": 2039,
      "geo": 2040,
      "getting": 2041,
      "acbc": 2042,
      "dba": 2043,
      "dblwor": 2044,
      "fcde": 2045,
      "fcmatch": 2046,
      ".....": 2047,
      ".......": 2048,
      "iver": 2049,
      "dace": 2050,
      "daec": 2051,
      "dfa": 2052,
      "dfcc": 2053,
      "dfbc": 2054,
      "bca": 2055,
      "bfec": 2056,
      "exchange": 2057,
      "expression": 2058,
      "ily": 2059,
      "faf": 2060,
      "outbrain": 2061,
      "unable": 2062,
      "unrec": 2063,
      "cace": 2064,
      "efce": 2065,
      "efec": 2066,
      "efed": 2067,
      "efda": 2068,
      "efba": 2069,
      "afly": 2070,
      "sic": 2071,
      "avd": 2072,
      "averages": 2073,
      "dsp": 2074,
      "sup": 2075,
      "sugge": 2076,
      "minus": 2077,
      "hit": 2078,
      "high": 2079,
      "bglidochip": 2080,
      "ffffffbe": 2081,
      "ogni": 2082,
      "-->": 2083,
      "niel": 2084,
      "general": 2085,
      "queue": 2086,
      "llap": 2087,
      "mpich": 2088,
      "ddcc": 2089,
      "treeaddr": 2090,
      "pose": 2091,
      "cacf": 2092,
      "cacafly": 2093,
      "ioexception": 2094,
      "efca": 2095,
      "fcea": 2096,
      "fceb": 2097,
      "cpp": 2098,
      "microsoft": 2099,
      "blocked": 2100,
      "knl": 2101,
      "githuba": 2102,
      "eland": 2103,
      "contention": 2104,
      "csar": 2105,
      "cabc": 2106,
      "beap": 2107,
      "fdcc": 2108,
      "collector": 2109,
      "mult": 2110,
      "waiting": 2111,
      "aws": 2112,
      "vgqs": 2113,
      "vgqsene": 2114,
      "strong": 2115,
      "develf": 2116,
      "normal": 2117,
      "normalized": 2118,
      "stackexchange": 2119,
      "accessible": 2120,
      "securepubads": 2121,
      "ofdirtylines": 2122,
      "ofdirtydblwor": 2123,
      "dict": 2124,
      "fady": 2125,
      "redundant": 2126,
      "purpose": 2127,
      "windo": 2128,
      "nosdn": 2129,
      "testqboxhang": 2130,
      "counter": 2131,
      "amazon": 2132,
      "monitor": 2133,
      "yunsic": 2134,
      "sockets": 2135,
      "evernote": 2136,
      "fgygi": 2137,
      "trace": 2138,
      "taddriver": 2139,
      "aralego": 2140,
      "doctor": 2141,
      "idomarsh": 2142,
      "reverse": 2143,
      "refresh": 2144,
      "replicas": 2145,
      "console": 2146,
      "unrecogni": 2147,
      "suggestion": 2148,
      "nielsen": 2149,
      "githubapp": 2150,
      "vgqsenes": 2151,
      "ofdirtydblword": 2152,
      "amazonaws": 2153,
      "unrecognized": 2154,
      "):": 2155,
      ")........................": 2156,
      "==": 2157,
      "ail": 2158,
      "amd": 2159,
      "acec": 2160,
      "accc": 2161,
      "cv": 2162,
      "cid": 2163,
      "cadc": 2164,
      "cpes": 2165,
      "dm": 2166,
      "dab": 2167,
      "dfffffe": 2168,
      "ep": 2169,
      "eas": 2170,
      "effe": 2171,
      "ello": 2172,
      "effb": 2173,
      "effc": 2174,
      "eedc": 2175,
      "fp": 2176,
      "fon": 2177,
      "fls": 2178,
      "gate": 2179,
      "gine": 2180,
      "give": 2181,
      "gvt": 2182,
      "ho": 2183,
      "hy": 2184,
      "hello": 2185,
      "ide": 2186,
      "ich": 2187,
      "jag": 2188,
      "kne": 2189,
      "kdp": 2190,
      "la": 2191,
      "late": 2192,
      "lare": 2193,
      "mf": 2194,
      "ming": 2195,
      "ng": 2196,
      "nk": 2197,
      "nl": 2198,
      "oim": 2199,
      "ople": 2200,
      "pas": 2201,
      "pth": 2202,
      "pad": 2203,
      "papi": 2204,
      "pcounter": 2205,
      "qs": 2206,
      "qhimg": 2207,
      "rack": 2208,
      "rich": 2209,
      "scli": 2210,
      "smi": 2211,
      "sam": 2212,
      "safe": 2213,
      "scho": 2214,
      "tu": 2215,
      "trap": 2216,
      "uation": 2217,
      "ues": 2218,
      "vatar": 2219,
      "wsing": 2220,
      "xfffff": 2221,
      "xad": 2222,
      "xda": 2223,
      "xfa": 2224,
      "xbb": 2225,
      "yread": 2226,
      "zhimg": 2227,
      "fft": 2228,
      "ffde": 2229,
      "ffce": 2230,
      "ffcc": 2231,
      "ffac": 2232,
      "ffcd": 2233,
      "aren": 2234,
      "dede": 2235,
      "decc": 2236,
      "dedd": 2237,
      "debc": 2238,
      "depth": 2239,
      "sequ": 2240,
      "nosl": 2241,
      "inity": 2242,
      "ceac": 2243,
      "cecd": 2244,
      "cedd": 2245,
      "cebd": 2246,
      "char": 2247,
      "chat": 2248,
      "chment": 2249,
      "cham": 2250,
      "atta": 2251,
      "atanx": 2252,
      "order": 2253,
      "ffffeb": 2254,
      "ipv": 2255,
      "iple": 2256,
      "one": 2257,
      "ssp": 2258,
      "promp": 2259,
      "logo": 2260,
      "eeec": 2261,
      "ndir": 2262,
      "ndwid": 2263,
      "parame": 2264,
      "fffffbfe": 2265,
      "servicemailbox": 2266,
      "abcc": 2267,
      "abac": 2268,
      "abfc": 2269,
      "abbc": 2270,
      "people": 2271,
      "sta": 2272,
      "still": 2273,
      "towar": 2274,
      "symbo": 2275,
      "presta": 2276,
      "omme": 2277,
      "repl": 2278,
      "adzer": 2279,
      "comp": 2280,
      "impr": 2281,
      "bffffdfe": 2282,
      "feffff": 2283,
      "fefe": 2284,
      "dcb": 2285,
      "dccc": 2286,
      "ccbc": 2287,
      "ccbf": 2288,
      "cccf": 2289,
      "errstr": 2290,
      "getel": 2291,
      "acing": 2292,
      "acac": 2293,
      "allr": 2294,
      "already": 2295,
      "dbb": 2296,
      "dbd": 2297,
      "dbe": 2298,
      "dbdc": 2299,
      "ddac": 2300,
      "ddfc": 2301,
      "fcff": 2302,
      "fcce": 2303,
      "fcbe": 2304,
      "closing": 2305,
      "dfb": 2306,
      "dfd": 2307,
      "dfed": 2308,
      "dfac": 2309,
      "bandwid": 2310,
      "aefe": 2311,
      "educe": 2312,
      "bfea": 2313,
      "bfbb": 2314,
      "faec": 2315,
      "cfb": 2316,
      "bbde": 2317,
      "caec": 2318,
      "caac": 2319,
      "cafc": 2320,
      "efac": 2321,
      "efdd": 2322,
      "efbe": 2323,
      "efbf": 2324,
      "efbd": 2325,
      "efbb": 2326,
      "detail": 2327,
      "cbea": 2328,
      "cbbc": 2329,
      "ckpt": 2330,
      "fddc": 2331,
      "...........": 2332,
      "gov": 2333,
      "verif": 2334,
      "lishi": 2335,
      "msg": 2336,
      "overflow": 2337,
      "bgla": 2338,
      "processes": 2339,
      "fffffffa": 2340,
      "ogs": 2341,
      "percl": 2342,
      "valone": 2343,
      "fbbc": 2344,
      "mdn": 2345,
      "consider": 2346,
      "loguser": 2347,
      "ncy": 2348,
      "qulishi": 2349,
      "rundir": 2350,
      "llnl": 2351,
      "hwstab": 2352,
      "................................": 2353,
      "ubmc": 2354,
      "spec": 2355,
      "gnu": 2356,
      "temphigh": 2357,
      "fccf": 2358,
      "fdaa": 2359,
      "cacd": 2360,
      "creat": 2361,
      "iostate": 2362,
      "srm": 2363,
      "fcda": 2364,
      "fcdb": 2365,
      "fcdf": 2366,
      "efcf": 2367,
      "fcee": 2368,
      "fcef": 2369,
      "activating": 2370,
      "bffc": 2371,
      "bffd": 2372,
      "cpc": 2373,
      "cpm": 2374,
      "edrams": 2375,
      "bfeb": 2376,
      "efeb": 2377,
      "efef": 2378,
      "resource": 2379,
      "effd": 2380,
      "biz": 2381,
      "contentrec": 2382,
      "glob": 2383,
      "flopcounter": 2384,
      "cabd": 2385,
      "cabf": 2386,
      "cabot": 2387,
      "dacb": 2388,
      "beca": 2389,
      "pping": 2390,
      "fbca": 2391,
      "infinity": 2392,
      "brian": 2393,
      "tools": 2394,
      "alerio": 2395,
      "enableflush": 2396,
      "manhuaren": 2397,
      "problems": 2398,
      "ulriketests": 2399,
      "......................": 2400,
      "browsing": 2401,
      "streamtri": 2402,
      "bdbb": 2403,
      "sending": 2404,
      "strip": 2405,
      "zerobyte": 2406,
      "adobelogin": 2407,
      "mmstat": 2408,
      "continuation": 2409,
      "reduce": 2410,
      "purge": 2411,
      "gmt": 2412,
      "chown": 2413,
      "fdfffdfe": 2414,
      "mailboxmonitor": 2415,
      "major": 2416,
      "gravatar": 2417,
      "simba": 2418,
      "parmdg": 2419,
      "stirtur": 2420,
      "multiple": 2421,
      "windows": 2422,
      "idomarshalerio": 2423,
      "cidian": 2424,
      "epstreamtri": 2425,
      "easyread": 2426,
      "fonts": 2427,
      "host": 2428,
      "hypercl": 2429,
      "kdpic": 2430,
      "latency": 2431,
      "oimag": 2432,
      "pasci": 2433,
      "sclick": 2434,
      "smith": 2435,
      "safebrowsing": 2436,
      "scholar": 2437,
      "nosleep": 2438,
      "attachment": 2439,
      "ffffebfe": 2440,
      "prompt": 2441,
      "parameters": 2442,
      "servicemailboxes": 2443,
      "toward": 2444,
      "symbols": 2445,
      "ommend": 2446,
      "replacing": 2447,
      "adzerk": 2448,
      "fefefeff": 2449,
      "allreduce": 2450,
      "bandwidth": 2451,
      "detailed": 2452,
      "verify": 2453,
      "loguserinfo": 2454,
      "ubmcmm": 2455,
      "contentrecommend": 2456,
      "flopcounters": 2457,
      "zerobytebug": 2458,
      "epstreamtriad": 2459,
      "hyperclaw": 2460,
      "!(": 2461,
      ")...": 2462,
      ").......": 2463,
      "*)": 2464,
      "=!(": 2465,
      "aff": 2466,
      "avp": 2467,
      "aadc": 2468,
      "aman": 2469,
      "aada": 2470,
      "affd": 2471,
      "afffffff": 2472,
      "bh": 2473,
      "bl": 2474,
      "bip": 2475,
      "bid": 2476,
      "base": 2477,
      "bbf": 2478,
      "badc": 2479,
      "bdec": 2480,
      "babc": 2481,
      "cat": 2482,
      "csi": 2483,
      "cgi": 2484,
      "csp": 2485,
      "cffffffe": 2486,
      "caeb": 2487,
      "dw": 2488,
      "dpar": 2489,
      "dffc": 2490,
      "dada": 2491,
      "dpm": 2492,
      "dabc": 2493,
      "dump": 2494,
      "ek": 2495,
      "efaa": 2496,
      "fr": 2497,
      "fer": 2498,
      "fadc": 2499,
      "fdec": 2500,
      "fecc": 2501,
      "fabc": 2502,
      "gp": 2503,
      "gs": 2504,
      "gt": 2505,
      "gu": 2506,
      "gun": 2507,
      "gbgl": 2508,
      "gath": 2509,
      "gmail": 2510,
      "gtimg": 2511,
      "han": 2512,
      "hfm": 2513,
      "ib": 2514,
      "ise": 2515,
      "iss": 2516,
      "iap": 2517,
      "iah": 2518,
      "icache": 2519,
      "jy": 2520,
      "ject": 2521,
      "jni": 2522,
      "ke": 2523,
      "kk": 2524,
      "kdc": 2525,
      "ken": 2526,
      "knel": 2527,
      "kcdn": 2528,
      "lh": 2529,
      "ldc": 2530,
      "lap": 2531,
      "lcr": 2532,
      "lsn": 2533,
      "mde": 2534,
      "mct": 2535,
      "mis": 2536,
      "meam": 2537,
      "mhfm": 2538,
      "nm": 2539,
      "nx": 2540,
      "ob": 2541,
      "ode": 2542,
      "oimage": 2543,
      "obj": 2544,
      "ocsp": 2545,
      "oldc": 2546,
      "pi": 2547,
      "pv": 2548,
      "pty": 2549,
      "pps": 2550,
      "pll": 2551,
      "qd": 2552,
      "qi": 2553,
      "qx": 2554,
      "qpic": 2555,
      "qrt": 2556,
      "qlogo": 2557,
      "qlsn": 2558,
      "rs": 2559,
      "rw": 2560,
      "rss": 2561,
      "ring": 2562,
      "ral": 2563,
      "rflo": 2564,
      "rther": 2565,
      "rfft": 2566,
      "sb": 2567,
      "spar": 2568,
      "scom": 2569,
      "score": 2570,
      "ssen": 2571,
      "sky": 2572,
      "sqrt": 2573,
      "tz": 2574,
      "tat": 2575,
      "tou": 2576,
      "tab": 2577,
      "trou": 2578,
      "twi": 2579,
      "tap": 2580,
      "tserver": 2581,
      "txyz": 2582,
      "tdp": 2583,
      "tanx": 2584,
      "ual": 2585,
      "udf": 2586,
      "ubgl": 2587,
      "vr": 2588,
      "vis": 2589,
      "wal": 2590,
      "wra": 2591,
      "wpad": 2592,
      "xde": 2593,
      "xdb": 2594,
      "xfc": 2595,
      "xca": 2596,
      "xef": 2597,
      "xaf": 2598,
      "xffffff": 2599,
      "xfee": 2600,
      "xfffffff": 2601,
      "xvicar": 2602,
      "yx": 2603,
      "yms": 2604,
      "yap": 2605,
      "yes": 2606,
      "yimg": 2607,
      "ybp": 2608,
      "zkcdn": 2609,
      "ffec": 2610,
      "ffee": 2611,
      "ffab": 2612,
      "ffad": 2613,
      "ffdb": 2614,
      "ffda": 2615,
      "ffba": 2616,
      "ffae": 2617,
      "ffbe": 2618,
      "ffbf": 2619,
      "ffcf": 2620,
      "ffbd": 2621,
      "ffbb": 2622,
      "ffaf": 2623,
      "ffadd": 2624,
      "ffadc": 2625,
      "ffcdf": 2626,
      "ffbfb": 2627,
      "ffaeb": 2628,
      "ffafb": 2629,
      "fftw": 2630,
      "ared": 2631,
      "arty": 2632,
      "arant": 2633,
      "arily": 2634,
      "dece": 2635,
      "deec": 2636,
      "deed": 2637,
      "defe": 2638,
      "defc": 2639,
      "debf": 2640,
      "deve": 2641,
      "debcc": 2642,
      "denormalized": 2643,
      "demde": 2644,
      "sestat": 2645,
      "sever": 2646,
      "seille": 2647,
      "seek": 2648,
      "noio": 2649,
      "nocomm": 2650,
      "noavatar": 2651,
      "nozerobytebug": 2652,
      "inte": 2653,
      "inex": 2654,
      "ceab": 2655,
      "ceda": 2656,
      "ceca": 2657,
      "ceeb": 2658,
      "cards": 2659,
      "cardre": 2660,
      "chmod": 2661,
      "atic": 2662,
      "ecce": 2663,
      "ecac": 2664,
      "ecda": 2665,
      "ecbc": 2666,
      "ecdn": 2667,
      "ecise": 2668,
      "orarily": 2669,
      "ffffca": 2670,
      "edde": 2671,
      "edfc": 2672,
      "edda": 2673,
      "edba": 2674,
      "edbb": 2675,
      "edump": 2676,
      "onix": 2677,
      "sso": 2678,
      "ssum": 2679,
      "sstat": 2680,
      "project": 2681,
      "lop": 2682,
      "lost": 2683,
      "locate": 2684,
      "eebea": 2685,
      "ioni": 2686,
      "fffffd": 2687,
      "servicenetwork": 2688,
      "thir": 2689,
      "erist": 2690,
      "abec": 2691,
      "abdc": 2692,
      "abdb": 2693,
      "abled": 2694,
      "nete": 2695,
      "nels": 2696,
      "neos": 2697,
      "force": 2698,
      "formi": 2699,
      "tter": 2700,
      "topurge": 2701,
      "token": 2702,
      "shot": 2703,
      "shared": 2704,
      "newma": 2705,
      "idoclient": 2706,
      "idotr": 2707,
      "present": 2708,
      "pressing": 2709,
      "preqx": 2710,
      "download": 2711,
      "len": 2712,
      "resets": 2713,
      "remer": 2714,
      "adv": 2715,
      "adbe": 2716,
      "adsr": 2717,
      "admaster": 2718,
      "adservices": 2719,
      "adnx": 2720,
      "adtdp": 2721,
      "list": 2722,
      "eaae": 2723,
      "comms": 2724,
      "comment": 2725,
      "tension": 2726,
      "temaj": 2727,
      "bffffa": 2728,
      "bffffd": 2729,
      "fefffff": 2730,
      "fefc": 2731,
      "febc": 2732,
      "febf": 2733,
      "fefab": 2734,
      "feng": 2735,
      "sessiontimeout": 2736,
      "dcac": 2737,
      "dcdd": 2738,
      "dcda": 2739,
      "dcbf": 2740,
      "ential": 2741,
      "fier": 2742,
      "fiel": 2743,
      "ccdd": 2744,
      "ccda": 2745,
      "ccba": 2746,
      "conc": 2747,
      "conf": 2748,
      "conproject": 2749,
      "errhan": 2750,
      "acs": 2751,
      "acbf": 2752,
      "acbb": 2753,
      "cdadc": 2754,
      "cdfffe": 2755,
      "allocation": 2756,
      "allocate": 2757,
      "dbec": 2758,
      "dbfc": 2759,
      "dbbc": 2760,
      "dbfd": 2761,
      "dblp": 2762,
      "dbremer": 2763,
      "ddff": 2764,
      "ddmd": 2765,
      "fcab": 2766,
      "fcfc": 2767,
      "fcbf": 2768,
      "fcaf": 2769,
      "fcffe": 2770,
      "fcdcf": 2771,
      "stats": 2772,
      "ivecdn": 2773,
      "dacc": 2774,
      "daac": 2775,
      "dafc": 2776,
      "daily": 2777,
      "cloud": 2778,
      "cloudf": 2779,
      "dfbb": 2780,
      "bcdc": 2781,
      "baec": 2782,
      "baab": 2783,
      "bacc": 2784,
      "baac": 2785,
      "baij": 2786,
      "bank": 2787,
      "bayms": 2788,
      "odr": 2789,
      "oken": 2790,
      "cus": 2791,
      "cupps": 2792,
      "receivet": 2793,
      "aeec": 2794,
      "aefc": 2795,
      "beab": 2796,
      "bebd": 2797,
      "irect": 2798,
      "ansp": 2799,
      "bfed": 2800,
      "bfee": 2801,
      "bfac": 2802,
      "bfaf": 2803,
      "bfdea": 2804,
      "exter": 2805,
      "extension": 2806,
      "psu": 2807,
      "ghdr": 2808,
      "facc": 2809,
      "fafc": 2810,
      "fafa": 2811,
      "linadv": 2812,
      "empty": 2813,
      "bdab": 2814,
      "bdirect": 2815,
      "output": 2816,
      "clientservices": 2817,
      "uni": 2818,
      "unsign": 2819,
      "uncate": 2820,
      "bbab": 2821,
      "bbac": 2822,
      "coredump": 2823,
      "caee": 2824,
      "caus": 2825,
      "camo": 2826,
      "capi": 2827,
      "miao": 2828,
      "efee": 2829,
      "efccb": 2830,
      "efdbc": 2831,
      "efdcd": 2832,
      "afbb": 2833,
      "after": 2834,
      "rai": 2835,
      "cbec": 2836,
      "cbdc": 2837,
      "cbcc": 2838,
      "cbac": 2839,
      "cbfc": 2840,
      "sitemaj": 2841,
      "aaec": 2842,
      "aacc": 2843,
      "aaac": 2844,
      "wix": 2845,
      "wifi": 2846,
      "ckap": 2847,
      "addthis": 2848,
      "edea": 2849,
      "edef": 2850,
      "edefb": 2851,
      "fdfffff": 2852,
      "fdfffe": 2853,
      "ebde": 2854,
      "ebee": 2855,
      "ebea": 2856,
      "ebdb": 2857,
      "ebda": 2858,
      "ebba": 2859,
      "suite": 2860,
      "msn": 2861,
      "msghdr": 2862,
      "hicloud": 2863,
      "bglerr": 2864,
      "bglcode": 2865,
      "ffffffc": 2866,
      "bos": 2867,
      "ogue": 2868,
      "googletag": 2869,
      "googleadservices": 2870,
      "fbdc": 2871,
      "fbda": 2872,
      "fbba": 2873,
      "upload": 2874,
      "images": 2875,
      "mapfiles": 2876,
      "pux": 2877,
      "pubm": 2878,
      "pubs": 2879,
      "feac": 2880,
      "feaf": 2881,
      "trc": 2882,
      "truncate": 2883,
      "testsuite": 2884,
      "quali": 2885,
      "worker": 2886,
      "ddrsize": 2887,
      "rubi": 2888,
      "ptlogin": 2889,
      "snsl": 2890,
      "lsf": 2891,
      "mekn": 2892,
      "messen": 2893,
      "ctrs": 2894,
      "............................": 2895,
      "rome": 2896,
      "space": 2897,
      "gnar": 2898,
      "focus": 2899,
      "temporarily": 2900,
      "imgur": 2901,
      "imgcache": 2902,
      "fccb": 2903,
      "fccd": 2904,
      "fccff": 2905,
      "fccce": 2906,
      "fccfe": 2907,
      "fccbf": 2908,
      "fcccf": 2909,
      "senee": 2910,
      "engine": 2911,
      "enabled": 2912,
      "poll": 2913,
      "further": 2914,
      "pai": 2915,
      "url": 2916,
      "ffbff": 2917,
      "ffbdf": 2918,
      "fcdd": 2919,
      "fcdbf": 2920,
      "softw": 2921,
      "efcb": 2922,
      "efcfc": 2923,
      "efcbc": 2924,
      "efcbd": 2925,
      "efcfd": 2926,
      "ffaec": 2927,
      "ffaed": 2928,
      "ffafa": 2929,
      "acterist": 2930,
      "alitu": 2931,
      "fcebd": 2932,
      "fcecb": 2933,
      "qqmail": 2934,
      "ddcmdgbgl": 2935,
      "dropboxapi": 2936,
      "ortmgr": 2937,
      "microad": 2938,
      "curioni": 2939,
      "mods": 2940,
      "performing": 2941,
      "declare": 2942,
      "runs": 2943,
      "hpd": 2944,
      "mart": 2945,
      "marseille": 2946,
      "dns": 2947,
      "eecc": 2948,
      "build": 2949,
      "bfcb": 2950,
      "bile": 2951,
      "float": 2952,
      "cabe": 2953,
      "dacd": 2954,
      "dacf": 2955,
      "fcbea": 2956,
      "mobile": 2957,
      "account": 2958,
      "oola": 2959,
      "bbca": 2960,
      "efaea": 2961,
      "recv": 2962,
      "aeac": 2963,
      "bdea": 2964,
      "bdee": 2965,
      "xffffb": 2966,
      "xffffd": 2967,
      "caused": 2968,
      "brand": 2969,
      "broken": 2970,
      "ffaaa": 2971,
      "configfile": 2972,
      "aaba": 2973,
      "wrating": 2974,
      "syndrome": 2975,
      "bdcb": 2976,
      "bdfa": 2977,
      "next": 2978,
      "way": 2979,
      "central": 2980,
      ".......................": 2981,
      "configuration": 2982,
      "newsimg": 2983,
      "alemedia": 2984,
      "bcebos": 2985,
      "casalemedia": 2986,
      "cfaf": 2987,
      "vgqsenee": 2988,
      "assertion": 2989,
      "hnedn": 2990,
      "slf": 2991,
      "adobeid": 2992,
      "agkn": 2993,
      "stackoverflow": 2994,
      "aug": 2995,
      "auth": 2996,
      "autopurge": 2997,
      "clg": 2998,
      "stopping": 2999,
      "efdcb": 3000,
      "efdbd": 3001,
      "fmmods": 3002,
      "winerr": 3003,
      "underflow": 3004,
      "efdfd": 3005,
      "pkt": 3006,
      "trier": 3007,
      "/../../": 3008,
      "divac": 3009,
      "divide": 3010,
      "small": 3011,
      "tvax": 3012,
      "wangwang": 3013,
      "impservice": 3014,
      "suppressing": 3015,
      "vgqskn": 3016,
      "dictapp": 3017,
      "consoleip": 3018,
      "consoleport": 3019,
      "cvs": 3020,
      "gateway": 3021,
      "samrai": 3022,
      "sequential": 3023,
      "characterist": 3024,
      "chamonix": 3025,
      "ordered": 3026,
      "imprecise": 3027,
      "special": 3028,
      "creativecdn": 3029,
      "global": 3030,
      "gmtdmp": 3031,
      "stirturbdirect": 3032,
      "oimagea": 3033,
      "amanad": 3034,
      "blacs": 3035,
      "biparty": 3036,
      "bidswitch": 3037,
      "dparty": 3038,
      "gtms": 3039,
      "guarant": 3040,
      "gunnels": 3041,
      "gather": 3042,
      "issues": 3043,
      "iahao": 3044,
      "kdcl": 3045,
      "lapack": 3046,
      "miscompare": 3047,
      "oimageb": 3048,
      "object": 3049,
      "oldcode": 3050,
      "rflomp": 3051,
      "sparing": 3052,
      "scomerror": 3053,
      "scorecardre": 3054,
      "skype": 3055,
      "tzyx": 3056,
      "touch": 3057,
      "taboola": 3058,
      "trouter": 3059,
      "twitter": 3060,
      "tapad": 3061,
      "ualdn": 3062,
      "visus": 3063,
      "walk": 3064,
      "wray": 3065,
      "develop": 3066,
      "demdex": 3067,
      "severed": 3068,
      "inexact": 3069,
      "sstats": 3070,
      "servicenetworkcharacterist": 3071,
      "thirdparty": 3072,
      "netease": 3073,
      "neosmart": 3074,
      "shots": 3075,
      "newmaps": 3076,
      "idoclientmgr": 3077,
      "idotransp": 3078,
      "adsrvr": 3079,
      "adnxs": 3080,
      "fields": 3081,
      "dailyupdate": 3082,
      "baijiahao": 3083,
      "baymsgr": 3084,
      "receivetrain": 3085,
      "external": 3086,
      "unsigned": 3087,
      "causing": 3088,
      "miaopai": 3089,
      "sitemaji": 3090,
      "ckapfer": 3091,
      "oguesnsl": 3092,
      "googletagmanager": 3093,
      "pubmatic": 3094,
      "quality": 3095,
      "rubiconproject": 3096,
      "mekned": 3097,
      "messenger": 3098,
      "software": 3099,
      "alitui": 3100,
      "ddcmdgbglv": 3101,
      "declareservicenetworkcharacterist": 3102,
      "marseillebgl": 3103,
      "accounts": 3104,
      "bipartyz": 3105,
      "guaranteed": 3106,
      "scorecardresearch": 3107,
      "idotransportmgr": 3108,
      "declareservicenetworkcharacteristics": 3109,
      "&)": 3110,
      "&,": 3111,
      ")'": 3112,
      ")...........................": 3113,
      ")......................": 3114,
      "*,": 3115,
      "*&)": 3116,
      "/./": 3117,
      "=<": 3118,
      "?/": 3119,
      "ak": 3120,
      "ay": 3121,
      "ano": 3122,
      "ass": 3123,
      "aim": 3124,
      "aeee": 3125,
      "aedc": 3126,
      "afcb": 3127,
      "aeea": 3128,
      "agent": 3129,
      "aabc": 3130,
      "affaa": 3131,
      "aux": 3132,
      "bt": 3133,
      "bx": 3134,
      "bz": 3135,
      "batch": 3136,
      "bus": 3137,
      "blish": 3138,
      "bll": 3139,
      "bfff": 3140,
      "bcec": 3141,
      "bffb": 3142,
      "bio": 3143,
      "blas": 3144,
      "bcda": 3145,
      "bedc": 3146,
      "bvn": 3147,
      "bccb": 3148,
      "bceb": 3149,
      "bdbc": 3150,
      "beda": 3151,
      "bacb": 3152,
      "babb": 3153,
      "babf": 3154,
      "blast": 3155,
      "btrace": 3156,
      "cw": 3157,
      "catch": 3158,
      "cfff": 3159,
      "cstar": 3160,
      "cffa": 3161,
      "cadb": 3162,
      "cffea": 3163,
      "dg": 3164,
      "dj": 3165,
      "dk": 3166,
      "dt": 3167,
      "dy": 3168,
      "dsh": 3169,
      "dge": 3170,
      "dps": 3171,
      "dram": 3172,
      "dtr": 3173,
      "dna": 3174,
      "dffa": 3175,
      "dadc": 3176,
      "dadf": 3177,
      "dffd": 3178,
      "dfffe": 3179,
      "dfcb": 3180,
      "dfcf": 3181,
      "dabd": 3182,
      "dfffffff": 3183,
      "dlb": 3184,
      "dabb": 3185,
      "dabf": 3186,
      "effff": 3187,
      "efffff": 3188,
      "eadd": 3189,
      "eld": 3190,
      "eadf": 3191,
      "ebfb": 3192,
      "ecee": 3193,
      "ebfa": 3194,
      "eceb": 3195,
      "eedb": 3196,
      "eabc": 3197,
      "eabd": 3198,
      "ebaa": 3199,
      "ebae": 3200,
      "ether": 3201,
      "fs": 3202,
      "fin": 3203,
      "fstat": 3204,
      "fpu": 3205,
      "ftest": 3206,
      "fedc": 3207,
      "fbfb": 3208,
      "ftests": 3209,
      "fabd": 3210,
      "faef": 3211,
      "fbaa": 3212,
      "fbef": 3213,
      "fmm": 3214,
      "fsync": 3215,
      "fla": 3216,
      "fchown": 3217,
      "fchmod": 3218,
      "ftruncate": 3219,
      "gd": 3220,
      "gin": 3221,
      "ged": 3222,
      "gid": 3223,
      "gct": 3224,
      "gice": 3225,
      "ging": 3226,
      "gum": 3227,
      "gcc": 3228,
      "gma": 3229,
      "groot": 3230,
      "gapps": 3231,
      "game": 3232,
      "hd": 3233,
      "hj": 3234,
      "har": 3235,
      "hid": 3236,
      "hot": 3237,
      "hpt": 3238,
      "hstatic": 3239,
      "hres": 3240,
      "hpm": 3241,
      "ig": 3242,
      "iz": 3243,
      "ior": 3244,
      "ited": 3245,
      "ile": 3246,
      "ieee": 3247,
      "icb": 3248,
      "iwi": 3249,
      "ick": 3250,
      "iet": 3251,
      "ical": 3252,
      "icau": 3253,
      "ieeec": 3254,
      "ifeng": 3255,
      "ihd": 3256,
      "ji": 3257,
      "jr": 3258,
      "jre": 3259,
      "jlu": 3260,
      "jline": 3261,
      "jection": 3262,
      "jvm": 3263,
      "jfm": 3264,
      "jng": 3265,
      "job": 3266,
      "jdk": 3267,
      "kr": 3268,
      "kle": 3269,
      "kod": 3270,
      "keb": 3271,
      "ktest": 3272,
      "kill": 3273,
      "kiwi": 3274,
      "lg": 3275,
      "lstat": 3276,
      "lnk": 3277,
      "lchown": 3278,
      "lseek": 3279,
      "merr": 3280,
      "mmbi": 3281,
      "mmu": 3282,
      "nh": 3283,
      "nu": 3284,
      "nted": 3285,
      "nle": 3286,
      "nan": 3287,
      "nve": 3288,
      "nded": 3289,
      "nmsg": 3290,
      "nsclick": 3291,
      "oto": 3292,
      "oad": 3293,
      "option": 3294,
      "osign": 3295,
      "pz": 3296,
      "por": 3297,
      "ped": 3298,
      "pid": 3299,
      "pted": 3300,
      "pnet": 3301,
      "pco": 3302,
      "ptarget": 3303,
      "ppl": 3304,
      "ppm": 3305,
      "pdl": 3306,
      "pdbg": 3307,
      "qw": 3308,
      "qus": 3309,
      "qlr": 3310,
      "qbw": 3311,
      "qhm": 3312,
      "qhres": 3313,
      "ry": 3314,
      "rar": 3315,
      "ron": 3316,
      "rus": 3317,
      "sa": 3318,
      "sor": 3319,
      "sdo": 3320,
      "sna": 3321,
      "sall": 3322,
      "sses": 3323,
      "sgs": 3324,
      "tj": 3325,
      "tn": 3326,
      "tst": 3327,
      "tsh": 3328,
      "train": 3329,
      "tdt": 3330,
      "tick": 3331,
      "ui": 3332,
      "uff": 3333,
      "uid": 3334,
      "umask": 3335,
      "utime": 3336,
      "uan": 3337,
      "ugh": 3338,
      "ution": 3339,
      "usync": 3340,
      "vir": 3341,
      "vaddr": 3342,
      "vjp": 3343,
      "vbuffer": 3344,
      "wk": 3345,
      "wed": 3346,
      "watch": 3347,
      "wan": 3348,
      "wpen": 3349,
      "wave": 3350,
      "wbp": 3351,
      "wsup": 3352,
      "wosign": 3353,
      "wtdt": 3354,
      "xt": 3355,
      "xff": 3356,
      "xin": 3357,
      "xec": 3358,
      "xed": 3359,
      "xml": 3360,
      "xab": 3361,
      "xing": 3362,
      "xfe": 3363,
      "xdc": 3364,
      "xac": 3365,
      "xcd": 3366,
      "xbc": 3367,
      "xae": 3368,
      "xbe": 3369,
      "xbd": 3370,
      "xcb": 3371,
      "xfd": 3372,
      "xfb": 3373,
      "xfff": 3374,
      "xfcd": 3375,
      "xbfe": 3376,
      "xffd": 3377,
      "xffffffe": 3378,
      "xfffe": 3379,
      "xbfa": 3380,
      "xdr": 3381,
      "xafd": 3382,
      "xabb": 3383,
      "xfefefeff": 3384,
      "xuan": 3385,
      "yre": 3386,
      "yur": 3387,
      "ykle": 3388,
      "yvjp": 3389,
      "zhstatic": 3390,
      "zjfm": 3391,
      "zsall": 3392,
      "||": 3393,
      "ffeeee": 3394,
      "fffa": 3395,
      "fffd": 3396,
      "fffb": 3397,
      "ffcec": 3398,
      "ffced": 3399,
      "fffdfe": 3400,
      "ffada": 3401,
      "ffadb": 3402,
      "ffadf": 3403,
      "ffbfd": 3404,
      "ffcee": 3405,
      "ffbfa": 3406,
      "ffdcd": 3407,
      "ffacb": 3408,
      "ffdcc": 3409,
      "ffbcb": 3410,
      "ffbaa": 3411,
      "ffaca": 3412,
      "ffacf": 3413,
      "ffbae": 3414,
      "ffcaf": 3415,
      "ffcef": 3416,
      "ffabf": 3417,
      "ffdda": 3418,
      "ffcaa": 3419,
      "ffbbb": 3420,
      "ffdbf": 3421,
      "ffbaf": 3422,
      "art": 3423,
      "arest": 3424,
      "argum": 3425,
      "den": 3426,
      "deab": 3427,
      "dedf": 3428,
      "debd": 3429,
      "debb": 3430,
      "deeb": 3431,
      "defb": 3432,
      "deeca": 3433,
      "degroot": 3434,
      "semb": 3435,
      "secur": 3436,
      "nop": 3437,
      "nopr": 3438,
      "noni": 3439,
      "noapc": 3440,
      "ink": 3441,
      "inform": 3442,
      "incount": 3443,
      "injection": 3444,
      "cer": 3445,
      "cedb": 3446,
      "cedf": 3447,
      "cebe": 3448,
      "cebb": 3449,
      "cefd": 3450,
      "ceabe": 3451,
      "cesim": 3452,
      "ching": 3453,
      "chem": 3454,
      "chcham": 3455,
      "ato": 3456,
      "att": 3457,
      "atall": 3458,
      "ative": 3459,
      "ecff": 3460,
      "ecde": 3461,
      "ecad": 3462,
      "ecfe": 3463,
      "eccc": 3464,
      "ecba": 3465,
      "ecae": 3466,
      "ecfa": 3467,
      "ecbb": 3468,
      "ecaf": 3469,
      "ecaa": 3470,
      "ecmb": 3471,
      "ecccc": 3472,
      "ecdca": 3473,
      "ecvbuffer": 3474,
      "orac": 3475,
      "ories": 3476,
      "serapis": 3477,
      "dog": 3478,
      "ffffbc": 3479,
      "priv": 3480,
      "ips": 3481,
      "edfe": 3482,
      "eddc": 3483,
      "edcc": 3484,
      "edac": 3485,
      "eddf": 3486,
      "edbc": 3487,
      "edfa": 3488,
      "edca": 3489,
      "edaa": 3490,
      "edbae": 3491,
      "edbbb": 3492,
      "only": 3493,
      "onfpu": 3494,
      "ssive": 3495,
      "ssible": 3496,
      "prof": 3497,
      "loor": 3498,
      "look": 3499,
      "loader": 3500,
      "idx": 3501,
      "idmp": 3502,
      "ouji": 3503,
      "ason": 3504,
      "assemb": 3505,
      "ctest": 3506,
      "ctld": 3507,
      "ctoo": 3508,
      "ctlp": 3509,
      "ctips": 3510,
      "eece": 3511,
      "eefc": 3512,
      "eebc": 3513,
      "eeba": 3514,
      "eeae": 3515,
      "eebf": 3516,
      "eebb": 3517,
      "ndor": 3518,
      "parserapis": 3519,
      "mlink": 3520,
      "iary": 3521,
      "thread": 3522,
      "ery": 3523,
      "abea": 3524,
      "abdd": 3525,
      "abca": 3526,
      "abef": 3527,
      "nett": 3528,
      "nets": 3529,
      "nearest": 3530,
      "symlink": 3531,
      "stun": 3532,
      "stand": 3533,
      "stro": 3534,
      "story": 3535,
      "stud": 3536,
      "stuff": 3537,
      "ttime": 3538,
      "topo": 3539,
      "toall": 3540,
      "todebugger": 3541,
      "symcd": 3542,
      "ofda": 3543,
      "shouji": 3544,
      "newmpi": 3545,
      "newkernel": 3546,
      "newhack": 3547,
      "newcomp": 3548,
      "asearch": 3549,
      "idoud": 3550,
      "idomsg": 3551,
      "idomsghdr": 3552,
      "ums": 3553,
      "preta": 3554,
      "partsn": 3555,
      "les": 3556,
      "leav": 3557,
      "leader": 3558,
      "ntifi": 3559,
      "reserved": 3560,
      "renc": 3561,
      "retag": 3562,
      "restarted": 3563,
      "rename": 3564,
      "regct": 3565,
      "reason": 3566,
      "adce": 3567,
      "adfc": 3568,
      "adda": 3569,
      "adfa": 3570,
      "adcb": 3571,
      "adtech": 3572,
      "added": 3573,
      "lime": 3574,
      "licate": 3575,
      "eade": 3576,
      "eace": 3577,
      "eaec": 3578,
      "eafc": 3579,
      "eaca": 3580,
      "eappm": 3581,
      "commit": 3582,
      "ims": 3583,
      "imer": 3584,
      "imtt": 3585,
      "imix": 3586,
      "impa": 3587,
      "imple": 3588,
      "texception": 3589,
      "tetsh": 3590,
      "text": 3591,
      "bye": 3592,
      "feec": 3593,
      "feab": 3594,
      "fead": 3595,
      "febd": 3596,
      "feffe": 3597,
      "fefcd": 3598,
      "feeds": 3599,
      "fefcf": 3600,
      "fefeb": 3601,
      "fefafa": 3602,
      "dcu": 3603,
      "dcce": 3604,
      "dcdb": 3605,
      "dcdf": 3606,
      "dcae": 3607,
      "dccf": 3608,
      "dcbd": 3609,
      "dcaf": 3610,
      "dccb": 3611,
      "dcaee": 3612,
      "entry": 3613,
      "nodecards": 3614,
      "field": 3615,
      "ccr": 3616,
      "ccab": 3617,
      "ccac": 3618,
      "ccdb": 3619,
      "ccbe": 3620,
      "ccfa": 3621,
      "ccbd": 3622,
      "ccca": 3623,
      "ccaf": 3624,
      "ccsam": 3625,
      "const": 3626,
      "times": 3627,
      "errecvbuffer": 3628,
      "gettime": 3629,
      "acdd": 3630,
      "acfc": 3631,
      "acda": 3632,
      "acfa": 3633,
      "acbd": 3634,
      "acaf": 3635,
      "accec": 3636,
      "cdde": 3637,
      "cdce": 3638,
      "cdbe": 3639,
      "cdfb": 3640,
      "iso": 3641,
      "mallo": 3642,
      "make": 3643,
      "makeb": 3644,
      "alerrecvbuffer": 3645,
      "dbde": 3646,
      "dbea": 3647,
      "dbcc": 3648,
      "dbac": 3649,
      "dbdd": 3650,
      "dbcr": 3651,
      "dbsr": 3652,
      "dbaaf": 3653,
      "ddde": 3654,
      "ddab": 3655,
      "ddad": 3656,
      "dddd": 3657,
      "ddaf": 3658,
      "ddabe": 3659,
      "fcba": 3660,
      "fcfa": 3661,
      "fcbd": 3662,
      "fcbb": 3663,
      "fcfd": 3664,
      "fcfff": 3665,
      "fcfaa": 3666,
      "fcfcc": 3667,
      "fcfda": 3668,
      "fccec": 3669,
      "fcfcd": 3670,
      "fcbff": 3671,
      "fcbfe": 3672,
      "fcfdb": 3673,
      "fcdec": 3674,
      "fcffd": 3675,
      "fclick": 3676,
      "fcbfb": 3677,
      "fcfcb": 3678,
      "fcbfa": 3679,
      "fcceb": 3680,
      "fcdcd": 3681,
      "fccea": 3682,
      "fcbaa": 3683,
      "fcded": 3684,
      "fcdca": 3685,
      "fcdeb": 3686,
      "fcbcf": 3687,
      "fcbbb": 3688,
      "fcbeb": 3689,
      "daea": 3690,
      "daaf": 3691,
      "dafdc": 3692,
      "daabd": 3693,
      "daabe": 3694,
      "dafca": 3695,
      "dfde": 3696,
      "dfec": 3697,
      "dfdc": 3698,
      "dfae": 3699,
      "dfbf": 3700,
      "dfdac": 3701,
      "dfafa": 3702,
      "bcab": 3703,
      "bcac": 3704,
      "bcbc": 3705,
      "bcbe": 3706,
      "bcbf": 3707,
      "bcaa": 3708,
      "baff": 3709,
      "bafc": 3710,
      "baae": 3711,
      "baeb": 3712,
      "okie": 3713,
      "aede": 3714,
      "aebf": 3715,
      "aebd": 3716,
      "aebb": 3717,
      "aefee": 3718,
      "aeffa": 3719,
      "aeedf": 3720,
      "bead": 3721,
      "bebc": 3722,
      "beba": 3723,
      "bebe": 3724,
      "bebf": 3725,
      "bebb": 3726,
      "befb": 3727,
      "befcc": 3728,
      "bebfdc": 3729,
      "begin": 3730,
      "irq": 3731,
      "irector": 3732,
      "ancom": 3733,
      "bfde": 3734,
      "bfab": 3735,
      "bfcc": 3736,
      "bfda": 3737,
      "bfbf": 3738,
      "bfaa": 3739,
      "bfbaf": 3740,
      "bfcefc": 3741,
      "exit": 3742,
      "exited": 3743,
      "psg": 3744,
      "ilt": 3745,
      "iler": 3746,
      "iliary": 3747,
      "fade": 3748,
      "faee": 3749,
      "faad": 3750,
      "faecd": 3751,
      "faedbae": 3752,
      "rounded": 3753,
      "linfo": 3754,
      "cfg": 3755,
      "cfde": 3756,
      "cfee": 3757,
      "cfbc": 3758,
      "cflu": 3759,
      "cfecf": 3760,
      "cfdddc": 3761,
      "cfloor": 3762,
      "emory": 3763,
      "bdde": 3764,
      "bdfe": 3765,
      "bdfc": 3766,
      "outstand": 3767,
      "openx": 3768,
      "openjdk": 3769,
      "unlink": 3770,
      "unit": 3771,
      "unpk": 3772,
      "unimple": 3773,
      "systemcontroller": 3774,
      "bbec": 3775,
      "bbdc": 3776,
      "bbdb": 3777,
      "bbbb": 3778,
      "bbccf": 3779,
      "bbdee": 3780,
      "bbadbe": 3781,
      "corpor": 3782,
      "http": 3783,
      "cade": 3784,
      "caea": 3785,
      "caaa": 3786,
      "caeeb": 3787,
      "caffee": 3788,
      "canoni": 3789,
      "caching": 3790,
      "mib": 3791,
      "micr": 3792,
      "connected": 3793,
      "efad": 3794,
      "efddc": 3795,
      "efccc": 3796,
      "efccd": 3797,
      "efbfe": 3798,
      "efadf": 3799,
      "efcdf": 3800,
      "efcda": 3801,
      "efedc": 3802,
      "efbfc": 3803,
      "efbfd": 3804,
      "efecf": 3805,
      "efedb": 3806,
      "efeea": 3807,
      "efcca": 3808,
      "efeef": 3809,
      "efedd": 3810,
      "efeca": 3811,
      "efdcc": 3812,
      "efeeb": 3813,
      "efbcb": 3814,
      "efbaa": 3815,
      "efecd": 3816,
      "efbef": 3817,
      "efeaa": 3818,
      "efdea": 3819,
      "efdef": 3820,
      "efcef": 3821,
      "efdca": 3822,
      "efdcf": 3823,
      "efdda": 3824,
      "efdeb": 3825,
      "efddd": 3826,
      "efddf": 3827,
      "efdaa": 3828,
      "efdaf": 3829,
      "efecb": 3830,
      "efbaf": 3831,
      "afde": 3832,
      "afcc": 3833,
      "afdb": 3834,
      "afbc": 3835,
      "afbe": 3836,
      "afbd": 3837,
      "afabf": 3838,
      "afecda": 3839,
      "cbde": 3840,
      "cbad": 3841,
      "cbdd": 3842,
      "cbba": 3843,
      "cbrt": 3844,
      "linkcards": 3845,
      "aaee": 3846,
      "aafc": 3847,
      "aafa": 3848,
      "aaaf": 3849,
      "aaabc": 3850,
      "aapp": 3851,
      "luke": 3852,
      "avn": 3853,
      "avtrace": 3854,
      "soon": 3855,
      "sopt": 3856,
      "corrup": 3857,
      "rows": 3858,
      "rocstar": 3859,
      "rocflu": 3860,
      "edec": 3861,
      "fdde": 3862,
      "fdac": 3863,
      "fdffc": 3864,
      "fdffffe": 3865,
      "excessive": 3866,
      "dslb": 3867,
      "ebce": 3868,
      "ebed": 3869,
      "ebbc": 3870,
      "ebeee": 3871,
      "ebbd": 3872,
      "estart": 3873,
      "scancom": 3874,
      "verbo": 3875,
      "addresses": 3876,
      "dcrs": 3877,
      "etc": 3878,
      "glp": 3879,
      "glong": 3880,
      "netdna": 3881,
      "minsessiontimeout": 3882,
      "history": 3883,
      "mpxl": 3884,
      "mpill": 3885,
      "overable": 3886,
      "bglc": 3887,
      "bglsys": 3888,
      "bglctlp": 3889,
      "terminated": 3890,
      "ffffffd": 3891,
      "ffffffee": 3892,
      "fffffffb": 3893,
      "directories": 3894,
      "torestart": 3895,
      "cosy": 3896,
      "values": 3897,
      "apu": 3898,
      "apac": 3899,
      "fbde": 3900,
      "fbec": 3901,
      "fbcc": 3902,
      "fbac": 3903,
      "fbcd": 3904,
      "fbdb": 3905,
      "fbfc": 3906,
      "fbbe": 3907,
      "fbbf": 3908,
      "fbbae": 3909,
      "validate": 3910,
      "upmobile": 3911,
      "adingo": 3912,
      "feeb": 3913,
      "feeaa": 3914,
      "imageplus": 3915,
      "crl": 3916,
      "getdropbox": 3917,
      "getcw": 3918,
      "getgid": 3919,
      "getpid": 3920,
      "getrus": 3921,
      "getuid": 3922,
      "longlong": 3923,
      "mapping": 3924,
      "niux": 3925,
      "targetclose": 3926,
      "generic": 3927,
      "pull": 3928,
      "puui": 3929,
      "wwbiz": 3930,
      "feaaa": 3931,
      "track": 3932,
      "testlong": 3933,
      "testscrip": 3934,
      "logfile": 3935,
      "logies": 3936,
      "logical": 3937,
      "ixgr": 3938,
      "quiet": 3939,
      "query": 3940,
      "instr": 3941,
      "icbcast": 3942,
      "rules": 3943,
      "ptance": 3944,
      "snan": 3945,
      "mehu": 3946,
      "mented": 3947,
      "lling": 3948,
      "llpo": 3949,
      "llseek": 3950,
      "mpihpm": 3951,
      "xercesim": 3952,
      "interexception": 3953,
      "ddca": 3954,
      "ddcb": 3955,
      "ddcd": 3956,
      "....................................": 3957,
      ".................................": 3958,
      "...............................": 3959,
      ".............................": 3960,
      "itz": 3961,
      "itimer": 3962,
      "fold": 3963,
      "foob": 3964,
      "intf": 3965,
      "imgsrc": 3966,
      "imgtn": 3967,
      "cnk": 3968,
      "cncdn": 3969,
      "cnvt": 3970,
      "cmdline": 3971,
      "fcca": 3972,
      "fccde": 3973,
      "fccab": 3974,
      "fccac": 3975,
      "fcccd": 3976,
      "fccdd": 3977,
      "fccdf": 3978,
      "fccba": 3979,
      "fccae": 3980,
      "fccbe": 3981,
      "fccfa": 3982,
      "fccbd": 3983,
      "fccbb": 3984,
      "fccaf": 3985,
      "fccaa": 3986,
      "fccfd": 3987,
      "fccfb": 3988,
      "sensor": 3989,
      "backgr": 3990,
      "facee": 3991,
      "fdaea": 3992,
      "goodbye": 3993,
      "encer": 3994,
      "vendor": 3995,
      "functest": 3996,
      "pop": 3997,
      "popt": 3998,
      "possible": 3999,
      "cecfc": 4000,
      "cacb": 4001,
      "tau": 4002,
      "ursdo": 4003,
      "hucdn": 4004,
      "packages": 4005,
      "ffbde": 4006,
      "ffbec": 4007,
      "ffbed": 4008,
      "ffbab": 4009,
      "ffbfe": 4010,
      "ffbcc": 4011,
      "ffbdb": 4012,
      "ffbfc": 4013,
      "ffbda": 4014,
      "ffbbc": 4015,
      "ffbbe": 4016,
      "ffbbf": 4017,
      "ffbbd": 4018,
      "ffbffbff": 4019,
      "zookeeperserver": 4020,
      "srkod": 4021,
      "fcdce": 4022,
      "fcdab": 4023,
      "fcdfe": 4024,
      "fcddc": 4025,
      "fcddb": 4026,
      "fcddd": 4027,
      "fcdae": 4028,
      "fcdbe": 4029,
      "fcdbd": 4030,
      "fcdaf": 4031,
      "fcdaa": 4032,
      "fcdfd": 4033,
      "efcfe": 4034,
      "efcbe": 4035,
      "efcbb": 4036,
      "efcaf": 4037,
      "efcaa": 4038,
      "efcfb": 4039,
      "efcbad": 4040,
      "ffaff": 4041,
      "ffade": 4042,
      "ffaee": 4043,
      "ffaab": 4044,
      "ffaea": 4045,
      "ffafe": 4046,
      "ffacc": 4047,
      "ffaac": 4048,
      "ffafc": 4049,
      "ffaae": 4050,
      "ffaaf": 4051,
      "fdfeabe": 4052,
      "interrupted": 4053,
      "interrupting": 4054,
      "fceff": 4055,
      "fceec": 4056,
      "fceed": 4057,
      "fcead": 4058,
      "fcefe": 4059,
      "fcecc": 4060,
      "fcecd": 4061,
      "fcedb": 4062,
      "fceda": 4063,
      "fcebc": 4064,
      "fceae": 4065,
      "fcebe": 4066,
      "fcebf": 4067,
      "fcebb": 4068,
      "fceca": 4069,
      "fceaf": 4070,
      "qqweb": 4071,
      "ccdn": 4072,
      "scratchpad": 4073,
      "photo": 4074,
      "cdnjs": 4075,
      "tagr": 4076,
      "dropping": 4077,
      "bffee": 4078,
      "bffea": 4079,
      "bffac": 4080,
      "bffbc": 4081,
      "bffcf": 4082,
      "bffcbf": 4083,
      "bffdea": 4084,
      "cpgra": 4085,
      "fffffefe": 4086,
      "fffffefa": 4087,
      "tingyun": 4088,
      "maxbug": 4089,
      "maxsessiontimeout": 4090,
      "microloader": 4091,
      "xaed": 4092,
      "medal": 4093,
      "ffcde": 4094,
      "ffcbc": 4095,
      "ffcae": 4096,
      "ffcbf": 4097,
      "ffcbd": 4098,
      "ffcbb": 4099,
      "efeff": 4100,
      "efece": 4101,
      "efeab": 4102,
      "efefe": 4103,
      "efebc": 4104,
      "efebd": 4105,
      "efebb": 4106,
      "efefd": 4107,
      "fdbb": 4108,
      "fdbc": 4109,
      "fdbdf": 4110,
      "fdbbf": 4111,
      "contig": 4112,
      "modulo": 4113,
      "effab": 4114,
      "efffe": 4115,
      "effbc": 4116,
      "effbd": 4117,
      "effbb": 4118,
      "effca": 4119,
      "effef": 4120,
      "effcb": 4121,
      "effaa": 4122,
      "efffd": 4123,
      "pmgr": 4124,
      "tmpdir": 4125,
      "beeb": 4126,
      "beeaab": 4127,
      "cdca": 4128,
      "lyjlu": 4129,
      "runrecv": 4130,
      "libvisus": 4131,
      "librar": 4132,
      "ffdce": 4133,
      "bind": 4134,
      "cceb": 4135,
      "cceea": 4136,
      "cceda": 4137,
      "eecb": 4138,
      "sppmopt": 4139,
      "busy": 4140,
      "built": 4141,
      "bfca": 4142,
      "bfcf": 4143,
      "bfcbd": 4144,
      "portion": 4145,
      "sinaapp": 4146,
      "bfbec": 4147,
      "bfbab": 4148,
      "bits": 4149,
      "xequs": 4150,
      "adea": 4151,
      "aded": 4152,
      "csm": 4153,
      "xfed": 4154,
      "setitimer": 4155,
      "show": 4156,
      "showx": 4157,
      "controlling": 4158,
      "bfdac": 4159,
      "ytnh": 4160,
      "cdea": 4161,
      "cdee": 4162,
      "memtest": 4163,
      "memmon": 4164,
      "acebf": 4165,
      "caba": 4166,
      "xbbe": 4167,
      "fcbde": 4168,
      "fcbce": 4169,
      "fcbec": 4170,
      "fcbab": 4171,
      "fcbac": 4172,
      "fcbdd": 4173,
      "fcbdf": 4174,
      "fcbba": 4175,
      "minigame": 4176,
      "fdfb": 4177,
      "fdfac": 4178,
      "fdfdb": 4179,
      "fdfdf": 4180,
      "fdfae": 4181,
      "mkdir": 4182,
      "allc": 4183,
      "allgather": 4184,
      "alltoall": 4185,
      "efdff": 4186,
      "efdce": 4187,
      "efdab": 4188,
      "efdfe": 4189,
      "efddb": 4190,
      "efdfc": 4191,
      "becb": 4192,
      "becd": 4193,
      "readv": 4194,
      "readlink": 4195,
      "readdir": 4196,
      "readblock": 4197,
      "beac": 4198,
      "fdcff": 4199,
      "aligned": 4200,
      "following": 4201,
      "***": 4202,
      "fcfab": 4203,
      "fcfbe": 4204,
      "fcfbf": 4205,
      "fcfbd": 4206,
      "efbcc": 4207,
      "efbcd": 4208,
      "efbda": 4209,
      "efbbc": 4210,
      "efbbe": 4211,
      "efbbd": 4212,
      "randomaccess": 4213,
      "accad": 4214,
      "drv": 4215,
      "ppcfloor": 4216,
      "bbcb": 4217,
      "efafb": 4218,
      "recoverable": 4219,
      "ffeaeb": 4220,
      "amr": 4221,
      "bdeb": 4222,
      "bdef": 4223,
      "bdece": 4224,
      "bdecc": 4225,
      "bdeae": 4226,
      "bdeaa": 4227,
      "optaim": 4228,
      "optimix": 4229,
      "threaded": 4230,
      "..........................": 4231,
      "bglinfo": 4232,
      "cfca": 4233,
      "mirano": 4234,
      "xffffcb": 4235,
      "aacd": 4236,
      "brk": 4237,
      "cbca": 4238,
      "xdcef": 4239,
      "subnets": 4240,
      "sublime": 4241,
      "aabb": 4242,
      "aabf": 4243,
      "ebca": 4244,
      "fdef": 4245,
      "fdead": 4246,
      "fecb": 4247,
      "fecfc": 4248,
      "controldescriptor": 4249,
      "afcbf": 4250,
      "bccac": 4251,
      "bdfea": 4252,
      "nexage": 4253,
      "disconnected": 4254,
      "fabf": 4255,
      "fabea": 4256,
      "fabdd": 4257,
      "fabda": 4258,
      "clearport": 4259,
      "afebf": 4260,
      "bdae": 4261,
      "bbae": 4262,
      "bbade": 4263,
      "bffebcbe": 4264,
      "streitz": 4265,
      "bcastv": 4266,
      "longca": 4267,
      "initialization": 4268,
      "initializeappm": 4269,
      "eabf": 4270,
      "eabea": 4271,
      "hangtest": 4272,
      "newsapp": 4273,
      "coproc": 4274,
      "///": 4275,
      "awqi": 4276,
      "awrenc": 4277,
      "aleamr": 4278,
      "bbeb": 4279,
      "cbeb": 4280,
      "gging": 4281,
      "iao": 4282,
      "defbf": 4283,
      "sendpacket": 4284,
      "sendmsg": 4285,
      "sendworker": 4286,
      "sendtrain": 4287,
      "noncontig": 4288,
      "fefffc": 4289,
      "ccccccc": 4290,
      "cccccccd": 4291,
      "accepted": 4292,
      "acceptance": 4293,
      "tenmaximg": 4294,
      "trellocdn": 4295,
      "pages": 4296,
      "slave": 4297,
      "slawrenc": 4298,
      "selftest": 4299,
      "dcaaf": 4300,
      "dffacb": 4301,
      "duplicate": 4302,
      "jeffgreeno": 4303,
      "redirector": 4304,
      "********": 4305,
      "*******": 4306,
      "writev": 4307,
      "writelog": 4308,
      "autorestart": 4309,
      "cjm": 4310,
      "clk": 4311,
      "class": 4312,
      "diff": 4313,
      "died": 4314,
      "digice": 4315,
      "fbfee": 4316,
      "ullen": 4317,
      "ulative": 4318,
      "ciodb": 4319,
      "efdbb": 4320,
      "efdbe": 4321,
      "pwd": 4322,
      "timgsa": 4323,
      "ffbca": 4324,
      "stepping": 4325,
      "prefetching": 4326,
      "prefetches": 4327,
      "fcdcb": 4328,
      "execution": 4329,
      "efdfb": 4330,
      "quantcount": 4331,
      "amaihd": 4332,
      "freed": 4333,
      "pki": 4334,
      "rtb": 4335,
      "xbfaeb": 4336,
      "socketexception": 4337,
      "failures": 4338,
      "internalapi": 4339,
      "flushing": 4340,
      "bpnet": 4341,
      "large": 4342,
      "oldkernel": 4343,
      "rmw": 4344,
      "rmdir": 4345,
      "smaller": 4346,
      "smaato": 4347,
      "turn": 4348,
      "tlbentry": 4349,
      "xaade": 4350,
      "xfffffebc": 4351,
      "initial": 4352,
      "asiamax": 4353,
      "multi": 4354,
      "windowsup": 4355,
      "idomarshalerrecvbuffer": 4356,
      "refreshes": 4357,
      "dmw": 4358,
      "hellow": 4359,
      "identifi": 4360,
      "mingxing": 4361,
      "tual": 4362,
      "trapping": 4363,
      "trapped": 4364,
      "xfffffdc": 4365,
      "xfffffef": 4366,
      "xdaabe": 4367,
      "xbbhj": 4368,
      "sequencer": 4369,
      "ordering": 4370,
      "logos": 4371,
      "compiler": 4372,
      "bbdeba": 4373,
      "speculative": 4374,
      "creative": 4375,
      "purgeinterval": 4376,
      "stirturbpnet": 4377,
      "hostname": 4378,
      "oimagec": 4379,
      "nosleepyes": 4380,
      "nosleepnocomm": 4381,
      "verifystuff": 4382,
      "baseline": 4383,
      "bdecab": 4384,
      "dware": 4385,
      "free": 4386,
      "fraction": 4387,
      "gslb": 4388,
      "jyb": 4389,
      "jylyjlu": 4390,
      "kkk": 4391,
      "nmjylyjlu": 4392,
      "qdun": 4393,
      "qihucdn": 4394,
      "rssgov": 4395,
      "xfcffd": 4396,
      "yeszerobytebug": 4397,
      "nocommnosleep": 4398,
      "fefabb": 4399,
      "fengnet": 4400,
      "ddmdv": 4401,
      "fcbfabd": 4402,
      "cloudflare": 4403,
      "cloudfron": 4404,
      "bfeefe": 4405,
      "bfafec": 4406,
      "aaecab": 4407,
      "pollcontroldescriptor": 4408,
      "mobilem": 4409,
      "recvmsghdr": 4410,
      "gathering": 4411,
      "walkup": 4412,
      "akamaihd": 4413,
      "ayoo": 4414,
      "auxiliary": 4415,
      "bzclk": 4416,
      "batchfiles": 4417,
      "blishing": 4418,
      "catchup": 4419,
      "dgtest": 4420,
      "dyna": 4421,
      "dshytnh": 4422,
      "dgemm": 4423,
      "dtrp": 4424,
      "ethernet": 4425,
      "find": 4426,
      "flagging": 4427,
      "hardware": 4428,
      "hidden": 4429,
      "hptqlr": 4430,
      "izxequs": 4431,
      "ileged": 4432,
      "icbi": 4433,
      "icauh": 4434,
      "ieeeconfpu": 4435,
      "ifengimg": 4436,
      "jratt": 4437,
      "krcom": 4438,
      "kiwihk": 4439,
      "lnkck": 4440,
      "mmbiz": 4441,
      "nullpo": 4442,
      "nlev": 4443,
      "nmsglen": 4444,
      "oadz": 4445,
      "pcookie": 4446,
      "ptargetmgr": 4447,
      "pplv": 4448,
      "pdlxf": 4449,
      "qbwup": 4450,
      "snapreta": 4451,
      "ticktime": 4452,
      "virtual": 4453,
      "watchdog": 4454,
      "wpengine": 4455,
      "wbpctips": 4456,
      "wtdtjs": 4457,
      "xedcb": 4458,
      "xmlparserapis": 4459,
      "xfffead": 4460,
      "xdrpj": 4461,
      "xuanfengnet": 4462,
      "yrexdrpj": 4463,
      "yuri": 4464,
      "ffeeeefe": 4465,
      "fffbccf": 4466,
      "ffddaff": 4467,
      "argument": 4468,
      "security": 4469,
      "noprint": 4470,
      "information": 4471,
      "chembio": 4472,
      "atallbegin": 4473,
      "oracle": 4474,
      "privileged": 4475,
      "looking": 4476,
      "assembly": 4477,
      "ctldl": 4478,
      "ctools": 4479,
      "netty": 4480,
      "strobe": 4481,
      "study": 4482,
      "topologies": 4483,
      "ofday": 4484,
      "idoudpmgr": 4485,
      "leaving": 4486,
      "retagging": 4487,
      "regctl": 4488,
      "impact": 4489,
      "tetshhot": 4490,
      "ccsamef": 4491,
      "gettimeofday": 4492,
      "cdfbab": 4493,
      "malloc": 4494,
      "makebglp": 4495,
      "ddddddd": 4496,
      "outstanding": 4497,
      "unpkg": 4498,
      "unimplemented": 4499,
      "corporation": 4500,
      "canonical": 4501,
      "micron": 4502,
      "lukei": 4503,
      "corrupt": 4504,
      "rocfluidmp": 4505,
      "fdffcbe": 4506,
      "verbose": 4507,
      "mpxlc": 4508,
      "bglctlpavtrace": 4509,
      "getcwd": 4510,
      "getrusage": 4511,
      "niuxiao": 4512,
      "wwbizapi": 4513,
      "testscripts": 4514,
      "mehul": 4515,
      "xercesimpl": 4516,
      "foobar": 4517,
      "background": 4518,
      "functests": 4519,
      "ursdoccdn": 4520,
      "srkodhptqlr": 4521,
      "photocdn": 4522,
      "cpgraph": 4523,
      "beeaabff": 4524,
      "library": 4525,
      "showxml": 4526,
      "miranova": 4527,
      "sublimetext": 4528,
      "initializeappmemory": 4529,
      "awqiizxequs": 4530,
      "sendmsgtodebugger": 4531,
      "jeffgreenough": 4532,
      "digicert": 4533,
      "windowsupdate": 4534,
      "identifier": 4535,
      "xbbhjxc": 4536,
      "nosleepyescomm": 4537,
      "nmjylyjluykle": 4538,
      "cloudfront": 4539,
      "pollcontroldescriptors": 4540,
      "ieeeconfpublishing": 4541,
      "nullpointerexception": 4542,
      "snapretaincount": 4543,
      "srkodhptqlryvjp": 4544,
      "awqiizxequsixgr": 4545
    },
    "merges": [
      "9 9",
      "99 99",
      "f f",
      "9999 9999",
      "a r",
      "99 9",
      "d e",
      "s e",
      "n o",
      "i n",
      "c e",
      "c ar",
      "car d",
      "no de",
      "c h",
      "a t",
      "9999 9",
      "e c",
      "o r",
      "se r",
      "d o",
      "ff ff",
      ") ,",
      "p r",
      "99999999 99999999",
      "v p",
      "vp d",
      "i p",
      "e d",
      "o n",
      "s s",
      "pr o",
      "l o",
      "i d",
      "o u",
      "ser v",
      "a s",
      "c t",
      "e e",
      "n d",
      "p ar",
      "i on",
      "ffff f",
      "m l",
      "i ce",
      "serv ice",
      "9999999999999999 99999999",
      "de ar",
      "i ar",
      "pro ce",
      "no t",
      "9999 99",
      "ec k",
      "proce ss",
      "ch eck",
      "process or",
      "ec id",
      "s lo",
      "slo t",
      "at ch",
      "t h",
      "ou nd",
      "m atch",
      "f ound",
      "e r",
      "a b",
      "in g",
      "n e",
      "s y",
      "t ed",
      "f or",
      "p e",
      "th e",
      "s t",
      "t t",
      "t o",
      "sy m",
      "o f",
      "as k",
      "d at",
      "s h",
      "m ask",
      "ne w",
      "a se",
      "i do",
      "ser ted",
      "u m",
      "ch ip",
      "in to",
      "ab ase",
      "dat abase",
      "in serted",
      "ct ion",
      "t y",
      "n um",
      "pr e",
      "e for",
      "ty pe",
      "999999999999999999999999 999",
      "par efor",
      "pre parefor",
      "preparefor service",
      ") )",
      "m card",
      "ser num",
      "ct n",
      "ml ctn",
      "mcard sernum",
      "par t",
      "m ip",
      "m type",
      "ml p",
      "a ction",
      "w n",
      "sh u",
      "do wn",
      "tt ing",
      "shu tting",
      "999999999999999999999999 9999",
      "l e",
      "n t",
      ". .",
      "99999999 999999",
      "o m",
      "r e",
      "a d",
      "l i",
      "e a",
      "c om",
      "i m",
      "t e",
      "b y",
      "h k",
      "x y",
      "ss ion",
      "pro xy",
      "b ffff",
      "f e",
      "se ssion",
      "d c",
      "e nt",
      "ee ee",
      "node card",
      "im e",
      "f i",
      "9999 999",
      "c c",
      "c on",
      "t ime",
      "te s",
      "by tes",
      "fi le",
      "er r",
      "k b",
      "g e",
      "a c",
      "err or",
      "c d",
      "ffff ffff",
      "i s",
      "m a",
      "a l",
      "d b",
      "d d",
      "f c",
      ".. ..",
      "st at",
      "ec t",
      "ec ted",
      "i v",
      "d a",
      "c lo",
      "d f",
      "f pr",
      "clo se",
      "b c",
      "b a",
      "o d",
      "o k",
      "c u",
      "re ce",
      "rece iv",
      "a e",
      "b e",
      "ed u",
      "i r",
      "c se",
      "cu hk",
      "a n",
      "b f",
      "e x",
      "p s",
      "i l",
      "c i",
      "g h",
      "ci od",
      "f a",
      "o t",
      "r ou",
      "th rou",
      "throu gh",
      "l in",
      "ee e",
      "c f",
      "e m",
      "b d",
      "c li",
      "ou t",
      "pe n",
      "cli ent",
      "o pen",
      "eeee eee",
      "receiv ed",
      "u n",
      "stat e",
      "sy st",
      "syst em",
      "b b",
      "c or",
      "file system",
      "er filesystem",
      "h tt",
      "htt ps",
      "c a",
      "se nt",
      "li fe",
      "life time",
      "m i",
      "lin k",
      "time out",
      "con n",
      "a nd",
      "99999999 99",
      "session id",
      "e f",
      "a f",
      "conn ect",
      "r a",
      "de t",
      "det ected",
      "c b",
      "u s",
      "link card",
      "s i",
      "p on",
      "ma in",
      "at ed",
      "do main",
      "ra m",
      "a a",
      "99999999 99999",
      "ab le",
      "l u",
      "a v",
      "t er",
      "w i",
      "com pon",
      "compon ent",
      "s o",
      "connect ion",
      "d ir",
      "w id",
      "c k",
      "cor r",
      "lu st",
      "r o",
      "ad d",
      "e de",
      "c lust",
      "f d",
      "g ram",
      "av a",
      "pro gram",
      "ex ce",
      ".... ....",
      "g o",
      "corr ected",
      "d s",
      "e b",
      "il able",
      "ava ilable",
      "e st",
      "t s",
      "wi th",
      "ss ing",
      "s c",
      "v er",
      "add re",
      "mi ssing",
      "addre ss",
      "dc r",
      "a ge",
      "clust erfilesystem",
      "se con",
      "secon ds",
      "at ion",
      "e t",
      "s u",
      "g l",
      "ch an",
      "li sh",
      "ab lish",
      "est ablish",
      "m s",
      "x ffffffff",
      "ne t",
      "m in",
      "h i",
      "m p",
      "chan ge",
      "un available",
      "o ver",
      "g ot",
      "se d",
      "b gl",
      "so ck",
      "or y",
      "proce s",
      "w hi",
      "proces sed",
      "p ir",
      "ex pir",
      "establish ed",
      "i ated",
      "ne got",
      "negot iated",
      "ter min",
      "ede d",
      "exce eded",
      "termin ation",
      "sock et",
      "expir ing",
      "ffff ff",
      "close d",
      "dir ect",
      "t or",
      "serv erfilesystem",
      "direct ory",
      "b o",
      "whi ch",
      "o g",
      "- -",
      "h ad",
      "p er",
      "go og",
      "goog le",
      "c o",
      "serv ed",
      "su ch",
      "ro ot",
      "99999999 9",
      "v al",
      "g er",
      "a p",
      "f b",
      "99999999 999",
      "val id",
      "u p",
      "fa il",
      "tor us",
      "ad ing",
      "f ee",
      "h wid",
      "im age",
      "s w",
      "in valid",
      "h om",
      "c r",
      "lo ading",
      "ge t",
      "cor e",
      "w wid",
      "sc si",
      "l on",
      "ma p",
      "stat us",
      "hom e",
      "ge n",
      "n i",
      "t ar",
      "fail ed",
      "tar get",
      "v i",
      "receiv er",
      "gen er",
      "c al",
      "p u",
      "w w",
      "lon ger",
      "file s",
      "f ea",
      "m d",
      "ffffff fe",
      "gener ated",
      "t r",
      "se ts",
      "te st",
      "con si",
      "ac k",
      "in consi",
      "node sets",
      "st ent",
      "inconsi stent",
      "lo g",
      "i x",
      "n a",
      "th is",
      "be ing",
      "n c",
      "q u",
      "w or",
      "do ne",
      "in st",
      "co de",
      "l d",
      "wor k",
      "i c",
      "dd r",
      "l r",
      "r u",
      "p t",
      "pu t",
      "in put",
      "s n",
      "serv er",
      "n f",
      "net work",
      "de r",
      "l s",
      "c ou",
      "m e",
      "n b",
      "inst ru",
      "instru ction",
      "l l",
      "domain s",
      "node s",
      "mp i",
      "target ing",
      "h w",
      "un ix",
      "ma nd",
      "sw l",
      "cou ld",
      "mi ssion",
      "ct r",
      "x er",
      "dat a",
      "com mand",
      "p ip",
      "log in",
      "pip e",
      "in ter",
      "ff f",
      "g i",
      "d dc",
      "ch dir",
      "( /",
      "- [",
      "ff e",
      "........ ........",
      "r om",
      "ni ff",
      "u b",
      "i t",
      "g b",
      "h as",
      "s p",
      "fa a",
      "f rom",
      "ee per",
      "g n",
      "e s",
      "de o",
      "at ing",
      "vi deo",
      "f o",
      "r an",
      "-- -",
      "id u",
      "te mp",
      "ba idu",
      "p l",
      "in t",
      "ed faa",
      "google video",
      "pt ion",
      "im g",
      "c n",
      "ww w",
      "al le",
      "c md",
      "b er",
      "f cc",
      "bo l",
      "se n",
      "ap ps",
      "b ack",
      "or um",
      "ss age",
      "ee p",
      "fa ce",
      "qu orum",
      "me ssage",
      "f da",
      "re tr",
      "go od",
      "back up",
      "e n",
      "v e",
      "tr ee",
      "f un",
      "p o",
      "s pe",
      "ce c",
      "sw eep",
      "c ase",
      "c ac",
      "case s",
      "f u",
      "bo ot",
      "m b",
      "p a",
      "t a",
      "c an",
      "fu ll",
      "n ch",
      "sen der",
      "e v",
      "s mission",
      "an smission",
      "inter face",
      "retr ansmission",
      "ev ent",
      "u r",
      "sym bol",
      "vi a",
      "ran k",
      "o ok",
      "ne l",
      "al t",
      "stat ic",
      "num ber",
      "si gn",
      "cal ls",
      "c re",
      "m c",
      "sy nch",
      "st ar",
      "b w",
      "l lo",
      "ce d",
      "bo x",
      "h u",
      "p ack",
      "z ook",
      "ff b",
      "exce ption",
      "alle n",
      "sign al",
      "bw allen",
      "zook eeper",
      "b m",
      "i al",
      "k er",
      "t ch",
      "at e",
      "sc r",
      "i o",
      "s r",
      "x c",
      "f cd",
      "s of",
      "mpi ts",
      "e fc",
      "s ion",
      "w e",
      "ff a",
      "sy s",
      "sc al",
      "w er",
      "st er",
      "re qu",
      "re gi",
      "test cases",
      "regi ster",
      "a ct",
      "k in",
      "t al",
      "de ni",
      "ser ial",
      "ip address",
      "err up",
      "fd fe",
      "per mission",
      "fee a",
      "fea a",
      "int errup",
      "pa kin",
      "pack et",
      "ker nel",
      "deni ed",
      "serial number",
      "a li",
      "u re",
      "do ub",
      "a der",
      "f ce",
      "q q",
      "s wi",
      "ed s",
      "as m",
      "ad c",
      "cc c",
      "cc d",
      "lin e",
      "clust er",
      "ddc md",
      "sp asm",
      "fun ction",
      "swi tch",
      "u ser",
      "x id",
      "pl a",
      "scr atch",
      "d ro",
      "p h",
      "sy scal",
      "the ader",
      "cd n",
      "bgl scratch",
      "ta g",
      "sr c",
      "sof theader",
      "act iv",
      "dro p",
      "syscal ls",
      "i bm",
      "p le",
      "drop box",
      "b ff",
      "b ad",
      "c p",
      "or t",
      "ed ram",
      "fffff e",
      "to tal",
      "function al",
      "c ro",
      "t ing",
      "lo ck",
      "ma x",
      "mi cro",
      "fo llo",
      ". /",
      "b fe",
      "m id",
      "r ts",
      "x a",
      "lo cal",
      "ma n",
      "cu r",
      "b lock",
      "j tag",
      "l ce",
      "m ent",
      "m od",
      "com ple",
      "per for",
      "spe lce",
      "m ed",
      "ff c",
      "ad a",
      "can not",
      "pla ne",
      "mid plane",
      "e fe",
      "so l",
      "ap sh",
      "sn apsh",
      "cre ating",
      ": /",
      "at ure",
      "er ature",
      "re s",
      "exce eds",
      "temp erature",
      "e nd",
      "f db",
      "g ou",
      "w as",
      "ad b",
      "con t",
      "il d",
      "so gou",
      "corr ect",
      "mod u",
      "e ff",
      "p m",
      "ch e",
      "st or",
      "ad f",
      "micro seconds",
      "modu le",
      "j ava",
      "k n",
      "t mp",
      "de c",
      "ch ild",
      "service action",
      ".. .",
      "end serviceaction",
      "correct able",
      "b ee",
      "c dc",
      "l y",
      "r un",
      "in fo",
      "at h",
      "at temp",
      "li b",
      "err no",
      "ra p",
      "good ing",
      "ph y",
      "h p",
      "l as",
      "m ar",
      "ff d",
      "ee r",
      "cd f",
      "it i",
      "b in",
      "c ce",
      "d n",
      "p ath",
      "v ar",
      "re sol",
      "xy z",
      "cd a",
      "resol ve",
      "e ec",
      "t down",
      "u pon",
      "x fffffffe",
      "z xid",
      "ed c",
      "shu tdown",
      "li ck",
      "ffffff e",
      "gi th",
      "sp pm",
      "fda e",
      "perfor med",
      "rap tor",
      "hp cc",
      "b u",
      "b fc",
      "k eeper",
      "p ort",
      "s in",
      "ec lick",
      "cd b",
      "bf b",
      "stor age",
      "xyz t",
      "a ec",
      "b i",
      "e l",
      "n sion",
      "v n",
      "x e",
      "te nt",
      "con tent",
      "an g",
      "us r",
      "snapsh ot",
      "sin a",
      "a de",
      "c s",
      "c ad",
      "g lo",
      "i te",
      "m db",
      "x f",
      "se t",
      "sh o",
      "gl v",
      "ic ation",
      "inter connect",
      "ddc mdb",
      "interrup t",
      "activ e",
      "cont ro",
      "ddcmdb glv",
      "d in",
      "d ime",
      "l eclick",
      "ff fe",
      "or din",
      "bf d",
      "si cal",
      "co ordin",
      "fda f",
      "requ est",
      "doub leclick",
      "phy sical",
      "gith ub",
      "dime nsion",
      "coordin ate",
      "y t",
      "star t",
      "c de",
      "f lo",
      "i k",
      "m em",
      "s li",
      "t ion",
      "ec c",
      "test s",
      "we i",
      "attemp ting",
      "glo sli",
      "a ce",
      "a che",
      "c ab",
      "d ac",
      "f las",
      "i ty",
      "l ed",
      "x b",
      "ar e",
      "ce e",
      "as serted",
      "cd d",
      "fc b",
      "bf a",
      "gh t",
      "min i",
      "flas h",
      "f df",
      "l t",
      "m k",
      "p eer",
      "u e",
      "se c",
      "in e",
      "or g",
      "cc b",
      "al l",
      "ef d",
      "........ ....",
      "ve l",
      "bee n",
      "wei bo",
      "b ec",
      "b efor",
      "m mi",
      "de v",
      "ce b",
      "ce led",
      "ec f",
      "ed b",
      "ee a",
      "re new",
      "re ad",
      "re set",
      "com m",
      "db c",
      "ir ed",
      "ap i",
      "fail ing",
      "can celed",
      "requ ired",
      "comple tion",
      "befor e",
      "b ea",
      "f dc",
      "g ent",
      "i es",
      "l ts",
      "p j",
      "re su",
      "cc f",
      "error s",
      "ver sion",
      "cr iti",
      "po wer",
      "ali gn",
      "follo w",
      "bi g",
      "cs dn",
      "resu lts",
      "criti cal",
      "* *",
      "a ee",
      "m o",
      "s id",
      "car t",
      "ch ine",
      "do m",
      "as t",
      "par alle",
      "par ity",
      "ab c",
      "re nt",
      "te n",
      "ma chine",
      "fc f",
      "ae b",
      "ef b",
      "ap ache",
      "ran dom",
      "quorum server",
      "quorum peer",
      "en v",
      "ur gent",
      "mc cart",
      "doub le",
      "follo wer",
      "cur rent",
      "pj mccart",
      "align ment",
      "paralle l",
      "a cc",
      "d r",
      "l atch",
      "l er",
      "n ing",
      "o o",
      "p p",
      "t x",
      "t ies",
      "ffff e",
      "ed f",
      "pro per",
      "ab d",
      "im b",
      "fe fff",
      "cc a",
      "so hu",
      "comm un",
      "follow up",
      "proper ties",
      "b bc",
      "e fa",
      "r ec",
      "ff ea",
      "ee f",
      "ae f",
      "ffffff f",
      "cr ite",
      "fun c",
      "interrup ts",
      "vn m",
      "crite o",
      "a h",
      "a m",
      "a ed",
      "a ea",
      "b de",
      "b le",
      "c able",
      "f bc",
      "j s",
      "o pt",
      "s ing",
      "ed a",
      "th re",
      "dc d",
      "ma il",
      "................ ........",
      "po int",
      "spe nt",
      "exception s",
      ": :",
      "b g",
      "b s",
      "c fc",
      "i st",
      "m ir",
      "m mc",
      "u se",
      "x ffff",
      "in f",
      "vp es",
      "ou nt",
      "ab e",
      "ac b",
      "ca u",
      "co p",
      "ger man",
      "ap is",
      "user content",
      "cp md",
      "sho ld",
      "dev ice",
      "thre shold",
      "mmc s",
      "german n",
      "a ac",
      "b r",
      "b lu",
      "b it",
      "c bc",
      "d ad",
      "f ac",
      "g r",
      "i j",
      "w h",
      "x d",
      "y ah",
      "ff aa",
      "ce a",
      "do e",
      "ed d",
      "st ab",
      "to o",
      "le vel",
      "re valid",
      "fi g",
      "con fig",
      "il le",
      "and a",
      "af b",
      "su b",
      "co ll",
      "mir anda",
      "blu e",
      "yah oo",
      "revalid ating",
      ": -",
      "a ab",
      "c xid",
      "e bc",
      "f de",
      "f ec",
      "h df",
      "l ang",
      "m n",
      "m ount",
      "n type",
      "q path",
      "w r",
      "x ce",
      "node ex",
      "ec a",
      "on ment",
      "process ing",
      "sy nd",
      "pre p",
      "re qpath",
      "ad s",
      "ea c",
      "dc c",
      "error code",
      "al er",
      "ir onment",
      "dir s",
      "fd mn",
      "su cce",
      "ix in",
      "en able",
      "cre ate",
      "star ting",
      "we ixin",
      "register s",
      "man hu",
      "cur i",
      "bu g",
      "keeper exception",
      "keeper errorcode",
      "sina img",
      "contro l",
      "env ironment",
      "tx ntype",
      "commun ication",
      "ist s",
      "wh en",
      "hdf s",
      "nodeex ists",
      "succe ss",
      "a fc",
      "b dc",
      "b cc",
      "b df",
      "g y",
      "g al",
      "m y",
      "p in",
      "r ce",
      "u be",
      "y in",
      "y out",
      "de activ",
      "ou rce",
      "ee b",
      "ne x",
      "ne z",
      "re ading",
      "li o",
      "ma na",
      "clo ck",
      "bc b",
      "ba a",
      "whi le",
      "command s",
      "star ted",
      "flo ating",
      "bg lio",
      "cau ght",
      "ille gal",
      "sub commands",
      "xce ption",
      "pin yin",
      "yout ube",
      "deactiv ated",
      "mana ger",
      "( )",
      "c le",
      "c bb",
      "c ation",
      "d is",
      "e ed",
      "f ab",
      "i li",
      "o lt",
      "p an",
      "p good",
      "s ram",
      "u lr",
      "v olt",
      "w a",
      "x x",
      "ce nt",
      "at ar",
      "pro ble",
      "ee xception",
      "ty p",
      "ac a",
      "ac d",
      "stat eexception",
      "an ce",
      "client s",
      "ra il",
      "aa a",
      "mp good",
      "per f",
      "google apis",
      "google synd",
      "ll er",
      "ik e",
      "mem ory",
      "current ly",
      "stab ili",
      "illegal stateexception",
      "cle ar",
      "ulr ike",
      "googlesynd ication",
      "stabili ty",
      "a fe",
      "a ae",
      "a fa",
      "b eck",
      "b ac",
      "b da",
      "b ba",
      "b ffe",
      "c bf",
      "d ing",
      "d ur",
      "e ce",
      "f ae",
      "h and",
      "l p",
      "r bs",
      "s le",
      "t w",
      "u o",
      "u x",
      "w ar",
      "z er",
      "in ni",
      "ec d",
      "or beck",
      "st re",
      "um t",
      "ea e",
      "im um",
      "ac f",
      "ect ion",
      "bc ast",
      "af d",
      "pon ding",
      "wi res",
      "so s",
      "go ing",
      "inst ance",
      "me sos",
      "................ ....",
      "mb i",
      "full y",
      "max imum",
      "res ponding",
      "contro ller",
      "yt img",
      "ik uo",
      "sing le",
      "manhu a",
      "dur ing",
      "hand ler",
      "inni ty",
      "a nt",
      "a mbi",
      "b ro",
      "d p",
      "e be",
      "e bd",
      "f an",
      "g static",
      "l b",
      "m u",
      "p ected",
      "s ource",
      "u nex",
      "y at",
      "z z",
      "z hi",
      "in iti",
      "ab a",
      "sh are",
      "te ch",
      "ae ger",
      "be f",
      "be l",
      "ca che",
      "sc ip",
      "lon g",
      "pl us",
      "cn zz",
      "bol t",
      "ali z",
      "ali cdn",
      "switch controller",
      "comple ted",
      "midplane switchcontroller",
      "el ection",
      "ten cent",
      "double max",
      "dr aeger",
      "config ur",
      "pan ic",
      "wa it",
      "stre am",
      "ambi ent",
      "unex pected",
      "yat es",
      "zhi hu",
      "initi aliz",
      "e ab",
      "e bf",
      "f dd",
      "f ps",
      "f bd",
      "h pl",
      "h alt",
      "h ang",
      "m as",
      "m er",
      "m dc",
      "s um",
      "s od",
      "de d",
      "de e",
      "de bug",
      "ce cc",
      "ss l",
      "nd m",
      "ab b",
      "new s",
      ".. /",
      "li ght",
      "ea a",
      "fe f",
      "cd ndm",
      "iv e",
      "ba e",
      "ex e",
      "lin ux",
      "ca f",
      "av atar",
      "chan gy",
      "ms r",
      "co pro",
      "ic s",
      "gi ge",
      "it ion",
      "es r",
      "run ning",
      "mar y",
      "proble m",
      "ulrike y",
      "fps cr",
      "mas ter",
      "mdc ask",
      "sum mary",
      "changy an",
      "/ /",
      "a w",
      "a le",
      "b ce",
      "b db",
      "b be",
      "c m",
      "c as",
      "c ae",
      "c be",
      "c fa",
      "d ce",
      "f bb",
      "g g",
      "g q",
      "i a",
      "i fi",
      "n ect",
      "o tting",
      "t re",
      "t cp",
      "v gq",
      "de a",
      "de f",
      "se nd",
      "no n",
      "ce f",
      "on nect",
      "ss port",
      "pro po",
      "as ser",
      "er no",
      "st r",
      "st eer",
      "nt ime",
      "ea m",
      "fe ff",
      "cc cc",
      "cc cd",
      "ac ce",
      "fc a",
      "av e",
      "ter s",
      "gram mar",
      "ffffff fc",
      "google usercontent",
      "ru ntime",
      "baidu static",
      "pa ssport",
      "block s",
      "snapsh otting",
      ":/ /",
      "sho ck",
      "mem ber",
      "mo de",
      "ten max",
      "rec onnect",
      "inf erno",
      "blue light",
      "war ning",
      "zer o",
      "configur ed",
      "initializ ing",
      "tre llo",
      "tcp conn",
      "propo sed",
      "grammar ly",
      "/ .",
      "a do",
      "a ad",
      "a ms",
      "a me",
      "c fe",
      "c ba",
      "c mc",
      "d de",
      "d fe",
      "d fc",
      "f ba",
      "h n",
      "h um",
      "p age",
      "p ix",
      "r fi",
      "r is",
      "s l",
      "t p",
      "w x",
      "w il",
      "y ou",
      "de s",
      "se l",
      "not ifi",
      "th er",
      "ab f",
      "pe s",
      "dat e",
      "sh er",
      "ido proxy",
      "li ams",
      "dc a",
      "dc f",
      "al yt",
      "db properties",
      "dd a",
      "fc ac",
      "da o",
      "rece ption",
      "an alyt",
      "add r",
      "chan nel",
      "google ads",
      "vi car",
      "log s",
      "na me",
      "nf s",
      "it c",
      "spe eds",
      "io log",
      "adc ast",
      "ph t",
      "attemp t",
      "use database",
      "br des",
      "success fully",
      "bro adcast",
      "gg pht",
      "ado be",
      "hum mer",
      "pix el",
      "rfi sher",
      "ris boot",
      "wil liams",
      "you dao",
      "notifi cation",
      "analyt ics",
      "a g",
      "b ed",
      "b cd",
      "d l",
      "d ff",
      "d db",
      "d mp",
      "d up",
      "e ba",
      "e wer",
      "f ed",
      "h ave",
      "i e",
      "j ar",
      "j eff",
      "k y",
      "k pt",
      "k nez",
      "m m",
      "o per",
      "r ed",
      "r st",
      "r ma",
      "t eam",
      "u nt",
      "x l",
      "y ing",
      "z ed",
      "ff fc",
      "de b",
      "de vel",
      "se cu",
      "no rma",
      "ce ce",
      "ce cb",
      "ch kpt",
      "ed ge",
      "lo ad",
      "ab ort",
      "sy nc",
      "st ack",
      "of dir",
      "ea f",
      "cc ce",
      "cd bc",
      "ma y",
      "dd d",
      "dd f",
      "da a",
      "an typ",
      "il ler",
      "cf d",
      "bd img",
      "ca a",
      "ca cc",
      "mi t",
      "fb cdn",
      "up date",
      "hom me",
      "cr c",
      "vi ewer",
      "................ .",
      "es ted",
      "retr ying",
      "po s",
      "bm iller",
      "scr ip",
      "user func",
      "man ce",
      "perfor mance",
      "cont in",
      "las t",
      "github usercontent",
      "............ ...",
      "** **",
      "ffffe ffe",
      "wr ite",
      "aler t",
      "sle pt",
      "asser t",
      "acce ss",
      "sel ect",
      "oper ation",
      "team viewer",
      "unt ested",
      "secu re",
      "ofdir ty",
      "antyp as",
      "a u",
      "a use",
      "b dd",
      "b ub",
      "c j",
      "c l",
      "c xx",
      "d i",
      "d static",
      "f ad",
      "f be",
      "f bf",
      "i shu",
      "k ub",
      "n al",
      "o cc",
      "o ba",
      "p ing",
      "r edu",
      "s ca",
      "u l",
      "v m",
      "y dstatic",
      "de scrip",
      "se tting",
      "ce dc",
      "ce bc",
      "or ters",
      "lo w",
      "as ic",
      "ee no",
      "st o",
      "to mand",
      "part ition",
      "le test",
      "li mit",
      "hk g",
      "fe tch",
      "eeee eeee",
      "cc dc",
      "ge ne",
      "cd fc",
      "da f",
      "da hn",
      "bc f",
      "ci o",
      "ot a",
      "un correctable",
      "bb b",
      "ef dc",
      "ef db",
      "ra in",
      "lust re",
      "........ .",
      "ver s",
      "su pp",
      "bo ok",
      "cal tech",
      "pu r",
      "pu bad",
      "inst all",
      "face book",
      "ta oba",
      "ur red",
      "hu i",
      "line ar",
      "pla y",
      "comple te",
      "sol vers",
      "sogou cdn",
      "bu t",
      "sina js",
      "lt on",
      "gr eeno",
      "blue gene",
      "dis able",
      "bel nez",
      "avatar s",
      "steer ing",
      "page ad",
      "idoproxy db",
      "ause lton",
      "bub er",
      "ishu hui",
      "kub ota",
      "occ urred",
      "sca letest",
      "descrip tor",
      "tomand jeff",
      "supp orters",
      "pubad s",
      "taoba o",
      "= /",
      "a af",
      "a dec",
      "b bd",
      "b log",
      "c pro",
      "c ada",
      "c dec",
      "d dbc",
      "d typ",
      "f m",
      "g m",
      "h ack",
      "h img",
      "i tt",
      "i an",
      "j gh",
      "l com",
      "m tal",
      "p w",
      "p ap",
      "p ic",
      "q b",
      "q box",
      "r ky",
      "t img",
      "w in",
      "ff bc",
      "ff ca",
      "ar ch",
      "de ac",
      "no s",
      "ch o",
      "or ted",
      "ffff c",
      "nd y",
      "par e",
      "service s",
      "ab orted",
      "for m",
      "st e",
      "pre fi",
      "pre fetch",
      "re l",
      "re main",
      "com pare",
      "fi rst",
      "cc fc",
      "ge mini",
      "fc dc",
      ".... ..",
      "da e",
      "be b",
      "be n",
      "be nch",
      "bf dc",
      "ex ec",
      "lin es",
      "out s",
      "open ing",
      "un der",
      "ca pt",
      "ef cd",
      "ef df",
      "add member",
      "fd ff",
      "ds k",
      "ds mc",
      "bgl master",
      "sock s",
      "ap c",
      "ap p",
      "map file",
      "gen vm",
      "test qbox",
      "qu ant",
      "server db",
      "cou nt",
      "inter val",
      "pl b",
      "boot genvm",
      "we lcom",
      "scal ing",
      "cluster addmember",
      "jtag id",
      "stor e",
      "mar k",
      "mini ben",
      "............ .",
      "parity alignment",
      "mail box",
      "wr itt",
      "mu ndy",
      "hang outs",
      "sod scaling",
      "debug ger",
      "ther e",
      "notification s",
      "homme s",
      "cj mundy",
      "cio stream",
      "mtal k",
      "prefi x",
      "bench mark",
      "capt ure",
      "bootgenvm unix",
      "welcom e",
      "writt en",
      "a ma",
      "a ffe",
      "c ss",
      "c bd",
      "c cec",
      "c ate",
      "c bfb",
      "d ffe",
      "d dec",
      "e ad",
      "e bb",
      "f re",
      "f lu",
      "f cec",
      "h m",
      "i which",
      "i ble",
      "j p",
      "j ul",
      "m on",
      "m ook",
      "m gr",
      "o s",
      "p k",
      "p ch",
      "r t",
      "r ound",
      "r ta",
      "s ame",
      "t im",
      "t un",
      "v a",
      "w eb",
      "x bf",
      "x ue",
      "x hpl",
      "y un",
      "z e",
      "ff er",
      "de dc",
      "de cd",
      "in complete",
      "ce ec",
      "card sto",
      "at ter",
      "ec b",
      "ffff bffe",
      "on g",
      "lo cation",
      "serv e",
      "serv ing",
      "as sets",
      "fffff c",
      "om e",
      "ad dc",
      "li ve",
      "fe b",
      "dc fc",
      "cc cb",
      "tes ted",
      "ac dc",
      "cd dc",
      "cd ac",
      "ma j",
      "db f",
      "db g",
      "dd dc",
      "fc bc",
      "ect or",
      "ba f",
      "ba ker",
      "an x",
      "il l",
      "lin pack",
      "bd static",
      "link error",
      "ef de",
      "ef ea",
      "ef cc",
      "ef bc",
      "si ze",
      "ro ff",
      "fd fc",
      "ts ch",
      "sc atter",
      "age s",
      "sock e",
      "expir ed",
      "fb fffffe",
      "fail ure",
      "gener ating",
      "tr i",
      "test ing",
      "code s",
      "ic ating",
      "ll a",
      "inter nal",
      "................ ..",
      "................ ...",
      "rom io",
      "ber tsch",
      "fcc c",
      "cac a",
      "full test",
      "ffb ffe",
      "sof t",
      "bff fe",
      "med ia",
      "cdc c",
      "bu ffer",
      "flo w",
      "fdf a",
      "............ ..",
      "read y",
      "bea con",
      "csdn img",
      "dr ive",
      "pp c",
      "tx t",
      "commun icating",
      "........................ .",
      "........................ ...",
      "xffff c",
      "fde e",
      "aler ts",
      "sle s",
      ".................... .",
      "bel n",
      "unexpected ly",
      "feff ed",
      "tp c",
      "contin ue",
      "pw roff",
      "form at",
      "ste lla",
      "quant serve",
      "flu sh",
      "iwhich cardsto",
      "mook ie",
      "pch ome",
      "rta x",
      "tim ed",
      "tun ed",
      "xue shu",
      "iwhichcardsto pwroff",
      "/ )",
      "/ ../",
      "a o",
      "b j",
      "b p",
      "b ab",
      "b is",
      "b rain",
      "c ff",
      "c pu",
      "d iv",
      "d cec",
      "d ue",
      "d ition",
      "e of",
      "e ver",
      "e fff",
      "e we",
      "e ffa",
      "e ue",
      "e ssl",
      "f ced",
      "f gy",
      "g ge",
      "g ra",
      "h ne",
      "i f",
      "i tor",
      "k map",
      "k it",
      "l ar",
      "l wor",
      "m ps",
      "o ld",
      "p li",
      "q a",
      "r m",
      "s im",
      "s ma",
      "s content",
      "t c",
      "t ra",
      "t able",
      "t ur",
      "t ue",
      "t lb",
      "t addr",
      "t va",
      "u d",
      "u ba",
      "u ve",
      "v t",
      "v x",
      "w s",
      "w ang",
      "x aa",
      "x fffffe",
      "z on",
      "ff dc",
      "ff cb",
      "99999999 9999",
      "ar ale",
      "de l",
      "de mo",
      "se s",
      "se ne",
      "se arch",
      "in it",
      "ce fc",
      "ce bf",
      "ce cf",
      "do ct",
      "ed n",
      "lo ewe",
      "as ia",
      "nd ant",
      "par md",
      "not e",
      "th under",
      "er ages",
      "st ion",
      "st ir",
      "sh ort",
      "ido s",
      "ido chip",
      "ido mar",
      "um p",
      "pre ssion",
      "type kit",
      "part ad",
      "re ver",
      "re starting",
      "re fre",
      "re pli",
      "ad cc",
      "ad ac",
      "ad bc",
      "li zed",
      "im p",
      "te l",
      "by te",
      "bffff ffe",
      "dc dc",
      "dc bc",
      "dc ache",
      "con so",
      "con dition",
      "ge o",
      "ge tting",
      "ac bc",
      "db a",
      "db lwor",
      "fc de",
      "fc match",
      ".... .",
      ".... ...",
      "iv er",
      "da ce",
      "da ec",
      "df a",
      "df cc",
      "df bc",
      "bc a",
      "bf ec",
      "ex change",
      "ex pression",
      "il y",
      "fa f",
      "out brain",
      "un able",
      "un rec",
      "ca ce",
      "ef ce",
      "ef ec",
      "ef ed",
      "ef da",
      "ef ba",
      "af ly",
      "si c",
      "av d",
      "av erages",
      "ds p",
      "su p",
      "su gge",
      "min us",
      "hi t",
      "hi gh",
      "bgl idochip",
      "ffffff be",
      "og ni",
      "-- >",
      "ni el",
      "gener al",
      "qu eue",
      "ll ap",
      "mpi ch",
      "ddc c",
      "tree addr",
      "po se",
      "cac f",
      "cac afly",
      "io exception",
      "efc a",
      "fce a",
      "fce b",
      "cp p",
      "micro soft",
      "block ed",
      "kn l",
      "gith uba",
      "el and",
      "content ion",
      "cs ar",
      "cab c",
      "bea p",
      "fdc c",
      "coll ector",
      "mu lt",
      "wait ing",
      "aw s",
      "vgq s",
      "vgq sene",
      "str ong",
      "devel f",
      "norma l",
      "norma lized",
      "stack exchange",
      "access ible",
      "secure pubads",
      "ofdirty lines",
      "ofdirty dblwor",
      "di ct",
      "fad y",
      "redu ndant",
      "pur pose",
      "win do",
      "nos dn",
      "testqbox hang",
      "count er",
      "ama zon",
      "mon itor",
      "yun sic",
      "socke ts",
      "ever note",
      "fgy gi",
      "tra ce",
      "taddr iver",
      "arale go",
      "doct or",
      "idomar sh",
      "rever se",
      "refre sh",
      "repli cas",
      "conso le",
      "unrec ogni",
      "sugge stion",
      "niel sen",
      "githuba pp",
      "vgqsene s",
      "ofdirtydblwor d",
      "amazon aws",
      "unrecogni zed",
      ") :",
      ") ........................",
      "= =",
      "a il",
      "a md",
      "a cec",
      "a ccc",
      "c v",
      "c id",
      "c adc",
      "c pes",
      "d m",
      "d ab",
      "d fffffe",
      "e p",
      "e as",
      "e ffe",
      "e llo",
      "e ffb",
      "e ffc",
      "e edc",
      "f p",
      "f on",
      "f ls",
      "g ate",
      "g ine",
      "g ive",
      "g vt",
      "h o",
      "h y",
      "h ello",
      "i de",
      "i ch",
      "j ag",
      "k ne",
      "k dp",
      "l a",
      "l ate",
      "l are",
      "m f",
      "m ing",
      "n g",
      "n k",
      "n l",
      "o im",
      "o ple",
      "p as",
      "p th",
      "p ad",
      "p api",
      "p counter",
      "q s",
      "q himg",
      "r ack",
      "r ich",
      "s cli",
      "s mi",
      "s am",
      "s afe",
      "s cho",
      "t u",
      "t rap",
      "u ation",
      "u es",
      "v atar",
      "w sing",
      "x fffff",
      "x ad",
      "x da",
      "x fa",
      "x bb",
      "y read",
      "z himg",
      "ff t",
      "ff de",
      "ff ce",
      "ff cc",
      "ff ac",
      "ff cd",
      "ar en",
      "de de",
      "de cc",
      "de dd",
      "de bc",
      "de pth",
      "se qu",
      "no sl",
      "in ity",
      "ce ac",
      "ce cd",
      "ce dd",
      "ce bd",
      "ch ar",
      "ch at",
      "ch ment",
      "ch am",
      "at ta",
      "at anx",
      "or der",
      "ffff eb",
      "ip v",
      "ip le",
      "on e",
      "ss p",
      "pro mp",
      "lo go",
      "ee ec",
      "nd ir",
      "nd wid",
      "par ame",
      "fffff bfe",
      "service mailbox",
      "ab cc",
      "ab ac",
      "ab fc",
      "ab bc",
      "pe ople",
      "st a",
      "st ill",
      "to war",
      "sym bo",
      "pre sta",
      "om me",
      "re pl",
      "ad zer",
      "com p",
      "im pr",
      "bffff dfe",
      "fe ffff",
      "fe fe",
      "dc b",
      "dc cc",
      "cc bc",
      "cc bf",
      "cc cf",
      "err str",
      "ge tel",
      "ac ing",
      "ac ac",
      "al lr",
      "al ready",
      "db b",
      "db d",
      "db e",
      "db dc",
      "dd ac",
      "dd fc",
      "fc ff",
      "fc ce",
      "fc be",
      "clo sing",
      "df b",
      "df d",
      "df ed",
      "df ac",
      "ba ndwid",
      "ae fe",
      "edu ce",
      "bf ea",
      "bf bb",
      "fa ec",
      "cf b",
      "bb de",
      "ca ec",
      "ca ac",
      "ca fc",
      "ef ac",
      "ef dd",
      "ef be",
      "ef bf",
      "ef bd",
      "ef bb",
      "det ail",
      "cb ea",
      "cb bc",
      "ck pt",
      "fd dc",
      "........ ...",
      "go v",
      "ver if",
      "lish i",
      "ms g",
      "over flow",
      "bgl a",
      "proces ses",
      "ffffff fa",
      "og s",
      "per cl",
      "val one",
      "fb bc",
      "md n",
      "consi der",
      "log user",
      "nc y",
      "qu lishi",
      "ru ndir",
      "ll nl",
      "hw stab",
      "................ ................",
      "ub mc",
      "sp ec",
      "gn u",
      "temp high",
      "fcc f",
      "fda a",
      "cac d",
      "cre at",
      "io state",
      "sr m",
      "fcd a",
      "fcd b",
      "fcd f",
      "efc f",
      "fce e",
      "fce f",
      "activ ating",
      "bff c",
      "bff d",
      "cp c",
      "cp m",
      "edram s",
      "bfe b",
      "efe b",
      "efe f",
      "res ource",
      "eff d",
      "bi z",
      "content rec",
      "glo b",
      "flo pcounter",
      "cab d",
      "cab f",
      "cab ot",
      "dac b",
      "bec a",
      "pp ing",
      "fbc a",
      "inf inity",
      "br ian",
      "too ls",
      "aler io",
      "enable flush",
      "manhu aren",
      "proble ms",
      "ulrike tests",
      ".................... ..",
      "bro wsing",
      "stream tri",
      "bdb b",
      "send ing",
      "str ip",
      "zero byte",
      "adobe login",
      "mm stat",
      "contin uation",
      "redu ce",
      "pur ge",
      "gm t",
      "cho wn",
      "fdff fdfe",
      "mailbox monitor",
      "maj or",
      "gra vatar",
      "sim ba",
      "parmd g",
      "stir tur",
      "mult iple",
      "windo ws",
      "idomarsh alerio",
      "cid ian",
      "ep streamtri",
      "eas yread",
      "fon ts",
      "ho st",
      "hy percl",
      "kdp ic",
      "late ncy",
      "oim ag",
      "pas ci",
      "scli ck",
      "smi th",
      "safe browsing",
      "scho lar",
      "nosl eep",
      "atta chment",
      "ffffeb fe",
      "promp t",
      "parame ters",
      "servicemailbox es",
      "towar d",
      "symbo ls",
      "omme nd",
      "repl acing",
      "adzer k",
      "fefe feff",
      "allr educe",
      "bandwid th",
      "detail ed",
      "verif y",
      "loguser info",
      "ubmc mm",
      "contentrec ommend",
      "flopcounter s",
      "zerobyte bug",
      "epstreamtri ad",
      "hypercl aw",
      "! (",
      ") ...",
      ") .......",
      "* )",
      "= !(",
      "a ff",
      "a vp",
      "a adc",
      "a man",
      "a ada",
      "a ffd",
      "a fffffff",
      "b h",
      "b l",
      "b ip",
      "b id",
      "b ase",
      "b bf",
      "b adc",
      "b dec",
      "b abc",
      "c at",
      "c si",
      "c gi",
      "c sp",
      "c ffffffe",
      "c aeb",
      "d w",
      "d par",
      "d ffc",
      "d ada",
      "d pm",
      "d abc",
      "d ump",
      "e k",
      "e faa",
      "f r",
      "f er",
      "f adc",
      "f dec",
      "f ecc",
      "f abc",
      "g p",
      "g s",
      "g t",
      "g u",
      "g un",
      "g bgl",
      "g ath",
      "g mail",
      "g timg",
      "h an",
      "h fm",
      "i b",
      "i se",
      "i ss",
      "i ap",
      "i ah",
      "i cache",
      "j y",
      "j ect",
      "j ni",
      "k e",
      "k k",
      "k dc",
      "k en",
      "k nel",
      "k cdn",
      "l h",
      "l dc",
      "l ap",
      "l cr",
      "l sn",
      "m de",
      "m ct",
      "m is",
      "m eam",
      "m hfm",
      "n m",
      "n x",
      "o b",
      "o de",
      "o image",
      "o bj",
      "o csp",
      "o ldc",
      "p i",
      "p v",
      "p ty",
      "p ps",
      "p ll",
      "q d",
      "q i",
      "q x",
      "q pic",
      "q rt",
      "q logo",
      "q lsn",
      "r s",
      "r w",
      "r ss",
      "r ing",
      "r al",
      "r flo",
      "r ther",
      "r fft",
      "s b",
      "s par",
      "s com",
      "s core",
      "s sen",
      "s ky",
      "s qrt",
      "t z",
      "t at",
      "t ou",
      "t ab",
      "t rou",
      "t wi",
      "t ap",
      "t server",
      "t xyz",
      "t dp",
      "t anx",
      "u al",
      "u df",
      "u bgl",
      "v r",
      "v is",
      "w al",
      "w ra",
      "w pad",
      "x de",
      "x db",
      "x fc",
      "x ca",
      "x ef",
      "x af",
      "x ffffff",
      "x fee",
      "x fffffff",
      "x vicar",
      "y x",
      "y ms",
      "y ap",
      "y es",
      "y img",
      "y bp",
      "z kcdn",
      "ff ec",
      "ff ee",
      "ff ab",
      "ff ad",
      "ff db",
      "ff da",
      "ff ba",
      "ff ae",
      "ff be",
      "ff bf",
      "ff cf",
      "ff bd",
      "ff bb",
      "ff af",
      "ff add",
      "ff adc",
      "ff cdf",
      "ff bfb",
      "ff aeb",
      "ff afb",
      "ff tw",
      "ar ed",
      "ar ty",
      "ar ant",
      "ar ily",
      "de ce",
      "de ec",
      "de ed",
      "de fe",
      "de fc",
      "de bf",
      "de ve",
      "de bcc",
      "de normalized",
      "de mde",
      "se stat",
      "se ver",
      "se ille",
      "se ek",
      "no io",
      "no comm",
      "no avatar",
      "no zerobytebug",
      "in te",
      "in ex",
      "ce ab",
      "ce da",
      "ce ca",
      "ce eb",
      "card s",
      "card re",
      "ch mod",
      "at ic",
      "ec ce",
      "ec ac",
      "ec da",
      "ec bc",
      "ec dn",
      "ec ise",
      "or arily",
      "ffff ca",
      "ed de",
      "ed fc",
      "ed da",
      "ed ba",
      "ed bb",
      "ed ump",
      "on ix",
      "ss o",
      "ss um",
      "ss tat",
      "pro ject",
      "lo p",
      "lo st",
      "lo cate",
      "ee bea",
      "ion i",
      "fffff d",
      "service network",
      "th ir",
      "er ist",
      "ab ec",
      "ab dc",
      "ab db",
      "ab led",
      "ne te",
      "ne ls",
      "ne os",
      "for ce",
      "for mi",
      "tt er",
      "to purge",
      "to ken",
      "sh ot",
      "sh ared",
      "new ma",
      "ido client",
      "ido tr",
      "pre sent",
      "pre ssing",
      "pre qx",
      "down load",
      "le n",
      "re sets",
      "re mer",
      "ad v",
      "ad be",
      "ad sr",
      "ad master",
      "ad services",
      "ad nx",
      "ad tdp",
      "li st",
      "ea ae",
      "com ms",
      "com ment",
      "te nsion",
      "te maj",
      "bffff a",
      "bffff d",
      "fe fffff",
      "fe fc",
      "fe bc",
      "fe bf",
      "fe fab",
      "fe ng",
      "session timeout",
      "dc ac",
      "dc dd",
      "dc da",
      "dc bf",
      "ent ial",
      "fi er",
      "fi el",
      "cc dd",
      "cc da",
      "cc ba",
      "con c",
      "con f",
      "con project",
      "err han",
      "ac s",
      "ac bf",
      "ac bb",
      "cd adc",
      "cd fffe",
      "al location",
      "al locate",
      "db ec",
      "db fc",
      "db bc",
      "db fd",
      "db lp",
      "db remer",
      "dd ff",
      "dd md",
      "fc ab",
      "fc fc",
      "fc bf",
      "fc af",
      "fc ffe",
      "fc dcf",
      "stat s",
      "iv ecdn",
      "da cc",
      "da ac",
      "da fc",
      "da ily",
      "clo ud",
      "clo udf",
      "df bb",
      "bc dc",
      "ba ec",
      "ba ab",
      "ba cc",
      "ba ac",
      "ba ij",
      "ba nk",
      "ba yms",
      "od r",
      "ok en",
      "cu s",
      "cu pps",
      "receiv et",
      "ae ec",
      "ae fc",
      "be ab",
      "be bd",
      "ir ect",
      "an sp",
      "bf ed",
      "bf ee",
      "bf ac",
      "bf af",
      "bf dea",
      "ex ter",
      "ex tension",
      "ps u",
      "gh dr",
      "fa cc",
      "fa fc",
      "fa fa",
      "lin adv",
      "em pty",
      "bd ab",
      "bd irect",
      "out put",
      "client services",
      "un i",
      "un sign",
      "un cate",
      "bb ab",
      "bb ac",
      "cor edump",
      "ca ee",
      "ca us",
      "ca mo",
      "ca pi",
      "mi ao",
      "ef ee",
      "ef ccb",
      "ef dbc",
      "ef dcd",
      "af bb",
      "af ter",
      "ra i",
      "cb ec",
      "cb dc",
      "cb cc",
      "cb ac",
      "cb fc",
      "si temaj",
      "aa ec",
      "aa cc",
      "aa ac",
      "wi x",
      "wi fi",
      "ck ap",
      "add this",
      "ede a",
      "ede f",
      "ede fb",
      "fd fffff",
      "fd fffe",
      "eb de",
      "eb ee",
      "eb ea",
      "eb db",
      "eb da",
      "eb ba",
      "su ite",
      "ms n",
      "ms ghdr",
      "hi cloud",
      "bgl err",
      "bgl code",
      "ffffff c",
      "bo s",
      "og ue",
      "google tag",
      "google adservices",
      "fb dc",
      "fb da",
      "fb ba",
      "up load",
      "image s",
      "map files",
      "pu x",
      "pu bm",
      "pu bs",
      "fea c",
      "fea f",
      "tr c",
      "tr uncate",
      "test suite",
      "qu ali",
      "work er",
      "ddr size",
      "ru bi",
      "pt login",
      "sn sl",
      "ls f",
      "me kn",
      "me ssen",
      "ctr s",
      "................ ............",
      "rom e",
      "sp ace",
      "gn ar",
      "fo cus",
      "temp orarily",
      "img ur",
      "img cache",
      "fcc b",
      "fcc d",
      "fcc ff",
      "fcc ce",
      "fcc fe",
      "fcc bf",
      "fcc cf",
      "sen ee",
      "en gine",
      "en abled",
      "po ll",
      "fu rther",
      "pa i",
      "ur l",
      "ffb ff",
      "ffb df",
      "fcd d",
      "fcd bf",
      "sof tw",
      "efc b",
      "efc fc",
      "efc bc",
      "efc bd",
      "efc fd",
      "ffa ec",
      "ffa ed",
      "ffa fa",
      "act erist",
      "ali tu",
      "fce bd",
      "fce cb",
      "qq mail",
      "ddcmd gbgl",
      "dropbox api",
      "ort mgr",
      "micro ad",
      "cur ioni",
      "mod s",
      "perfor ming",
      "dec lare",
      "run s",
      "hp d",
      "mar t",
      "mar seille",
      "dn s",
      "eec c",
      "bu ild",
      "bfc b",
      "bi le",
      "flo at",
      "cab e",
      "dac d",
      "dac f",
      "fcb ea",
      "mo bile",
      "acc ount",
      "oo la",
      "bbc a",
      "efa ea",
      "rec v",
      "aea c",
      "bde a",
      "bde e",
      "xffff b",
      "xffff d",
      "cau sed",
      "br and",
      "br oken",
      "ffaa a",
      "config file",
      "aab a",
      "wr ating",
      "synd rome",
      "bdc b",
      "bdf a",
      "nex t",
      "wa y",
      "cent ral",
      ".................... ...",
      "configur ation",
      "news img",
      "ale media",
      "bce bos",
      "cas alemedia",
      "cfa f",
      "vgq senee",
      "asser tion",
      "hn edn",
      "sl f",
      "adobe id",
      "ag kn",
      "stack overflow",
      "au g",
      "au th",
      "au topurge",
      "cl g",
      "sto pping",
      "efdc b",
      "efdb d",
      "fm mods",
      "win err",
      "under flow",
      "efdf d",
      "pk t",
      "tri er",
      "/../ ../",
      "div ac",
      "div ide",
      "sma ll",
      "tva x",
      "wang wang",
      "imp service",
      "sup pressing",
      "vgqs kn",
      "dict app",
      "console ip",
      "console port",
      "cv s",
      "gate way",
      "sam rai",
      "sequ ential",
      "char acterist",
      "cham onix",
      "order ed",
      "impr ecise",
      "spec ial",
      "creat ivecdn",
      "glob al",
      "gmt dmp",
      "stirtur bdirect",
      "oimag ea",
      "aman ad",
      "bl acs",
      "bip arty",
      "bid switch",
      "dpar ty",
      "gt ms",
      "gu arant",
      "gun nels",
      "gath er",
      "iss ues",
      "iah ao",
      "kdc l",
      "lap ack",
      "mis compare",
      "oimage b",
      "obj ect",
      "oldc ode",
      "rflo mp",
      "spar ing",
      "scom error",
      "score cardre",
      "sky pe",
      "tz yx",
      "tou ch",
      "tab oola",
      "trou ter",
      "twi tter",
      "tap ad",
      "ual dn",
      "vis us",
      "wal k",
      "wra y",
      "deve lop",
      "demde x",
      "sever ed",
      "inex act",
      "sstat s",
      "servicenetwork characterist",
      "thir dparty",
      "nete ase",
      "neos mart",
      "shot s",
      "newma ps",
      "idoclient mgr",
      "idotr ansp",
      "adsr vr",
      "adnx s",
      "fiel ds",
      "daily update",
      "baij iahao",
      "bayms gr",
      "receivet rain",
      "exter nal",
      "unsign ed",
      "caus ing",
      "miao pai",
      "sitemaj i",
      "ckap fer",
      "ogue snsl",
      "googletag manager",
      "pubm atic",
      "quali ty",
      "rubi conproject",
      "mekn ed",
      "messen ger",
      "softw are",
      "alitu i",
      "ddcmdgbgl v",
      "declare servicenetworkcharacterist",
      "marseille bgl",
      "account s",
      "biparty z",
      "guarant eed",
      "scorecardre search",
      "idotransp ortmgr",
      "declareservicenetworkcharacterist ics",
      "& )",
      "& ,",
      ") '",
      ") ...........................",
      ") ......................",
      "* ,",
      "* &)",
      "/ ./",
      "= <",
      "? /",
      "a k",
      "a y",
      "a no",
      "a ss",
      "a im",
      "a eee",
      "a edc",
      "a fcb",
      "a eea",
      "a gent",
      "a abc",
      "a ffaa",
      "a ux",
      "b t",
      "b x",
      "b z",
      "b atch",
      "b us",
      "b lish",
      "b ll",
      "b fff",
      "b cec",
      "b ffb",
      "b io",
      "b las",
      "b cda",
      "b edc",
      "b vn",
      "b ccb",
      "b ceb",
      "b dbc",
      "b eda",
      "b acb",
      "b abb",
      "b abf",
      "b last",
      "b trace",
      "c w",
      "c atch",
      "c fff",
      "c star",
      "c ffa",
      "c adb",
      "c ffea",
      "d g",
      "d j",
      "d k",
      "d t",
      "d y",
      "d sh",
      "d ge",
      "d ps",
      "d ram",
      "d tr",
      "d na",
      "d ffa",
      "d adc",
      "d adf",
      "d ffd",
      "d fffe",
      "d fcb",
      "d fcf",
      "d abd",
      "d fffffff",
      "d lb",
      "d abb",
      "d abf",
      "e ffff",
      "e fffff",
      "e add",
      "e ld",
      "e adf",
      "e bfb",
      "e cee",
      "e bfa",
      "e ceb",
      "e edb",
      "e abc",
      "e abd",
      "e baa",
      "e bae",
      "e ther",
      "f s",
      "f in",
      "f stat",
      "f pu",
      "f test",
      "f edc",
      "f bfb",
      "f tests",
      "f abd",
      "f aef",
      "f baa",
      "f bef",
      "f mm",
      "f sync",
      "f la",
      "f chown",
      "f chmod",
      "f truncate",
      "g d",
      "g in",
      "g ed",
      "g id",
      "g ct",
      "g ice",
      "g ing",
      "g um",
      "g cc",
      "g ma",
      "g root",
      "g apps",
      "g ame",
      "h d",
      "h j",
      "h ar",
      "h id",
      "h ot",
      "h pt",
      "h static",
      "h res",
      "h pm",
      "i g",
      "i z",
      "i or",
      "i ted",
      "i le",
      "i eee",
      "i cb",
      "i wi",
      "i ck",
      "i et",
      "i cal",
      "i cau",
      "i eeec",
      "i feng",
      "i hd",
      "j i",
      "j r",
      "j re",
      "j lu",
      "j line",
      "j ection",
      "j vm",
      "j fm",
      "j ng",
      "j ob",
      "j dk",
      "k r",
      "k le",
      "k od",
      "k eb",
      "k test",
      "k ill",
      "k iwi",
      "l g",
      "l stat",
      "l nk",
      "l chown",
      "l seek",
      "m err",
      "m mbi",
      "m mu",
      "n h",
      "n u",
      "n ted",
      "n le",
      "n an",
      "n ve",
      "n ded",
      "n msg",
      "n sclick",
      "o to",
      "o ad",
      "o ption",
      "o sign",
      "p z",
      "p or",
      "p ed",
      "p id",
      "p ted",
      "p net",
      "p co",
      "p target",
      "p pl",
      "p pm",
      "p dl",
      "p dbg",
      "q w",
      "q us",
      "q lr",
      "q bw",
      "q hm",
      "q hres",
      "r y",
      "r ar",
      "r on",
      "r us",
      "s a",
      "s or",
      "s do",
      "s na",
      "s all",
      "s ses",
      "s gs",
      "t j",
      "t n",
      "t st",
      "t sh",
      "t rain",
      "t dt",
      "t ick",
      "u i",
      "u ff",
      "u id",
      "u mask",
      "u time",
      "u an",
      "u gh",
      "u tion",
      "u sync",
      "v ir",
      "v addr",
      "v jp",
      "v buffer",
      "w k",
      "w ed",
      "w atch",
      "w an",
      "w pen",
      "w ave",
      "w bp",
      "w sup",
      "w osign",
      "w tdt",
      "x t",
      "x ff",
      "x in",
      "x ec",
      "x ed",
      "x ml",
      "x ab",
      "x ing",
      "x fe",
      "x dc",
      "x ac",
      "x cd",
      "x bc",
      "x ae",
      "x be",
      "x bd",
      "x cb",
      "x fd",
      "x fb",
      "x fff",
      "x fcd",
      "x bfe",
      "x ffd",
      "x ffffffe",
      "x fffe",
      "x bfa",
      "x dr",
      "x afd",
      "x abb",
      "x fefefeff",
      "x uan",
      "y re",
      "y ur",
      "y kle",
      "y vjp",
      "z hstatic",
      "z jfm",
      "z sall",
      "| |",
      "ff eeee",
      "ff fa",
      "ff fd",
      "ff fb",
      "ff cec",
      "ff ced",
      "ff fdfe",
      "ff ada",
      "ff adb",
      "ff adf",
      "ff bfd",
      "ff cee",
      "ff bfa",
      "ff dcd",
      "ff acb",
      "ff dcc",
      "ff bcb",
      "ff baa",
      "ff aca",
      "ff acf",
      "ff bae",
      "ff caf",
      "ff cef",
      "ff abf",
      "ff dda",
      "ff caa",
      "ff bbb",
      "ff dbf",
      "ff baf",
      "ar t",
      "ar est",
      "ar gum",
      "de n",
      "de ab",
      "de df",
      "de bd",
      "de bb",
      "de eb",
      "de fb",
      "de eca",
      "de groot",
      "se mb",
      "se cur",
      "no p",
      "no pr",
      "no ni",
      "no apc",
      "in k",
      "in form",
      "in count",
      "in jection",
      "ce r",
      "ce db",
      "ce df",
      "ce be",
      "ce bb",
      "ce fd",
      "ce abe",
      "ce sim",
      "ch ing",
      "ch em",
      "ch cham",
      "at o",
      "at t",
      "at all",
      "at ive",
      "ec ff",
      "ec de",
      "ec ad",
      "ec fe",
      "ec cc",
      "ec ba",
      "ec ae",
      "ec fa",
      "ec bb",
      "ec af",
      "ec aa",
      "ec mb",
      "ec ccc",
      "ec dca",
      "ec vbuffer",
      "or ac",
      "or ies",
      "ser apis",
      "do g",
      "ffff bc",
      "pr iv",
      "ip s",
      "ed fe",
      "ed dc",
      "ed cc",
      "ed ac",
      "ed df",
      "ed bc",
      "ed fa",
      "ed ca",
      "ed aa",
      "ed bae",
      "ed bbb",
      "on ly",
      "on fpu",
      "ss ive",
      "ss ible",
      "pro f",
      "lo or",
      "lo ok",
      "lo ader",
      "id x",
      "id mp",
      "ou ji",
      "as on",
      "as semb",
      "ct est",
      "ct ld",
      "ct oo",
      "ct lp",
      "ct ips",
      "ee ce",
      "ee fc",
      "ee bc",
      "ee ba",
      "ee ae",
      "ee bf",
      "ee bb",
      "nd or",
      "par serapis",
      "ml ink",
      "iar y",
      "th read",
      "er y",
      "ab ea",
      "ab dd",
      "ab ca",
      "ab ef",
      "ne tt",
      "ne ts",
      "ne arest",
      "sy mlink",
      "st un",
      "st and",
      "st ro",
      "st ory",
      "st ud",
      "st uff",
      "tt ime",
      "to po",
      "to all",
      "to debugger",
      "sym cd",
      "of da",
      "sh ouji",
      "new mpi",
      "new kernel",
      "new hack",
      "new comp",
      "ase arch",
      "ido ud",
      "ido msg",
      "ido msghdr",
      "um s",
      "pre ta",
      "part sn",
      "le s",
      "le av",
      "le ader",
      "nt ifi",
      "re served",
      "re nc",
      "re tag",
      "re started",
      "re name",
      "re gct",
      "re ason",
      "ad ce",
      "ad fc",
      "ad da",
      "ad fa",
      "ad cb",
      "ad tech",
      "ad ded",
      "li me",
      "li cate",
      "ea de",
      "ea ce",
      "ea ec",
      "ea fc",
      "ea ca",
      "ea ppm",
      "com mit",
      "im s",
      "im er",
      "im tt",
      "im ix",
      "im pa",
      "im ple",
      "te xception",
      "te tsh",
      "te xt",
      "by e",
      "fe ec",
      "fe ab",
      "fe ad",
      "fe bd",
      "fe ffe",
      "fe fcd",
      "fe eds",
      "fe fcf",
      "fe feb",
      "fe fafa",
      "dc u",
      "dc ce",
      "dc db",
      "dc df",
      "dc ae",
      "dc cf",
      "dc bd",
      "dc af",
      "dc cb",
      "dc aee",
      "ent ry",
      "nodecard s",
      "fi eld",
      "cc r",
      "cc ab",
      "cc ac",
      "cc db",
      "cc be",
      "cc fa",
      "cc bd",
      "cc ca",
      "cc af",
      "cc sam",
      "con st",
      "time s",
      "err ecvbuffer",
      "ge ttime",
      "ac dd",
      "ac fc",
      "ac da",
      "ac fa",
      "ac bd",
      "ac af",
      "ac cec",
      "cd de",
      "cd ce",
      "cd be",
      "cd fb",
      "is o",
      "ma llo",
      "ma ke",
      "ma keb",
      "al errecvbuffer",
      "db de",
      "db ea",
      "db cc",
      "db ac",
      "db dd",
      "db cr",
      "db sr",
      "db aaf",
      "dd de",
      "dd ab",
      "dd ad",
      "dd dd",
      "dd af",
      "dd abe",
      "fc ba",
      "fc fa",
      "fc bd",
      "fc bb",
      "fc fd",
      "fc fff",
      "fc faa",
      "fc fcc",
      "fc fda",
      "fc cec",
      "fc fcd",
      "fc bff",
      "fc bfe",
      "fc fdb",
      "fc dec",
      "fc ffd",
      "fc lick",
      "fc bfb",
      "fc fcb",
      "fc bfa",
      "fc ceb",
      "fc dcd",
      "fc cea",
      "fc baa",
      "fc ded",
      "fc dca",
      "fc deb",
      "fc bcf",
      "fc bbb",
      "fc beb",
      "da ea",
      "da af",
      "da fdc",
      "da abd",
      "da abe",
      "da fca",
      "df de",
      "df ec",
      "df dc",
      "df ae",
      "df bf",
      "df dac",
      "df afa",
      "bc ab",
      "bc ac",
      "bc bc",
      "bc be",
      "bc bf",
      "bc aa",
      "ba ff",
      "ba fc",
      "ba ae",
      "ba eb",
      "ok ie",
      "ae de",
      "ae bf",
      "ae bd",
      "ae bb",
      "ae fee",
      "ae ffa",
      "ae edf",
      "be ad",
      "be bc",
      "be ba",
      "be be",
      "be bf",
      "be bb",
      "be fb",
      "be fcc",
      "be bfdc",
      "be gin",
      "ir q",
      "ir ector",
      "an com",
      "bf de",
      "bf ab",
      "bf cc",
      "bf da",
      "bf bf",
      "bf aa",
      "bf baf",
      "bf cefc",
      "ex it",
      "ex ited",
      "ps g",
      "il t",
      "il er",
      "il iary",
      "fa de",
      "fa ee",
      "fa ad",
      "fa ecd",
      "fa edbae",
      "rou nded",
      "lin fo",
      "cf g",
      "cf de",
      "cf ee",
      "cf bc",
      "cf lu",
      "cf ecf",
      "cf dddc",
      "cf loor",
      "em ory",
      "bd de",
      "bd fe",
      "bd fc",
      "out stand",
      "open x",
      "open jdk",
      "un link",
      "un it",
      "un pk",
      "un imple",
      "system controller",
      "bb ec",
      "bb dc",
      "bb db",
      "bb bb",
      "bb ccf",
      "bb dee",
      "bb adbe",
      "cor por",
      "htt p",
      "ca de",
      "ca ea",
      "ca aa",
      "ca eeb",
      "ca ffee",
      "ca noni",
      "ca ching",
      "mi b",
      "mi cr",
      "conn ected",
      "ef ad",
      "ef ddc",
      "ef ccc",
      "ef ccd",
      "ef bfe",
      "ef adf",
      "ef cdf",
      "ef cda",
      "ef edc",
      "ef bfc",
      "ef bfd",
      "ef ecf",
      "ef edb",
      "ef eea",
      "ef cca",
      "ef eef",
      "ef edd",
      "ef eca",
      "ef dcc",
      "ef eeb",
      "ef bcb",
      "ef baa",
      "ef ecd",
      "ef bef",
      "ef eaa",
      "ef dea",
      "ef def",
      "ef cef",
      "ef dca",
      "ef dcf",
      "ef dda",
      "ef deb",
      "ef ddd",
      "ef ddf",
      "ef daa",
      "ef daf",
      "ef ecb",
      "ef baf",
      "af de",
      "af cc",
      "af db",
      "af bc",
      "af be",
      "af bd",
      "af abf",
      "af ecda",
      "cb de",
      "cb ad",
      "cb dd",
      "cb ba",
      "cb rt",
      "linkcard s",
      "aa ee",
      "aa fc",
      "aa fa",
      "aa af",
      "aa abc",
      "aa pp",
      "lu ke",
      "av n",
      "av trace",
      "so on",
      "so pt",
      "corr up",
      "ro ws",
      "ro cstar",
      "ro cflu",
      "ede c",
      "fd de",
      "fd ac",
      "fd ffc",
      "fd ffffe",
      "exce ssive",
      "ds lb",
      "eb ce",
      "eb ed",
      "eb bc",
      "eb eee",
      "eb bd",
      "est art",
      "sc ancom",
      "ver bo",
      "addre sses",
      "dcr s",
      "et c",
      "gl p",
      "gl ong",
      "net dna",
      "min sessiontimeout",
      "hi story",
      "mp xl",
      "mp ill",
      "over able",
      "bgl c",
      "bgl sys",
      "bgl ctlp",
      "termin ated",
      "ffffff d",
      "ffffff ee",
      "ffffff fb",
      "direct ories",
      "tor estart",
      "co sy",
      "val ues",
      "ap u",
      "ap ac",
      "fb de",
      "fb ec",
      "fb cc",
      "fb ac",
      "fb cd",
      "fb db",
      "fb fc",
      "fb be",
      "fb bf",
      "fb bae",
      "valid ate",
      "up mobile",
      "ading o",
      "fee b",
      "fee aa",
      "image plus",
      "cr l",
      "get dropbox",
      "get cw",
      "get gid",
      "get pid",
      "get rus",
      "get uid",
      "lon glong",
      "map ping",
      "ni ux",
      "target close",
      "gener ic",
      "pu ll",
      "pu ui",
      "ww biz",
      "fea aa",
      "tr ack",
      "test long",
      "test scrip",
      "log file",
      "log ies",
      "log ical",
      "ix gr",
      "qu iet",
      "qu ery",
      "inst r",
      "ic bcast",
      "ru les",
      "pt ance",
      "sn an",
      "me hu",
      "me nted",
      "ll ing",
      "ll po",
      "ll seek",
      "mpi hpm",
      "xer cesim",
      "inter exception",
      "ddc a",
      "ddc b",
      "ddc d",
      "................ ....................",
      "................ .................",
      "................ ...............",
      "................ .............",
      "it z",
      "it imer",
      "fo ld",
      "fo ob",
      "int f",
      "img src",
      "img tn",
      "cn k",
      "cn cdn",
      "cn vt",
      "cmd line",
      "fcc a",
      "fcc de",
      "fcc ab",
      "fcc ac",
      "fcc cd",
      "fcc dd",
      "fcc df",
      "fcc ba",
      "fcc ae",
      "fcc be",
      "fcc fa",
      "fcc bd",
      "fcc bb",
      "fcc af",
      "fcc aa",
      "fcc fd",
      "fcc fb",
      "sen sor",
      "back gr",
      "face e",
      "fda ea",
      "good bye",
      "en cer",
      "ve ndor",
      "fun ctest",
      "po p",
      "po pt",
      "po ssible",
      "cec fc",
      "cac b",
      "ta u",
      "ur sdo",
      "hu cdn",
      "pack ages",
      "ffb de",
      "ffb ec",
      "ffb ed",
      "ffb ab",
      "ffb fe",
      "ffb cc",
      "ffb db",
      "ffb fc",
      "ffb da",
      "ffb bc",
      "ffb be",
      "ffb bf",
      "ffb bd",
      "ffb ffbff",
      "zookeeper server",
      "sr kod",
      "fcd ce",
      "fcd ab",
      "fcd fe",
      "fcd dc",
      "fcd db",
      "fcd dd",
      "fcd ae",
      "fcd be",
      "fcd bd",
      "fcd af",
      "fcd aa",
      "fcd fd",
      "efc fe",
      "efc be",
      "efc bb",
      "efc af",
      "efc aa",
      "efc fb",
      "efc bad",
      "ffa ff",
      "ffa de",
      "ffa ee",
      "ffa ab",
      "ffa ea",
      "ffa fe",
      "ffa cc",
      "ffa ac",
      "ffa fc",
      "ffa ae",
      "ffa af",
      "fdfe abe",
      "interrup ted",
      "interrup ting",
      "fce ff",
      "fce ec",
      "fce ed",
      "fce ad",
      "fce fe",
      "fce cc",
      "fce cd",
      "fce db",
      "fce da",
      "fce bc",
      "fce ae",
      "fce be",
      "fce bf",
      "fce bb",
      "fce ca",
      "fce af",
      "qq web",
      "ccd n",
      "scratch pad",
      "ph oto",
      "cdn js",
      "tag r",
      "drop ping",
      "bff ee",
      "bff ea",
      "bff ac",
      "bff bc",
      "bff cf",
      "bff cbf",
      "bff dea",
      "cp gra",
      "fffffe fe",
      "fffffe fa",
      "ting yun",
      "max bug",
      "max sessiontimeout",
      "micro loader",
      "xa ed",
      "med al",
      "ffc de",
      "ffc bc",
      "ffc ae",
      "ffc bf",
      "ffc bd",
      "ffc bb",
      "efe ff",
      "efe ce",
      "efe ab",
      "efe fe",
      "efe bc",
      "efe bd",
      "efe bb",
      "efe fd",
      "fdb b",
      "fdb c",
      "fdb df",
      "fdb bf",
      "cont ig",
      "modu lo",
      "eff ab",
      "eff fe",
      "eff bc",
      "eff bd",
      "eff bb",
      "eff ca",
      "eff ef",
      "eff cb",
      "eff aa",
      "eff fd",
      "pm gr",
      "tmp dir",
      "bee b",
      "bee aab",
      "cdc a",
      "ly jlu",
      "run recv",
      "lib visus",
      "lib rar",
      "ffd ce",
      "bin d",
      "cce b",
      "cce ea",
      "cce da",
      "eec b",
      "sppm opt",
      "bu sy",
      "bu ilt",
      "bfc a",
      "bfc f",
      "bfc bd",
      "port ion",
      "sin aapp",
      "bfb ec",
      "bfb ab",
      "bi ts",
      "xe qus",
      "ade a",
      "ade d",
      "cs m",
      "xf ed",
      "set itimer",
      "sho w",
      "sho wx",
      "contro lling",
      "bfd ac",
      "yt nh",
      "cde a",
      "cde e",
      "mem test",
      "mem mon",
      "ace bf",
      "cab a",
      "xb be",
      "fcb de",
      "fcb ce",
      "fcb ec",
      "fcb ab",
      "fcb ac",
      "fcb dd",
      "fcb df",
      "fcb ba",
      "mini game",
      "fdf b",
      "fdf ac",
      "fdf db",
      "fdf df",
      "fdf ae",
      "mk dir",
      "all c",
      "all gather",
      "all toall",
      "efd ff",
      "efd ce",
      "efd ab",
      "efd fe",
      "efd db",
      "efd fc",
      "bec b",
      "bec d",
      "read v",
      "read link",
      "read dir",
      "read block",
      "bea c",
      "fdc ff",
      "align ed",
      "follow ing",
      "** *",
      "fcf ab",
      "fcf be",
      "fcf bf",
      "fcf bd",
      "efb cc",
      "efb cd",
      "efb da",
      "efb bc",
      "efb be",
      "efb bd",
      "random access",
      "acc ad",
      "dr v",
      "pp cfloor",
      "bbc b",
      "efa fb",
      "rec overable",
      "ffea eb",
      "am r",
      "bde b",
      "bde f",
      "bde ce",
      "bde cc",
      "bde ae",
      "bde aa",
      "opt aim",
      "opt imix",
      "thre aded",
      "........................ ..",
      "bg linfo",
      "cfc a",
      "mir ano",
      "xffff cb",
      "aac d",
      "br k",
      "cbc a",
      "xd cef",
      "sub nets",
      "sub lime",
      "aab b",
      "aab f",
      "ebc a",
      "fde f",
      "fde ad",
      "fec b",
      "fec fc",
      "control descriptor",
      "afc bf",
      "bcc ac",
      "bdf ea",
      "nex age",
      "dis connected",
      "fab f",
      "fab ea",
      "fab dd",
      "fab da",
      "clear port",
      "afe bf",
      "bda e",
      "bba e",
      "bba de",
      "bffe bcbe",
      "stre itz",
      "bcast v",
      "long ca",
      "initializ ation",
      "initializ eappm",
      "eab f",
      "eab ea",
      "hang test",
      "news app",
      "copro c",
      "// /",
      "aw qi",
      "aw renc",
      "ale amr",
      "bbe b",
      "cbe b",
      "gg ing",
      "ia o",
      "def bf",
      "send packet",
      "send msg",
      "send worker",
      "send train",
      "non contig",
      "feff fc",
      "cccc ccc",
      "cccc cccd",
      "acce pted",
      "acce ptance",
      "tenmax img",
      "trello cdn",
      "page s",
      "sl ave",
      "sl awrenc",
      "sel ftest",
      "dca af",
      "dff acb",
      "dup licate",
      "jeff greeno",
      "red irector",
      "**** ****",
      "**** ***",
      "write v",
      "write log",
      "au torestart",
      "cj m",
      "cl k",
      "cl ass",
      "di ff",
      "di ed",
      "di gice",
      "fbf ee",
      "ul len",
      "ul ative",
      "cio db",
      "efdb b",
      "efdb e",
      "pw d",
      "timg sa",
      "ffbc a",
      "ste pping",
      "prefetch ing",
      "prefetch es",
      "fcdc b",
      "exec ution",
      "efdf b",
      "quant count",
      "ama ihd",
      "fre ed",
      "pk i",
      "rt b",
      "xbf aeb",
      "socke texception",
      "failure s",
      "internal api",
      "flush ing",
      "bp net",
      "lar ge",
      "old kernel",
      "rm w",
      "rm dir",
      "sma ller",
      "sma ato",
      "tur n",
      "tlb entry",
      "xaa de",
      "xfffffe bc",
      "init ial",
      "asia max",
      "mult i",
      "windo wsup",
      "idomarsh alerrecvbuffer",
      "refresh es",
      "dm w",
      "hello w",
      "ide ntifi",
      "ming xing",
      "tu al",
      "trap ping",
      "trap ped",
      "xfffff dc",
      "xfffff ef",
      "xda abe",
      "xbb hj",
      "sequ encer",
      "order ing",
      "logo s",
      "comp iler",
      "bbde ba",
      "spec ulative",
      "creat ive",
      "purge interval",
      "stirtur bpnet",
      "host name",
      "oimag ec",
      "nosleep yes",
      "nosleep nocomm",
      "verify stuff",
      "base line",
      "bdec ab",
      "dw are",
      "fr ee",
      "fr action",
      "gs lb",
      "jy b",
      "jy lyjlu",
      "kk k",
      "nm jylyjlu",
      "qd un",
      "qi hucdn",
      "rss gov",
      "xfc ffd",
      "yes zerobytebug",
      "nocomm nosleep",
      "fefab b",
      "feng net",
      "ddmd v",
      "fcbf abd",
      "cloudf lare",
      "cloudf ron",
      "bfee fe",
      "bfaf ec",
      "aaec ab",
      "poll controldescriptor",
      "mobile m",
      "recv msghdr",
      "gather ing",
      "walk up",
      "ak amaihd",
      "ay oo",
      "aux iliary",
      "bz clk",
      "batch files",
      "blish ing",
      "catch up",
      "dg test",
      "dy na",
      "dsh ytnh",
      "dge mm",
      "dtr p",
      "ether net",
      "fin d",
      "fla gging",
      "har dware",
      "hid den",
      "hpt qlr",
      "iz xequs",
      "ile ged",
      "icb i",
      "icau h",
      "ieeec onfpu",
      "ifeng img",
      "jr att",
      "kr com",
      "kiwi hk",
      "lnk ck",
      "mmbi z",
      "nu llpo",
      "nle v",
      "nmsg len",
      "oad z",
      "pco okie",
      "ptarget mgr",
      "ppl v",
      "pdl xf",
      "qbw up",
      "sna preta",
      "tick time",
      "vir tual",
      "watch dog",
      "wpen gine",
      "wbp ctips",
      "wtdt js",
      "xed cb",
      "xml parserapis",
      "xfffe ad",
      "xdr pj",
      "xuan fengnet",
      "yre xdrpj",
      "yur i",
      "ffeeee fe",
      "fffb ccf",
      "ffdda ff",
      "argum ent",
      "secur ity",
      "nopr int",
      "inform ation",
      "chem bio",
      "atall begin",
      "orac le",
      "priv ileged",
      "look ing",
      "assemb ly",
      "ctld l",
      "ctoo ls",
      "nett y",
      "stro be",
      "stud y",
      "topo logies",
      "ofda y",
      "idoud pmgr",
      "leav ing",
      "retag ging",
      "regct l",
      "impa ct",
      "tetsh hot",
      "ccsam ef",
      "gettime ofday",
      "cdfb ab",
      "mallo c",
      "makeb glp",
      "dddd ddd",
      "outstand ing",
      "unpk g",
      "unimple mented",
      "corpor ation",
      "canoni cal",
      "micr on",
      "luke i",
      "corrup t",
      "rocflu idmp",
      "fdffc be",
      "verbo se",
      "mpxl c",
      "bglctlp avtrace",
      "getcw d",
      "getrus age",
      "niux iao",
      "wwbiz api",
      "testscrip ts",
      "mehu l",
      "xercesim pl",
      "foob ar",
      "backgr ound",
      "functest s",
      "ursdo ccdn",
      "srkod hptqlr",
      "photo cdn",
      "cpgra ph",
      "beeaab ff",
      "librar y",
      "showx ml",
      "mirano va",
      "sublime text",
      "initializeappm emory",
      "awqi izxequs",
      "sendmsg todebugger",
      "jeffgreeno ugh",
      "digice rt",
      "windowsup date",
      "identifi er",
      "xbbhj xc",
      "nosleepyes comm",
      "nmjylyjlu ykle",
      "cloudfron t",
      "pollcontroldescriptor s",
      "ieeeconfpu blishing",
      "nullpo interexception",
      "snapreta incount",
      "srkodhptqlr yvjp",
      "awqiizxequs ixgr"
    ]
  }
}