{
  "version": "1.0",
  "truncation": null,
  "padding": null,
  "added_tokens": [
    {
      "id": 0,
      "content": "<pad>",
      "single_word": false,
      "lstrip": false,
      "rstrip": false,
      "normalized": false,
      "special": true
    },
    {
      "id": 1,
      "content": "<unk>",
      "single_word": false,
      "lstrip": false,
      "rstrip": false,
      "normalized": false,
      "special": true
    },
    {
      "id": 2,
      "content": " ",
      "single_word": false,
      "lstrip": false,
      "rstrip": false,
      "normalized": false,
      "special": true
    }
  ],
  "normalizer": {
    "type": "Sequence",
    "normalizers": [
      {
        "type": "NFKC"
      },
      {
        "type": "Lowercase"
      }
    ]
  },
  "pre_tokenizer": {
    "type": "Sequence",
    "pretokenizers": [
      {
        "type": "Whitespace"
      },
      {
        "type": "ByteLevel",
        "add_prefix_space": false,
        "trim_offsets": true,
        "use_regex": true
      }
    ]
  },
  "post_processor": {
    "type": "ByteLevel",
    "add_prefix_space": true,
    "trim_offsets": false,
    "use_regex": true
  },
  "decoder": null,
  "model": {
    "type": "BPE",
    "dropout": null,
    "unk_token": null,
    "continuing_subword_prefix": null,
    "end_of_word_suffix": null,
    "fuse_unk": false,
    "byte_fallback": false,
    "ignore_merges": false,
    "vocab": {
      "<pad>": 0,
      "<unk>": 1,
      " ": 2,
      "!": 3,
      "$": 4,
      "'": 5,
      "(": 6,
      ")": 7,
      "+": 8,
      ",": 9,
      "-": 10,
      ".": 11,
      "/": 12,
      "9": 13,
      ":": 14,
      "=": 15,
      ">": 16,
      "[": 17,
      "]": 18,
      "_": 19,
      "a": 20,
      "b": 21,
      "c": 22,
      "d": 23,
      "e": 24,
      "f": 25,
      "g": 26,
      "h": 27,
      "i": 28,
      "j": 29,
      "k": 30,
      "l": 31,
      "m": 32,
      "n": 33,
      "o": 34,
      "p": 35,
      "q": 36,
      "r": 37,
      "s": 38,
      "t": 39,
      "u": 40,
      "v": 41,
      "w": 42,
      "x": 43,
      "y": 44,
      "z": 45,
      "99": 46,
      "9999": 47,
      "ff": 48,
      "99999999": 49,
      "ee": 50,
      "999": 51,
      "ce": 52,
      "..": 53,
      "ar": 54,
      "er": 55,
      "ffff": 56,
      "as": 57,
      "),": 58,
      "at": 59,
      "or": 60,
      "ser": 61,
      "ct": 62,
      "sy": 63,
      "sym": 64,
      "mas": 65,
      "mask": 66,
      "in": 67,
      "eeee": 68,
      "re": 69,
      "car": 70,
      "card": 71,
      "99999": 72,
      "....": 73,
      "no": 74,
      "par": 75,
      "9999999999999999": 76,
      "serv": 77,
      "ice": 78,
      "service": 79,
      "ml": 80,
      "de": 81,
      "io": 82,
      "ing": 83,
      "999999": 84,
      "eee": 85,
      "node": 86,
      "eeeeeee": 87,
      "do": 88,
      "ffffffff": 89,
      "mi": 90,
      "ion": 91,
      "ef": 92,
      "ch": 93,
      "99999999999": 94,
      "ction": 95,
      "ss": 96,
      "um": 97,
      "pe": 98,
      "ty": 99,
      "pre": 100,
      "ut": 101,
      "of": 102,
      "num": 103,
      "ed": 104,
      "orservice": 105,
      "paref": 106,
      "preparef": 107,
      "prepareforservice": 108,
      "))": 109,
      "mcard": 110,
      "sh": 111,
      "sernum": 112,
      "ctn": 113,
      "999999999999999999999999999": 114,
      "mlctn": 115,
      "mcardsernum": 116,
      "type": 117,
      "action": 118,
      "mtype": 119,
      "mlp": 120,
      "mip": 121,
      "part": 122,
      "ting": 123,
      "wn": 124,
      "down": 125,
      "shut": 126,
      "shutting": 127,
      "ad": 128,
      "ec": 129,
      "........": 130,
      "nodecard": 131,
      "99999999999999": 132,
      "err": 133,
      "nd": 134,
      "ro": 135,
      "lo": 136,
      "9999999": 137,
      "error": 138,
      "le": 139,
      "st": 140,
      "pd": 141,
      "vpd": 142,
      "rect": 143,
      "ra": 144,
      "pro": 145,
      "add": 146,
      "ress": 147,
      "address": 148,
      "id": 149,
      "ea": 150,
      "te": 151,
      "is": 152,
      "al": 153,
      "ma": 154,
      "fffff": 155,
      "dc": 156,
      "dat": 157,
      "not": 158,
      "data": 159,
      "di": 160,
      "cio": 161,
      "me": 162,
      "atch": 163,
      "ciod": 164,
      "cor": 165,
      "fi": 166,
      "chec": 167,
      "check": 168,
      "cess": 169,
      "ory": 170,
      "und": 171,
      "dd": 172,
      "ram": 173,
      "ab": 174,
      "process": 175,
      "correct": 176,
      "fo": 177,
      "ge": 178,
      "processor": 179,
      "match": 180,
      "slo": 181,
      "ecid": 182,
      "file": 183,
      "found": 184,
      "slot": 185,
      "cted": 186,
      "fe": 187,
      "eb": 188,
      "dete": 189,
      "detected": 190,
      "direct": 191,
      "directory": 192,
      "ca": 193,
      "pt": 194,
      "su": 195,
      "miss": 196,
      "such": 197,
      "and": 198,
      "lin": 199,
      "on": 200,
      "fa": 201,
      "gram": 202,
      "................": 203,
      "program": 204,
      "corrected": 205,
      "cc": 206,
      "fd": 207,
      "ne": 208,
      "th": 209,
      "us": 210,
      "un": 211,
      "il": 212,
      "kcard": 213,
      "dcr": 214,
      "linkcard": 215,
      "be": 216,
      "db": 217,
      "val": 218,
      "load": 219,
      "valid": 220,
      "bffff": 221,
      "ima": 222,
      "invalid": 223,
      "loading": 224,
      "image": 225,
      "ba": 226,
      "missing": 227,
      "af": 228,
      "fc": 229,
      "iv": 230,
      "se": 231,
      "9999999999999": 232,
      "able": 233,
      "ac": 234,
      "bd": 235,
      "ol": 236,
      "bf": 237,
      "ae": 238,
      "bb": 239,
      "df": 240,
      "it": 241,
      "co": 242,
      "da": 243,
      "per": 244,
      "int": 245,
      "stat": 246,
      "ddr": 247,
      "bc": 248,
      "fea": 249,
      "ot": 250,
      "tor": 251,
      "fff": 252,
      "torus": 253,
      "ag": 254,
      "inst": 255,
      "fail": 256,
      "by": 257,
      "gb": 258,
      "ru": 259,
      "...": 260,
      "ran": 261,
      "cr": 262,
      "gi": 263,
      "instru": 264,
      "instruction": 265,
      "cf": 266,
      "ex": 267,
      "nt": 268,
      "bg": 269,
      "./": 270,
      "cd": 271,
      "fb": 272,
      "pl": 273,
      "upt": 274,
      "errupt": 275,
      "log": 276,
      "interrupt": 277,
      "cb": 278,
      "con": 279,
      "ure": 280,
      "rece": 281,
      "root": 282,
      "bgl": 283,
      "regi": 284,
      "............": 285,
      "ster": 286,
      "the": 287,
      "failed": 288,
      "register": 289,
      "aa": 290,
      "bol": 291,
      "ip": 292,
      "lr": 293,
      "symbol": 294,
      "iver": 295,
      "receiver": 296,
      "ck": 297,
      "es": 298,
      "od": 299,
      "to": 300,
      "xer": 301,
      "ctr": 302,
      "map": 303,
      "correctable": 304,
      "being": 305,
      "(/": 306,
      "ho": 307,
      "pi": 308,
      "put": 309,
      "input": 310,
      "chdi": 311,
      "edram": 312,
      "test": 313,
      "login": 314,
      "home": 315,
      "chdir": 316,
      "act": 317,
      "go": 318,
      "pgo": 319,
      "run": 320,
      "ti": 321,
      "ted": 322,
      "ive": 323,
      "perat": 324,
      "pgood": 325,
      "for": 326,
      "ido": 327,
      "ity": 328,
      "na": 329,
      "ue": 330,
      "ating": 331,
      "parity": 332,
      "done": 333,
      "fefff": 334,
      "ption": 335,
      "mission": 336,
      "this": 337,
      "state": 338,
      "age": 339,
      "bu": 340,
      "bit": 341,
      "cp": 342,
      "mory": 343,
      "tag": 344,
      "ine": 345,
      "chine": 346,
      "lock": 347,
      "machine": 348,
      "memory": 349,
      "send": 350,
      "com": 351,
      "status": 352,
      "rank": 353,
      "pipe": 354,
      "active": 355,
      "gn": 356,
      "jtag": 357,
      "mperat": 358,
      "nb": 359,
      "nag": 360,
      "ree": 361,
      "xc": 362,
      "ception": 363,
      "temperat": 364,
      "manag": 365,
      "temperature": 366,
      "manager": 367,
      "ane": 368,
      "ble": 369,
      "dpl": 370,
      "fun": 371,
      "latch": 372,
      "ok": 373,
      "asser": 374,
      "read": 375,
      "midpl": 376,
      "ssage": 377,
      "ali": 378,
      "message": 379,
      "exception": 380,
      "time": 381,
      "asserted": 382,
      "midplane": 383,
      "ber": 384,
      "ger": 385,
      "nf": 386,
      "nch": 387,
      "po": 388,
      "smission": 389,
      "tran": 390,
      "ur": 391,
      "retran": 392,
      "star": 393,
      "........................": 394,
      "feaa": 395,
      "cont": 396,
      "sender": 397,
      "retransmission": 398,
      "mar": 399,
      "med": 400,
      "nc": 401,
      "tree": 402,
      "xa": 403,
      "xe": 404,
      "resh": 405,
      "number": 406,
      "errors": 407,
      "ment": 408,
      "cach": 409,
      "runtime": 410,
      "bug": 411,
      "el": 412,
      "en": 413,
      "ic": 414,
      "li": 415,
      "user": 416,
      "eed": 417,
      "....................": 418,
      "gnment": 419,
      "func": 420,
      "alignment": 421,
      "cache": 422,
      "--": 423,
      "an": 424,
      "clock": 425,
      "dra": 426,
      "dis": 427,
      "end": 428,
      "eger": 429,
      "ll": 430,
      "md": 431,
      "mer": 432,
      "mpgood": 433,
      "so": 434,
      "vol": 435,
      "eer": 436,
      "rese": 437,
      "serviceaction": 438,
      "steer": 439,
      "rail": 440,
      "exceptions": 441,
      "contro": 442,
      "userfunc": 443,
      "draeger": 444,
      "endserviceaction": 445,
      "volt": 446,
      "reset": 447,
      "ddc": 448,
      "has": 449,
      "hum": 450,
      "ial": 451,
      "ter": 452,
      "tch": 453,
      "uble": 454,
      "ve": 455,
      "xf": 456,
      "ert": 457,
      "ation": 458,
      "double": 459,
      "mira": 460,
      "nda": 461,
      "stor": 462,
      "alert": 463,
      "core": 464,
      "fetch": 465,
      "capt": 466,
      "uncorrectable": 467,
      "perfor": 468,
      "failing": 469,
      "...............": 470,
      "enable": 471,
      "ang": 472,
      "disable": 473,
      "hummer": 474,
      "miranda": 475,
      "capture": 476,
      "bl": 477,
      "bo": 478,
      "cle": 479,
      "fec": 480,
      "hy": 481,
      "iz": 482,
      "ith": 483,
      "ner": 484,
      "pon": 485,
      "phy": 486,
      "que": 487,
      "rst": 488,
      "sw": 489,
      "tot": 490,
      "upon": 491,
      "wr": 492,
      "wel": 493,
      "with": 494,
      "are": 495,
      "ate": 496,
      "serial": 497,
      "999999999999999999999999": 498,
      "chip": 499,
      "prefetch": 500,
      ".........": 501,
      "first": 502,
      "gener": 503,
      "ptor": 504,
      "ccf": 505,
      "thresh": 506,
      "bench": 507,
      "old": 508,
      "come": 509,
      "ipaddress": 510,
      "mark": 511,
      "store": 512,
      "performed": 513,
      "box": 514,
      "clear": 515,
      "total": 516,
      "welcome": 517,
      "serialnumber": 518,
      "threshold": 519,
      "benchmark": 520,
      "ace": 521,
      "ame": 522,
      "bee": 523,
      "eve": 524,
      "glo": 525,
      "hang": 526,
      "ite": 527,
      "mo": 528,
      "nal": 529,
      "sp": 530,
      "ul": 531,
      "ver": 532,
      "999999999": 533,
      "synch": 534,
      "init": 535,
      "den": 536,
      "debug": 537,
      "mit": 538,
      "lect": 539,
      "all": 540,
      "get": 541,
      ".................": 542,
      "select": 543,
      "access": 544,
      "inter": 545,
      "plb": 546,
      ".............": 547,
      "steering": 548,
      "write": 549,
      "generating": 550,
      "event": 551,
      "mode": 552,
      "//": 553,
      "://": 554,
      "ade": 555,
      "aef": 556,
      "ant": 557,
      "block": 558,
      "cee": 559,
      "cre": 560,
      "cur": 561,
      "dac": 562,
      "ede": 563,
      "fg": 564,
      "fee": 565,
      "fro": 566,
      "flo": 567,
      "fresh": 568,
      "hac": 569,
      "ik": 570,
      "ied": 571,
      "ible": 572,
      "mp": 573,
      "out": 574,
      "qbox": 575,
      "rt": 576,
      "sl": 577,
      "spe": 578,
      "scr": 579,
      "same": 580,
      "tar": 581,
      "tra": 582,
      "uo": 583,
      "ux": 584,
      "xb": 585,
      "xffffffff": 586,
      "ygi": 587,
      "ffe": 588,
      "ffer": 589,
      "asic": 590,
      "reco": 591,
      "refresh": 592,
      ".....": 593,
      "......": 594,
      "low": 595,
      "raptor": 596,
      "addr": 597,
      "can": 598,
      "line": 599,
      "..................": 600,
      "unreco": 601,
      "sent": 602,
      "permission": 603,
      "byte": 604,
      "exe": 605,
      "..............": 606,
      "registers": 607,
      "tests": 608,
      "testqbox": 609,
      "buffer": 610,
      "cpu": 611,
      "comm": 612,
      "gniz": 613,
      "start": 614,
      "started": 615,
      ".........................": 616,
      "...........................": 617,
      "treeaddr": 618,
      "limit": 619,
      ".....................": 620,
      "ller": 621,
      "control": 622,
      "ddcmd": 623,
      "swl": 624,
      "been": 625,
      "denied": 626,
      "creating": 627,
      "fgygi": 628,
      "from": 629,
      "floating": 630,
      "hack": 631,
      "ikuo": 632,
      "target": 633,
      "unrecogniz": 634,
      "testqboxhang": 635,
      "unrecognized": 636,
      "):": 637,
      "am": 638,
      "afd": 639,
      "aae": 640,
      "bi": 641,
      "bm": 642,
      "bde": 643,
      "bef": 644,
      "but": 645,
      "bfe": 646,
      "bcc": 647,
      "cj": 648,
      "cas": 649,
      "cde": 650,
      "cdc": 651,
      "cdd": 652,
      "cab": 653,
      "cbb": 654,
      "cda": 655,
      "ceed": 656,
      "due": 657,
      "fl": 658,
      "fp": 659,
      "fca": 660,
      "gh": 661,
      "ile": 662,
      "iali": 663,
      "ibm": 664,
      "mm": 665,
      "mund": 666,
      "mpi": 667,
      "mul": 668,
      "ns": 669,
      "operat": 670,
      "over": 671,
      "obyte": 672,
      "pm": 673,
      "por": 674,
      "rc": 675,
      "sum": 676,
      "sid": 677,
      "scom": 678,
      "sli": 679,
      "src": 680,
      "table": 681,
      "tip": 682,
      "ush": 683,
      "ull": 684,
      "uation": 685,
      "wa": 686,
      "xd": 687,
      "xy": 688,
      "zer": 689,
      "ffa": 690,
      "9999999999": 691,
      "eec": 692,
      "eep": 693,
      "ced": 694,
      "ord": 695,
      "master": 696,
      "info": 697,
      "inuation": 698,
      "repl": 699,
      "reque": 700,
      "nosl": 701,
      "pare": 702,
      "server": 703,
      "def": 704,
      "dept": 705,
      "iostate": 706,
      "efe": 707,
      "eca": 708,
      "ecc": 709,
      "ecf": 710,
      "...........": 711,
      "loc": 712,
      "stre": 713,
      "proper": 714,
      "alread": 715,
      "alloc": 716,
      "mand": 717,
      "feffff": 718,
      "ebe": 719,
      "cae": 720,
      "linux": 721,
      "new": 722,
      "used": 723,
      "unable": 724,
      "ille": 725,
      "dbg": 726,
      "acing": 727,
      "bfb": 728,
      "exceed": 729,
      "consid": 730,
      "bgla": 731,
      "bglido": 732,
      "bglmaster": 733,
      "symbols": 734,
      "ties": 735,
      "idos": 736,
      "cpmd": 737,
      "command": 738,
      "point": 739,
      "starting": 740,
      "continuation": 741,
      "mary": 742,
      "ical": 743,
      "controller": 744,
      "alerts": 745,
      "queue": 746,
      "glosli": 747,
      "sppm": 748,
      "initiali": 749,
      "debugger": 750,
      "accessible": 751,
      "internal": 752,
      "cjmund": 753,
      "ght": 754,
      "multip": 755,
      "operation": 756,
      "obytebug": 757,
      "port": 758,
      "summary": 759,
      "zerobytebug": 760,
      "replacing": 761,
      "request": 762,
      "nosleep": 763,
      "depth": 764,
      "properties": 765,
      "already": 766,
      "exceeds": 767,
      "consider": 768,
      "bglidochip": 769,
      "initializ": 770,
      "cjmundy": 771,
      "multiple": 772,
      "()": 773,
      "::": 774,
      "av": 775,
      "aff": 776,
      "aad": 777,
      "acc": 778,
      "aaf": 779,
      "bro": 780,
      "bdd": 781,
      "bbe": 782,
      "bba": 783,
      "bfc": 784,
      "cs": 785,
      "cce": 786,
      "clo": 787,
      "cis": 788,
      "cfe": 789,
      "cbd": 790,
      "cbf": 791,
      "dff": 792,
      "dund": 793,
      "dfc": 794,
      "et": 795,
      "ece": 796,
      "ead": 797,
      "fy": 798,
      "fde": 799,
      "fef": 800,
      "fdc": 801,
      "fab": 802,
      "fbd": 803,
      "full": 804,
      "gu": 805,
      "gat": 806,
      "ging": 807,
      "gal": 808,
      "gree": 809,
      "her": 810,
      "hile": 811,
      "im": 812,
      "iar": 813,
      "iss": 814,
      "icache": 815,
      "iptor": 816,
      "ify": 817,
      "jor": 818,
      "jav": 819,
      "lb": 820,
      "lp": 821,
      "lv": 822,
      "lce": 823,
      "lang": 824,
      "mod": 825,
      "mdbg": 826,
      "nk": 827,
      "ning": 828,
      "pu": 829,
      "pur": 830,
      "qb": 831,
      "sof": 832,
      "sram": 833,
      "siz": 834,
      "sical": 835,
      "txy": 836,
      "tlb": 837,
      "uch": 838,
      "ues": 839,
      "ught": 840,
      "wer": 841,
      "wal": 842,
      "while": 843,
      "yat": 844,
      "yes": 845,
      "ffd": 846,
      "fffe": 847,
      "cec": 848,
      "arant": 849,
      "ffffca": 850,
      "inate": 851,
      "restarting": 852,
      "redund": 853,
      ".......": 854,
      "nocomm": 855,
      "nozerobytebug": 856,
      "party": 857,
      "descr": 858,
      "debcc": 859,
      "dom": 860,
      "miscom": 861,
      "ioni": 862,
      "efc": 863,
      "efde": 864,
      "chcontroller": 865,
      "ctional": 866,
      "prest": 867,
      "precis": 868,
      "edd": 869,
      "adf": 870,
      "adcas": 871,
      "round": 872,
      "eaa": 873,
      "eac": 874,
      "eaf": 875,
      "max": 876,
      "mail": 877,
      "major": 878,
      "dime": 879,
      "fig": 880,
      "fier": 881,
      "ddd": 882,
      "abe": 883,
      "abf": 884,
      "abl": 885,
      "cac": 886,
      "caf": 887,
      "caused": 888,
      "caught": 889,
      "sup": 890,
      "lines": 891,
      "fae": 892,
      "...................": 893,
      "ccb": 894,
      "fdb": 895,
      "fdf": 896,
      "dbc": 897,
      "bffffa": 898,
      "bffffd": 899,
      "bae": 900,
      "bank": 901,
      "afb": 902,
      "ivating": 903,
      "acs": 904,
      "its": 905,
      "itchcontroller": 906,
      "code": 907,
      "coord": 908,
      "daa": 909,
      "daabe": 910,
      "bcdc": 911,
      "random": 912,
      "exter": 913,
      "cdfffe": 914,
      "pll": 915,
      "conne": 916,
      "conso": 917,
      "config": 918,
      "reception": 919,
      "cket": 920,
      "touch": 921,
      "maps": 922,
      "edrams": 923,
      "activating": 924,
      "functional": 925,
      "midplanesw": 926,
      "pose": 927,
      "power": 928,
      "urce": 929,
      "enabl": 930,
      "socket": 931,
      "source": 932,
      "ddcmdbg": 933,
      "blue": 934,
      "blacs": 935,
      "physical": 936,
      "glob": 937,
      "space": 938,
      "verify": 939,
      "curioni": 940,
      "edefb": 941,
      "mpits": 942,
      "rts": 943,
      "spec": 944,
      "spelce": 945,
      "scratch": 946,
      "trap": 947,
      "cannot": 948,
      "biparty": 949,
      "cabot": 950,
      "flush": 951,
      "mmcs": 952,
      "nsion": 953,
      "wait": 954,
      "efeff": 955,
      "stream": 956,
      "allocate": 957,
      "newmaps": 958,
      "illegal": 959,
      "initializing": 960,
      "broadcas": 961,
      "fefefeff": 962,
      "guarant": 963,
      "gather": 964,
      "greeno": 965,
      "imprecis": 966,
      "issues": 967,
      "java": 968,
      "modu": 969,
      "purpose": 970,
      "soft": 971,
      "size": 972,
      "txyz": 973,
      "yates": 974,
      "redundant": 975,
      "descriptor": 976,
      "miscompare": 977,
      "presta": 978,
      "mailbox": 979,
      "dimension": 980,
      "coordinate": 981,
      "external": 982,
      "console": 983,
      "midplaneswitchcontroller": 984,
      "ddcmdbglv": 985,
      "bipartyz": 986,
      "broadcast": 987,
      "guaranteed": 988,
      "imprecise": 989,
      ").......": 990,
      "/./": 991,
      "au": 992,
      "aec": 993,
      "aea": 994,
      "afe": 995,
      "aeb": 996,
      "aca": 997,
      "aac": 998,
      "ave": 999,
      "aux": 1000,
      "apu": 1001,
      "bin": 1002,
      "bmi": 1003,
      "bed": 1004,
      "bad": 1005,
      "bec": 1006,
      "beb": 1007,
      "bfd": 1008,
      "bus": 1009,
      "bdb": 1010,
      "bccf": 1011,
      "bwal": 1012,
      "cff": 1013,
      "cca": 1014,
      "cfd": 1015,
      "cbe": 1016,
      "cdf": 1017,
      "cfff": 1018,
      "cmd": 1019,
      "dg": 1020,
      "dr": 1021,
      "dde": 1022,
      "dge": 1023,
      "dfe": 1024,
      "daf": 1025,
      "deed": 1026,
      "em": 1027,
      "eof": 1028,
      "est": 1029,
      "fce": 1030,
      "fer": 1031,
      "fdd": 1032,
      "fcc": 1033,
      "fbc": 1034,
      "free": 1035,
      "fur": 1036,
      "gct": 1037,
      "ged": 1038,
      "gto": 1039,
      "gate": 1040,
      "ground": 1041,
      "hid": 1042,
      "hel": 1043,
      "hul": 1044,
      "icb": 1045,
      "ies": 1046,
      "imp": 1047,
      "jn": 1048,
      "jo": 1049,
      "ke": 1050,
      "kil": 1051,
      "ktest": 1052,
      "la": 1053,
      "ly": 1054,
      "lcontrol": 1055,
      "lush": 1056,
      "ms": 1057,
      "mw": 1058,
      "ming": 1059,
      "mon": 1060,
      "mation": 1061,
      "mbl": 1062,
      "mall": 1063,
      "malloc": 1064,
      "null": 1065,
      "op": 1066,
      "ope": 1067,
      "ool": 1068,
      "pr": 1069,
      "ping": 1070,
      "pad": 1071,
      "ple": 1072,
      "pol": 1073,
      "page": 1074,
      "pan": 1075,
      "qs": 1076,
      "qw": 1077,
      "qrt": 1078,
      "rmw": 1079,
      "spar": 1080,
      "sch": 1081,
      "sed": 1082,
      "sting": 1083,
      "scan": 1084,
      "sam": 1085,
      "small": 1086,
      "sqrt": 1087,
      "tc": 1088,
      "tur": 1089,
      "tmp": 1090,
      "tau": 1091,
      "tsch": 1092,
      "upd": 1093,
      "une": 1094,
      "we": 1095,
      "ws": 1096,
      "wor": 1097,
      "watch": 1098,
      "ware": 1099,
      "xff": 1100,
      "xce": 1101,
      "xpe": 1102,
      "xad": 1103,
      "xbf": 1104,
      "xae": 1105,
      "xbb": 1106,
      "xception": 1107,
      "xdaabe": 1108,
      "ffb": 1109,
      "ffce": 1110,
      "ffde": 1111,
      "fffa": 1112,
      "fffc": 1113,
      "eea": 1114,
      "eeb": 1115,
      "eedc": 1116,
      "eexception": 1117,
      "cea": 1118,
      "ceb": 1119,
      "ceab": 1120,
      "cecc": 1121,
      "cecf": 1122,
      "arch": 1123,
      "ering": 1124,
      "fffffff": 1125,
      "ase": 1126,
      "ast": 1127,
      "asse": 1128,
      "atab": 1129,
      "ative": 1130,
      "ories": 1131,
      "ctest": 1132,
      "ctool": 1133,
      "synd": 1134,
      "syst": 1135,
      "infor": 1136,
      "infer": 1137,
      "rent": 1138,
      "retag": 1139,
      "remer": 1140,
      "restarted": 1141,
      "reconne": 1142,
      "regct": 1143,
      "non": 1144,
      "parame": 1145,
      "servicemailbox": 1146,
      "deb": 1147,
      "ded": 1148,
      "dede": 1149,
      "iolog": 1150,
      "doe": 1151,
      "dog": 1152,
      "efed": 1153,
      "efaea": 1154,
      "eflush": 1155,
      "chil": 1156,
      "ssing": 1157,
      "ssible": 1158,
      "ped": 1159,
      "prefi": 1160,
      "pressing": 1161,
      "ution": 1162,
      "edb": 1163,
      "edba": 1164,
      "edbb": 1165,
      "shutdown": 1166,
      "adb": 1167,
      "adc": 1168,
      "ecd": 1169,
      "ecution": 1170,
      "nodecards": 1171,
      "rome": 1172,
      "robe": 1173,
      "rows": 1174,
      "logi": 1175,
      "len": 1176,
      "lement": 1177,
      "stand": 1178,
      "stel": 1179,
      "stop": 1180,
      "strobe": 1181,
      "pdbg": 1182,
      "rack": 1183,
      "proc": 1184,
      "proble": 1185,
      "proxy": 1186,
      "eab": 1187,
      "ten": 1188,
      "tent": 1189,
      "testing": 1190,
      "make": 1191,
      "dcb": 1192,
      "dcd": 1193,
      "dcf": 1194,
      "dcu": 1195,
      "dcbf": 1196,
      "dcaaf": 1197,
      "died": 1198,
      "ciostream": 1199,
      "mehul": 1200,
      "ciodb": 1201,
      "corru": 1202,
      "fiel": 1203,
      "cessive": 1204,
      "dddc": 1205,
      "aba": 1206,
      "abb": 1207,
      "processes": 1208,
      "gene": 1209,
      "fead": 1210,
      "feffe": 1211,
      "fefffc": 1212,
      "ebb": 1213,
      "ebd": 1214,
      "ebee": 1215,
      "ebde": 1216,
      "ebed": 1217,
      "ebdb": 1218,
      "ebba": 1219,
      "ebbd": 1220,
      "ebda": 1221,
      "directories": 1222,
      "faa": 1223,
      "fac": 1224,
      "face": 1225,
      "faef": 1226,
      "....................................": 1227,
      ".............................": 1228,
      "ccd": 1229,
      "cccc": 1230,
      "ccbc": 1231,
      "ccsam": 1232,
      "fda": 1233,
      "fdaf": 1234,
      "ther": 1235,
      "usr": 1236,
      "unit": 1237,
      "unic": 1238,
      "unter": 1239,
      "unimp": 1240,
      "iliar": 1241,
      "linkcards": 1242,
      "dbd": 1243,
      "dbf": 1244,
      "dbproperties": 1245,
      "dbremer": 1246,
      "baa": 1247,
      "baf": 1248,
      "back": 1249,
      "afc": 1250,
      "fcb": 1251,
      "fcd": 1252,
      "fcf": 1253,
      "fcde": 1254,
      "fcca": 1255,
      "ivile": 1256,
      "sens": 1257,
      "seille": 1258,
      "search": 1259,
      "acd": 1260,
      "bbc": 1261,
      "bbbb": 1262,
      "dfbb": 1263,
      "itz": 1264,
      "itor": 1265,
      "ited": 1266,
      "itical": 1267,
      "itten": 1268,
      "coproc": 1269,
      "counter": 1270,
      "daea": 1271,
      "daac": 1272,
      "stateexception": 1273,
      "bcb": 1274,
      "bcd": 1275,
      "feaf": 1276,
      "fffbccf": 1277,
      "agging": 1278,
      "instr": 1279,
      "install": 1280,
      "failure": 1281,
      "crc": 1282,
      "critical": 1283,
      "cfdddc": 1284,
      "execution": 1285,
      "excessive": 1286,
      "exited": 1287,
      "fbde": 1288,
      "fbca": 1289,
      "logs": 1290,
      "logfile": 1291,
      "loguser": 1292,
      "interrupts": 1293,
      "cbrt": 1294,
      "content": 1295,
      "bglscratch": 1296,
      "too": 1297,
      "topo": 1298,
      "running": 1299,
      "timed": 1300,
      "force": 1301,
      "idoproxy": 1302,
      "name": 1303,
      "bits": 1304,
      "sending": 1305,
      "sendtra": 1306,
      "sendms": 1307,
      "commit": 1308,
      "compare": 1309,
      "comple": 1310,
      "jtagid": 1311,
      "functest": 1312,
      "timeout": 1313,
      "bertsch": 1314,
      "nfs": 1315,
      "popt": 1316,
      "pointer": 1317,
      "possible": 1318,
      "uration": 1319,
      "..........................": 1320,
      "marseille": 1321,
      "xafd": 1322,
      "caching": 1323,
      "lib": 1324,
      "light": 1325,
      "......................": 1326,
      ".......................": 1327,
      "disconne": 1328,
      "lling": 1329,
      "sopt": 1330,
      "soon": 1331,
      "controlling": 1332,
      "ters": 1333,
      "xfee": 1334,
      "storage": 1335,
      "performing": 1336,
      "blast": 1337,
      "written": 1338,
      "prefetching": 1339,
      "prefetches": 1340,
      "general": 1341,
      "hangtest": 1342,
      "ulative": 1343,
      "allgather": 1344,
      "interface": 1345,
      "writelog": 1346,
      "aefe": 1347,
      "blocks": 1348,
      "current": 1349,
      "dacb": 1350,
      "outstand": 1351,
      "slave": 1352,
      "trace": 1353,
      "refreshes": 1354,
      "communic": 1355,
      "big": 1356,
      "cases": 1357,
      "cdcf": 1358,
      "flagging": 1359,
      "fcaf": 1360,
      "scomerror": 1361,
      "wave": 1362,
      "ordering": 1363,
      "serverdb": 1364,
      "streitz": 1365,
      "news": 1366,
      "usedatab": 1367,
      "portion": 1368,
      "nosleepyes": 1369,
      "nosleepnocomm": 1370,
      "initialization": 1371,
      "affaa": 1372,
      "accad": 1373,
      "bbac": 1374,
      "close": 1375,
      "closed": 1376,
      "fdead": 1377,
      "fully": 1378,
      "walk": 1379,
      "yeszerobytebug": 1380,
      "nocommnosleep": 1381,
      "maxbug": 1382,
      "suppressing": 1383,
      "configfile": 1384,
      "configuration": 1385,
      "enabled": 1386,
      "enableflush": 1387,
      "bluegene": 1388,
      "bluelight": 1389,
      "global": 1390,
      "special": 1391,
      "speculative": 1392,
      "scratchpad": 1393,
      "trapped": 1394,
      "flushing": 1395,
      "illegalstateexception": 1396,
      "gathering": 1397,
      "modulo": 1398,
      "module": 1399,
      "software": 1400,
      "descriptors": 1401,
      "mailboxmon": 1402,
      "consoleip": 1403,
      "consoleport": 1404,
      "auxiliar": 1405,
      "bmiller": 1406,
      "bwallen": 1407,
      "cmdline": 1408,
      "dgtest": 1409,
      "drv": 1410,
      "dgemm": 1411,
      "emcontroller": 1412,
      "freed": 1413,
      "further": 1414,
      "gtodebugger": 1415,
      "hidden": 1416,
      "hello": 1417,
      "icbi": 1418,
      "jng": 1419,
      "job": 1420,
      "kill": 1421,
      "lcontroldescriptors": 1422,
      "mbly": 1423,
      "nullpointer": 1424,
      "opening": 1425,
      "privile": 1426,
      "pollcontroldescriptors": 1427,
      "pages": 1428,
      "panic": 1429,
      "sparing": 1430,
      "scancom": 1431,
      "turn": 1432,
      "update": 1433,
      "unexpe": 1434,
      "work": 1435,
      "watchdog": 1436,
      "assembly": 1437,
      "ctools": 1438,
      "syndrome": 1439,
      "systemcontroller": 1440,
      "information": 1441,
      "inferno": 1442,
      "retagging": 1443,
      "reconnect": 1444,
      "regctl": 1445,
      "parameters": 1446,
      "servicemailboxes": 1447,
      "child": 1448,
      "prefix": 1449,
      "logies": 1450,
      "lemented": 1451,
      "stella": 1452,
      "stopping": 1453,
      "problem": 1454,
      "corrupt": 1455,
      "field": 1456,
      "ccsamef": 1457,
      "unimplemented": 1458,
      "background": 1459,
      "sensor": 1460,
      "failures": 1461,
      "loguserinfo": 1462,
      "contention": 1463,
      "topologies": 1464,
      "idoproxydb": 1465,
      "sendtrain": 1466,
      "sendmsgtodebugger": 1467,
      "complete": 1468,
      "functests": 1469,
      "marseillebgl": 1470,
      "disconnected": 1471,
      "currently": 1472,
      "outstanding": 1473,
      "communication": 1474,
      "usedatabase": 1475,
      "nosleepyescomm": 1476,
      "mailboxmonitor": 1477,
      "auxiliary": 1478,
      "nullpointerexception": 1479,
      "privileged": 1480,
      "unexpected": 1481
    },
    "merges": [
      "9 9",
      "99 99",
      "f f",
      "9999 9999",
      "e e",
      "99 9",
      "c e",
      ". .",
      "a r",
      "e r",
      "ff ff",
      "a s",
      ") ,",
      "a t",
      "o r",
      "s er",
      "c t",
      "s y",
      "sy m",
      "m as",
      "mas k",
      "i n",
      "ee ee",
      "r e",
      "c ar",
      "car d",
      "9999 9",
      ".. ..",
      "n o",
      "p ar",
      "99999999 99999999",
      "ser v",
      "i ce",
      "serv ice",
      "m l",
      "d e",
      "i o",
      "in g",
      "9999 99",
      "ee e",
      "no de",
      "eeee eee",
      "d o",
      "ffff ffff",
      "m i",
      "io n",
      "e f",
      "c h",
      "99999999 999",
      "ct ion",
      "s s",
      "u m",
      "p e",
      "t y",
      "p re",
      "u t",
      "o f",
      "n um",
      "e d",
      "or service",
      "par ef",
      "pre paref",
      "preparef orservice",
      ") )",
      "m card",
      "s h",
      "ser num",
      "ct n",
      "9999999999999999 99999999999",
      "ml ctn",
      "mcard sernum",
      "ty pe",
      "a ction",
      "m type",
      "ml p",
      "mi p",
      "par t",
      "t ing",
      "w n",
      "do wn",
      "sh ut",
      "shut ting",
      "a d",
      "e c",
      ".... ....",
      "node card",
      "99999999 999999",
      "er r",
      "n d",
      "r o",
      "l o",
      "9999 999",
      "err or",
      "l e",
      "s t",
      "p d",
      "v pd",
      "re ct",
      "r a",
      "p ro",
      "ad d",
      "re ss",
      "add ress",
      "i d",
      "e a",
      "t e",
      "i s",
      "a l",
      "m a",
      "ffff f",
      "d c",
      "d at",
      "no t",
      "dat a",
      "d i",
      "c io",
      "m e",
      "at ch",
      "cio d",
      "c or",
      "f i",
      "ch ec",
      "chec k",
      "ce ss",
      "or y",
      "u nd",
      "d d",
      "ra m",
      "a b",
      "pro cess",
      "cor rect",
      "f o",
      "g e",
      "process or",
      "m atch",
      "s lo",
      "ec id",
      "fi le",
      "fo und",
      "slo t",
      "ct ed",
      "f e",
      "e b",
      "de te",
      "dete cted",
      "di rect",
      "direct ory",
      "c a",
      "p t",
      "s u",
      "mi ss",
      "su ch",
      "a nd",
      "l in",
      "o n",
      "f a",
      "g ram",
      "........ ........",
      "pro gram",
      "correct ed",
      "c c",
      "f d",
      "n e",
      "t h",
      "u s",
      "u n",
      "i l",
      "k card",
      "dc r",
      "lin kcard",
      "b e",
      "d b",
      "v al",
      "lo ad",
      "val id",
      "b ffff",
      "i ma",
      "in valid",
      "load ing",
      "ima ge",
      "b a",
      "miss ing",
      "a f",
      "f c",
      "i v",
      "s e",
      "99999999 99999",
      "ab le",
      "a c",
      "b d",
      "o l",
      "b f",
      "a e",
      "b b",
      "d f",
      "i t",
      "c o",
      "d a",
      "p er",
      "in t",
      "st at",
      "dd r",
      "b c",
      "f ea",
      "o t",
      "t or",
      "ff f",
      "tor us",
      "a g",
      "in st",
      "fa il",
      "b y",
      "g b",
      "r u",
      ".. .",
      "ra n",
      "c r",
      "g i",
      "inst ru",
      "instru ction",
      "c f",
      "e x",
      "n t",
      "b g",
      ". /",
      "c d",
      "f b",
      "p l",
      "u pt",
      "err upt",
      "lo g",
      "int errupt",
      "c b",
      "c on",
      "u re",
      "re ce",
      "ro ot",
      "bg l",
      "re gi",
      "........ ....",
      "st er",
      "th e",
      "fail ed",
      "regi ster",
      "a a",
      "b ol",
      "i p",
      "l r",
      "sym bol",
      "iv er",
      "rece iver",
      "c k",
      "e s",
      "o d",
      "t o",
      "x er",
      "ct r",
      "ma p",
      "correct able",
      "be ing",
      "( /",
      "h o",
      "p i",
      "p ut",
      "in put",
      "ch di",
      "ed ram",
      "te st",
      "log in",
      "ho me",
      "chdi r",
      "a ct",
      "g o",
      "p go",
      "r un",
      "t i",
      "t ed",
      "iv e",
      "per at",
      "pgo od",
      "f or",
      "i do",
      "i ty",
      "n a",
      "u e",
      "at ing",
      "par ity",
      "do ne",
      "fe fff",
      "pt ion",
      "miss ion",
      "th is",
      "stat e",
      "a ge",
      "b u",
      "b it",
      "c p",
      "m ory",
      "t ag",
      "in e",
      "ch ine",
      "lo ck",
      "ma chine",
      "me mory",
      "se nd",
      "co m",
      "stat us",
      "ran k",
      "pi pe",
      "act ive",
      "g n",
      "j tag",
      "m perat",
      "n b",
      "n ag",
      "r ee",
      "x c",
      "ce ption",
      "te mperat",
      "ma nag",
      "temperat ure",
      "manag er",
      "a ne",
      "b le",
      "d pl",
      "f un",
      "l atch",
      "o k",
      "as ser",
      "re ad",
      "mi dpl",
      "ss age",
      "al i",
      "me ssage",
      "ex ception",
      "ti me",
      "asser ted",
      "midpl ane",
      "b er",
      "g er",
      "n f",
      "n ch",
      "p o",
      "s mission",
      "t ran",
      "u r",
      "re tran",
      "st ar",
      "................ ........",
      "fea a",
      "con t",
      "send er",
      "retran smission",
      "m ar",
      "m ed",
      "n c",
      "t ree",
      "x a",
      "x e",
      "re sh",
      "num ber",
      "error s",
      "me nt",
      "ca ch",
      "run time",
      "bu g",
      "e l",
      "e n",
      "i c",
      "l i",
      "u ser",
      "ee d",
      "................ ....",
      "gn ment",
      "fun c",
      "ali gnment",
      "cach e",
      "- -",
      "a n",
      "c lock",
      "d ra",
      "d is",
      "e nd",
      "e ger",
      "l l",
      "m d",
      "m er",
      "m pgood",
      "s o",
      "v ol",
      "ee r",
      "re se",
      "service action",
      "st eer",
      "ra il",
      "exception s",
      "cont ro",
      "user func",
      "dra eger",
      "end serviceaction",
      "vol t",
      "rese t",
      "d dc",
      "h as",
      "h um",
      "i al",
      "t er",
      "t ch",
      "u ble",
      "v e",
      "x f",
      "er t",
      "at ion",
      "do uble",
      "mi ra",
      "nd a",
      "st or",
      "al ert",
      "cor e",
      "fe tch",
      "ca pt",
      "un correctable",
      "per for",
      "fail ing",
      "............ ...",
      "en able",
      "an g",
      "dis able",
      "hum mer",
      "mira nda",
      "capt ure",
      "b l",
      "b o",
      "c le",
      "f ec",
      "h y",
      "i z",
      "i th",
      "n er",
      "p on",
      "p hy",
      "q ue",
      "r st",
      "s w",
      "t ot",
      "u pon",
      "w r",
      "w el",
      "w ith",
      "ar e",
      "at e",
      "ser ial",
      "9999999999999999 99999999",
      "ch ip",
      "pre fetch",
      "........ .",
      "fi rst",
      "ge ner",
      "pt or",
      "cc f",
      "th resh",
      "be nch",
      "ol d",
      "co me",
      "ip address",
      "mar k",
      "stor e",
      "perfor med",
      "bo x",
      "cle ar",
      "tot al",
      "wel come",
      "serial number",
      "thresh old",
      "bench mark",
      "a ce",
      "a me",
      "b ee",
      "e ve",
      "g lo",
      "h ang",
      "i te",
      "m o",
      "n al",
      "s p",
      "u l",
      "v er",
      "99999999 9",
      "sy nch",
      "in it",
      "de n",
      "de bug",
      "mi t",
      "le ct",
      "al l",
      "ge t",
      "................ .",
      "se lect",
      "ac cess",
      "int er",
      "pl b",
      "............ .",
      "steer ing",
      "wr ite",
      "gener ating",
      "eve nt",
      "mo de",
      "/ /",
      ": //",
      "a de",
      "a ef",
      "a nt",
      "b lock",
      "c ee",
      "c re",
      "c ur",
      "d ac",
      "e de",
      "f g",
      "f ee",
      "f ro",
      "f lo",
      "f resh",
      "h ac",
      "i k",
      "i ed",
      "i ble",
      "m p",
      "o ut",
      "q box",
      "r t",
      "s l",
      "s pe",
      "s cr",
      "s ame",
      "t ar",
      "t ra",
      "u o",
      "u x",
      "x b",
      "x ffffffff",
      "y gi",
      "ff e",
      "ff er",
      "as ic",
      "re co",
      "re fresh",
      ".... .",
      ".... ..",
      "lo w",
      "ra ptor",
      "add r",
      "ca n",
      "lin e",
      "................ ..",
      "un reco",
      "se nt",
      "per mission",
      "by te",
      "ex e",
      "............ ..",
      "register s",
      "test s",
      "test qbox",
      "bu ffer",
      "cp u",
      "com m",
      "gn iz",
      "star t",
      "star ted",
      "........................ .",
      "........................ ...",
      "tree addr",
      "li mit",
      ".................... .",
      "ll er",
      "contro l",
      "ddc md",
      "sw l",
      "bee n",
      "den ied",
      "cre ating",
      "fg ygi",
      "fro m",
      "flo ating",
      "hac k",
      "ik uo",
      "tar get",
      "unreco gniz",
      "testqbox hang",
      "unrecogniz ed",
      ") :",
      "a m",
      "a fd",
      "a ae",
      "b i",
      "b m",
      "b de",
      "b ef",
      "b ut",
      "b fe",
      "b cc",
      "c j",
      "c as",
      "c de",
      "c dc",
      "c dd",
      "c ab",
      "c bb",
      "c da",
      "c eed",
      "d ue",
      "f l",
      "f p",
      "f ca",
      "g h",
      "i le",
      "i ali",
      "i bm",
      "m m",
      "m und",
      "m pi",
      "m ul",
      "n s",
      "o perat",
      "o ver",
      "o byte",
      "p m",
      "p or",
      "r c",
      "s um",
      "s id",
      "s com",
      "s li",
      "s rc",
      "t able",
      "t ip",
      "u sh",
      "u ll",
      "u ation",
      "w a",
      "x d",
      "x y",
      "z er",
      "ff a",
      "99999999 99",
      "ee c",
      "ee p",
      "ce d",
      "or d",
      "mas ter",
      "in fo",
      "in uation",
      "re pl",
      "re que",
      "no sl",
      "par e",
      "serv er",
      "de f",
      "de pt",
      "io state",
      "ef e",
      "ec a",
      "ec c",
      "ec f",
      "........ ...",
      "lo c",
      "st re",
      "pro per",
      "al read",
      "al loc",
      "ma nd",
      "fe ffff",
      "eb e",
      "ca e",
      "lin ux",
      "ne w",
      "us ed",
      "un able",
      "il le",
      "db g",
      "ac ing",
      "bf b",
      "ex ceed",
      "con sid",
      "bgl a",
      "bgl ido",
      "bgl master",
      "symbol s",
      "ti es",
      "ido s",
      "cp md",
      "com mand",
      "po int",
      "star ting",
      "cont inuation",
      "mar y",
      "ic al",
      "contro ller",
      "alert s",
      "que ue",
      "glo sli",
      "sp pm",
      "init iali",
      "debug ger",
      "access ible",
      "inter nal",
      "cj mund",
      "gh t",
      "mul tip",
      "operat ion",
      "obyte bug",
      "por t",
      "sum mary",
      "zer obytebug",
      "repl acing",
      "reque st",
      "nosl eep",
      "dept h",
      "proper ties",
      "alread y",
      "exceed s",
      "consid er",
      "bglido chip",
      "initiali z",
      "cjmund y",
      "multip le",
      "( )",
      ": :",
      "a v",
      "a ff",
      "a ad",
      "a cc",
      "a af",
      "b ro",
      "b dd",
      "b be",
      "b ba",
      "b fc",
      "c s",
      "c ce",
      "c lo",
      "c is",
      "c fe",
      "c bd",
      "c bf",
      "d ff",
      "d und",
      "d fc",
      "e t",
      "e ce",
      "e ad",
      "f y",
      "f de",
      "f ef",
      "f dc",
      "f ab",
      "f bd",
      "f ull",
      "g u",
      "g at",
      "g ing",
      "g al",
      "g ree",
      "h er",
      "h ile",
      "i m",
      "i ar",
      "i ss",
      "i cache",
      "i ptor",
      "i fy",
      "j or",
      "j av",
      "l b",
      "l p",
      "l v",
      "l ce",
      "l ang",
      "m od",
      "m dbg",
      "n k",
      "n ing",
      "p u",
      "p ur",
      "q b",
      "s of",
      "s ram",
      "s iz",
      "s ical",
      "t xy",
      "t lb",
      "u ch",
      "u es",
      "u ght",
      "w er",
      "w al",
      "w hile",
      "y at",
      "y es",
      "ff d",
      "ff fe",
      "ce c",
      "ar ant",
      "ffff ca",
      "in ate",
      "re starting",
      "re dund",
      ".... ...",
      "no comm",
      "no zerobytebug",
      "par ty",
      "de scr",
      "de bcc",
      "do m",
      "mi scom",
      "ion i",
      "ef c",
      "ef de",
      "ch controller",
      "ction al",
      "pre st",
      "pre cis",
      "ed d",
      "ad f",
      "ad cas",
      "ro und",
      "ea a",
      "ea c",
      "ea f",
      "ma x",
      "ma il",
      "ma jor",
      "di me",
      "fi g",
      "fi er",
      "dd d",
      "ab e",
      "ab f",
      "ab l",
      "ca c",
      "ca f",
      "ca used",
      "ca ught",
      "su p",
      "lin es",
      "fa e",
      "................ ...",
      "cc b",
      "fd b",
      "fd f",
      "db c",
      "bffff a",
      "bffff d",
      "ba e",
      "ba nk",
      "af b",
      "iv ating",
      "ac s",
      "it s",
      "it chcontroller",
      "co de",
      "co ord",
      "da a",
      "da abe",
      "bc dc",
      "ran dom",
      "ex ter",
      "cd fffe",
      "pl l",
      "con ne",
      "con so",
      "con fig",
      "rece ption",
      "ck et",
      "to uch",
      "map s",
      "edram s",
      "act ivating",
      "fun ctional",
      "midplane sw",
      "po se",
      "po wer",
      "ur ce",
      "en abl",
      "so cket",
      "so urce",
      "ddc mdbg",
      "bl ue",
      "bl acs",
      "phy sical",
      "glo b",
      "sp ace",
      "ver ify",
      "cur ioni",
      "ede fb",
      "mp its",
      "rt s",
      "spe c",
      "spe lce",
      "scr atch",
      "tra p",
      "can not",
      "bi party",
      "cab ot",
      "fl ush",
      "mm cs",
      "ns ion",
      "wa it",
      "efe ff",
      "stre am",
      "alloc ate",
      "new maps",
      "ille gal",
      "initializ ing",
      "bro adcas",
      "fef efeff",
      "gu arant",
      "gat her",
      "gree no",
      "im precis",
      "iss ues",
      "jav a",
      "mod u",
      "pur pose",
      "sof t",
      "siz e",
      "txy z",
      "yat es",
      "redund ant",
      "descr iptor",
      "miscom pare",
      "prest a",
      "mail box",
      "dime nsion",
      "coord inate",
      "exter nal",
      "conso le",
      "midplanesw itchcontroller",
      "ddcmdbg lv",
      "biparty z",
      "broadcas t",
      "guarant eed",
      "imprecis e",
      ") .......",
      "/ ./",
      "a u",
      "a ec",
      "a ea",
      "a fe",
      "a eb",
      "a ca",
      "a ac",
      "a ve",
      "a ux",
      "a pu",
      "b in",
      "b mi",
      "b ed",
      "b ad",
      "b ec",
      "b eb",
      "b fd",
      "b us",
      "b db",
      "b ccf",
      "b wal",
      "c ff",
      "c ca",
      "c fd",
      "c be",
      "c df",
      "c fff",
      "c md",
      "d g",
      "d r",
      "d de",
      "d ge",
      "d fe",
      "d af",
      "d eed",
      "e m",
      "e of",
      "e st",
      "f ce",
      "f er",
      "f dd",
      "f cc",
      "f bc",
      "f ree",
      "f ur",
      "g ct",
      "g ed",
      "g to",
      "g ate",
      "g round",
      "h id",
      "h el",
      "h ul",
      "i cb",
      "i es",
      "i mp",
      "j n",
      "j o",
      "k e",
      "k il",
      "k test",
      "l a",
      "l y",
      "l control",
      "l ush",
      "m s",
      "m w",
      "m ing",
      "m on",
      "m ation",
      "m bl",
      "m all",
      "m alloc",
      "n ull",
      "o p",
      "o pe",
      "o ol",
      "p r",
      "p ing",
      "p ad",
      "p le",
      "p ol",
      "p age",
      "p an",
      "q s",
      "q w",
      "q rt",
      "r mw",
      "s par",
      "s ch",
      "s ed",
      "s ting",
      "s can",
      "s am",
      "s mall",
      "s qrt",
      "t c",
      "t ur",
      "t mp",
      "t au",
      "t sch",
      "u pd",
      "u ne",
      "w e",
      "w s",
      "w or",
      "w atch",
      "w are",
      "x ff",
      "x ce",
      "x pe",
      "x ad",
      "x bf",
      "x ae",
      "x bb",
      "x ception",
      "x daabe",
      "ff b",
      "ff ce",
      "ff de",
      "ff fa",
      "ff fc",
      "ee a",
      "ee b",
      "ee dc",
      "ee xception",
      "ce a",
      "ce b",
      "ce ab",
      "ce cc",
      "ce cf",
      "ar ch",
      "er ing",
      "ffff fff",
      "as e",
      "as t",
      "as se",
      "at ab",
      "at ive",
      "or ies",
      "ct est",
      "ct ool",
      "sy nd",
      "sy st",
      "in for",
      "in fer",
      "re nt",
      "re tag",
      "re mer",
      "re started",
      "re conne",
      "re gct",
      "no n",
      "par ame",
      "service mailbox",
      "de b",
      "de d",
      "de de",
      "io log",
      "do e",
      "do g",
      "ef ed",
      "ef aea",
      "ef lush",
      "ch il",
      "ss ing",
      "ss ible",
      "pe d",
      "pre fi",
      "pre ssing",
      "ut ion",
      "ed b",
      "ed ba",
      "ed bb",
      "shut down",
      "ad b",
      "ad c",
      "ec d",
      "ec ution",
      "nodecard s",
      "ro me",
      "ro be",
      "ro ws",
      "lo gi",
      "le n",
      "le ment",
      "st and",
      "st el",
      "st op",
      "st robe",
      "pd bg",
      "ra ck",
      "pro c",
      "pro ble",
      "pro xy",
      "ea b",
      "te n",
      "te nt",
      "te sting",
      "ma ke",
      "dc b",
      "dc d",
      "dc f",
      "dc u",
      "dc bf",
      "dc aaf",
      "di ed",
      "cio stream",
      "me hul",
      "ciod b",
      "cor ru",
      "fi el",
      "cess ive",
      "dd dc",
      "ab a",
      "ab b",
      "process es",
      "ge ne",
      "fe ad",
      "fe ffe",
      "fe fffc",
      "eb b",
      "eb d",
      "eb ee",
      "eb de",
      "eb ed",
      "eb db",
      "eb ba",
      "eb bd",
      "eb da",
      "direct ories",
      "fa a",
      "fa c",
      "fa ce",
      "fa ef",
      "................ ....................",
      "................ .............",
      "cc d",
      "cc cc",
      "cc bc",
      "cc sam",
      "fd a",
      "fd af",
      "th er",
      "us r",
      "un it",
      "un ic",
      "un ter",
      "un imp",
      "il iar",
      "linkcard s",
      "db d",
      "db f",
      "db properties",
      "db remer",
      "ba a",
      "ba f",
      "ba ck",
      "af c",
      "fc b",
      "fc d",
      "fc f",
      "fc de",
      "fc ca",
      "iv ile",
      "se ns",
      "se ille",
      "se arch",
      "ac d",
      "bb c",
      "bb bb",
      "df bb",
      "it z",
      "it or",
      "it ed",
      "it ical",
      "it ten",
      "co proc",
      "co unter",
      "da ea",
      "da ac",
      "stat eexception",
      "bc b",
      "bc d",
      "fea f",
      "fff bccf",
      "ag ging",
      "inst r",
      "inst all",
      "fail ure",
      "cr c",
      "cr itical",
      "cf dddc",
      "ex ecution",
      "ex cessive",
      "ex ited",
      "fb de",
      "fb ca",
      "log s",
      "log file",
      "log user",
      "interrupt s",
      "cb rt",
      "con tent",
      "bgl scratch",
      "to o",
      "to po",
      "run ning",
      "ti med",
      "for ce",
      "ido proxy",
      "na me",
      "bit s",
      "send ing",
      "send tra",
      "send ms",
      "com mit",
      "com pare",
      "com ple",
      "jtag id",
      "fun ctest",
      "time out",
      "ber tsch",
      "nf s",
      "po pt",
      "po inter",
      "po ssible",
      "ur ation",
      "........................ ..",
      "mar seille",
      "xa fd",
      "cach ing",
      "li b",
      "li ght",
      ".................... ..",
      ".................... ...",
      "dis conne",
      "ll ing",
      "so pt",
      "so on",
      "contro lling",
      "ter s",
      "xf ee",
      "stor age",
      "perfor ming",
      "bl ast",
      "wr itten",
      "prefetch ing",
      "prefetch es",
      "gener al",
      "hang test",
      "ul ative",
      "all gather",
      "inter face",
      "write log",
      "aef e",
      "block s",
      "cur rent",
      "dac b",
      "out stand",
      "sl ave",
      "tra ce",
      "refresh es",
      "comm unic",
      "bi g",
      "cas es",
      "cdc f",
      "fl agging",
      "fca f",
      "scom error",
      "wa ve",
      "ord ering",
      "server db",
      "stre itz",
      "new s",
      "used atab",
      "port ion",
      "nosleep yes",
      "nosleep nocomm",
      "initializ ation",
      "aff aa",
      "acc ad",
      "bba c",
      "clo se",
      "clo sed",
      "fde ad",
      "full y",
      "wal k",
      "yes zerobytebug",
      "nocomm nosleep",
      "max bug",
      "sup pressing",
      "config file",
      "config uration",
      "enabl ed",
      "enabl eflush",
      "blue gene",
      "blue light",
      "glob al",
      "spec ial",
      "spec ulative",
      "scratch pad",
      "trap ped",
      "flush ing",
      "illegal stateexception",
      "gather ing",
      "modu lo",
      "modu le",
      "soft ware",
      "descriptor s",
      "mailbox mon",
      "console ip",
      "console port",
      "aux iliar",
      "bmi ller",
      "bwal len",
      "cmd line",
      "dg test",
      "dr v",
      "dge mm",
      "em controller",
      "free d",
      "fur ther",
      "gto debugger",
      "hid den",
      "hel lo",
      "icb i",
      "jn g",
      "jo b",
      "kil l",
      "lcontrol descriptors",
      "mbl y",
      "null pointer",
      "ope ning",
      "pr ivile",
      "pol lcontroldescriptors",
      "page s",
      "pan ic",
      "spar ing",
      "scan com",
      "tur n",
      "upd ate",
      "une xpe",
      "wor k",
      "watch dog",
      "asse mbly",
      "ctool s",
      "synd rome",
      "syst emcontroller",
      "infor mation",
      "infer no",
      "retag ging",
      "reconne ct",
      "regct l",
      "parame ters",
      "servicemailbox es",
      "chil d",
      "prefi x",
      "logi es",
      "lement ed",
      "stel la",
      "stop ping",
      "proble m",
      "corru pt",
      "fiel d",
      "ccsam ef",
      "unimp lemented",
      "back ground",
      "sens or",
      "failure s",
      "loguser info",
      "content ion",
      "topo logies",
      "idoproxy db",
      "sendtra in",
      "sendms gtodebugger",
      "comple te",
      "functest s",
      "marseille bgl",
      "disconne cted",
      "current ly",
      "outstand ing",
      "communic ation",
      "usedatab ase",
      "nosleepyes comm",
      "mailboxmon itor",
      "auxiliar y",
      "nullpointer exception",
      "privile ged",
      "unexpe cted"
    ]
  }
}