{
  "version": "1.0",
  "truncation": null,
  "padding": null,
  "added_tokens": [
    {
      "id": 0,
      "content": "<pad>",
      "single_word": false,
      "lstrip": false,
      "rstrip": false,
      "normalized": false,
      "special": true
    },
    {
      "id": 1,
      "content": "<unk>",
      "single_word": false,
      "lstrip": false,
      "rstrip": false,
      "normalized": false,
      "special": true
    },
    {
      "id": 2,
      "content": " ",
      "single_word": false,
      "lstrip": false,
      "rstrip": false,
      "normalized": false,
      "special": true
    }
  ],
  "normalizer": {
    "type": "Sequence",
    "normalizers": [
      {
        "type": "NFKC"
      },
      {
        "type": "Lowercase"
      }
    ]
  },
  "pre_tokenizer": {
    "type": "Sequence",
    "pretokenizers": [
      {
        "type": "Whitespace"
      },
      {
        "type": "ByteLevel",
        "add_prefix_space": false,
        "trim_offsets": true,
        "use_regex": true
      }
    ]
  },
  "post_processor": {
    "type": "ByteLevel",
    "add_prefix_space": true,
    "trim_offsets": false,
    "use_regex": true
  },
  "decoder": null,
  "model": {
    "type": "BPE",
    "dropout": null,
    "unk_token": null,
    "continuing_subword_prefix": null,
    "end_of_word_suffix": null,
    "fuse_unk": false,
    "byte_fallback": false,
    "ignore_merges": false,
    "vocab": {
      "<pad>": 0,
      "<unk>": 1,
      " ": 2,
      "$": 3,
      "(": 4,
      ")": 5,
      "*": 6,
      ",": 7,
      "-": 8,
      ".": 9,
      "/": 10,
      "9": 11,
      ":": 12,
      ";": 13,
      "<": 14,
      "=": 15,
      ">": 16,
      "@": 17,
      "[": 18,
      "\\": 19,
      "]": 20,
      "_": 21,
      "a": 22,
      "b": 23,
      "c": 24,
      "d": 25,
      "e": 26,
      "f": 27,
      "g": 28,
      "h": 29,
      "i": 30,
      "j": 31,
      "k": 32,
      "l": 33,
      "m": 34,
      "n": 35,
      "o": 36,
      "p": 37,
      "q": 38,
      "r": 39,
      "s": 40,
      "t": 41,
      "u": 42,
      "v": 43,
      "w": 44,
      "x": 45,
      "y": 46,
      "z": 47,
      "99": 48,
      "9999": 49,
      "999": 50,
      "99999999": 51,
      "bl": 52,
      "ed": 53,
      "99999": 54,
      "es": 55,
      "oc": 56,
      "on": 57,
      "ock": 58,
      "er": 59,
      "block": 60,
      "to": 61,
      "ti": 62,
      "ro": 63,
      "st": 64,
      "no": 65,
      "blk": 66,
      "9999999999999999": 67,
      "en": 68,
      "si": 69,
      "de": 70,
      "re": 71,
      "at": 72,
      "node": 73,
      "om": 74,
      "in": 75,
      "cl": 76,
      "ent": 77,
      "ved": 78,
      "ff": 79,
      "ce": 80,
      "th": 81,
      "an": 82,
      "ad": 83,
      "com": 84,
      "hk": 85,
      "se": 86,
      "pro": 87,
      "xy": 88,
      "proxy": 89,
      "sion": 90,
      "em": 91,
      "ses": 92,
      "session": 93,
      "or": 94,
      "by": 95,
      "ser": 96,
      "ne": 97,
      "9999999999999999999": 98,
      "id": 99,
      "is": 100,
      "esy": 101,
      "stem": 102,
      "esystem": 103,
      "rece": 104,
      "recei": 105,
      "tes": 106,
      "bytes": 107,
      "tim": 108,
      "il": 109,
      "time": 110,
      "kb": 111,
      "ate": 112,
      "li": 113,
      "received": 114,
      "fe": 115,
      "na": 116,
      "tion": 117,
      "for": 118,
      "ar": 119,
      "tt": 120,
      "clo": 121,
      "ou": 122,
      "cu": 123,
      "add": 124,
      "ran": 125,
      "999999999999999999": 126,
      "con": 127,
      "edu": 128,
      "ok": 129,
      "of": 130,
      "served": 131,
      "cse": 132,
      "cuhk": 133,
      "tran": 134,
      "dat": 135,
      "ch": 136,
      "ze": 137,
      "size": 138,
      "ex": 139,
      "trans": 140,
      "ng": 141,
      "fil": 142,
      "ting": 143,
      "et": 144,
      "op": 145,
      "abl": 146,
      "cli": 147,
      "as": 148,
      "ug": 149,
      "ps": 150,
      "ugh": 151,
      "rough": 152,
      "through": 153,
      "est": 154,
      "9999999": 155,
      "client": 156,
      "open": 157,
      "erfil": 158,
      "erfilesystem": 159,
      "htt": 160,
      "https": 161,
      "out": 162,
      "nam": 163,
      "namesystem": 164,
      "close": 165,
      "sent": 166,
      "life": 167,
      "lifetime": 168,
      "sed": 169,
      "go": 170,
      "va": 171,
      "nec": 172,
      "timeout": 173,
      "connec": 174,
      "sessionid": 175,
      "tor": 176,
      "ffff": 177,
      "ge": 178,
      "ask": 179,
      "state": 180,
      "9999999999": 181,
      "ain": 182,
      "stor": 183,
      "dom": 184,
      "ter": 185,
      "ing": 186,
      "pon": 187,
      "999999": 188,
      "data": 189,
      "domain": 190,
      "star": 191,
      "rep": 192,
      "read": 193,
      "lic": 194,
      "edblock": 195,
      "addstor": 196,
      "addstoredblock": 197,
      "up": 198,
      "replic": 199,
      "99999999999999999": 200,
      "starting": 201,
      "connection": 202,
      "datanode": 203,
      "replicate": 204,
      "thread": 205,
      "fer": 206,
      "transfer": 207,
      "compon": 208,
      "component": 209,
      "exce": 210,
      "serv": 211,
      "ust": 212,
      "wid": 213,
      "ot": 214,
      "clust": 215,
      "ap": 216,
      "le": 217,
      "added": 218,
      "wi": 219,
      "og": 220,
      "ilabl": 221,
      "vailabl": 222,
      "vailable": 223,
      "clusterfilesystem": 224,
      "chan": 225,
      "ir": 226,
      "ish": 227,
      "ac": 228,
      "with": 229,
      "ablish": 230,
      "establish": 231,
      "ation": 232,
      "net": 233,
      "mi": 234,
      "had": 235,
      "not": 236,
      "pr": 237,
      "erro": 238,
      "change": 239,
      "error": 240,
      "des": 241,
      "nodes": 242,
      "tted": 243,
      "transmi": 244,
      "transmitted": 245,
      "oces": 246,
      "proces": 247,
      "una": 248,
      "unavailable": 249,
      "map": 250,
      "min": 251,
      "al": 252,
      "eded": 253,
      "hi": 254,
      "the": 255,
      "ms": 256,
      "termin": 257,
      "ee": 258,
      "blockmap": 259,
      "dated": 260,
      "updated": 261,
      "processed": 262,
      "pir": 263,
      "sock": 264,
      "root": 265,
      "closed": 266,
      "expir": 267,
      "established": 268,
      "tiat": 269,
      "nego": 270,
      "tiated": 271,
      "negotiated": 272,
      "exceeded": 273,
      "ni": 274,
      "expiring": 275,
      "fro": 276,
      "termination": 277,
      "from": 278,
      "socket": 279,
      "serverfilesystem": 280,
      "whi": 281,
      "and": 282,
      "which": 283,
      "sr": 284,
      "goog": 285,
      "google": 286,
      "lon": 287,
      "long": 288,
      "src": 289,
      "dest": 290,
      "sc": 291,
      "fa": 292,
      "qu": 293,
      "ffffff": 294,
      "hwid": 295,
      "wwid": 296,
      "scsi": 297,
      "--": 298,
      "longer": 299,
      "ww": 300,
      "bo": 301,
      "fd": 302,
      "loc": 303,
      "vi": 304,
      "tar": 305,
      "inter": 306,
      "fffffffe": 307,
      "stent": 308,
      "sistent": 309,
      "incon": 310,
      "ets": 311,
      "nodesets": 312,
      "inconsistent": 313,
      "user": 314,
      "ba": 315,
      "emp": 316,
      "ption": 317,
      "te": 318,
      "temp": 319,
      "wor": 320,
      "ld": 321,
      "work": 322,
      "cou": 323,
      "network": 324,
      "exception": 325,
      "could": 326,
      "set": 327,
      "999999999999": 328,
      "ack": 329,
      "be": 330,
      "uni": 331,
      "999999999": 332,
      "geting": 333,
      "domains": 334,
      "targeting": 335,
      "us": 336,
      "ateblock": 337,
      "alloc": 338,
      "unix": 339,
      "allocateblock": 340,
      "val": 341,
      "receiv": 342,
      "connect": 343,
      "hw": 344,
      "let": 345,
      "server": 346,
      "999999999999999": 347,
      "res": 348,
      "comm": 349,
      "valid": 350,
      "stat": 351,
      "pe": 352,
      "command": 353,
      "requ": 354,
      "request": 355,
      "-[": 356,
      "ted": 357,
      "niff": 358,
      "lete": 359,
      "delete": 360,
      "status": 361,
      "receiving": 362,
      "cm": 363,
      "io": 364,
      "dn": 365,
      "per": 366,
      "ri": 367,
      "invalid": 368,
      "eeper": 369,
      "invalidset": 370,
      "bd": 371,
      "sn": 372,
      "ll": 373,
      "df": 374,
      "hu": 375,
      "deo": 376,
      "video": 377,
      "cn": 378,
      "---": 379,
      "um": 380,
      "baid": 381,
      "googlevideo": 382,
      "ve": 383,
      "ede": 384,
      "edfa": 385,
      "edfaa": 386,
      "fo": 387,
      "www": 388,
      "par": 389,
      "cted": 390,
      "new": 391,
      "file": 392,
      "ava": 393,
      "java": 394,
      "orum": 395,
      "quorum": 396,
      "cmd": 397,
      "back": 398,
      "baidu": 399,
      "backup": 400,
      "im": 401,
      "ow": 402,
      "part": 403,
      "af": 404,
      "ary": 405,
      "task": 406,
      "orary": 407,
      "face": 408,
      "temporary": 409,
      "nd": 410,
      "has": 411,
      "boot": 412,
      "tic": 413,
      "can": 414,
      "nt": 415,
      "ook": 416,
      "dete": 417,
      "via": 418,
      "interface": 419,
      "detected": 420,
      "ic": 421,
      "ub": 422,
      "alt": 423,
      "rand": 424,
      "zook": 425,
      "zookeeper": 426,
      "co": 427,
      "ob": 428,
      "mb": 429,
      "job": 430,
      "fu": 431,
      "full": 432,
      "ant": 433,
      "atic": 434,
      "99999999999999": 435,
      "dfs": 436,
      "code": 437,
      "rite": 438,
      "log": 439,
      "qq": 440,
      "ip": 441,
      "xid": 442,
      "cluster": 443,
      "fdfe": 444,
      "age": 445,
      "available": 446,
      "dro": 447,
      "gi": 448,
      "img": 449,
      "drop": 450,
      "lin": 451,
      "redu": 452,
      "box": 453,
      "ndant": 454,
      "dropbox": 455,
      "redundant": 456,
      "cdn": 457,
      "it": 458,
      "ol": 459,
      "su": 460,
      "we": 461,
      "rr": 462,
      "tx": 463,
      "curr": 464,
      "am": 465,
      "mp": 466,
      "hot": 467,
      "mnt": 468,
      "oop": 469,
      "sna": 470,
      "hadoop": 471,
      "ae": 472,
      "ffe": 473,
      "pshot": 474,
      "snapshot": 475,
      "dou": 476,
      "ec": 477,
      "ty": 478,
      "pond": 479,
      "local": 480,
      "respond": 481,
      "wei": 482,
      "doubl": 483,
      "dow": 484,
      "get": 485,
      "static": 486,
      "fail": 487,
      "cannot": 488,
      "link": 489,
      "od": 490,
      "sog": 491,
      "ver": 492,
      "current": 493,
      "failed": 494,
      "sogou": 495,
      "pack": 496,
      "swi": 497,
      "tch": 498,
      "switch": 499,
      "ca": 500,
      "ck": 501,
      "kn": 502,
      "comp": 503,
      "click": 504,
      "down": 505,
      "packet": 506,
      "his": 507,
      "mod": 508,
      "ule": 509,
      "nal": 510,
      "tory": 511,
      "fffffe": 512,
      "internal": 513,
      "ioexception": 514,
      "history": 515,
      "module": 516,
      "var": 517,
      "9999999999999": 518,
      "cont": 519,
      "target": 520,
      "peer": 521,
      "logs": 522,
      "pat": 523,
      "tmp": 524,
      "zxid": 525,
      "ild": 526,
      "child": 527,
      "path": 528,
      "eclick": 529,
      "ma": 530,
      "dele": 531,
      "attemp": 532,
      "thub": 533,
      "lib": 534,
      "conf": 535,
      "resol": 536,
      "github": 537,
      "deleting": 538,
      "resolve": 539,
      "cs": 540,
      "ew": 541,
      "keeper": 542,
      "write": 543,
      "xfffffffe": 544,
      "info": 545,
      "writeblock": 546,
      "ating": 547,
      "storage": 548,
      "fdae": 549,
      "interconnect": 550,
      "ication": 551,
      ":/": 552,
      "sor": 553,
      "randtx": 554,
      "responder": 555,
      "doubleclick": 556,
      "packetresponder": 557,
      "randtxt": 558,
      "do": 559,
      "usr": 560,
      "sina": 561,
      "fffe": 562,
      "any": 563,
      "belong": 564,
      "does": 565,
      "bu": 566,
      "cc": 567,
      "ho": 568,
      "os": 569,
      "action": 570,
      "fdaf": 571,
      "ower": 572,
      "bb": 573,
      "fdb": 574,
      "content": 575,
      "but": 576,
      "ab": 577,
      "ach": 578,
      "fc": 579,
      "shu": 580,
      "tdown": 581,
      "org": 582,
      "shutdown": 583,
      "led": 584,
      "was": 585,
      "ome": 586,
      "celed": 587,
      "sec": 588,
      "trand": 589,
      "letion": 590,
      "befo": 591,
      "canceled": 592,
      "completion": 593,
      "sortrand": 594,
      "before": 595,
      "bc": 596,
      "ml": 597,
      "ren": 598,
      "ss": 599,
      "sy": 600,
      "ten": 601,
      "xml": 602,
      "sing": 603,
      "ads": 604,
      "start": 605,
      "foll": 606,
      "weibo": 607,
      "version": 608,
      "attempting": 609,
      "renew": 610,
      "av": 611,
      "sid": 612,
      "ffffe": 613,
      "api": 614,
      "apach": 615,
      "bdir": 616,
      "quorumserver": 617,
      "quorumpeer": 618,
      "subdir": 619,
      "follower": 620,
      "apache": 621,
      "**": 622,
      "cf": 623,
      "env": 624,
      "eeee": 625,
      "aa": 626,
      "ha": 627,
      "red": 628,
      "so": 629,
      "wh": 630,
      "crite": 631,
      "da": 632,
      "hdfs": 633,
      "home": 634,
      "ning": 635,
      "ure": 636,
      "ort": 637,
      "type": 638,
      "sohu": 639,
      "criteo": 640,
      "cre": 641,
      "fb": 642,
      "js": 643,
      "ly": 644,
      "ment": 645,
      "man": 646,
      "sp": 647,
      "reset": 648,
      "csdn": 649,
      "ax": 650,
      "bro": 651,
      "cb": 652,
      "mes": 653,
      "rup": 654,
      "ype": 655,
      "99999999999": 656,
      "erat": 657,
      "nel": 658,
      "timg": 659,
      "apis": 660,
      "chang": 661,
      "interrup": 662,
      "usercontent": 663,
      "temperat": 664,
      "cast": 665,
      "temperature": 666,
      "aho": 667,
      "cd": 668,
      "eblock": 669,
      "fication": 670,
      "grep": 671,
      "pi": 672,
      "tre": 673,
      "xin": 674,
      "yaho": 675,
      "revalid": 676,
      "curi": 677,
      "lec": 678,
      "receiveblock": 679,
      "manhu": 680,
      "yahoo": 681,
      "revalidating": 682,
      ":-": 683,
      "bffe": 684,
      "cxid": 685,
      "gr": 686,
      "ist": 687,
      "mn": 688,
      "off": 689,
      "qpath": 690,
      "onment": 691,
      "reqpath": 692,
      "nodeex": 693,
      "got": 694,
      "leve": 695,
      "channel": 696,
      "ironment": 697,
      "errorcode": 698,
      "processing": 699,
      "ffffffe": 700,
      "fdmn": 701,
      "ntype": 702,
      "txntype": 703,
      "weixin": 704,
      "keeperexception": 705,
      "keepererrorcode": 706,
      "environment": 707,
      "when": 708,
      "create": 709,
      "ists": 710,
      "offset": 711,
      "nodeexists": 712,
      "level": 713,
      "pl": 714,
      "pin": 715,
      "ube": 716,
      "yin": 717,
      "yout": 718,
      "eds": 719,
      "end": 720,
      "atar": 721,
      "nez": 722,
      "mail": 723,
      "sinaimg": 724,
      "avatar": 725,
      "mesos": 726,
      "pinyin": 727,
      "youtube": 728,
      "bf": 729,
      "cent": 730,
      "dm": 731,
      "ig": 732,
      "lesy": 733,
      "sub": 734,
      "un": 735,
      "zhi": 736,
      "ess": 737,
      "nex": 738,
      "fee": 739,
      "clients": 740,
      "googlesy": 741,
      "googleapis": 742,
      "commands": 743,
      "ndication": 744,
      "succ": 745,
      "manhua": 746,
      "subcommands": 747,
      "googlesyndication": 748,
      "success": 749,
      "cp": 750,
      "el": 751,
      "elec": 752,
      "mg": 753,
      "unex": 754,
      "zz": 755,
      "stre": 756,
      "pected": 757,
      "cnzz": 758,
      "mbi": 759,
      "election": 760,
      "unexpected": 761,
      "stream": 762,
      "ag": 763,
      "alic": 764,
      "ambi": 765,
      "eo": 766,
      "fan": 767,
      "gstatic": 768,
      "jar": 769,
      "lt": 770,
      "my": 771,
      "mar": 772,
      "pan": 773,
      "qs": 774,
      "sha": 775,
      "xce": 776,
      "ytimg": 777,
      "inni": 778,
      "emax": 779,
      "fexce": 780,
      "terminating": 781,
      "scip": 782,
      "bolt": 783,
      "bel": 784,
      "responding": 785,
      "doublemax": 786,
      "config": 787,
      "tencent": 788,
      "alicdn": 789,
      "ambient": 790,
      "eofexce": 791,
      "share": 792,
      "innity": 793,
      "eofexception": 794,
      "bcast": 795,
      "halt": 796,
      "osed": 797,
      "ph": 798,
      "posed": 799,
      "tr": 800,
      "wa": 801,
      "wcn": 802,
      "proposed": 803,
      "conn": 804,
      "app": 805,
      "mapred": 806,
      "gige": 807,
      "cdndm": 808,
      "snapshotting": 809,
      "max": 810,
      "system": 811,
      "zhihu": 812,
      "wcnt": 813,
      "ber": 814,
      "ds": 815,
      "gg": 816,
      "gqs": 817,
      "mem": 818,
      "run": 819,
      "ta": 820,
      "tcp": 821,
      "vgqs": 822,
      "war": 823,
      "yan": 824,
      "ang": 825,
      "reading": 826,
      "ustatic": 827,
      "googleusercontent": 828,
      "leted": 829,
      "baidustatic": 830,
      "ammar": 831,
      "completed": 832,
      "tenmax": 833,
      "changyan": 834,
      "grammar": 835,
      "panic": 836,
      "pht": 837,
      "ggpht": 838,
      "member": 839,
      "running": 840,
      "tcpconn": 841,
      "warning": 842,
      "grammarly": 843,
      "cce": 844,
      "dc": 845,
      "dd": 846,
      "ification": 847,
      "mt": 848,
      "obe": 849,
      "pas": 850,
      "pic": 851,
      "spe": 852,
      "tp": 853,
      "tw": 854,
      "ured": 855,
      "wx": 856,
      "xel": 857,
      "you": 858,
      "ytic": 859,
      "tive": 860,
      "anal": 861,
      "adobe": 862,
      "googleads": 863,
      "bdimg": 864,
      "llo": 865,
      "image": 866,
      "succe": 867,
      "verification": 868,
      "attempt": 869,
      "dao": 870,
      "sport": 871,
      "interrupted": 872,
      "pixel": 873,
      "trello": 874,
      "configured": 875,
      "passport": 876,
      "speeds": 877,
      "youdao": 878,
      "ytics": 879,
      "analytics": 880,
      "succeeded": 881,
      "/.": 882,
      "db": 883,
      "dl": 884,
      "date": 885,
      "dmp": 886,
      "dstatic": 887,
      "ken": 888,
      "knez": 889,
      "la": 890,
      "met": 891,
      "nu": 892,
      "por": 893,
      "pub": 894,
      "pos": 895,
      "ris": 896,
      "sh": 897,
      "sup": 898,
      "texception": 899,
      "ur": 900,
      "ues": 901,
      "wri": 902,
      "ydstatic": 903,
      "edge": 904,
      "tification": 905,
      "rol": 906,
      "stack": 907,
      "notification": 908,
      "rem": 909,
      "secu": 910,
      "byinterrup": 911,
      "random": 912,
      "all": 913,
      "closedbyinterrup": 914,
      "nio": 915,
      "view": 916,
      "team": 917,
      "fully": 918,
      "itc": 919,
      "control": 920,
      "githubusercontent": 921,
      "ffffeffe": 922,
      "****": 923,
      "have": 924,
      "broken": 925,
      "changing": 926,
      "pipe": 927,
      "channels": 928,
      "plus": 929,
      "successfully": 930,
      "meta": 931,
      "risboot": 932,
      "writer": 933,
      "closedbyinterruptexception": 934,
      "viewer": 935,
      "teamviewer": 936,
      "ie": 937,
      "lb": 938,
      "lo": 939,
      "nc": 940,
      "oba": 941,
      "page": 942,
      "ux": 943,
      "uhu": 944,
      "xf": 945,
      "occurr": 946,
      "eng": 947,
      "atch": 948,
      "thres": 949,
      "adcast": 950,
      "timed": 951,
      "arch": 952,
      "ters": 953,
      "update": 954,
      "replication": 955,
      "servic": 956,
      "ishuhu": 957,
      "fffffffc": 958,
      "book": 959,
      "empty": 960,
      "setting": 961,
      "facebook": 962,
      "sogoucdn": 963,
      "hold": 964,
      "abort": 965,
      "ssl": 966,
      "eeeeeeee": 967,
      "fbcdn": 968,
      "broadcast": 969,
      "tree": 970,
      "avatars": 971,
      "belnez": 972,
      "taoba": 973,
      "last": 974,
      "porters": 975,
      "supporters": 976,
      "pagead": 977,
      "occurred": 978,
      "threshold": 979,
      "services": 980,
      "ishuhui": 981,
      "taobao": 982,
      "=/": 983,
      "aw": 984,
      "bfe": 985,
      "cro": 986,
      "cpro": 987,
      "cas": 988,
      "dis": 989,
      "ea": 990,
      "fl": 991,
      "fou": 992,
      "gem": 993,
      "genv": 994,
      "hang": 995,
      "ia": 996,
      "munix": 997,
      "oimage": 998,
      "rm": 999,
      "rt": 1000,
      "vol": 1001,
      "xx": 1002,
      "xues": 1003,
      "yt": 1004,
      "ying": 1005,
      "blog": 1006,
      "ere": 1007,
      "blockinfo": 1008,
      "stall": 1009,
      "nos": 1010,
      "ini": 1011,
      "install": 1012,
      "there": 1013,
      "hkg": 1014,
      "emap": 1015,
      "orted": 1016,
      "addmember": 1017,
      "outs": 1018,
      "fffff": 1019,
      "active": 1020,
      "micro": 1021,
      "errors": 1022,
      "alk": 1023,
      "socks": 1024,
      "quant": 1025,
      "interval": 1026,
      "count": 1027,
      "been": 1028,
      "umemap": 1029,
      "news": 1030,
      "bootgenv": 1031,
      "login": 1032,
      "clusteraddmember": 1033,
      "linux": 1034,
      "sinajs": 1035,
      "aborted": 1036,
      "sync": 1037,
      "ending": 1038,
      "trying": 1039,
      "wait": 1040,
      "dsk": 1041,
      "vgqsen": 1042,
      "mtalk": 1043,
      "notifications": 1044,
      "remain": 1045,
      "found": 1046,
      "gemini": 1047,
      "hangouts": 1048,
      "volumemap": 1049,
      "xueshu": 1050,
      "bootgenvmunix": 1051,
      "au": 1052,
      "ay": 1053,
      "acon": 1054,
      "affe": 1055,
      "doc": 1056,
      "dni": 1057,
      "dri": 1058,
      "dffe": 1059,
      "ev": 1060,
      "hm": 1061,
      "itor": 1062,
      "jp": 1063,
      "kd": 1064,
      "mon": 1065,
      "pch": 1066,
      "ping": 1067,
      "power": 1068,
      "pending": 1069,
      "xc": 1070,
      "blem": 1071,
      "tition": 1072,
      "tinu": 1073,
      "ster": 1074,
      "ffbffe": 1075,
      "anx": 1076,
      "problem": 1077,
      "serted": 1078,
      "ile": 1079,
      "lit": 1080,
      "live": 1081,
      "clou": 1082,
      "continu": 1083,
      "ext": 1084,
      "asserted": 1085,
      "ffffbffe": 1086,
      "exceeds": 1087,
      "serve": 1088,
      "serving": 1089,
      "mini": 1090,
      "expired": 1091,
      "tech": 1092,
      "beacon": 1093,
      "bdstatic": 1094,
      "partition": 1095,
      "imp": 1096,
      "ookie": 1097,
      "web": 1098,
      "ama": 1099,
      "linkerror": 1100,
      "master": 1101,
      "css": 1102,
      "csdni": 1103,
      "sys": 1104,
      "fbfffffe": 1105,
      "play": 1106,
      "unexpectedly": 1107,
      "beln": 1108,
      "tpc": 1109,
      "replicationmon": 1110,
      "rtax": 1111,
      "quantserve": 1112,
      "drive": 1113,
      "event": 1114,
      "pchome": 1115,
      "pendingreplicationmon": 1116,
      "continue": 1117,
      "csdnimg": 1118,
      "pendingreplicationmonitor": 1119,
      "asi": 1120,
      "afe": 1121,
      "ale": 1122,
      "br": 1123,
      "bffffffe": 1124,
      "cac": 1125,
      "cri": 1126,
      "dp": 1127,
      "dic": 1128,
      "dsp": 1129,
      "dcd": 1130,
      "eb": 1131,
      "ef": 1132,
      "ever": 1133,
      "fde": 1134,
      "fcm": 1135,
      "gm": 1136,
      "ges": 1137,
      "hne": 1138,
      "iz": 1139,
      "kit": 1140,
      "llec": 1141,
      "mookie": 1142,
      "qa": 1143,
      "sl": 1144,
      "sof": 1145,
      "sug": 1146,
      "scontent": 1147,
      "send": 1148,
      "ts": 1149,
      "text": 1150,
      "uve": 1151,
      "win": 1152,
      "wang": 1153,
      "xb": 1154,
      "xd": 1155,
      "zon": 1156,
      "edn": 1157,
      "edia": 1158,
      "blocked": 1159,
      "rou": 1160,
      "norm": 1161,
      "del": 1162,
      "fffdfe": 1163,
      "fffc": 1164,
      "adz": 1165,
      "search": 1166,
      "arale": 1167,
      "exchange": 1168,
      "asset": 1169,
      "outbr": 1170,
      "name": 1171,
      "fffffc": 1172,
      "geo": 1173,
      "repub": 1174,
      "replicas": 1175,
      "note": 1176,
      "sockets": 1177,
      "ffffffbe": 1178,
      "beap": 1179,
      "stats": 1180,
      "afly": 1181,
      "tical": 1182,
      "collec": 1183,
      "knl": 1184,
      "githubapp": 1185,
      "host": 1186,
      "avd": 1187,
      "while": 1188,
      "typekit": 1189,
      "cbfb": 1190,
      "eland": 1191,
      "pubads": 1192,
      "stackexchange": 1193,
      "secure": 1194,
      "securepub": 1195,
      "load": 1196,
      "aws": 1197,
      "nosdn": 1198,
      "microsof": 1199,
      "vgqsenes": 1200,
      "doctor": 1201,
      "amazon": 1202,
      "cacafly": 1203,
      "critical": 1204,
      "dict": 1205,
      "evernote": 1206,
      "fdee": 1207,
      "fcmatch": 1208,
      "gestion": 1209,
      "suggestion": 1210,
      "window": 1211,
      "normal": 1212,
      "aralego": 1213,
      "assets": 1214,
      "outbrain": 1215,
      "collector": 1216,
      "securepubads": 1217,
      "microsoft": 1218,
      "amazonaws": 1219,
      "ative": 1220,
      "bp": 1221,
      "bs": 1222,
      "bug": 1223,
      "bffff": 1224,
      "bfffe": 1225,
      "biz": 1226,
      "cr": 1227,
      "ct": 1228,
      "cid": 1229,
      "dbl": 1230,
      "dfe": 1231,
      "dir": 1232,
      "dfffffe": 1233,
      "eas": 1234,
      "fi": 1235,
      "fm": 1236,
      "fon": 1237,
      "gh": 1238,
      "gv": 1239,
      "gmt": 1240,
      "gnu": 1241,
      "ib": 1242,
      "ian": 1243,
      "iting": 1244,
      "ji": 1245,
      "kne": 1246,
      "lish": 1247,
      "mm": 1248,
      "mba": 1249,
      "mcm": 1250,
      "mdn": 1251,
      "nx": 1252,
      "pa": 1253,
      "pk": 1254,
      "pt": 1255,
      "pu": 1256,
      "pur": 1257,
      "ql": 1258,
      "qhi": 1259,
      "sch": 1260,
      "sclick": 1261,
      "safe": 1262,
      "tc": 1263,
      "tva": 1264,
      "tri": 1265,
      "tach": 1266,
      "ui": 1267,
      "wn": 1268,
      "wp": 1269,
      "wsing": 1270,
      "xa": 1271,
      "yread": 1272,
      "erk": 1273,
      "tool": 1274,
      "stri": 1275,
      "simba": 1276,
      "debug": 1277,
      "rec": 1278,
      "recomm": 1279,
      "atanx": 1280,
      "attach": 1281,
      "ine": 1282,
      "adnx": 1283,
      "aren": 1284,
      "closing": 1285,
      "chat": 1286,
      "ople": 1287,
      "timeoutexception": 1288,
      "fffffb": 1289,
      "ogs": 1290,
      "hiclou": 1291,
      "high": 1292,
      "sockettimeoutexception": 1293,
      "googlet": 1294,
      "qulish": 1295,
      "fdaa": 1296,
      "fdfffdfe": 1297,
      "temphigh": 1298,
      "people": 1299,
      "ubmcm": 1300,
      "ipv": 1301,
      "give": 1302,
      "olar": 1303,
      "amd": 1304,
      "contentrecomm": 1305,
      "ssp": 1306,
      "ffffebfe": 1307,
      "creative": 1308,
      "split": 1309,
      "browsing": 1310,
      "mess": 1311,
      "manhuaren": 1312,
      "gravatar": 1313,
      "zhimg": 1314,
      "cpc": 1315,
      "ages": 1316,
      "waiting": 1317,
      "adobelogin": 1318,
      "short": 1319,
      "logo": 1320,
      "engine": 1321,
      "fls": 1322,
      "kdpic": 1323,
      "asia": 1324,
      "adzerk": 1325,
      "windows": 1326,
      "bffffdfe": 1327,
      "cidian": 1328,
      "dblp": 1329,
      "easyread": 1330,
      "fonts": 1331,
      "gvt": 1332,
      "mmstat": 1333,
      "purge": 1334,
      "qhimg": 1335,
      "scholar": 1336,
      "safebrowsing": 1337,
      "trier": 1338,
      "tools": 1339,
      "strip": 1340,
      "attachment": 1341,
      "adnxs": 1342,
      "fffffbfe": 1343,
      "hicloud": 1344,
      "googletag": 1345,
      "qulishi": 1346,
      "ubmcmm": 1347,
      "contentrecommend": 1348,
      "ai": 1349,
      "ade": 1350,
      "ali": 1351,
      "aop": 1352,
      "alit": 1353,
      "aji": 1354,
      "bh": 1355,
      "bj": 1356,
      "bce": 1357,
      "bid": 1358,
      "brand": 1359,
      "csi": 1360,
      "cat": 1361,
      "cgi": 1362,
      "cam": 1363,
      "capi": 1364,
      "cffffffe": 1365,
      "dup": 1366,
      "dres": 1367,
      "dpart": 1368,
      "dcount": 1369,
      "ekn": 1370,
      "earch": 1371,
      "foc": 1372,
      "feng": 1373,
      "gt": 1374,
      "gate": 1375,
      "gna": 1376,
      "gtimg": 1377,
      "gmail": 1378,
      "hn": 1379,
      "hfm": 1380,
      "ice": 1381,
      "icon": 1382,
      "jni": 1383,
      "jec": 1384,
      "kk": 1385,
      "kcdn": 1386,
      "kype": 1387,
      "knel": 1388,
      "lh": 1389,
      "ls": 1390,
      "lcr": 1391,
      "mde": 1392,
      "mob": 1393,
      "matic": 1394,
      "match": 1395,
      "media": 1396,
      "mct": 1397,
      "mekn": 1398,
      "mhfm": 1399,
      "nsl": 1400,
      "ov": 1401,
      "over": 1402,
      "orec": 1403,
      "pv": 1404,
      "qd": 1405,
      "qi": 1406,
      "qpic": 1407,
      "qlogo": 1408,
      "rst": 1409,
      "ral": 1410,
      "rub": 1411,
      "rating": 1412,
      "rss": 1413,
      "sb": 1414,
      "sti": 1415,
      "sstats": 1416,
      "skype": 1417,
      "tat": 1418,
      "tem": 1419,
      "tap": 1420,
      "twi": 1421,
      "tserver": 1422,
      "tanx": 1423,
      "tdp": 1424,
      "trou": 1425,
      "ue": 1426,
      "use": 1427,
      "uedu": 1428,
      "ual": 1429,
      "und": 1430,
      "using": 1431,
      "vr": 1432,
      "wrating": 1433,
      "xe": 1434,
      "yap": 1435,
      "yms": 1436,
      "yupdate": 1437,
      "ybp": 1438,
      "yuedu": 1439,
      "zkcdn": 1440,
      "ocsp": 1441,
      "ery": 1442,
      "topurge": 1443,
      "noavatar": 1444,
      "simg": 1445,
      "sitem": 1446,
      "demde": 1447,
      "reopen": 1448,
      "ind": 1449,
      "inte": 1450,
      "clg": 1451,
      "this": 1452,
      "thir": 1453,
      "thund": 1454,
      "anad": 1455,
      "adsr": 1456,
      "adservices": 1457,
      "admaster": 1458,
      "adtdp": 1459,
      "promp": 1460,
      "projec": 1461,
      "emedia": 1462,
      "sestat": 1463,
      "sessiontimeout": 1464,
      "needed": 1465,
      "neos": 1466,
      "isting": 1467,
      "ilyupdate": 1468,
      "formi": 1469,
      "ared": 1470,
      "ardres": 1471,
      "tter": 1472,
      "adding": 1473,
      "addthis": 1474,
      "che": 1475,
      "exten": 1476,
      "existing": 1477,
      "psu": 1478,
      "clientservices": 1479,
      "ready": 1480,
      "upload": 1481,
      "service": 1482,
      "wix": 1483,
      "wifi": 1484,
      "ogues": 1485,
      "account": 1486,
      "netea": 1487,
      "miaop": 1488,
      "alemedia": 1489,
      "already": 1490,
      "msn": 1491,
      "srm": 1492,
      "googleadservices": 1493,
      "scorec": 1494,
      "quali": 1495,
      "query": 1496,
      "fffffff": 1497,
      "fffffffa": 1498,
      "bos": 1499,
      "bool": 1500,
      "fdfffe": 1501,
      "bayms": 1502,
      "wordcount": 1503,
      "worker": 1504,
      "comment": 1505,
      "dns": 1506,
      "newsimg": 1507,
      "ime": 1508,
      "images": 1509,
      "qqmail": 1510,
      "imgca": 1511,
      "imgur": 1512,
      "dropboxapi": 1513,
      "amanad": 1514,
      "failure": 1515,
      "odr": 1516,
      "causing": 1517,
      "download": 1518,
      "sort": 1519,
      "sorter": 1520,
      "sso": 1521,
      "ssum": 1522,
      "avp": 1523,
      "dailyupdate": 1524,
      "manag": 1525,
      "grepa": 1526,
      "grepb": 1527,
      "central": 1528,
      "agkn": 1529,
      "mart": 1530,
      "trc": 1531,
      "way": 1532,
      "tabool": 1533,
      "vgqskn": 1534,
      "adobeid": 1535,
      "pubs": 1536,
      "pubmatic": 1537,
      "show": 1538,
      "shared": 1539,
      "url": 1540,
      "stackover": 1541,
      "remov": 1542,
      "enger": 1543,
      "replications": 1544,
      "casalemedia": 1545,
      "flow": 1546,
      "oimagea": 1547,
      "oimageb": 1548,
      "oimagec": 1549,
      "microad": 1550,
      "vgqsenee": 1551,
      "auth": 1552,
      "autopurge": 1553,
      "kdcl": 1554,
      "cloudf": 1555,
      "impservice": 1556,
      "dpm": 1557,
      "slf": 1558,
      "wangwang": 1559,
      "route": 1560,
      "dictapp": 1561,
      "gmtdmp": 1562,
      "ptlogin": 1563,
      "qlsn": 1564,
      "wpad": 1565,
      "creativecdn": 1566,
      "messenger": 1567,
      "googletagmanag": 1568,
      "alitui": 1569,
      "bcebos": 1570,
      "bidswitch": 1571,
      "camo": 1572,
      "dparty": 1573,
      "focus": 1574,
      "gtms": 1575,
      "gateway": 1576,
      "gnar": 1577,
      "hnedn": 1578,
      "iconprojec": 1579,
      "lsf": 1580,
      "mekned": 1581,
      "rubiconprojec": 1582,
      "tapad": 1583,
      "twitter": 1584,
      "trouter": 1585,
      "ualdn": 1586,
      "sitemaji": 1587,
      "demdex": 1588,
      "thirdparty": 1589,
      "thunder": 1590,
      "adsrvr": 1591,
      "prompt": 1592,
      "neededreplications": 1593,
      "neosmart": 1594,
      "ardresearch": 1595,
      "extension": 1596,
      "oguesnsl": 1597,
      "accounts": 1598,
      "netease": 1599,
      "miaopai": 1600,
      "scorecardresearch": 1601,
      "quality": 1602,
      "baymsgr": 1603,
      "imgcache": 1604,
      "taboola": 1605,
      "stackoverflow": 1606,
      "removing": 1607,
      "googletagmanager": 1608,
      "rubiconproject": 1609,
      "=<": 1610,
      "ak": 1611,
      "ato": 1612,
      "acl": 1613,
      "ace": 1614,
      "asearch": 1615,
      "bt": 1616,
      "bw": 1617,
      "bx": 1618,
      "bz": 1619,
      "btr": 1620,
      "bind": 1621,
      "cv": 1622,
      "ces": 1623,
      "cti": 1624,
      "cor": 1625,
      "cda": 1626,
      "catch": 1627,
      "cookie": 1628,
      "di": 1629,
      "dj": 1630,
      "dk": 1631,
      "dt": 1632,
      "dw": 1633,
      "dna": 1634,
      "dps": 1635,
      "dfffe": 1636,
      "dig": 1637,
      "dtr": 1638,
      "due": 1639,
      "ecm": 1640,
      "econf": 1641,
      "ebf": 1642,
      "eue": 1643,
      "fs": 1644,
      "fre": 1645,
      "fce": 1646,
      "fir": 1647,
      "fac": 1648,
      "fclick": 1649,
      "find": 1650,
      "gn": 1651,
      "gs": 1652,
      "gen": 1653,
      "gma": 1654,
      "hd": 1655,
      "hj": 1656,
      "hp": 1657,
      "hstatic": 1658,
      "hyt": 1659,
      "hpt": 1660,
      "if": 1661,
      "ij": 1662,
      "ix": 1663,
      "iwi": 1664,
      "ims": 1665,
      "iee": 1666,
      "irec": 1667,
      "ifeng": 1668,
      "ihd": 1669,
      "jv": 1670,
      "jy": 1671,
      "jre": 1672,
      "jlin": 1673,
      "jfm": 1674,
      "jdk": 1675,
      "kr": 1676,
      "ktime": 1677,
      "kod": 1678,
      "kiwi": 1679,
      "lg": 1680,
      "les": 1681,
      "lloc": 1682,
      "look": 1683,
      "mu": 1684,
      "med": 1685,
      "msi": 1686,
      "ming": 1687,
      "mcc": 1688,
      "mcd": 1689,
      "mmbi": 1690,
      "mall": 1691,
      "nh": 1692,
      "nsclick": 1693,
      "osi": 1694,
      "oadz": 1695,
      "pj": 1696,
      "pz": 1697,
      "pre": 1698,
      "pted": 1699,
      "phot": 1700,
      "port": 1701,
      "ppl": 1702,
      "pdl": 1703,
      "pcookie": 1704,
      "qhm": 1705,
      "qbw": 1706,
      "ru": 1707,
      "ry": 1708,
      "ron": 1709,
      "rary": 1710,
      "rpj": 1711,
      "sa": 1712,
      "sma": 1713,
      "sall": 1714,
      "sending": 1715,
      "sdoc": 1716,
      "small": 1717,
      "tf": 1718,
      "tj": 1719,
      "tn": 1720,
      "tst": 1721,
      "tain": 1722,
      "tag": 1723,
      "tdt": 1724,
      "uan": 1725,
      "ums": 1726,
      "vend": 1727,
      "vjp": 1728,
      "wf": 1729,
      "wk": 1730,
      "wan": 1731,
      "wbp": 1732,
      "wosi": 1733,
      "wtdt": 1734,
      "xer": 1735,
      "xing": 1736,
      "xbb": 1737,
      "xgr": 1738,
      "xuan": 1739,
      "yre": 1740,
      "ynd": 1741,
      "yimg": 1742,
      "yun": 1743,
      "ync": 1744,
      "zhstatic": 1745,
      "zjfm": 1746,
      "zsall": 1747,
      "blish": 1748,
      "blim": 1749,
      "edfe": 1750,
      "edbb": 1751,
      "ocdn": 1752,
      "ert": 1753,
      "eric": 1754,
      "tohost": 1755,
      "tifi": 1756,
      "stun": 1757,
      "noroute": 1758,
      "entifi": 1759,
      "sixgr": 1760,
      "ingo": 1761,
      "inpu": 1762,
      "intf": 1763,
      "clk": 1764,
      "clas": 1765,
      "ffeeee": 1766,
      "cepted": 1767,
      "ader": 1768,
      "adtech": 1769,
      "adingo": 1770,
      "securi": 1771,
      "oracl": 1772,
      "bye": 1773,
      "serapis": 1774,
      "nett": 1775,
      "identifi": 1776,
      "timix": 1777,
      "ilt": 1778,
      "iler": 1779,
      "ilem": 1780,
      "list": 1781,
      "feeds": 1782,
      "ouji": 1783,
      "addres": 1784,
      "tingyun": 1785,
      "etc": 1786,
      "etext": 1787,
      "opta": 1788,
      "optimix": 1789,
      "ash": 1790,
      "psg": 1791,
      "ught": 1792,
      "openx": 1793,
      "openjdk": 1794,
      "http": 1795,
      "gov": 1796,
      "good": 1797,
      "fffffd": 1798,
      "ffffbc": 1799,
      "upmob": 1800,
      "apac": 1801,
      "leav": 1802,
      "leader": 1803,
      "acc": 1804,
      "act": 1805,
      "accepted": 1806,
      "netdna": 1807,
      "processor": 1808,
      "minig": 1809,
      "minsessiontimeout": 1810,
      "niux": 1811,
      "srkod": 1812,
      "longca": 1813,
      "queue": 1814,
      "qumcc": 1815,
      "qusixgr": 1816,
      "ffffffee": 1817,
      "wwbiz": 1818,
      "baij": 1819,
      "tel": 1820,
      "ldl": 1821,
      "usync": 1822,
      "hucdn": 1823,
      "cncdn": 1824,
      "parserapis": 1825,
      "imtt": 1826,
      "impr": 1827,
      "impl": 1828,
      "owing": 1829,
      "ticktime": 1830,
      "icau": 1831,
      "icert": 1832,
      "zookeeperserver": 1833,
      "cosy": 1834,
      "qqweb": 1835,
      "imgsrc": 1836,
      "imgtn": 1837,
      "dropping": 1838,
      "cdnjs": 1839,
      "sublim": 1840,
      "ame": 1841,
      "amax": 1842,
      "snapre": 1843,
      "ecaa": 1844,
      "getting": 1845,
      "getdropbox": 1846,
      "packages": 1847,
      "caught": 1848,
      "complete": 1849,
      "compiler": 1850,
      "fffffefe": 1851,
      "internalapi": 1852,
      "tmpdir": 1853,
      "library": 1854,
      "csm": 1855,
      "sinaapp": 1856,
      "built": 1857,
      "ccb": 1858,
      "symcd": 1859,
      "xmlparserapis": 1860,
      "following": 1861,
      "avn": 1862,
      "***": 1863,
      "cfg": 1864,
      "hao": 1865,
      "redirec": 1866,
      "cbjs": 1867,
      "timgsa": 1868,
      "interrupting": 1869,
      "trelloc": 1870,
      "dmw": 1871,
      "unpk": 1872,
      "nexage": 1873,
      "agent": 1874,
      "track": 1875,
      "maxsessiontimeout": 1876,
      "dslb": 1877,
      "dshyt": 1878,
      "tenmaximg": 1879,
      "imageplus": 1880,
      "lare": 1881,
      "poration": 1882,
      "shouji": 1883,
      "supdate": 1884,
      "ursdoc": 1885,
      "********": 1886,
      "*******": 1887,
      "awqi": 1888,
      "flash": 1889,
      "iao": 1890,
      "iahao": 1891,
      "rtb": 1892,
      "quantcount": 1893,
      "newsapp": 1894,
      "impact": 1895,
      "amaihd": 1896,
      "asiamax": 1897,
      "afecda": 1898,
      "izxe": 1899,
      "sendworker": 1900,
      "xdrpj": 1901,
      "windowsupdate": 1902,
      "crl": 1903,
      "ctldl": 1904,
      "pki": 1905,
      "puui": 1906,
      "publish": 1907,
      "qlry": 1908,
      "tvax": 1909,
      "wpengine": 1910,
      "message": 1911,
      "logos": 1912,
      "purgeinterval": 1913,
      "googletagservices": 1914,
      "fengnet": 1915,
      "kkk": 1916,
      "mobilem": 1917,
      "qdun": 1918,
      "qihucdn": 1919,
      "rssgov": 1920,
      "stir": 1921,
      "still": 1922,
      "yuedust": 1923,
      "showxml": 1924,
      "cloudfron": 1925,
      "cloudflare": 1926,
      "akamaihd": 1927,
      "bzclk": 1928,
      "btrace": 1929,
      "cesimpl": 1930,
      "ctips": 1931,
      "corporation": 1932,
      "catchup": 1933,
      "diff": 1934,
      "digicert": 1935,
      "dtrp": 1936,
      "ecmb": 1937,
      "econfpublish": 1938,
      "free": 1939,
      "first": 1940,
      "gslb": 1941,
      "generic": 1942,
      "hjxc": 1943,
      "hpd": 1944,
      "hptqlry": 1945,
      "ieeeconfpublish": 1946,
      "ifengimg": 1947,
      "jvm": 1948,
      "jyb": 1949,
      "jline": 1950,
      "krcom": 1951,
      "kiwihk": 1952,
      "looking": 1953,
      "medal": 1954,
      "msiwf": 1955,
      "mingxing": 1956,
      "mmbiz": 1957,
      "photocdn": 1958,
      "pplv": 1959,
      "pdlxf": 1960,
      "qbwup": 1961,
      "rules": 1962,
      "smaato": 1963,
      "smaller": 1964,
      "taincount": 1965,
      "vendor": 1966,
      "wbpctips": 1967,
      "wosign": 1968,
      "wtdtjs": 1969,
      "xercesimpl": 1970,
      "xbbhjxc": 1971,
      "xuanfengnet": 1972,
      "yrexdrpj": 1973,
      "yndmsiwf": 1974,
      "edbbb": 1975,
      "tohostexception": 1976,
      "noroutetohostexception": 1977,
      "input": 1978,
      "class": 1979,
      "ffeeeefe": 1980,
      "security": 1981,
      "oracle": 1982,
      "netty": 1983,
      "identifier": 1984,
      "address": 1985,
      "optaim": 1986,
      "goodbye": 1987,
      "upmobile": 1988,
      "leaving": 1989,
      "minigame": 1990,
      "niuxiao": 1991,
      "srkodhptqlry": 1992,
      "qumccyndmsiwf": 1993,
      "wwbizapi": 1994,
      "baijiahao": 1995,
      "icauh": 1996,
      "sublimetext": 1997,
      "snapretaincount": 1998,
      "redirector": 1999,
      "trellocdn": 2000,
      "unpkg": 2001,
      "dshytnh": 2002,
      "ursdoccdn": 2003,
      "awqiizxe": 2004,
      "cloudfront": 2005,
      "ieeeconfpublishing": 2006,
      "srkodhptqlryvjp": 2007,
      "awqiizxequsixgr": 2008
    },
    "merges": [
      "9 9",
      "99 99",
      "99 9",
      "9999 9999",
      "b l",
      "e d",
      "9999 9",
      "e s",
      "o c",
      "o n",
      "oc k",
      "e r",
      "bl ock",
      "t o",
      "t i",
      "r o",
      "s t",
      "n o",
      "bl k",
      "99999999 99999999",
      "e n",
      "s i",
      "d e",
      "r e",
      "a t",
      "no de",
      "o m",
      "i n",
      "c l",
      "en t",
      "v ed",
      "f f",
      "c e",
      "t h",
      "a n",
      "a d",
      "c om",
      "h k",
      "s e",
      "p ro",
      "x y",
      "pro xy",
      "si on",
      "e m",
      "s es",
      "ses sion",
      "o r",
      "b y",
      "s er",
      "n e",
      "9999999999999999 999",
      "i d",
      "i s",
      "es y",
      "st em",
      "esy stem",
      "re ce",
      "rece i",
      "t es",
      "by tes",
      "ti m",
      "i l",
      "tim e",
      "k b",
      "at e",
      "l i",
      "recei ved",
      "f e",
      "n a",
      "ti on",
      "f or",
      "a r",
      "t t",
      "cl o",
      "o u",
      "c u",
      "ad d",
      "r an",
      "9999999999999999 99",
      "c on",
      "ed u",
      "o k",
      "o f",
      "ser ved",
      "c se",
      "cu hk",
      "t ran",
      "d at",
      "c h",
      "z e",
      "si ze",
      "e x",
      "tran s",
      "n g",
      "f il",
      "ti ng",
      "e t",
      "o p",
      "a bl",
      "cl i",
      "a s",
      "u g",
      "p s",
      "ug h",
      "ro ugh",
      "th rough",
      "es t",
      "9999 999",
      "cli ent",
      "op en",
      "er fil",
      "erfil esystem",
      "h tt",
      "htt ps",
      "ou t",
      "na m",
      "nam esystem",
      "clo se",
      "s ent",
      "li fe",
      "life time",
      "s ed",
      "g o",
      "v a",
      "ne c",
      "time out",
      "con nec",
      "session id",
      "to r",
      "ff ff",
      "g e",
      "as k",
      "st ate",
      "99999999 99",
      "a in",
      "s tor",
      "d om",
      "t er",
      "in g",
      "p on",
      "9999 99",
      "dat a",
      "dom ain",
      "st ar",
      "re p",
      "re ad",
      "li c",
      "ed block",
      "add stor",
      "addstor edblock",
      "u p",
      "rep lic",
      "9999999999999999 9",
      "star ting",
      "connec tion",
      "data node",
      "replic ate",
      "th read",
      "f er",
      "trans fer",
      "com pon",
      "compon ent",
      "ex ce",
      "ser v",
      "u st",
      "w id",
      "o t",
      "cl ust",
      "a p",
      "l e",
      "add ed",
      "w i",
      "o g",
      "il abl",
      "va ilabl",
      "vailabl e",
      "clust erfilesystem",
      "ch an",
      "i r",
      "is h",
      "a c",
      "wi th",
      "abl ish",
      "est ablish",
      "a tion",
      "ne t",
      "m i",
      "h ad",
      "no t",
      "p r",
      "er ro",
      "chan ge",
      "erro r",
      "d es",
      "no des",
      "tt ed",
      "trans mi",
      "transmi tted",
      "oc es",
      "pr oces",
      "u na",
      "una vailable",
      "m ap",
      "m in",
      "a l",
      "ed ed",
      "h i",
      "th e",
      "m s",
      "ter min",
      "e e",
      "block map",
      "dat ed",
      "up dated",
      "proces sed",
      "p ir",
      "s ock",
      "ro ot",
      "clo sed",
      "ex pir",
      "establish ed",
      "ti at",
      "ne go",
      "tiat ed",
      "nego tiated",
      "exce eded",
      "n i",
      "expir ing",
      "f ro",
      "termin ation",
      "fro m",
      "sock et",
      "serv erfilesystem",
      "w hi",
      "an d",
      "whi ch",
      "s r",
      "go og",
      "goog le",
      "l on",
      "lon g",
      "sr c",
      "d est",
      "s c",
      "f a",
      "q u",
      "ffff ff",
      "h wid",
      "w wid",
      "sc si",
      "- -",
      "long er",
      "w w",
      "b o",
      "f d",
      "l oc",
      "v i",
      "t ar",
      "in ter",
      "ffffff fe",
      "st ent",
      "si stent",
      "in con",
      "et s",
      "nodes ets",
      "incon sistent",
      "u ser",
      "b a",
      "em p",
      "p tion",
      "t e",
      "t emp",
      "w or",
      "l d",
      "wor k",
      "c ou",
      "net work",
      "exce ption",
      "cou ld",
      "se t",
      "99999999 9999",
      "ac k",
      "b e",
      "u ni",
      "99999999 9",
      "ge ting",
      "domain s",
      "tar geting",
      "u s",
      "ate block",
      "al loc",
      "uni x",
      "alloc ateblock",
      "va l",
      "recei v",
      "connec t",
      "h w",
      "l et",
      "serv er",
      "99999999 9999999",
      "r es",
      "com m",
      "val id",
      "st at",
      "p e",
      "comm and",
      "re qu",
      "requ est",
      "- [",
      "t ed",
      "ni ff",
      "let e",
      "de lete",
      "stat us",
      "receiv ing",
      "c m",
      "i o",
      "d n",
      "p er",
      "r i",
      "in valid",
      "ee per",
      "invalid set",
      "b d",
      "s n",
      "l l",
      "d f",
      "h u",
      "de o",
      "vi deo",
      "c n",
      "-- -",
      "u m",
      "ba id",
      "google video",
      "v e",
      "ed e",
      "ed fa",
      "edfa a",
      "f o",
      "ww w",
      "p ar",
      "c ted",
      "ne w",
      "fil e",
      "a va",
      "j ava",
      "or um",
      "qu orum",
      "cm d",
      "b ack",
      "baid u",
      "back up",
      "i m",
      "o w",
      "par t",
      "a f",
      "ar y",
      "t ask",
      "or ary",
      "fa ce",
      "temp orary",
      "n d",
      "h as",
      "bo ot",
      "ti c",
      "c an",
      "n t",
      "o ok",
      "de te",
      "vi a",
      "inter face",
      "dete cted",
      "i c",
      "u b",
      "al t",
      "ran d",
      "z ook",
      "zook eeper",
      "c o",
      "o b",
      "m b",
      "j ob",
      "f u",
      "fu ll",
      "an t",
      "a tic",
      "99999999 999999",
      "df s",
      "co de",
      "ri te",
      "l og",
      "q q",
      "i p",
      "x id",
      "clust er",
      "fd fe",
      "a ge",
      "a vailable",
      "d ro",
      "g i",
      "im g",
      "dro p",
      "l in",
      "r edu",
      "bo x",
      "nd ant",
      "drop box",
      "redu ndant",
      "c dn",
      "i t",
      "o l",
      "s u",
      "w e",
      "r r",
      "t x",
      "cu rr",
      "a m",
      "m p",
      "h ot",
      "m nt",
      "o op",
      "s na",
      "had oop",
      "a e",
      "ff e",
      "ps hot",
      "sna pshot",
      "d ou",
      "e c",
      "t y",
      "pon d",
      "loc al",
      "res pond",
      "we i",
      "dou bl",
      "d ow",
      "g et",
      "st atic",
      "fa il",
      "can not",
      "lin k",
      "o d",
      "s og",
      "v er",
      "curr ent",
      "fail ed",
      "sog ou",
      "p ack",
      "s wi",
      "t ch",
      "swi tch",
      "c a",
      "c k",
      "k n",
      "com p",
      "cli ck",
      "dow n",
      "pack et",
      "h is",
      "m od",
      "u le",
      "na l",
      "tor y",
      "ffff fe",
      "inter nal",
      "io exception",
      "his tory",
      "mod ule",
      "v ar",
      "99999999 99999",
      "con t",
      "tar get",
      "pe er",
      "log s",
      "p at",
      "t mp",
      "z xid",
      "il d",
      "ch ild",
      "pat h",
      "e click",
      "m a",
      "de le",
      "at temp",
      "th ub",
      "li b",
      "con f",
      "res ol",
      "gi thub",
      "dele ting",
      "resol ve",
      "c s",
      "e w",
      "k eeper",
      "w rite",
      "x fffffffe",
      "in fo",
      "write block",
      "a ting",
      "stor age",
      "fd ae",
      "inter connect",
      "ic ation",
      ": /",
      "s or",
      "rand tx",
      "respond er",
      "doubl eclick",
      "packet responder",
      "randtx t",
      "d o",
      "u sr",
      "si na",
      "ff fe",
      "an y",
      "be long",
      "do es",
      "b u",
      "c c",
      "h o",
      "o s",
      "ac tion",
      "fd af",
      "ow er",
      "b b",
      "fd b",
      "cont ent",
      "bu t",
      "a b",
      "a ch",
      "f c",
      "s hu",
      "t down",
      "or g",
      "shu tdown",
      "l ed",
      "w as",
      "om e",
      "ce led",
      "se c",
      "tran d",
      "le tion",
      "be fo",
      "can celed",
      "comp letion",
      "sor trand",
      "befo re",
      "b c",
      "m l",
      "r en",
      "s s",
      "s y",
      "t en",
      "x ml",
      "si ng",
      "ad s",
      "star t",
      "fo ll",
      "wei bo",
      "ver sion",
      "attemp ting",
      "ren ew",
      "a v",
      "si d",
      "ffff e",
      "ap i",
      "ap ach",
      "bd ir",
      "quorum server",
      "quorum peer",
      "su bdir",
      "foll ower",
      "apach e",
      "* *",
      "c f",
      "en v",
      "ee ee",
      "a a",
      "h a",
      "r ed",
      "s o",
      "w h",
      "c rite",
      "d a",
      "h dfs",
      "h ome",
      "n ing",
      "u re",
      "or t",
      "ty pe",
      "so hu",
      "crite o",
      "c re",
      "f b",
      "j s",
      "l y",
      "m ent",
      "m an",
      "s p",
      "res et",
      "cs dn",
      "a x",
      "b ro",
      "c b",
      "m es",
      "r up",
      "y pe",
      "99999999 999",
      "er at",
      "ne l",
      "tim g",
      "ap is",
      "chan g",
      "inter rup",
      "user content",
      "temp erat",
      "ca st",
      "temperat ure",
      "a ho",
      "c d",
      "e block",
      "f ication",
      "g rep",
      "p i",
      "t re",
      "x in",
      "y aho",
      "re valid",
      "cu ri",
      "le c",
      "receiv eblock",
      "man hu",
      "yaho o",
      "revalid ating",
      ": -",
      "b ffe",
      "c xid",
      "g r",
      "i st",
      "m n",
      "o ff",
      "q path",
      "on ment",
      "re qpath",
      "node ex",
      "go t",
      "le ve",
      "chan nel",
      "ir onment",
      "error code",
      "proces sing",
      "ffffff e",
      "fd mn",
      "nt ype",
      "tx ntype",
      "wei xin",
      "keeper exception",
      "keeper errorcode",
      "env ironment",
      "wh en",
      "cre ate",
      "ist s",
      "off set",
      "nodeex ists",
      "leve l",
      "p l",
      "p in",
      "u be",
      "y in",
      "y out",
      "ed s",
      "en d",
      "at ar",
      "ne z",
      "ma il",
      "sina img",
      "av atar",
      "mes os",
      "pin yin",
      "yout ube",
      "b f",
      "c ent",
      "d m",
      "i g",
      "l esy",
      "s ub",
      "u n",
      "z hi",
      "es s",
      "ne x",
      "fe e",
      "client s",
      "goog lesy",
      "google apis",
      "command s",
      "nd ication",
      "su cc",
      "manhu a",
      "sub commands",
      "googlesy ndication",
      "succ ess",
      "c p",
      "e l",
      "e lec",
      "m g",
      "u nex",
      "z z",
      "st re",
      "pe cted",
      "cn zz",
      "mb i",
      "elec tion",
      "unex pected",
      "stre am",
      "a g",
      "a lic",
      "a mbi",
      "e o",
      "f an",
      "g static",
      "j ar",
      "l t",
      "m y",
      "m ar",
      "p an",
      "q s",
      "s ha",
      "x ce",
      "y timg",
      "in ni",
      "em ax",
      "fe xce",
      "termin ating",
      "sc ip",
      "bo lt",
      "be l",
      "respond ing",
      "doubl emax",
      "conf ig",
      "ten cent",
      "alic dn",
      "ambi ent",
      "eo fexce",
      "sha re",
      "inni ty",
      "eofexce ption",
      "b cast",
      "h alt",
      "o sed",
      "p h",
      "p osed",
      "t r",
      "w a",
      "w cn",
      "pro posed",
      "con n",
      "ap p",
      "map red",
      "gi ge",
      "cdn dm",
      "snapshot ting",
      "ma x",
      "sy stem",
      "zhi hu",
      "wcn t",
      "b er",
      "d s",
      "g g",
      "g qs",
      "m em",
      "r un",
      "t a",
      "t cp",
      "v gqs",
      "w ar",
      "y an",
      "an g",
      "read ing",
      "ust atic",
      "google usercontent",
      "let ed",
      "baid ustatic",
      "am mar",
      "comp leted",
      "ten max",
      "chang yan",
      "gr ammar",
      "pan ic",
      "ph t",
      "gg pht",
      "mem ber",
      "run ning",
      "tcp conn",
      "war ning",
      "grammar ly",
      "c ce",
      "d c",
      "d d",
      "i fication",
      "m t",
      "o be",
      "p as",
      "p ic",
      "s pe",
      "t p",
      "t w",
      "u red",
      "w x",
      "x el",
      "y ou",
      "y tic",
      "ti ve",
      "an al",
      "ad obe",
      "google ads",
      "bd img",
      "ll o",
      "im age",
      "su cce",
      "ver ification",
      "attemp t",
      "da o",
      "sp ort",
      "interrup ted",
      "pi xel",
      "tre llo",
      "config ured",
      "pas sport",
      "spe eds",
      "you dao",
      "ytic s",
      "anal ytics",
      "succe eded",
      "/ .",
      "d b",
      "d l",
      "d ate",
      "d mp",
      "d static",
      "k en",
      "k nez",
      "l a",
      "m et",
      "n u",
      "p or",
      "p ub",
      "p os",
      "r is",
      "s h",
      "s up",
      "t exception",
      "u r",
      "u es",
      "w ri",
      "y dstatic",
      "ed ge",
      "ti fication",
      "ro l",
      "st ack",
      "no tification",
      "re m",
      "se cu",
      "by interrup",
      "ran dom",
      "al l",
      "closed byinterrup",
      "ni o",
      "vi ew",
      "te am",
      "full y",
      "it c",
      "cont rol",
      "github usercontent",
      "ffffe ffe",
      "** **",
      "ha ve",
      "bro ken",
      "chang ing",
      "pi pe",
      "channel s",
      "pl us",
      "success fully",
      "met a",
      "ris boot",
      "wri ter",
      "closedbyinterrup texception",
      "view er",
      "team viewer",
      "i e",
      "l b",
      "l o",
      "n c",
      "o ba",
      "p age",
      "u x",
      "u hu",
      "x f",
      "oc curr",
      "en g",
      "at ch",
      "th res",
      "ad cast",
      "tim ed",
      "ar ch",
      "ter s",
      "up date",
      "replic ation",
      "serv ic",
      "ish uhu",
      "ffffff fc",
      "bo ok",
      "emp ty",
      "set ting",
      "face book",
      "sogou cdn",
      "ho ld",
      "ab ort",
      "ss l",
      "eeee eeee",
      "fb cdn",
      "bro adcast",
      "tre e",
      "avatar s",
      "bel nez",
      "ta oba",
      "la st",
      "por ters",
      "sup porters",
      "page ad",
      "occurr ed",
      "thres hold",
      "servic es",
      "ishuhu i",
      "taoba o",
      "= /",
      "a w",
      "b fe",
      "c ro",
      "c pro",
      "c as",
      "d is",
      "e a",
      "f l",
      "f ou",
      "g em",
      "g env",
      "h ang",
      "i a",
      "m unix",
      "o image",
      "r m",
      "r t",
      "v ol",
      "x x",
      "x ues",
      "y t",
      "y ing",
      "bl og",
      "er e",
      "block info",
      "st all",
      "no s",
      "in i",
      "in stall",
      "th ere",
      "hk g",
      "em ap",
      "or ted",
      "add member",
      "out s",
      "ffff f",
      "ac tive",
      "mi cro",
      "error s",
      "al k",
      "sock s",
      "qu ant",
      "inter val",
      "cou nt",
      "be en",
      "um emap",
      "new s",
      "boot genv",
      "log in",
      "cluster addmember",
      "lin ux",
      "sina js",
      "ab orted",
      "sy nc",
      "end ing",
      "tr ying",
      "wa it",
      "ds k",
      "vgqs en",
      "mt alk",
      "notification s",
      "rem ain",
      "fou nd",
      "gem ini",
      "hang outs",
      "vol umemap",
      "xues hu",
      "bootgenv munix",
      "a u",
      "a y",
      "a con",
      "a ffe",
      "d oc",
      "d ni",
      "d ri",
      "d ffe",
      "e v",
      "h m",
      "i tor",
      "j p",
      "k d",
      "m on",
      "p ch",
      "p ing",
      "p ower",
      "p ending",
      "x c",
      "bl em",
      "ti tion",
      "ti nu",
      "st er",
      "ff bffe",
      "an x",
      "pro blem",
      "ser ted",
      "il e",
      "li t",
      "li ve",
      "clo u",
      "con tinu",
      "ex t",
      "as serted",
      "ffff bffe",
      "exce eds",
      "serv e",
      "serv ing",
      "min i",
      "expir ed",
      "te ch",
      "be acon",
      "bd static",
      "par tition",
      "im p",
      "ook ie",
      "we b",
      "am a",
      "link error",
      "ma ster",
      "cs s",
      "cs dni",
      "sy s",
      "fb fffffe",
      "pl ay",
      "unexpected ly",
      "bel n",
      "tp c",
      "replication mon",
      "rt ax",
      "quant serve",
      "dri ve",
      "ev ent",
      "pch ome",
      "pending replicationmon",
      "continu e",
      "csdni mg",
      "pendingreplicationmon itor",
      "a si",
      "a fe",
      "a le",
      "b r",
      "b ffffffe",
      "c ac",
      "c ri",
      "d p",
      "d ic",
      "d sp",
      "d cd",
      "e b",
      "e f",
      "e ver",
      "f de",
      "f cm",
      "g m",
      "g es",
      "h ne",
      "i z",
      "k it",
      "l lec",
      "m ookie",
      "q a",
      "s l",
      "s of",
      "s ug",
      "s content",
      "s end",
      "t s",
      "t ext",
      "u ve",
      "w in",
      "w ang",
      "x b",
      "x d",
      "z on",
      "ed n",
      "ed ia",
      "block ed",
      "ro u",
      "no rm",
      "de l",
      "ff fdfe",
      "ff fc",
      "ad z",
      "se arch",
      "ar ale",
      "ex change",
      "as set",
      "out br",
      "nam e",
      "ffff fc",
      "ge o",
      "rep ub",
      "replic as",
      "not e",
      "socket s",
      "ffffff be",
      "be ap",
      "stat s",
      "af ly",
      "tic al",
      "co llec",
      "kn l",
      "github app",
      "ho st",
      "av d",
      "wh ile",
      "type kit",
      "cb fb",
      "el and",
      "pub ads",
      "stack exchange",
      "secu re",
      "secu repub",
      "lo ad",
      "aw s",
      "nos dn",
      "micro sof",
      "vgqsen es",
      "doc tor",
      "ama zon",
      "cac afly",
      "cri tical",
      "dic t",
      "ever note",
      "fde e",
      "fcm atch",
      "ges tion",
      "sug gestion",
      "win dow",
      "norm al",
      "arale go",
      "asset s",
      "outbr ain",
      "collec tor",
      "securepub ads",
      "microsof t",
      "amazon aws",
      "a tive",
      "b p",
      "b s",
      "b ug",
      "b ffff",
      "b fffe",
      "b iz",
      "c r",
      "c t",
      "c id",
      "d bl",
      "d fe",
      "d ir",
      "d fffffe",
      "e as",
      "f i",
      "f m",
      "f on",
      "g h",
      "g v",
      "g mt",
      "g nu",
      "i b",
      "i an",
      "i ting",
      "j i",
      "k ne",
      "l ish",
      "m m",
      "m ba",
      "m cm",
      "m dn",
      "n x",
      "p a",
      "p k",
      "p t",
      "p u",
      "p ur",
      "q l",
      "q hi",
      "s ch",
      "s click",
      "s afe",
      "t c",
      "t va",
      "t ri",
      "t ach",
      "u i",
      "w n",
      "w p",
      "w sing",
      "x a",
      "y read",
      "er k",
      "to ol",
      "st ri",
      "si mba",
      "de bug",
      "re c",
      "re comm",
      "at anx",
      "at tach",
      "in e",
      "ad nx",
      "ar en",
      "clo sing",
      "ch at",
      "op le",
      "timeout exception",
      "ffff fb",
      "og s",
      "hi clou",
      "hi gh",
      "socket timeoutexception",
      "goog let",
      "qu lish",
      "fd aa",
      "fd fffdfe",
      "temp high",
      "pe ople",
      "ub mcm",
      "ip v",
      "gi ve",
      "ol ar",
      "am d",
      "content recomm",
      "ss p",
      "ffffe bfe",
      "cre ative",
      "sp lit",
      "bro wsing",
      "mes s",
      "manhu aren",
      "gr avatar",
      "zhi mg",
      "cp c",
      "ag es",
      "wa iting",
      "adobe login",
      "sh ort",
      "lo go",
      "eng ine",
      "fl s",
      "kd pic",
      "asi a",
      "adz erk",
      "window s",
      "bffff dfe",
      "cid ian",
      "dbl p",
      "eas yread",
      "fon ts",
      "gv t",
      "mm stat",
      "pur ge",
      "qhi mg",
      "sch olar",
      "safe browsing",
      "tri er",
      "tool s",
      "stri p",
      "attach ment",
      "adnx s",
      "fffffb fe",
      "hiclou d",
      "googlet ag",
      "qulish i",
      "ubmcm m",
      "contentrecomm end",
      "a i",
      "a de",
      "a li",
      "a op",
      "a lit",
      "a ji",
      "b h",
      "b j",
      "b ce",
      "b id",
      "b rand",
      "c si",
      "c at",
      "c gi",
      "c am",
      "c api",
      "c ffffffe",
      "d up",
      "d res",
      "d part",
      "d count",
      "e kn",
      "e arch",
      "f oc",
      "f eng",
      "g t",
      "g ate",
      "g na",
      "g timg",
      "g mail",
      "h n",
      "h fm",
      "i ce",
      "i con",
      "j ni",
      "j ec",
      "k k",
      "k cdn",
      "k ype",
      "k nel",
      "l h",
      "l s",
      "l cr",
      "m de",
      "m ob",
      "m atic",
      "m atch",
      "m edia",
      "m ct",
      "m ekn",
      "m hfm",
      "n sl",
      "o v",
      "o ver",
      "o rec",
      "p v",
      "q d",
      "q i",
      "q pic",
      "q logo",
      "r st",
      "r al",
      "r ub",
      "r ating",
      "r ss",
      "s b",
      "s ti",
      "s stats",
      "s kype",
      "t at",
      "t em",
      "t ap",
      "t wi",
      "t server",
      "t anx",
      "t dp",
      "t rou",
      "u e",
      "u se",
      "u edu",
      "u al",
      "u nd",
      "u sing",
      "v r",
      "w rating",
      "x e",
      "y ap",
      "y ms",
      "y update",
      "y bp",
      "y uedu",
      "z kcdn",
      "oc sp",
      "er y",
      "to purge",
      "no avatar",
      "si mg",
      "si tem",
      "de mde",
      "re open",
      "in d",
      "in te",
      "cl g",
      "th is",
      "th ir",
      "th und",
      "an ad",
      "ad sr",
      "ad services",
      "ad master",
      "ad tdp",
      "pro mp",
      "pro jec",
      "em edia",
      "ses tat",
      "session timeout",
      "ne eded",
      "ne os",
      "is ting",
      "il yupdate",
      "for mi",
      "ar ed",
      "ar dres",
      "tt er",
      "add ing",
      "add this",
      "ch e",
      "ex ten",
      "ex isting",
      "ps u",
      "client services",
      "read y",
      "up load",
      "serv ice",
      "wi x",
      "wi fi",
      "og ues",
      "ac count",
      "net ea",
      "mi aop",
      "al emedia",
      "al ready",
      "ms n",
      "sr m",
      "google adservices",
      "sc orec",
      "qu ali",
      "qu ery",
      "ffffff f",
      "ffffff fa",
      "bo s",
      "bo ol",
      "fd fffe",
      "ba yms",
      "wor dcount",
      "work er",
      "comm ent",
      "dn s",
      "new simg",
      "im e",
      "im ages",
      "qq mail",
      "img ca",
      "img ur",
      "dropbox api",
      "am anad",
      "fail ure",
      "od r",
      "ca using",
      "down load",
      "sor t",
      "sor ter",
      "ss o",
      "ss um",
      "av p",
      "da ilyupdate",
      "man ag",
      "grep a",
      "grep b",
      "cent ral",
      "ag kn",
      "mar t",
      "tr c",
      "wa y",
      "ta bool",
      "vgqs kn",
      "adobe id",
      "pub s",
      "pub matic",
      "sh ow",
      "sh ared",
      "ur l",
      "stack over",
      "rem ov",
      "eng er",
      "replication s",
      "cas alemedia",
      "fl ow",
      "oimage a",
      "oimage b",
      "oimage c",
      "micro ad",
      "vgqsen ee",
      "au th",
      "au topurge",
      "kd cl",
      "clou df",
      "imp service",
      "dp m",
      "sl f",
      "wang wang",
      "rou te",
      "dict app",
      "gmt dmp",
      "pt login",
      "ql sn",
      "wp ad",
      "creative cdn",
      "mess enger",
      "googletag manag",
      "alit ui",
      "bce bos",
      "bid switch",
      "cam o",
      "dpart y",
      "foc us",
      "gt ms",
      "gate way",
      "gna r",
      "hn edn",
      "icon projec",
      "ls f",
      "mekn ed",
      "rub iconprojec",
      "tap ad",
      "twi tter",
      "trou ter",
      "ual dn",
      "sitem aji",
      "demde x",
      "thir dparty",
      "thund er",
      "adsr vr",
      "promp t",
      "needed replications",
      "neos mart",
      "ardres earch",
      "exten sion",
      "ogues nsl",
      "account s",
      "netea se",
      "miaop ai",
      "scorec ardresearch",
      "quali ty",
      "bayms gr",
      "imgca che",
      "tabool a",
      "stackover flow",
      "remov ing",
      "googletagmanag er",
      "rubiconprojec t",
      "= <",
      "a k",
      "a to",
      "a cl",
      "a ce",
      "a search",
      "b t",
      "b w",
      "b x",
      "b z",
      "b tr",
      "b ind",
      "c v",
      "c es",
      "c ti",
      "c or",
      "c da",
      "c atch",
      "c ookie",
      "d i",
      "d j",
      "d k",
      "d t",
      "d w",
      "d na",
      "d ps",
      "d fffe",
      "d ig",
      "d tr",
      "d ue",
      "e cm",
      "e conf",
      "e bf",
      "e ue",
      "f s",
      "f re",
      "f ce",
      "f ir",
      "f ac",
      "f click",
      "f ind",
      "g n",
      "g s",
      "g en",
      "g ma",
      "h d",
      "h j",
      "h p",
      "h static",
      "h yt",
      "h pt",
      "i f",
      "i j",
      "i x",
      "i wi",
      "i ms",
      "i ee",
      "i rec",
      "i feng",
      "i hd",
      "j v",
      "j y",
      "j re",
      "j lin",
      "j fm",
      "j dk",
      "k r",
      "k time",
      "k od",
      "k iwi",
      "l g",
      "l es",
      "l loc",
      "l ook",
      "m u",
      "m ed",
      "m si",
      "m ing",
      "m cc",
      "m cd",
      "m mbi",
      "m all",
      "n h",
      "n sclick",
      "o si",
      "o adz",
      "p j",
      "p z",
      "p re",
      "p ted",
      "p hot",
      "p ort",
      "p pl",
      "p dl",
      "p cookie",
      "q hm",
      "q bw",
      "r u",
      "r y",
      "r on",
      "r ary",
      "r pj",
      "s a",
      "s ma",
      "s all",
      "s ending",
      "s doc",
      "s mall",
      "t f",
      "t j",
      "t n",
      "t st",
      "t ain",
      "t ag",
      "t dt",
      "u an",
      "u ms",
      "v end",
      "v jp",
      "w f",
      "w k",
      "w an",
      "w bp",
      "w osi",
      "w tdt",
      "x er",
      "x ing",
      "x bb",
      "x gr",
      "x uan",
      "y re",
      "y nd",
      "y img",
      "y un",
      "y nc",
      "z hstatic",
      "z jfm",
      "z sall",
      "bl ish",
      "bl im",
      "ed fe",
      "ed bb",
      "oc dn",
      "er t",
      "er ic",
      "to host",
      "ti fi",
      "st un",
      "no route",
      "en tifi",
      "si xgr",
      "in go",
      "in pu",
      "in tf",
      "cl k",
      "cl as",
      "ff eeee",
      "ce pted",
      "ad er",
      "ad tech",
      "ad ingo",
      "se curi",
      "or acl",
      "by e",
      "ser apis",
      "ne tt",
      "id entifi",
      "tim ix",
      "il t",
      "il er",
      "il em",
      "li st",
      "fe eds",
      "ou ji",
      "add res",
      "ting yun",
      "et c",
      "et ext",
      "op ta",
      "op timix",
      "as h",
      "ps g",
      "ugh t",
      "open x",
      "open jdk",
      "htt p",
      "go v",
      "go od",
      "ffff fd",
      "ffff bc",
      "up mob",
      "ap ac",
      "le av",
      "le ader",
      "ac c",
      "ac t",
      "ac cepted",
      "net dna",
      "proces sor",
      "min ig",
      "min sessiontimeout",
      "ni ux",
      "sr kod",
      "long ca",
      "qu eue",
      "qu mcc",
      "qu sixgr",
      "ffffff ee",
      "ww biz",
      "ba ij",
      "te l",
      "ld l",
      "us ync",
      "hu cdn",
      "cn cdn",
      "par serapis",
      "im tt",
      "im pr",
      "im pl",
      "ow ing",
      "tic ktime",
      "ic au",
      "ic ert",
      "zookeeper server",
      "co sy",
      "qq web",
      "img src",
      "img tn",
      "drop ping",
      "cdn js",
      "su blim",
      "am e",
      "am ax",
      "sna pre",
      "ec aa",
      "get ting",
      "get dropbox",
      "pack ages",
      "ca ught",
      "comp lete",
      "comp iler",
      "fffffe fe",
      "internal api",
      "tmp dir",
      "lib rary",
      "cs m",
      "sina app",
      "bu ilt",
      "cc b",
      "sy mcd",
      "xml parserapis",
      "foll owing",
      "av n",
      "** *",
      "cf g",
      "ha o",
      "red irec",
      "cb js",
      "timg sa",
      "interrup ting",
      "tre lloc",
      "dm w",
      "un pk",
      "nex age",
      "ag ent",
      "tr ack",
      "max sessiontimeout",
      "ds lb",
      "ds hyt",
      "tenmax img",
      "image plus",
      "la re",
      "por ation",
      "sh ouji",
      "sup date",
      "ur sdoc",
      "**** ****",
      "**** ***",
      "aw qi",
      "fl ash",
      "ia o",
      "ia hao",
      "rt b",
      "quant count",
      "news app",
      "imp act",
      "ama ihd",
      "asi amax",
      "afe cda",
      "iz xe",
      "send worker",
      "xd rpj",
      "window supdate",
      "cr l",
      "ct ldl",
      "pk i",
      "pu ui",
      "pu blish",
      "ql ry",
      "tva x",
      "wp engine",
      "mess age",
      "logo s",
      "purge interval",
      "googletag services",
      "feng net",
      "kk k",
      "mob ilem",
      "qd un",
      "qi hucdn",
      "rss gov",
      "sti r",
      "sti ll",
      "yuedu st",
      "show xml",
      "cloudf ron",
      "cloudf lare",
      "ak amaihd",
      "bz clk",
      "btr ace",
      "ces impl",
      "cti ps",
      "cor poration",
      "catch up",
      "di ff",
      "dig icert",
      "dtr p",
      "ecm b",
      "econf publish",
      "fre e",
      "fir st",
      "gs lb",
      "gen eric",
      "hj xc",
      "hp d",
      "hpt qlry",
      "iee econfpublish",
      "ifeng img",
      "jv m",
      "jy b",
      "jlin e",
      "kr com",
      "kiwi hk",
      "look ing",
      "med al",
      "msi wf",
      "ming xing",
      "mmbi z",
      "phot ocdn",
      "ppl v",
      "pdl xf",
      "qbw up",
      "ru les",
      "sma ato",
      "small er",
      "tain count",
      "vend or",
      "wbp ctips",
      "wosi gn",
      "wtdt js",
      "xer cesimpl",
      "xbb hjxc",
      "xuan fengnet",
      "yre xdrpj",
      "ynd msiwf",
      "edbb b",
      "tohost exception",
      "noroute tohostexception",
      "inpu t",
      "clas s",
      "ffeeee fe",
      "securi ty",
      "oracl e",
      "nett y",
      "identifi er",
      "addres s",
      "opta im",
      "good bye",
      "upmob ile",
      "leav ing",
      "minig ame",
      "niux iao",
      "srkod hptqlry",
      "qumcc yndmsiwf",
      "wwbiz api",
      "baij iahao",
      "icau h",
      "sublim etext",
      "snapre taincount",
      "redirec tor",
      "trelloc dn",
      "unpk g",
      "dshyt nh",
      "ursdoc cdn",
      "awqi izxe",
      "cloudfron t",
      "ieeeconfpublish ing",
      "srkodhptqlry vjp",
      "awqiizxe qusixgr"
    ]
  }
}