{
  "version": "1.0",
  "truncation": null,
  "padding": null,
  "added_tokens": [
    {
      "id": 0,
      "content": "<pad>",
      "single_word": false,
      "lstrip": false,
      "rstrip": false,
      "normalized": false,
      "special": true
    },
    {
      "id": 1,
      "content": "<unk>",
      "single_word": false,
      "lstrip": false,
      "rstrip": false,
      "normalized": false,
      "special": true
    },
    {
      "id": 2,
      "content": " ",
      "single_word": false,
      "lstrip": false,
      "rstrip": false,
      "normalized": false,
      "special": true
    }
  ],
  "normalizer": {
    "type": "Sequence",
    "normalizers": [
      {
        "type": "NFKC"
      },
      {
        "type": "Lowercase"
      }
    ]
  },
  "pre_tokenizer": {
    "type": "Sequence",
    "pretokenizers": [
      {
        "type": "Whitespace"
      },
      {
        "type": "ByteLevel",
        "add_prefix_space": false,
        "trim_offsets": true,
        "use_regex": true
      }
    ]
  },
  "post_processor": {
    "type": "ByteLevel",
    "add_prefix_space": true,
    "trim_offsets": false,
    "use_regex": true
  },
  "decoder": null,
  "model": {
    "type": "BPE",
    "dropout": null,
    "unk_token": null,
    "continuing_subword_prefix": null,
    "end_of_word_suffix": null,
    "fuse_unk": false,
    "byte_fallback": false,
    "ignore_merges": false,
    "vocab": {
      "<pad>": 0,
      "<unk>": 1,
      " ": 2,
      "!": 3,
      "#": 4,
      "(": 5,
      ")": 6,
      "*": 7,
      "+": 8,
      ",": 9,
      "-": 10,
      ".": 11,
      "/": 12,
      "9": 13,
      ":": 14,
      "=": 15,
      ">": 16,
      "?": 17,
      "_": 18,
      "a": 19,
      "b": 20,
      "c": 21,
      "d": 22,
      "e": 23,
      "f": 24,
      "g": 25,
      "h": 26,
      "i": 27,
      "j": 28,
      "k": 29,
      "l": 30,
      "m": 31,
      "n": 32,
      "o": 33,
      "p": 34,
      "q": 35,
      "r": 36,
      "s": 37,
      "t": 38,
      "u": 39,
      "v": 40,
      "w": 41,
      "x": 42,
      "y": 43,
      "z": 44,
      "99": 45,
      "9999": 46,
      "ar": 47,
      "999": 48,
      "de": 49,
      "ff": 50,
      "or": 51,
      "..": 52,
      "in": 53,
      "at": 54,
      "ce": 55,
      "er": 56,
      "iar": 57,
      "dear": 58,
      "ec": 59,
      "ma": 60,
      "no": 61,
      "99999999": 62,
      "sy": 63,
      "ch": 64,
      "99999": 65,
      "sym": 66,
      "ed": 67,
      "sk": 68,
      "mask": 69,
      "io": 70,
      "....": 71,
      "pr": 72,
      "lo": 73,
      "ss": 74,
      "ffff": 75,
      "nd": 76,
      "car": 77,
      "card": 78,
      "node": 79,
      "pro": 80,
      "ect": 81,
      "ing": 82,
      "al": 83,
      "id": 84,
      "pd": 85,
      "vpd": 86,
      "err": 87,
      "le": 88,
      "re": 89,
      "ra": 90,
      "999999": 91,
      "cio": 92,
      "ciod": 93,
      "error": 94,
      "ad": 95,
      "fi": 96,
      "st": 97,
      "ge": 98,
      "ee": 99,
      "mi": 100,
      "rect": 101,
      "dc": 102,
      "ou": 103,
      "file": 104,
      "fffff": 105,
      "ram": 106,
      "di": 107,
      "cor": 108,
      "........": 109,
      "gram": 110,
      "atch": 111,
      "program": 112,
      "do": 113,
      "ion": 114,
      "not": 115,
      "cess": 116,
      "eck": 117,
      "check": 118,
      "process": 119,
      "miss": 120,
      "ecid": 121,
      "processor": 122,
      "slo": 123,
      "slot": 124,
      "ound": 125,
      "me": 126,
      "found": 127,
      "match": 128,
      "as": 129,
      "bg": 130,
      "bgl": 131,
      "ac": 132,
      "pt": 133,
      "su": 134,
      "ver": 135,
      "ab": 136,
      "nt": 137,
      "ory": 138,
      "9999999999999999": 139,
      "direct": 140,
      "directory": 141,
      "tect": 142,
      "detect": 143,
      "detected": 144,
      "cc": 145,
      "ading": 146,
      "val": 147,
      "such": 148,
      "missing": 149,
      "ima": 150,
      "inval": 151,
      "loading": 152,
      "image": 153,
      "invalid": 154,
      "dd": 155,
      "fc": 156,
      "ser": 157,
      "int": 158,
      "for": 159,
      "sp": 160,
      "correct": 161,
      "erat": 162,
      "co": 163,
      "fa": 164,
      "and": 165,
      "eco": 166,
      "il": 167,
      "ho": 168,
      "ip": 169,
      "home": 170,
      "cal": 171,
      "seco": 172,
      "nds": 173,
      "core": 174,
      "corrected": 175,
      "seconds": 176,
      "el": 177,
      "nerat": 178,
      "generat": 179,
      "),": 180,
      "bc": 181,
      "te": 182,
      "dcr": 183,
      "ol": 184,
      "per": 185,
      "bffff": 186,
      "of": 187,
      "ti": 188,
      "ut": 189,
      "db": 190,
      "mp": 191,
      "sw": 192,
      "9999999": 193,
      "over": 194,
      "cr": 195,
      "fail": 196,
      "failed": 197,
      "files": 198,
      "999999999999999999999999": 199,
      "generated": 200,
      "ddc": 201,
      "tion": 202,
      "dir": 203,
      "ex": 204,
      "cei": 205,
      "recei": 206,
      "ap": 207,
      "fe": 208,
      "map": 209,
      "stat": 210,
      "ne": 211,
      "to": 212,
      "us": 213,
      "is": 214,
      "md": 215,
      "th": 216,
      "log": 217,
      "ase": 218,
      "test": 219,
      "par": 220,
      "mission": 221,
      "ps": 222,
      "ty": 223,
      "................": 224,
      "ddcmd": 225,
      "apps": 226,
      "fd": 227,
      "ig": 228,
      "on": 229,
      "ts": 230,
      "um": 231,
      "un": 232,
      "chdir": 233,
      "login": 234,
      "(/": 235,
      "be": 236,
      "cd": 237,
      "ice": 238,
      "vice": 239,
      "swl": 240,
      "dat": 241,
      "gb": 242,
      "ni": 243,
      "receiver": 244,
      "new": 245,
      "the": 246,
      "da": 247,
      "ent": 248,
      "inp": 249,
      "ddr": 250,
      "service": 251,
      "ls": 252,
      "ted": 253,
      "ran": 254,
      "bd": 255,
      "upt": 256,
      "errupt": 257,
      "add": 258,
      "eeee": 259,
      "asm": 260,
      "interrupt": 261,
      "spasm": 262,
      "calls": 263,
      "ae": 264,
      "ca": 265,
      "hp": 266,
      "deni": 267,
      "permission": 268,
      "input": 269,
      "denied": 270,
      "ml": 271,
      "sys": 272,
      "ign": 273,
      "po": 274,
      "pre": 275,
      "ree": 276,
      "able": 277,
      "9999999999999999999999999999": 278,
      "exce": 279,
      "ba": 280,
      "cf": 281,
      "mpi": 282,
      "ib": 283,
      "lin": 284,
      "rts": 285,
      "se": 286,
      "ating": 287,
      "ress": 288,
      "address": 289,
      "tor": 290,
      "ffffffff": 291,
      "ido": 292,
      "state": 293,
      "torus": 294,
      "ction": 295,
      "df": 296,
      "sh": 297,
      "ur": 298,
      "ptor": 299,
      "abase": 300,
      "into": 301,
      "spel": 302,
      "hpcc": 303,
      "spelce": 304,
      "aa": 305,
      "bol": 306,
      "ck": 307,
      "fb": 308,
      "tree": 309,
      "symbol": 310,
      "ption": 311,
      "exception": 312,
      "ibm": 313,
      "cb": 314,
      "nch": 315,
      "pe": 316,
      "inser": 317,
      "chip": 318,
      "low": 319,
      "database": 320,
      "rank": 321,
      "inserted": 322,
      "af": 323,
      "bf": 324,
      "ev": 325,
      "od": 326,
      "synch": 327,
      "raptor": 328,
      "event": 329,
      "im": 330,
      "ro": 331,
      "scr": 332,
      "up": 333,
      "action": 334,
      "ct": 335,
      "ea": 336,
      "fol": 337,
      "tal": 338,
      "...": 339,
      "ern": 340,
      "man": 341,
      "total": 342,
      "point": 343,
      "--": 344,
      "ger": 345,
      "num": 346,
      "rc": 347,
      "src": 348,
      "out": 349,
      "ment": 350,
      "999999999999999999999999999": 351,
      "lowup": 352,
      "followup": 353,
      "bin": 354,
      "it": 355,
      "li": 356,
      "pa": 357,
      "ru": 358,
      "wn": 359,
      "inst": 360,
      "99999999999999": 361,
      "align": 362,
      "stre": 363,
      "eee": 364,
      "down": 365,
      "part": 366,
      "eeeeeee": 367,
      "shut": 368,
      "alignment": 369,
      "))": 370,
      "bw": 371,
      "case": 372,
      "efor": 373,
      "flo": 374,
      "iti": 375,
      "kern": 376,
      "mm": 377,
      "mcard": 378,
      "mty": 379,
      "pip": 380,
      "ting": 381,
      "alle": 382,
      "ster": 383,
      "gent": 384,
      "mip": 385,
      "bglv": 386,
      "acti": 387,
      "sernum": 388,
      "testcase": 389,
      "parefor": 390,
      "mlp": 391,
      "mlct": 392,
      "syscalls": 393,
      "preparefor": 394,
      "link": 395,
      "urgent": 396,
      "exceptions": 397,
      "bwalle": 398,
      "kernel": 399,
      "mcardsernum": 400,
      "mtype": 401,
      "pipe": 402,
      "activ": 403,
      "testcases": 404,
      "mlctn": 405,
      "prepareforservice": 406,
      "bwallen": 407,
      "age": 408,
      "bb": 409,
      "ity": 410,
      "ri": 411,
      "sign": 412,
      "edram": 413,
      "lock": 414,
      "eep": 415,
      "bglscr": 416,
      "generating": 417,
      "sweep": 418,
      "criti": 419,
      "imb": 420,
      "ruction": 421,
      "instruction": 422,
      "shutting": 423,
      "signal": 424,
      "bglscratch": 425,
      "critical": 426,
      "es": 427,
      "go": 428,
      "ic": 429,
      "kin": 430,
      "la": 431,
      "nm": 432,
      "oseconds": 433,
      "der": 434,
      "che": 435,
      "micr": 436,
      "............": 437,
      "time": 438,
      "ddcmdbglv": 439,
      "interrupts": 440,
      "rom": 441,
      "pakin": 442,
      "floating": 443,
      "microseconds": 444,
      "am": 445,
      "cre": 446,
      "efc": 447,
      "fun": 448,
      "from": 449,
      "gi": 450,
      "glo": 451,
      "ll": 452,
      "lu": 453,
      "vnm": 454,
      "regi": 455,
      "rand": 456,
      "ount": 457,
      "cop": 458,
      "code": 459,
      "umt": 460,
      "creating": 461,
      "register": 462,
      "ef": 463,
      "efe": 464,
      "fpr": 465,
      "hy": 466,
      "mount": 467,
      "pm": 468,
      "sli": 469,
      "tran": 470,
      "ved": 471,
      "wor": 472,
      "correctable": 473,
      "static": 474,
      "data": 475,
      "mann": 476,
      "germann": 477,
      "good": 478,
      "glosli": 479,
      "ag": 480,
      "bad": 481,
      "bit": 482,
      "block": 483,
      "eff": 484,
      "min": 485,
      "so": 486,
      "scal": 487,
      "ure": 488,
      "ine": 489,
      "999999999": 490,
      "ssage": 491,
      "errno": 492,
      "message": 493,
      "bglio": 494,
      "ack": 495,
      "received": 496,
      "linkcard": 497,
      "function": 498,
      "mini": 499,
      "./": 500,
      "an": 501,
      "ace": 502,
      "ass": 503,
      "bu": 504,
      "ble": 505,
      "eb": 506,
      "en": 507,
      "efd": 508,
      "fl": 509,
      "nder": 510,
      "red": 511,
      "run": 512,
      "smission": 513,
      "mach": 514,
      "all": 515,
      "read": 516,
      "retran": 517,
      "star": 518,
      "mirand": 519,
      "dca": 520,
      "con": 521,
      "copro": 522,
      "perfor": 523,
      "ofdir": 524,
      "........................": 525,
      "cache": 526,
      "sender": 527,
      "active": 528,
      "functional": 529,
      "asser": 530,
      "machine": 531,
      "retransmission": 532,
      "miranda": 533,
      "ofdirty": 534,
      "by": 535,
      "dou": 536,
      "et": 537,
      "lts": 538,
      "mer": 539,
      "phy": 540,
      "qu": 541,
      "rfi": 542,
      "wer": 543,
      "are": 544,
      "ary": 545,
      "dev": 546,
      "nodecard": 547,
      "resu": 548,
      "stab": 549,
      "ash": 550,
      "summ": 551,
      "nte": 552,
      "cont": 553,
      "temp": 554,
      "perf": 555,
      "feaa": 556,
      "status": 557,
      "power": 558,
      "line": 559,
      "sher": 560,
      "stream": 561,
      "lustre": 562,
      "enable": 563,
      "flash": 564,
      "double": 565,
      "rfisher": 566,
      "results": 567,
      "summary": 568,
      "bee": 569,
      "cp": 570,
      "cdc": 571,
      "fcc": 572,
      "has": 573,
      "hum": 574,
      "jt": 575,
      "lb": 576,
      "latch": 577,
      "mo": 578,
      "ok": 579,
      "xc": 580,
      "xy": 581,
      "xffffffff": 582,
      "ate": 583,
      "ation": 584,
      "max": 585,
      "mand": 586,
      "......": 587,
      "rel": 588,
      "errors": 589,
      "spent": 590,
      "sppm": 591,
      "erature": 592,
      "ility": 593,
      "parity": 594,
      "hpl": 595,
      "cket": 596,
      "mance": 597,
      "work": 598,
      "socket": 599,
      "performance": 600,
      "asserted": 601,
      "stability": 602,
      "temperature": 603,
      "been": 604,
      "hummer": 605,
      "jtag": 606,
      "//": 607,
      "cs": 608,
      "cx": 609,
      "cable": 610,
      "din": 611,
      "etest": 612,
      "fu": 613,
      "fce": 614,
      "gree": 615,
      "ical": 616,
      "jeff": 617,
      "med": 618,
      "ns": 619,
      "op": 620,
      "ot": 621,
      "opt": 622,
      "reco": 623,
      "sle": 624,
      "sod": 625,
      "sical": 626,
      "ul": 627,
      "und": 628,
      "xl": 629,
      "zt": 630,
      "dec": 631,
      "ore": 632,
      "ort": 633,
      "ordin": 634,
      "inf": 635,
      "cec": 636,
      "eds": 637,
      "res": 638,
      "rese": 639,
      "ciostream": 640,
      "fix": 641,
      "ste": 642,
      "stel": 643,
      "dime": 644,
      "ccc": 645,
      "server": 646,
      "comp": 647,
      "coordin": 648,
      "tomand": 649,
      "tested": 650,
      "ben": 651,
      "prefix": 652,
      "exceeds": 653,
      "scri": 654,
      "scaling": 655,
      "miniben": 656,
      "bug": 657,
      "physical": 658,
      "xyzt": 659,
      "cxx": 660,
      "full": 661,
      "greeno": 662,
      "nsion": 663,
      "sodscaling": 664,
      "reset": 665,
      "stella": 666,
      "dimension": 667,
      "coordinate": 668,
      "tomandjeff": 669,
      "aver": 670,
      "big": 671,
      "cj": 672,
      "clock": 673,
      "ds": 674,
      "dra": 675,
      "ess": 676,
      "efb": 677,
      "eger": 678,
      "gr": 679,
      "kb": 680,
      "kpt": 681,
      "lwor": 682,
      "mb": 683,
      "mc": 684,
      "mid": 685,
      "mod": 686,
      "nect": 687,
      "pla": 688,
      "pgood": 689,
      "plb": 690,
      "rol": 691,
      "sent": 692,
      "ue": 693,
      "unte": 694,
      "vol": 695,
      "wel": 696,
      "deactiv": 697,
      "descri": 698,
      "ffc": 699,
      "ated": 700,
      "ering": 701,
      "chkpt": 702,
      "loc": 703,
      "proper": 704,
      "reading": 705,
      "requ": 706,
      "rail": 707,
      "adc": 708,
      "sted": 709,
      "store": 710,
      ".........": 711,
      "acf": 712,
      "ccfc": 713,
      "ddbc": 714,
      "eration": 715,
      "come": 716,
      "ties": 717,
      "dblwor": 718,
      "mpgood": 719,
      "too": 720,
      "tests": 721,
      ".................": 722,
      "....................": 723,
      "uncorrectable": 724,
      "cdfc": 725,
      "prep": 726,
      "lines": 727,
      "mmcs": 728,
      "ages": 729,
      "timeout": 730,
      "scaletest": 731,
      "started": 732,
      "dcache": 733,
      "...........................": 734,
      "ofdirtydblwor": 735,
      "ofdirtylines": 736,
      "control": 737,
      "mode": 738,
      "operation": 739,
      "averages": 740,
      "cjm": 741,
      "draeger": 742,
      "essl": 743,
      "midpla": 744,
      "untested": 745,
      "volt": 746,
      "welcome": 747,
      "deactivated": 748,
      "descriptor": 749,
      "properties": 750,
      "ofdirtydblword": 751,
      "midplane": 752,
      "ante": 753,
      "bo": 754,
      "ber": 755,
      "bmi": 756,
      "bfc": 757,
      "bfa": 758,
      "bfd": 759,
      "bae": 760,
      "bri": 761,
      "ci": 762,
      "cac": 763,
      "cdd": 764,
      "cddc": 765,
      "cur": 766,
      "cla": 767,
      "cpm": 768,
      "ep": 769,
      "fec": 770,
      "gp": 771,
      "gu": 772,
      "gni": 773,
      "ht": 774,
      "ij": 775,
      "ir": 776,
      "ial": 777,
      "ired": 778,
      "jag": 779,
      "ke": 780,
      "lr": 781,
      "ler": 782,
      "linp": 783,
      "mf": 784,
      "mmi": 785,
      "mory": 786,
      "mdca": 787,
      "ning": 788,
      "ope": 789,
      "pas": 790,
      "port": 791,
      "rce": 792,
      "rst": 793,
      "sable": 794,
      "tra": 795,
      "tou": 796,
      "uce": 797,
      "wil": 798,
      "wri": 799,
      "zed": 800,
      "arante": 801,
      "debug": 802,
      "ecis": 803,
      "master": 804,
      "9999999999": 805,
      "precis": 806,
      "fig": 807,
      "first": 808,
      "ource": 809,
      "disable": 810,
      "memory": 811,
      "bglmaster": 812,
      "acb": 813,
      "access": 814,
      "pture": 815,
      "abc": 816,
      "dddc": 817,
      "fcd": 818,
      "comm": 819,
      "old": 820,
      "percla": 821,
      "ext": 822,
      "exec": 823,
      "used": 824,
      "............................": 825,
      "ight": 826,
      "under": 827,
      "unreco": 828,
      "cdbc": 829,
      "addr": 830,
      "capture": 831,
      "ible": 832,
      "ckpt": 833,
      "treeaddr": 834,
      "pes": 835,
      "imprecis": 836,
      "ernal": 837,
      "liam": 838,
      "rich": 839,
      "...............": 840,
      "ller": 841,
      "rando": 842,
      "hypercla": 843,
      "reduce": 844,
      "allreduce": 845,
      "config": 846,
      "byte": 847,
      "cpu": 848,
      "ulri": 849,
      "undy": 850,
      "steering": 851,
      "compare": 852,
      "fully": 853,
      "dsmc": 854,
      "location": 855,
      "required": 856,
      "cjmundy": 857,
      "bmiller": 858,
      "brian": 859,
      "guarante": 860,
      "gnized": 861,
      "linpack": 862,
      "mdcask": 863,
      "pasci": 864,
      "touch": 865,
      "william": 866,
      "write": 867,
      "unrecognized": 868,
      "imprecise": 869,
      "hyperclaw": 870,
      "guaranteed": 871,
      "williams": 872,
      "au": 873,
      "ant": 874,
      "aus": 875,
      "aae": 876,
      "ait": 877,
      "bs": 878,
      "bdc": 879,
      "band": 880,
      "bbc": 881,
      "but": 882,
      "bfe": 883,
      "blu": 884,
      "cv": 885,
      "cce": 886,
      "cle": 887,
      "cad": 888,
      "cab": 889,
      "cdec": 890,
      "ccec": 891,
      "dur": 892,
      "ddec": 893,
      "eed": 894,
      "end": 895,
      "ebd": 896,
      "eue": 897,
      "fs": 898,
      "fre": 899,
      "fee": 900,
      "fbc": 901,
      "flow": 902,
      "gun": 903,
      "gbglv": 904,
      "hand": 905,
      "hack": 906,
      "han": 907,
      "ires": 908,
      "ku": 909,
      "lap": 910,
      "mk": 911,
      "mar": 912,
      "mat": 913,
      "mgr": 914,
      "nk": 915,
      "nel": 916,
      "nnect": 917,
      "nfs": 918,
      "ob": 919,
      "obyte": 920,
      "qbo": 921,
      "ry": 922,
      "rflo": 923,
      "rbs": 924,
      "sing": 925,
      "sel": 926,
      "source": 927,
      "tw": 928,
      "tz": 929,
      "tec": 930,
      "tlb": 931,
      "try": 932,
      "ule": 933,
      "vx": 934,
      "wid": 935,
      "was": 936,
      "wait": 937,
      "wires": 938,
      "xer": 939,
      "xhpl": 940,
      "xhan": 941,
      "yx": 942,
      "zer": 943,
      "arch": 944,
      "device": 945,
      "demo": 946,
      "ffa": 947,
      "ffe": 948,
      "fff": 949,
      "atabase": 950,
      "cee": 951,
      "ceec": 952,
      "erno": 953,
      "erts": 954,
      "may": 955,
      "noio": 956,
      "nosle": 957,
      "nozer": 958,
      "99999999999": 959,
      "chmod": 960,
      "iolog": 961,
      ".......": 962,
      "load": 963,
      "ndir": 964,
      "alerts": 965,
      "rever": 966,
      "rent": 967,
      "retry": 968,
      "adf": 969,
      "adcc": 970,
      "get": 971,
      "mit": 972,
      "...........": 973,
      "asic": 974,
      "vered": 975,
      "ccd": 976,
      "ccdc": 977,
      "format": 978,
      "space": 979,
      "sport": 980,
      "fae": 981,
      "caltec": 982,
      "elto": 983,
      "elight": 984,
      "timed": 985,
      "dbproperties": 986,
      "mapfile": 987,
      "thunder": 988,
      "logs": 989,
      "testing": 990,
      "testqbo": 991,
      "..................": 992,
      "ddcmdgbglv": 993,
      "unable": 994,
      "being": 995,
      "bench": 996,
      "news": 997,
      "ention": 998,
      "serviceaction": 999,
      "search": 1000,
      "severed": 1001,
      "idotran": 1002,
      "uration": 1003,
      "fbb": 1004,
      "imum": 1005,
      "root": 1006,
      "ctr": 1007,
      "-->": 1008,
      "number": 1009,
      "limit": 1010,
      "rundir": 1011,
      "instan": 1012,
      "shutdown": 1013,
      "activating": 1014,
      "going": 1015,
      ".............": 1016,
      "..............": 1017,
      "func": 1018,
      "llap": 1019,
      "codes": 1020,
      "registers": 1021,
      "blocks": 1022,
      "sole": 1023,
      "efdf": 1024,
      "redund": 1025,
      "start": 1026,
      "connect": 1027,
      "console": 1028,
      ".........................": 1029,
      "assert": 1030,
      "queue": 1031,
      "contention": 1032,
      "cpmd": 1033,
      "cdcc": 1034,
      "maximum": 1035,
      "fcea": 1036,
      "reconnect": 1037,
      "slept": 1038,
      "inferno": 1039,
      "fulltest": 1040,
      "module": 1041,
      "current": 1042,
      "key": 1043,
      "opening": 1044,
      "trace": 1045,
      "accessible": 1046,
      "external": 1047,
      "usedatabase": 1048,
      "random": 1049,
      "configuration": 1050,
      "ulrikey": 1051,
      "auselto": 1052,
      "bandwid": 1053,
      "bluelight": 1054,
      "cvs": 1055,
      "clear": 1056,
      "cabot": 1057,
      "during": 1058,
      "endserviceaction": 1059,
      "gunnel": 1060,
      "handler": 1061,
      "lapack": 1062,
      "mark": 1063,
      "obytebug": 1064,
      "rflomp": 1065,
      "single": 1066,
      "select": 1067,
      "tzyx": 1068,
      "xhang": 1069,
      "nosleep": 1070,
      "nozerobytebug": 1071,
      "reverse": 1072,
      "retrying": 1073,
      "sportmgr": 1074,
      "caltech": 1075,
      "testqboxhang": 1076,
      "benchmark": 1077,
      "idotransportmgr": 1078,
      "instance": 1079,
      "redundant": 1080,
      "connection": 1081,
      "auselton": 1082,
      "bandwidth": 1083,
      "gunnels": 1084,
      ")...": 1085,
      ")........................": 1086,
      ")...........................": 1087,
      ").......": 1088,
      "*)": 1089,
      "*,": 1090,
      "/)": 1091,
      "/..": 1092,
      "::": 1093,
      "?/": 1094,
      "aff": 1095,
      "aec": 1096,
      "aed": 1097,
      "aad": 1098,
      "ast": 1099,
      "aac": 1100,
      "aab": 1101,
      "aut": 1102,
      "afb": 1103,
      "ager": 1104,
      "adec": 1105,
      "aadc": 1106,
      "bl": 1107,
      "bec": 1108,
      "bal": 1109,
      "bas": 1110,
      "bdirect": 1111,
      "bcc": 1112,
      "bdd": 1113,
      "bip": 1114,
      "bus": 1115,
      "base": 1116,
      "bbe": 1117,
      "bda": 1118,
      "bba": 1119,
      "bro": 1120,
      "back": 1121,
      "bot": 1122,
      "bacb": 1123,
      "cy": 1124,
      "cde": 1125,
      "clo": 1126,
      "ccess": 1127,
      "cbc": 1128,
      "cdb": 1129,
      "cfe": 1130,
      "cfd": 1131,
      "cbe": 1132,
      "count": 1133,
      "cstar": 1134,
      "cdca": 1135,
      "cpes": 1136,
      "cnk": 1137,
      "dy": 1138,
      "dad": 1139,
      "dac": 1140,
      "dab": 1141,
      "dfa": 1142,
      "dup": 1143,
      "dpm": 1144,
      "due": 1145,
      "dadc": 1146,
      "dacf": 1147,
      "ew": 1148,
      "elo": 1149,
      "est": 1150,
      "efa": 1151,
      "eaf": 1152,
      "eabc": 1153,
      "fp": 1154,
      "fra": 1155,
      "fad": 1156,
      "fbe": 1157,
      "fchmod": 1158,
      "gat": 1159,
      "gal": 1160,
      "hw": 1161,
      "hing": 1162,
      "hel": 1163,
      "hit": 1164,
      "hering": 1165,
      "imp": 1166,
      "ition": 1167,
      "icb": 1168,
      "icache": 1169,
      "iku": 1170,
      "ject": 1171,
      "jul": 1172,
      "job": 1173,
      "ky": 1174,
      "ker": 1175,
      "kil": 1176,
      "kmap": 1177,
      "ketest": 1178,
      "ld": 1179,
      "ly": 1180,
      "lat": 1181,
      "lus": 1182,
      "lpa": 1183,
      "lcontrol": 1184,
      "light": 1185,
      "ming": 1186,
      "mpt": 1187,
      "mmand": 1188,
      "mul": 1189,
      "nc": 1190,
      "np": 1191,
      "nde": 1192,
      "nnot": 1193,
      "nan": 1194,
      "next": 1195,
      "pc": 1196,
      "pu": 1197,
      "pw": 1198,
      "ping": 1199,
      "pol": 1200,
      "put": 1201,
      "pur": 1202,
      "pack": 1203,
      "plus": 1204,
      "ppc": 1205,
      "rou": 1206,
      "round": 1207,
      "ron": 1208,
      "rky": 1209,
      "sma": 1210,
      "sof": 1211,
      "snan": 1212,
      "ter": 1213,
      "tch": 1214,
      "tip": 1215,
      "tmp": 1216,
      "tun": 1217,
      "tur": 1218,
      "tri": 1219,
      "tue": 1220,
      "tau": 1221,
      "umask": 1222,
      "uid": 1223,
      "user": 1224,
      "ues": 1225,
      "uation": 1226,
      "udy": 1227,
      "va": 1228,
      "vn": 1229,
      "vac": 1230,
      "vtrace": 1231,
      "xa": 1232,
      "xb": 1233,
      "xil": 1234,
      "yat": 1235,
      "yes": 1236,
      "aring": 1237,
      "arty": 1238,
      "dedc": 1239,
      "dept": 1240,
      "decc": 1241,
      "dedd": 1242,
      "defc": 1243,
      "ffb": 1244,
      "fft": 1245,
      "ffer": 1246,
      "fffc": 1247,
      "ffcd": 1248,
      "ffae": 1249,
      "ffaa": 1250,
      "ffcec": 1251,
      "ffbfc": 1252,
      "fftw": 1253,
      "order": 1254,
      "inex": 1255,
      "init": 1256,
      "initi": 1257,
      "inity": 1258,
      "inuation": 1259,
      "atte": 1260,
      "cea": 1261,
      "cedc": 1262,
      "ceac": 1263,
      "cefc": 1264,
      "cecd": 1265,
      "iary": 1266,
      "eca": 1267,
      "ecc": 1268,
      "ecf": 1269,
      "ecbc": 1270,
      "ecial": 1271,
      "main": 1272,
      "maccess": 1273,
      "nopr": 1274,
      "nocomm": 1275,
      "nova": 1276,
      "9999999999999": 1277,
      "synd": 1278,
      "syste": 1279,
      "chil": 1280,
      "chcontrol": 1281,
      "symlink": 1282,
      "edb": 1283,
      "edd": 1284,
      "edf": 1285,
      "iostate": 1286,
      ".....": 1287,
      "loew": 1288,
      "ssion": 1289,
      "ssible": 1290,
      "ndition": 1291,
      "ndpack": 1292,
      "proble": 1293,
      "proxy": 1294,
      "alread": 1295,
      "alloc": 1296,
      "allocation": 1297,
      "idou": 1298,
      "idmp": 1299,
      "lement": 1300,
      "legal": 1301,
      "reser": 1302,
      "restar": 1303,
      "restarted": 1304,
      "refre": 1305,
      "ranova": 1306,
      "ciodb": 1307,
      "ada": 1308,
      "adb": 1309,
      "adac": 1310,
      "adbc": 1311,
      "adbe": 1312,
      "adca": 1313,
      "fiel": 1314,
      "stop": 1315,
      "stir": 1316,
      "stron": 1317,
      "study": 1318,
      "ges": 1319,
      "eek": 1320,
      "eebf": 1321,
      "miranova": 1322,
      "dcd": 1323,
      "dcfc": 1324,
      "dccb": 1325,
      "filesyste": 1326,
      "died": 1327,
      "divac": 1328,
      "done": 1329,
      "ioni": 1330,
      "processes": 1331,
      "meam": 1332,
      "bglct": 1333,
      "act": 1334,
      "pts": 1335,
      "sup": 1336,
      "verbo": 1337,
      "abb": 1338,
      "cca": 1339,
      "values": 1340,
      "dda": 1341,
      "ddb": 1342,
      "ddd": 1343,
      "ddac": 1344,
      "ddfc": 1345,
      "fca": 1346,
      "fcf": 1347,
      "fcddb": 1348,
      "serial": 1349,
      "internal": 1350,
      "force": 1351,
      "sparing": 1352,
      "special": 1353,
      "commi": 1354,
      "command": 1355,
      "condition": 1356,
      "faa": 1357,
      "illegal": 1358,
      "hold": 1359,
      "ipaddress": 1360,
      "eline": 1361,
      "bcast": 1362,
      "ofda": 1363,
      "titi": 1364,
      "tition": 1365,
      "ution": 1366,
      "dbd": 1367,
      "dbec": 1368,
      "dbac": 1369,
      "dbcc": 1370,
      "dbbc": 1371,
      "dbfd": 1372,
      "mps": 1373,
      "swit": 1374,
      "overflow": 1375,
      "ddca": 1376,
      "ddcc": 1377,
      "exe": 1378,
      "expre": 1379,
      "apc": 1380,
      "fea": 1381,
      "feaf": 1382,
      "fetch": 1383,
      "maps": 1384,
      "neare": 1385,
      "toall": 1386,
      "usr": 1387,
      "ushing": 1388,
      "mdg": 1389,
      "this": 1390,
      "thres": 1391,
      "testscri": 1392,
      "partition": 1393,
      "parmdg": 1394,
      "...................": 1395,
      "......................": 1396,
      ".................................": 1397,
      "fdf": 1398,
      "only": 1399,
      "unimp": 1400,
      "bea": 1401,
      "beab": 1402,
      "befcc": 1403,
      "nic": 1404,
      "newcomp": 1405,
      "newhack": 1406,
      "newmaps": 1407,
      "dae": 1408,
      "daac": 1409,
      "dafc": 1410,
      "ential": 1411,
      "lseek": 1412,
      "aef": 1413,
      "aeec": 1414,
      "caused": 1415,
      "cannot": 1416,
      "pop": 1417,
      "pose": 1418,
      "possible": 1419,
      "present": 1420,
      "prefetch": 1421,
      "bank": 1422,
      "baker": 1423,
      "cflu": 1424,
      "cfdddc": 1425,
      "mpits": 1426,
      "sequ": 1427,
      "sendpack": 1428,
      "setiti": 1429,
      "idoproxy": 1430,
      "aaa": 1431,
      "fbcc": 1432,
      "fbbc": 1433,
      "symbols": 1434,
      "cbdc": 1435,
      "cbac": 1436,
      "cbcc": 1437,
      "cbbc": 1438,
      "peer": 1439,
      "after": 1440,
      "bfab": 1441,
      "rome": 1442,
      "rocstar": 1443,
      "rocflu": 1444,
      "upon": 1445,
      "fold": 1446,
      "manager": 1447,
      "output": 1448,
      "itz": 1449,
      "pages": 1450,
      "panic": 1451,
      "streitz": 1452,
      "bbadbe": 1453,
      "edrams": 1454,
      "times": 1455,
      "timeofda": 1456,
      "romio": 1457,
      "efca": 1458,
      "efcd": 1459,
      "efcfc": 1460,
      "efcfb": 1461,
      "global": 1462,
      "luke": 1463,
      "efeb": 1464,
      "efebc": 1465,
      "efeaa": 1466,
      "efebb": 1467,
      "effd": 1468,
      "effcb": 1469,
      "soon": 1470,
      "busy": 1471,
      "buber": 1472,
      "buffer": 1473,
      "ency": 1474,
      "efda": 1475,
      "efdbc": 1476,
      "flushing": 1477,
      "running": 1478,
      "alltoall": 1479,
      "readlink": 1480,
      "conc": 1481,
      "performed": 1482,
      "performing": 1483,
      "develo": 1484,
      "nodecards": 1485,
      "continuation": 1486,
      "streamtri": 1487,
      "cpp": 1488,
      "cdcf": 1489,
      "///": 1490,
      "csar": 1491,
      "fcee": 1492,
      "sles": 1493,
      "orestart": 1494,
      "infinity": 1495,
      "resource": 1496,
      "steer": 1497,
      "serverdb": 1498,
      "efbb": 1499,
      "efbf": 1500,
      "efbfd": 1501,
      "ground": 1502,
      "request": 1503,
      ".....................": 1504,
      ".......................": 1505,
      "descriptors": 1506,
      "midplaneswit": 1507,
      "bfcf": 1508,
      "bfda": 1509,
      "curioni": 1510,
      "epstreamtri": 1511,
      "open": 1512,
      "trap": 1513,
      "debugger": 1514,
      "comms": 1515,
      "execution": 1516,
      ".............................": 1517,
      "underflow": 1518,
      "randomaccess": 1519,
      "configfile": 1520,
      "ulriketest": 1521,
      "writev": 1522,
      "auxil": 1523,
      "bbca": 1524,
      "eedc": 1525,
      "freed": 1526,
      "fbcd": 1527,
      "kubot": 1528,
      "object": 1529,
      "tware": 1530,
      "ffade": 1531,
      "getuid": 1532,
      "gettimeofda": 1533,
      "consoleip": 1534,
      "consoleport": 1535,
      "nosleepyes": 1536,
      "nosleepnocomm": 1537,
      "/../": 1538,
      "affd": 1539,
      "autorestart": 1540,
      "blas": 1541,
      "baseline": 1542,
      "biparty": 1543,
      "broadca": 1544,
      "background": 1545,
      "close": 1546,
      "counter": 1547,
      "dacc": 1548,
      "dfafa": 1549,
      "dpmgr": 1550,
      "efaea": 1551,
      "fraction": 1552,
      "fady": 1553,
      "gathering": 1554,
      "hwstab": 1555,
      "hellow": 1556,
      "icbi": 1557,
      "ikuo": 1558,
      "kill": 1559,
      "latency": 1560,
      "lpavtrace": 1561,
      "lcontroldescriptors": 1562,
      "mpting": 1563,
      "multip": 1564,
      "nded": 1565,
      "pux": 1566,
      "pwd": 1567,
      "pollcontroldescriptors": 1568,
      "purpose": 1569,
      "rounded": 1570,
      "small": 1571,
      "software": 1572,
      "tuned": 1573,
      "turbdirect": 1574,
      "userfunc": 1575,
      "yates": 1576,
      "depth": 1577,
      "ffcdf": 1578,
      "ordering": 1579,
      "inexact": 1580,
      "initial": 1581,
      "attempting": 1582,
      "noprint": 1583,
      "syndrome": 1584,
      "child": 1585,
      "chcontroller": 1586,
      "loewe": 1587,
      "problem": 1588,
      "already": 1589,
      "allocate": 1590,
      "idoudpmgr": 1591,
      "lemented": 1592,
      "reserved": 1593,
      "restarting": 1594,
      "refresh": 1595,
      "fields": 1596,
      "stopping": 1597,
      "stirturbdirect": 1598,
      "strong": 1599,
      "filesystem": 1600,
      "bglctlpavtrace": 1601,
      "verbose": 1602,
      "serialnumber": 1603,
      "commit": 1604,
      "bcastv": 1605,
      "expression": 1606,
      "nearest": 1607,
      "threshold": 1608,
      "testscripts": 1609,
      "unimplemented": 1610,
      "sequential": 1611,
      "sendpacket": 1612,
      "setitimer": 1613,
      "idoproxydb": 1614,
      "rocfluidmp": 1615,
      "lukei": 1616,
      "develop": 1617,
      "midplaneswitchcontroller": 1618,
      "epstreamtriad": 1619,
      "ulriketests": 1620,
      "auxiliary": 1621,
      "kubota": 1622,
      "gettimeofday": 1623,
      "nosleepyescomm": 1624,
      "bipartyz": 1625,
      "broadcast": 1626,
      "multiple": 1627
    },
    "merges": [
      "9 9",
      "99 99",
      "a r",
      "99 9",
      "d e",
      "f f",
      "o r",
      ". .",
      "i n",
      "a t",
      "c e",
      "e r",
      "i ar",
      "de ar",
      "e c",
      "m a",
      "n o",
      "9999 9999",
      "s y",
      "c h",
      "9999 9",
      "sy m",
      "e d",
      "s k",
      "ma sk",
      "i o",
      ".. ..",
      "p r",
      "l o",
      "s s",
      "ff ff",
      "n d",
      "c ar",
      "car d",
      "no de",
      "pr o",
      "ec t",
      "in g",
      "a l",
      "i d",
      "p d",
      "v pd",
      "er r",
      "l e",
      "r e",
      "r a",
      "9999 99",
      "c io",
      "cio d",
      "err or",
      "a d",
      "f i",
      "s t",
      "g e",
      "e e",
      "m i",
      "r ect",
      "d c",
      "o u",
      "fi le",
      "ffff f",
      "ra m",
      "d i",
      "c or",
      ".... ....",
      "g ram",
      "at ch",
      "pro gram",
      "d o",
      "io n",
      "no t",
      "ce ss",
      "ec k",
      "ch eck",
      "pro cess",
      "mi ss",
      "ec id",
      "process or",
      "s lo",
      "slo t",
      "ou nd",
      "m e",
      "f ound",
      "m atch",
      "a s",
      "b g",
      "bg l",
      "a c",
      "p t",
      "s u",
      "v er",
      "a b",
      "n t",
      "or y",
      "99999999 99999999",
      "di rect",
      "direct ory",
      "t ect",
      "de tect",
      "detect ed",
      "c c",
      "ad ing",
      "v al",
      "su ch",
      "miss ing",
      "i ma",
      "in val",
      "lo ading",
      "ima ge",
      "inval id",
      "d d",
      "f c",
      "s er",
      "in t",
      "f or",
      "s p",
      "cor rect",
      "er at",
      "c o",
      "f a",
      "a nd",
      "ec o",
      "i l",
      "h o",
      "i p",
      "ho me",
      "c al",
      "s eco",
      "nd s",
      "cor e",
      "correct ed",
      "seco nds",
      "e l",
      "n erat",
      "ge nerat",
      ") ,",
      "b c",
      "t e",
      "dc r",
      "o l",
      "p er",
      "b ffff",
      "o f",
      "t i",
      "u t",
      "d b",
      "m p",
      "s w",
      "9999 999",
      "o ver",
      "c r",
      "fa il",
      "fail ed",
      "file s",
      "9999999999999999 99999999",
      "generat ed",
      "d dc",
      "t ion",
      "di r",
      "e x",
      "ce i",
      "re cei",
      "a p",
      "f e",
      "ma p",
      "st at",
      "n e",
      "t o",
      "u s",
      "i s",
      "m d",
      "t h",
      "lo g",
      "as e",
      "te st",
      "p ar",
      "miss ion",
      "p s",
      "t y",
      "........ ........",
      "ddc md",
      "ap ps",
      "f d",
      "i g",
      "o n",
      "t s",
      "u m",
      "u n",
      "ch dir",
      "log in",
      "( /",
      "b e",
      "c d",
      "i ce",
      "v ice",
      "sw l",
      "d at",
      "g b",
      "n i",
      "recei ver",
      "ne w",
      "th e",
      "d a",
      "e nt",
      "in p",
      "dd r",
      "ser vice",
      "l s",
      "t ed",
      "ra n",
      "b d",
      "u pt",
      "err upt",
      "ad d",
      "ee ee",
      "as m",
      "int errupt",
      "sp asm",
      "cal ls",
      "a e",
      "c a",
      "h p",
      "de ni",
      "per mission",
      "inp ut",
      "deni ed",
      "m l",
      "sy s",
      "ig n",
      "p o",
      "pr e",
      "re e",
      "ab le",
      "999999999999999999999999 9999",
      "ex ce",
      "b a",
      "c f",
      "mp i",
      "i b",
      "l in",
      "r ts",
      "s e",
      "at ing",
      "re ss",
      "add ress",
      "t or",
      "ffff ffff",
      "id o",
      "stat e",
      "tor us",
      "c tion",
      "d f",
      "s h",
      "u r",
      "pt or",
      "ab ase",
      "int o",
      "sp el",
      "hp cc",
      "spel ce",
      "a a",
      "b ol",
      "c k",
      "f b",
      "t ree",
      "sym bol",
      "pt ion",
      "exce ption",
      "ib m",
      "c b",
      "n ch",
      "p e",
      "in ser",
      "ch ip",
      "lo w",
      "dat abase",
      "ran k",
      "inser ted",
      "a f",
      "b f",
      "e v",
      "o d",
      "sy nch",
      "ra ptor",
      "ev ent",
      "i m",
      "r o",
      "s cr",
      "u p",
      "ac tion",
      "c t",
      "e a",
      "f ol",
      "t al",
      ".. .",
      "er n",
      "ma n",
      "to tal",
      "po int",
      "- -",
      "g er",
      "n um",
      "r c",
      "s rc",
      "ou t",
      "me nt",
      "999999999999999999999999 999",
      "low up",
      "fol lowup",
      "b in",
      "i t",
      "l i",
      "p a",
      "r u",
      "w n",
      "in st",
      "99999999 999999",
      "al ign",
      "st re",
      "ee e",
      "do wn",
      "par t",
      "eeee eee",
      "sh ut",
      "align ment",
      ") )",
      "b w",
      "c ase",
      "e for",
      "f lo",
      "i ti",
      "k ern",
      "m m",
      "m card",
      "m ty",
      "p ip",
      "t ing",
      "al le",
      "st er",
      "ge nt",
      "mi p",
      "bgl v",
      "ac ti",
      "ser num",
      "test case",
      "par efor",
      "ml p",
      "ml ct",
      "sys calls",
      "pre parefor",
      "lin k",
      "ur gent",
      "exception s",
      "bw alle",
      "kern el",
      "mcard sernum",
      "mty pe",
      "pip e",
      "acti v",
      "testcase s",
      "mlct n",
      "preparefor service",
      "bwalle n",
      "a ge",
      "b b",
      "i ty",
      "r i",
      "s ign",
      "ed ram",
      "lo ck",
      "ee p",
      "bgl scr",
      "generat ing",
      "sw eep",
      "cr iti",
      "im b",
      "ru ction",
      "inst ruction",
      "shut ting",
      "sign al",
      "bglscr atch",
      "criti cal",
      "e s",
      "g o",
      "i c",
      "k in",
      "l a",
      "n m",
      "o seconds",
      "de r",
      "ch e",
      "mi cr",
      "........ ....",
      "ti me",
      "ddcmd bglv",
      "interrupt s",
      "ro m",
      "pa kin",
      "flo ating",
      "micr oseconds",
      "a m",
      "c re",
      "e fc",
      "f un",
      "f rom",
      "g i",
      "g lo",
      "l l",
      "l u",
      "v nm",
      "re gi",
      "ra nd",
      "ou nt",
      "co p",
      "co de",
      "um t",
      "cre ating",
      "regi ster",
      "e f",
      "e fe",
      "f pr",
      "h y",
      "m ount",
      "p m",
      "s li",
      "t ran",
      "v ed",
      "w or",
      "correct able",
      "stat ic",
      "dat a",
      "man n",
      "ger mann",
      "go od",
      "glo sli",
      "a g",
      "b ad",
      "b it",
      "b lock",
      "e ff",
      "m in",
      "s o",
      "s cal",
      "u re",
      "in e",
      "99999999 9",
      "ss age",
      "err no",
      "me ssage",
      "bgl io",
      "ac k",
      "recei ved",
      "link card",
      "fun ction",
      "min i",
      ". /",
      "a n",
      "a ce",
      "a ss",
      "b u",
      "b le",
      "e b",
      "e n",
      "e fd",
      "f l",
      "n der",
      "r ed",
      "r un",
      "s mission",
      "ma ch",
      "al l",
      "re ad",
      "re tran",
      "st ar",
      "mi rand",
      "dc a",
      "co n",
      "co pro",
      "per for",
      "of dir",
      "................ ........",
      "ca che",
      "se nder",
      "activ e",
      "function al",
      "ass er",
      "mach ine",
      "retran smission",
      "mirand a",
      "ofdir ty",
      "b y",
      "d ou",
      "e t",
      "l ts",
      "m er",
      "p hy",
      "q u",
      "r fi",
      "w er",
      "ar e",
      "ar y",
      "de v",
      "node card",
      "re su",
      "st ab",
      "as h",
      "su mm",
      "nt e",
      "co nt",
      "te mp",
      "per f",
      "fe aa",
      "stat us",
      "po wer",
      "lin e",
      "sh er",
      "stre am",
      "lu stre",
      "en able",
      "fl ash",
      "dou ble",
      "rfi sher",
      "resu lts",
      "summ ary",
      "b ee",
      "c p",
      "c dc",
      "f cc",
      "h as",
      "h um",
      "j t",
      "l b",
      "l atch",
      "m o",
      "o k",
      "x c",
      "x y",
      "x ffffffff",
      "at e",
      "at ion",
      "ma x",
      "ma nd",
      ".... ..",
      "re l",
      "error s",
      "sp ent",
      "sp pm",
      "erat ure",
      "il ity",
      "par ity",
      "hp l",
      "ck et",
      "man ce",
      "wor k",
      "so cket",
      "perfor mance",
      "asser ted",
      "stab ility",
      "temp erature",
      "bee n",
      "hum mer",
      "jt ag",
      "/ /",
      "c s",
      "c x",
      "c able",
      "d in",
      "e test",
      "f u",
      "f ce",
      "g ree",
      "i cal",
      "j eff",
      "m ed",
      "n s",
      "o p",
      "o t",
      "o pt",
      "r eco",
      "s le",
      "s od",
      "s ical",
      "u l",
      "u nd",
      "x l",
      "z t",
      "de c",
      "or e",
      "or t",
      "or din",
      "in f",
      "ce c",
      "ed s",
      "re s",
      "re se",
      "cio stream",
      "fi x",
      "st e",
      "st el",
      "di me",
      "cc c",
      "ser ver",
      "co mp",
      "co ordin",
      "to mand",
      "test ed",
      "be n",
      "pre fix",
      "exce eds",
      "scr i",
      "scal ing",
      "mini ben",
      "bu g",
      "phy sical",
      "xy zt",
      "cx x",
      "fu ll",
      "gree no",
      "ns ion",
      "sod scaling",
      "rese t",
      "stel la",
      "dime nsion",
      "coordin ate",
      "tomand jeff",
      "a ver",
      "b ig",
      "c j",
      "c lock",
      "d s",
      "d ra",
      "e ss",
      "e fb",
      "e ger",
      "g r",
      "k b",
      "k pt",
      "l wor",
      "m b",
      "m c",
      "m id",
      "m od",
      "n ect",
      "p la",
      "p good",
      "p lb",
      "r ol",
      "s ent",
      "u e",
      "u nte",
      "v ol",
      "w el",
      "de activ",
      "de scri",
      "ff c",
      "at ed",
      "er ing",
      "ch kpt",
      "lo c",
      "pro per",
      "re ading",
      "re qu",
      "ra il",
      "ad c",
      "st ed",
      "st ore",
      "........ .",
      "ac f",
      "cc fc",
      "dd bc",
      "erat ion",
      "co me",
      "ti es",
      "db lwor",
      "mp good",
      "to o",
      "test s",
      "................ .",
      "................ ....",
      "un correctable",
      "cd fc",
      "pre p",
      "lin es",
      "mm cs",
      "age s",
      "time out",
      "scal etest",
      "star ted",
      "dca che",
      "........................ ...",
      "ofdirty dblwor",
      "ofdirty lines",
      "cont rol",
      "mo de",
      "op eration",
      "aver ages",
      "cj m",
      "dra eger",
      "ess l",
      "mid pla",
      "unte sted",
      "vol t",
      "wel come",
      "deactiv ated",
      "descri ptor",
      "proper ties",
      "ofdirtydblwor d",
      "midpla ne",
      "a nte",
      "b o",
      "b er",
      "b mi",
      "b fc",
      "b fa",
      "b fd",
      "b ae",
      "b ri",
      "c i",
      "c ac",
      "c dd",
      "c ddc",
      "c ur",
      "c la",
      "c pm",
      "e p",
      "f ec",
      "g p",
      "g u",
      "g ni",
      "h t",
      "i j",
      "i r",
      "i al",
      "i red",
      "j ag",
      "k e",
      "l r",
      "l er",
      "l inp",
      "m f",
      "m mi",
      "m ory",
      "m dca",
      "n ing",
      "o pe",
      "p as",
      "p ort",
      "r ce",
      "r st",
      "s able",
      "t ra",
      "t ou",
      "u ce",
      "w il",
      "w ri",
      "z ed",
      "ar ante",
      "de bug",
      "ec is",
      "ma ster",
      "99999999 99",
      "pr ecis",
      "fi g",
      "fi rst",
      "ou rce",
      "di sable",
      "me mory",
      "bgl master",
      "ac b",
      "ac cess",
      "pt ure",
      "ab c",
      "dd dc",
      "fc d",
      "co mm",
      "ol d",
      "per cla",
      "ex t",
      "ex ec",
      "us ed",
      "................ ............",
      "ig ht",
      "un der",
      "un reco",
      "cd bc",
      "add r",
      "ca pture",
      "ib le",
      "ck pt",
      "tree addr",
      "pe s",
      "im precis",
      "ern al",
      "li am",
      "ri ch",
      "............ ...",
      "ll er",
      "rand o",
      "hy percla",
      "red uce",
      "all reduce",
      "con fig",
      "by te",
      "cp u",
      "ul ri",
      "und y",
      "ste ering",
      "comp are",
      "full y",
      "ds mc",
      "loc ation",
      "requ ired",
      "cjm undy",
      "bmi ller",
      "bri an",
      "gu arante",
      "gni zed",
      "linp ack",
      "mdca sk",
      "pas ci",
      "tou ch",
      "wil liam",
      "wri te",
      "unreco gnized",
      "imprecis e",
      "hypercla w",
      "guarante ed",
      "william s",
      "a u",
      "a nt",
      "a us",
      "a ae",
      "a it",
      "b s",
      "b dc",
      "b and",
      "b bc",
      "b ut",
      "b fe",
      "b lu",
      "c v",
      "c ce",
      "c le",
      "c ad",
      "c ab",
      "c dec",
      "c cec",
      "d ur",
      "d dec",
      "e ed",
      "e nd",
      "e bd",
      "e ue",
      "f s",
      "f re",
      "f ee",
      "f bc",
      "f low",
      "g un",
      "g bglv",
      "h and",
      "h ack",
      "h an",
      "i res",
      "k u",
      "l ap",
      "m k",
      "m ar",
      "m at",
      "m gr",
      "n k",
      "n el",
      "n nect",
      "n fs",
      "o b",
      "o byte",
      "q bo",
      "r y",
      "r flo",
      "r bs",
      "s ing",
      "s el",
      "s ource",
      "t w",
      "t z",
      "t ec",
      "t lb",
      "t ry",
      "u le",
      "v x",
      "w id",
      "w as",
      "w ait",
      "w ires",
      "x er",
      "x hpl",
      "x han",
      "y x",
      "z er",
      "ar ch",
      "de vice",
      "de mo",
      "ff a",
      "ff e",
      "ff f",
      "at abase",
      "ce e",
      "ce ec",
      "er no",
      "er ts",
      "ma y",
      "no io",
      "no sle",
      "no zer",
      "99999999 999",
      "ch mod",
      "io log",
      ".... ...",
      "lo ad",
      "nd ir",
      "al erts",
      "re ver",
      "re nt",
      "re try",
      "ad f",
      "ad cc",
      "ge t",
      "mi t",
      "........ ...",
      "as ic",
      "ver ed",
      "cc d",
      "cc dc",
      "for mat",
      "sp ace",
      "sp ort",
      "fa e",
      "cal tec",
      "el to",
      "el ight",
      "ti med",
      "db properties",
      "map file",
      "th under",
      "log s",
      "test ing",
      "test qbo",
      "................ ..",
      "ddcmd gbglv",
      "un able",
      "be ing",
      "be nch",
      "new s",
      "ent ion",
      "service action",
      "se arch",
      "se vered",
      "ido tran",
      "ur ation",
      "fb b",
      "im um",
      "ro ot",
      "ct r",
      "-- >",
      "num ber",
      "li mit",
      "ru ndir",
      "inst an",
      "shut down",
      "activ ating",
      "go ing",
      "............ .",
      "............ ..",
      "fun c",
      "ll ap",
      "code s",
      "register s",
      "block s",
      "so le",
      "efd f",
      "red und",
      "star t",
      "con nect",
      "con sole",
      "........................ .",
      "asser t",
      "qu eue",
      "cont ention",
      "cp md",
      "cdc c",
      "max imum",
      "fce a",
      "reco nnect",
      "sle pt",
      "inf erno",
      "full test",
      "mod ule",
      "cur rent",
      "ke y",
      "ope ning",
      "tra ce",
      "access ible",
      "ext ernal",
      "used atabase",
      "rando m",
      "config uration",
      "ulri key",
      "aus elto",
      "band wid",
      "blu elight",
      "cv s",
      "cle ar",
      "cab ot",
      "dur ing",
      "end serviceaction",
      "gun nel",
      "hand ler",
      "lap ack",
      "mar k",
      "obyte bug",
      "rflo mp",
      "sing le",
      "sel ect",
      "tz yx",
      "xhan g",
      "nosle ep",
      "nozer obytebug",
      "rever se",
      "retry ing",
      "sport mgr",
      "caltec h",
      "testqbo xhang",
      "bench mark",
      "idotran sportmgr",
      "instan ce",
      "redund ant",
      "connect ion",
      "auselto n",
      "bandwid th",
      "gunnel s",
      ") ...",
      ") ........................",
      ") ...........................",
      ") .......",
      "* )",
      "* ,",
      "/ )",
      "/ ..",
      ": :",
      "? /",
      "a ff",
      "a ec",
      "a ed",
      "a ad",
      "a st",
      "a ac",
      "a ab",
      "a ut",
      "a fb",
      "a ger",
      "a dec",
      "a adc",
      "b l",
      "b ec",
      "b al",
      "b as",
      "b direct",
      "b cc",
      "b dd",
      "b ip",
      "b us",
      "b ase",
      "b be",
      "b da",
      "b ba",
      "b ro",
      "b ack",
      "b ot",
      "b acb",
      "c y",
      "c de",
      "c lo",
      "c cess",
      "c bc",
      "c db",
      "c fe",
      "c fd",
      "c be",
      "c ount",
      "c star",
      "c dca",
      "c pes",
      "c nk",
      "d y",
      "d ad",
      "d ac",
      "d ab",
      "d fa",
      "d up",
      "d pm",
      "d ue",
      "d adc",
      "d acf",
      "e w",
      "e lo",
      "e st",
      "e fa",
      "e af",
      "e abc",
      "f p",
      "f ra",
      "f ad",
      "f be",
      "f chmod",
      "g at",
      "g al",
      "h w",
      "h ing",
      "h el",
      "h it",
      "h ering",
      "i mp",
      "i tion",
      "i cb",
      "i cache",
      "i ku",
      "j ect",
      "j ul",
      "j ob",
      "k y",
      "k er",
      "k il",
      "k map",
      "k etest",
      "l d",
      "l y",
      "l at",
      "l us",
      "l pa",
      "l control",
      "l ight",
      "m ing",
      "m pt",
      "m mand",
      "m ul",
      "n c",
      "n p",
      "n de",
      "n not",
      "n an",
      "n ext",
      "p c",
      "p u",
      "p w",
      "p ing",
      "p ol",
      "p ut",
      "p ur",
      "p ack",
      "p lus",
      "p pc",
      "r ou",
      "r ound",
      "r on",
      "r ky",
      "s ma",
      "s of",
      "s nan",
      "t er",
      "t ch",
      "t ip",
      "t mp",
      "t un",
      "t ur",
      "t ri",
      "t ue",
      "t au",
      "u mask",
      "u id",
      "u ser",
      "u es",
      "u ation",
      "u dy",
      "v a",
      "v n",
      "v ac",
      "v trace",
      "x a",
      "x b",
      "x il",
      "y at",
      "y es",
      "ar ing",
      "ar ty",
      "de dc",
      "de pt",
      "de cc",
      "de dd",
      "de fc",
      "ff b",
      "ff t",
      "ff er",
      "ff fc",
      "ff cd",
      "ff ae",
      "ff aa",
      "ff cec",
      "ff bfc",
      "ff tw",
      "or der",
      "in ex",
      "in it",
      "in iti",
      "in ity",
      "in uation",
      "at te",
      "ce a",
      "ce dc",
      "ce ac",
      "ce fc",
      "ce cd",
      "iar y",
      "ec a",
      "ec c",
      "ec f",
      "ec bc",
      "ec ial",
      "ma in",
      "ma ccess",
      "no pr",
      "no comm",
      "no va",
      "99999999 99999",
      "sy nd",
      "sy ste",
      "ch il",
      "ch control",
      "sym link",
      "ed b",
      "ed d",
      "ed f",
      "io state",
      ".... .",
      "lo ew",
      "ss ion",
      "ss ible",
      "nd ition",
      "nd pack",
      "pro ble",
      "pro xy",
      "al read",
      "al loc",
      "al location",
      "id ou",
      "id mp",
      "le ment",
      "le gal",
      "re ser",
      "re star",
      "re started",
      "re fre",
      "ra nova",
      "ciod b",
      "ad a",
      "ad b",
      "ad ac",
      "ad bc",
      "ad be",
      "ad ca",
      "fi el",
      "st op",
      "st ir",
      "st ron",
      "st udy",
      "ge s",
      "ee k",
      "ee bf",
      "mi ranova",
      "dc d",
      "dc fc",
      "dc cb",
      "file syste",
      "di ed",
      "di vac",
      "do ne",
      "ion i",
      "process es",
      "me am",
      "bgl ct",
      "ac t",
      "pt s",
      "su p",
      "ver bo",
      "ab b",
      "cc a",
      "val ues",
      "dd a",
      "dd b",
      "dd d",
      "dd ac",
      "dd fc",
      "fc a",
      "fc f",
      "fc ddb",
      "ser ial",
      "int ernal",
      "for ce",
      "sp aring",
      "sp ecial",
      "co mmi",
      "co mmand",
      "co ndition",
      "fa a",
      "il legal",
      "ho ld",
      "ip address",
      "el ine",
      "bc ast",
      "of da",
      "ti ti",
      "ti tion",
      "ut ion",
      "db d",
      "db ec",
      "db ac",
      "db cc",
      "db bc",
      "db fd",
      "mp s",
      "sw it",
      "over flow",
      "ddc a",
      "ddc c",
      "ex e",
      "ex pre",
      "ap c",
      "fe a",
      "fe af",
      "fe tch",
      "map s",
      "ne are",
      "to all",
      "us r",
      "us hing",
      "md g",
      "th is",
      "th res",
      "test scri",
      "par tition",
      "par mdg",
      "................ ...",
      "................ ......",
      "................ .................",
      "fd f",
      "on ly",
      "un imp",
      "be a",
      "be ab",
      "be fcc",
      "ni c",
      "new comp",
      "new hack",
      "new maps",
      "da e",
      "da ac",
      "da fc",
      "ent ial",
      "ls eek",
      "ae f",
      "ae ec",
      "ca used",
      "ca nnot",
      "po p",
      "po se",
      "po ssible",
      "pre sent",
      "pre fetch",
      "ba nk",
      "ba ker",
      "cf lu",
      "cf dddc",
      "mpi ts",
      "se qu",
      "se ndpack",
      "se titi",
      "ido proxy",
      "aa a",
      "fb cc",
      "fb bc",
      "symbol s",
      "cb dc",
      "cb ac",
      "cb cc",
      "cb bc",
      "pe er",
      "af ter",
      "bf ab",
      "ro me",
      "ro cstar",
      "ro cflu",
      "up on",
      "fol d",
      "man ager",
      "out put",
      "it z",
      "pa ges",
      "pa nic",
      "stre itz",
      "bb adbe",
      "edram s",
      "time s",
      "time ofda",
      "rom io",
      "efc a",
      "efc d",
      "efc fc",
      "efc fb",
      "glo bal",
      "lu ke",
      "efe b",
      "efe bc",
      "efe aa",
      "efe bb",
      "eff d",
      "eff cb",
      "so on",
      "bu sy",
      "bu ber",
      "bu ffer",
      "en cy",
      "efd a",
      "efd bc",
      "fl ushing",
      "run ning",
      "all toall",
      "read link",
      "con c",
      "perfor med",
      "perfor ming",
      "dev elo",
      "nodecard s",
      "cont inuation",
      "stream tri",
      "cp p",
      "cdc f",
      "// /",
      "cs ar",
      "fce e",
      "sle s",
      "ore start",
      "inf inity",
      "res ource",
      "ste er",
      "server db",
      "efb b",
      "efb f",
      "efb fd",
      "gr ound",
      "requ est",
      ".................... .",
      ".................... ...",
      "descriptor s",
      "midplane swit",
      "bfc f",
      "bfd a",
      "cur ioni",
      "ep streamtri",
      "ope n",
      "tra p",
      "debug ger",
      "comm s",
      "exec ution",
      "............................ .",
      "under flow",
      "rando maccess",
      "config file",
      "ulri ketest",
      "write v",
      "au xil",
      "bbc a",
      "eed c",
      "fre ed",
      "fbc d",
      "ku bot",
      "ob ject",
      "tw are",
      "ffa de",
      "get uid",
      "get timeofda",
      "console ip",
      "console port",
      "nosleep yes",
      "nosleep nocomm",
      "/.. /",
      "aff d",
      "aut orestart",
      "bl as",
      "bas eline",
      "bip arty",
      "bro adca",
      "back ground",
      "clo se",
      "count er",
      "dac c",
      "dfa fa",
      "dpm gr",
      "efa ea",
      "fra ction",
      "fad y",
      "gat hering",
      "hw stab",
      "hel low",
      "icb i",
      "iku o",
      "kil l",
      "lat ency",
      "lpa vtrace",
      "lcontrol descriptors",
      "mpt ing",
      "mul tip",
      "nde d",
      "pu x",
      "pw d",
      "pol lcontroldescriptors",
      "pur pose",
      "rou nded",
      "sma ll",
      "sof tware",
      "tun ed",
      "tur bdirect",
      "user func",
      "yat es",
      "dept h",
      "ffcd f",
      "order ing",
      "inex act",
      "initi al",
      "atte mpting",
      "nopr int",
      "synd rome",
      "chil d",
      "chcontrol ler",
      "loew e",
      "proble m",
      "alread y",
      "alloc ate",
      "idou dpmgr",
      "lement ed",
      "reser ved",
      "restar ting",
      "refre sh",
      "fiel ds",
      "stop ping",
      "stir turbdirect",
      "stron g",
      "filesyste m",
      "bglct lpavtrace",
      "verbo se",
      "serial number",
      "commi t",
      "bcast v",
      "expre ssion",
      "neare st",
      "thres hold",
      "testscri pts",
      "unimp lemented",
      "sequ ential",
      "sendpack et",
      "setiti mer",
      "idoproxy db",
      "rocflu idmp",
      "luke i",
      "develo p",
      "midplaneswit chcontroller",
      "epstreamtri ad",
      "ulriketest s",
      "auxil iary",
      "kubot a",
      "gettimeofda y",
      "nosleepyes comm",
      "biparty z",
      "broadca st",
      "multip le"
    ]
  }
}