{
  "version": "1.0",
  "truncation": null,
  "padding": null,
  "added_tokens": [
    {
      "id": 0,
      "content": "<pad>",
      "single_word": false,
      "lstrip": false,
      "rstrip": false,
      "normalized": false,
      "special": true
    },
    {
      "id": 1,
      "content": "<unk>",
      "single_word": false,
      "lstrip": false,
      "rstrip": false,
      "normalized": false,
      "special": true
    },
    {
      "id": 2,
      "content": " ",
      "single_word": false,
      "lstrip": false,
      "rstrip": false,
      "normalized": false,
      "special": true
    }
  ],
  "normalizer": {
    "type": "Sequence",
    "normalizers": [
      {
        "type": "NFKC"
      },
      {
        "type": "Lowercase"
      }
    ]
  },
  "pre_tokenizer": {
    "type": "Sequence",
    "pretokenizers": [
      {
        "type": "Whitespace"
      },
      {
        "type": "ByteLevel",
        "add_prefix_space": false,
        "trim_offsets": true,
        "use_regex": true
      }
    ]
  },
  "post_processor": {
    "type": "ByteLevel",
    "add_prefix_space": true,
    "trim_offsets": false,
    "use_regex": true
  },
  "decoder": null,
  "model": {
    "type": "BPE",
    "dropout": null,
    "unk_token": null,
    "continuing_subword_prefix": null,
    "end_of_word_suffix": null,
    "fuse_unk": false,
    "byte_fallback": false,
    "ignore_merges": false,
    "vocab": {
      "<pad>": 0,
      "<unk>": 1,
      " ": 2,
      "(": 3,
      ")": 4,
      "*": 5,
      "-": 6,
      ".": 7,
      "/": 8,
      "9": 9,
      ":": 10,
      "<": 11,
      "=": 12,
      ">": 13,
      "[": 14,
      "\\": 15,
      "]": 16,
      "_": 17,
      "a": 18,
      "b": 19,
      "c": 20,
      "d": 21,
      "e": 22,
      "f": 23,
      "g": 24,
      "h": 25,
      "i": 26,
      "k": 27,
      "l": 28,
      "m": 29,
      "n": 30,
      "o": 31,
      "p": 32,
      "r": 33,
      "s": 34,
      "t": 35,
      "u": 36,
      "v": 37,
      "w": 38,
      "x": 39,
      "y": 40,
      "99": 41,
      "9999": 42,
      "no": 43,
      "te": 44,
      "de": 45,
      "node": 46,
      "in": 47,
      "ff": 48,
      "er": 49,
      "999": 50,
      "on": 51,
      "le": 52,
      "ste": 53,
      "om": 54,
      "nt": 55,
      "99999999": 56,
      "an": 57,
      "or": 58,
      "ent": 59,
      "ta": 60,
      "fi": 61,
      "ok": 62,
      "9999999999": 63,
      "sy": 64,
      "lesy": 65,
      "stem": 66,
      "filesy": 67,
      "filesystem": 68,
      "et": 69,
      "va": 70,
      "com": 71,
      "ed": 72,
      "sta": 73,
      "ser": 74,
      "serv": 75,
      "wi": 76,
      "ain": 77,
      "ch": 78,
      "dom": 79,
      "domain": 80,
      "un": 81,
      "ffff": 82,
      "state": 83,
      "ror": 84,
      "error": 85,
      "is": 86,
      "pon": 87,
      "il": 88,
      "con": 89,
      "ter": 90,
      "inter": 91,
      "fe": 92,
      "ab": 93,
      "cl": 94,
      "uste": 95,
      "cluste": 96,
      "cluster": 97,
      "ava": 98,
      "compon": 99,
      "ilab": 100,
      "availab": 101,
      "component": 102,
      "available": 103,
      "ing": 104,
      "ge": 105,
      "wid": 106,
      "clusterfilesystem": 107,
      "si": 108,
      "and": 109,
      "net": 110,
      "server": 111,
      "lin": 112,
      "link": 113,
      "serverfilesystem": 114,
      "al": 115,
      "nodes": 116,
      "wor": 117,
      "ange": 118,
      "change": 119,
      "unavailable": 120,
      "networ": 121,
      "network": 122,
      "ac": 123,
      "red": 124,
      "ne": 125,
      "oo": 126,
      "oot": 127,
      "served": 128,
      "th": 129,
      "ex": 130,
      "ev": 131,
      "ired": 132,
      "pired": 133,
      "ti": 134,
      "val": 135,
      "interval": 136,
      "linkerror": 137,
      "expired": 138,
      "event": 139,
      "sc": 140,
      "conne": 141,
      "connec": 142,
      "hwid": 143,
      "ning": 144,
      "the": 145,
      "mand": 146,
      "command": 147,
      "re": 148,
      "ffffff": 149,
      "iff": 150,
      "niff": 151,
      "by": 152,
      "ger": 153,
      "lon": 154,
      "longer": 155,
      "as": 156,
      "du": 157,
      "mo": 158,
      "swi": 159,
      "tch": 160,
      "dule": 161,
      "module": 162,
      "switch": 163,
      "tion": 164,
      "wwid": 165,
      "scsi": 166,
      "**": 167,
      "ted": 168,
      "wa": 169,
      "mb": 170,
      "root": 171,
      "fffffffe": 172,
      "has": 173,
      "amb": 174,
      "ient": 175,
      "ambient": 176,
      "tu": 177,
      "incon": 178,
      "stent": 179,
      "ets": 180,
      "sistent": 181,
      "nodesets": 182,
      "inconsistent": 183,
      "cted": 184,
      "fac": 185,
      "ia": 186,
      "via": 187,
      "tected": 188,
      "detected": 189,
      "interfac": 190,
      "connection": 191,
      "interface": 192,
      "ix": 193,
      "unix": 194,
      "get": 195,
      "rning": 196,
      "rget": 197,
      "target": 198,
      "domains": 199,
      "warning": 200,
      "targeting": 201,
      "hw": 202,
      "up": 203,
      "rm": 204,
      "not": 205,
      "mp": 206,
      "norm": 207,
      "normal": 208,
      "9999999": 209,
      "alt": 210,
      "-[": 211,
      "boot": 212,
      "ee": 213,
      "999999": 214,
      "ll": 215,
      "bac": 216,
      "kup": 217,
      "statu": 218,
      "backup": 219,
      "status": 220,
      "cm": 221,
      "cmd": 222,
      "fu": 223,
      "fan": 224,
      "full": 225,
      "fd": 226,
      "ut": 227,
      "cal": 228,
      "eed": 229,
      "eeds": 230,
      "temp": 231,
      "res": 232,
      "atu": 233,
      "peeds": 234,
      "speeds": 235,
      "eratu": 236,
      "temperatu": 237,
      "temperature": 238,
      "run": 239,
      "running": 240,
      "lo": 241,
      "interconnec": 242,
      "interconnect": 243,
      "new": 244,
      "****": 245,
      "local": 246,
      "gi": 247,
      "gige": 248,
      "fdfe": 249,
      "su": 250,
      "out": 251,
      "ding": 252,
      "gu": 253,
      "figu": 254,
      "ponding": 255,
      "configu": 256,
      "responding": 257,
      "configured": 258,
      "cu": 259,
      "ffe": 260,
      "cur": 261,
      "age": 262,
      "st": 263,
      "orage": 264,
      "storage": 265,
      "fa": 266,
      "ow": 267,
      "fffffe": 268,
      "it": 269,
      "action": 270,
      "wait": 271,
      "ile": 272,
      "main": 273,
      "of": 274,
      "rt": 275,
      "rent": 276,
      "start": 277,
      "chil": 278,
      "errors": 279,
      "remain": 280,
      "current": 281,
      "child": 282,
      "tmp": 283,
      "dow": 284,
      "faile": 285,
      "down": 286,
      "failed": 287,
      "cc": 288,
      "es": 289,
      "xfffffffe": 290,
      "succ": 291,
      "ess": 292,
      "success": 293,
      "fc": 294,
      "fffe": 295,
      "hut": 296,
      "shut": 297,
      "shutdown": 298,
      "ro": 299,
      "99999": 300,
      "ple": 301,
      "comple": 302,
      "ffffe": 303,
      "completed": 304,
      "ad": 305,
      "bc": 306,
      "ast": 307,
      "fully": 308,
      "successfully": 309,
      "bffe": 310,
      "for": 311,
      "bcommand": 312,
      "ere": 313,
      "there": 314,
      "subcommand": 315,
      "subcommands": 316,
      "cr": 317,
      "emb": 318,
      "ip": 319,
      "iti": 320,
      "mn": 321,
      "memb": 322,
      "var": 323,
      "cont": 324,
      "scip": 325,
      "fdmn": 326,
      "reset": 327,
      "criti": 328,
      "member": 329,
      "critical": 330,
      "sr": 331,
      "usr": 332,
      "eeee": 333,
      "halt": 334,
      "bcast": 335,
      "dmember": 336,
      "clusterad": 337,
      "clusteraddmember": 338,
      "abor": 339,
      "ffffffe": 340,
      "ic": 341,
      "pan": 342,
      "ve": 343,
      "fee": 344,
      "rol": 345,
      "control": 346,
      "panic": 347,
      "bro": 348,
      "cast": 349,
      "ho": 350,
      "ld": 351,
      "ris": 352,
      "tre": 353,
      "acti": 354,
      "thres": 355,
      "exc": 356,
      "fffffffc": 357,
      "adcast": 358,
      "broadcast": 359,
      "hold": 360,
      "risboot": 361,
      "tree": 362,
      "active": 363,
      "threshold": 364,
      "bfe": 365,
      "ccur": 366,
      "munix": 367,
      "nv": 368,
      "occur": 369,
      "genv": 370,
      "bootgenv": 371,
      "occurred": 372,
      "bootgenvmunix": 373,
      "affe": 374,
      "ble": 375,
      "bee": 376,
      "bfffffe": 377,
      "can": 378,
      "fbfffffe": 379,
      "pow": 380,
      "pro": 381,
      "ue": 382,
      "inue": 383,
      "ffbffe": 384,
      "serted": 385,
      "fffff": 386,
      "ffffbffe": 387,
      "asserted": 388,
      "continue": 389,
      "aborted": 390,
      "exceeds": 391,
      "blem": 392,
      "been": 393,
      "cannot": 394,
      "power": 395,
      "problem": 396,
      "af": 397,
      "be": 398,
      "blo": 399,
      "bffffffe": 400,
      "ck": 401,
      "fde": 402,
      "gh": 403,
      "hi": 404,
      "insta": 405,
      "fffffc": 406,
      "ffffffbe": 407,
      "temphi": 408,
      "ffffeffe": 409,
      "eeeeeeee": 410,
      "abort": 411,
      "block": 412,
      "fdee": 413,
      "install": 414,
      "temphigh": 415,
      "blocked": 416,
      "ar": 417,
      "bffff": 418,
      "ds": 419,
      "dfe": 420,
      "dffe": 421,
      "dfffffe": 422,
      "psu": 423,
      "par": 424,
      "ure": 425,
      "del": 426,
      "fffdfe": 427,
      "fffc": 428,
      "ilure": 429,
      "tition": 430,
      "fdfffdfe": 431,
      "failure": 432,
      "ffffebfe": 433,
      "bffffdfe": 434,
      "dsk": 435,
      "partition": 436,
      "aa": 437,
      "bfffe": 438,
      "cf": 439,
      "co": 440,
      "df": 441,
      "hile": 442,
      "ls": 443,
      "ms": 444,
      "med": 445,
      "os": 446,
      "pr": 447,
      "pt": 448,
      "srm": 449,
      "while": 450,
      "ded": 451,
      "ompt": 452,
      "clos": 453,
      "timed": 454,
      "fffffff": 455,
      "fffffffa": 456,
      "eeded": 457,
      "fdfffe": 458,
      "waiting": 459,
      "exceeded": 460,
      "code": 461,
      "lsf": 462,
      "prompt": 463,
      "closing": 464,
      "bf": 465,
      "cb": 466,
      "tserver": 467,
      "edfe": 468,
      "fffffd": 469,
      "ffffbc": 470,
      "ffffffee": 471,
      "give": 472,
      "fffffefe": 473,
      "starting": 474
    },
    "merges": [
      "9 9",
      "99 99",
      "n o",
      "t e",
      "d e",
      "no de",
      "i n",
      "f f",
      "e r",
      "99 9",
      "o n",
      "l e",
      "s te",
      "o m",
      "n t",
      "9999 9999",
      "a n",
      "o r",
      "e nt",
      "t a",
      "f i",
      "o k",
      "99999999 99",
      "s y",
      "le sy",
      "ste m",
      "fi lesy",
      "filesy stem",
      "e t",
      "v a",
      "c om",
      "e d",
      "s ta",
      "s er",
      "ser v",
      "w i",
      "a in",
      "c h",
      "d om",
      "dom ain",
      "u n",
      "ff ff",
      "sta te",
      "r or",
      "er ror",
      "i s",
      "p on",
      "i l",
      "c on",
      "te r",
      "in ter",
      "f e",
      "a b",
      "c l",
      "u ste",
      "cl uste",
      "cluste r",
      "a va",
      "com pon",
      "il ab",
      "ava ilab",
      "compon ent",
      "availab le",
      "in g",
      "g e",
      "wi d",
      "cluster filesystem",
      "s i",
      "an d",
      "n et",
      "serv er",
      "l in",
      "lin k",
      "server filesystem",
      "a l",
      "node s",
      "w or",
      "an ge",
      "ch ange",
      "un available",
      "net wor",
      "networ k",
      "a c",
      "r ed",
      "n e",
      "o o",
      "oo t",
      "serv ed",
      "t h",
      "e x",
      "e v",
      "i red",
      "p ired",
      "t i",
      "va l",
      "inter val",
      "link error",
      "ex pired",
      "ev ent",
      "s c",
      "con ne",
      "conne c",
      "h wid",
      "n ing",
      "th e",
      "m and",
      "com mand",
      "r e",
      "ffff ff",
      "i ff",
      "n iff",
      "b y",
      "g er",
      "l on",
      "lon ger",
      "a s",
      "d u",
      "m o",
      "s wi",
      "t ch",
      "du le",
      "mo dule",
      "swi tch",
      "ti on",
      "w wid",
      "sc si",
      "* *",
      "te d",
      "w a",
      "m b",
      "r oot",
      "ffffff fe",
      "h as",
      "a mb",
      "i ent",
      "amb ient",
      "t u",
      "in con",
      "ste nt",
      "et s",
      "si stent",
      "nodes ets",
      "incon sistent",
      "c ted",
      "f ac",
      "i a",
      "v ia",
      "te cted",
      "de tected",
      "inter fac",
      "connec tion",
      "interfac e",
      "i x",
      "un ix",
      "g et",
      "r ning",
      "r get",
      "ta rget",
      "domain s",
      "wa rning",
      "target ing",
      "h w",
      "u p",
      "r m",
      "no t",
      "m p",
      "no rm",
      "norm al",
      "9999 999",
      "al t",
      "- [",
      "b oot",
      "e e",
      "9999 99",
      "l l",
      "b ac",
      "k up",
      "sta tu",
      "bac kup",
      "statu s",
      "c m",
      "cm d",
      "f u",
      "f an",
      "fu ll",
      "f d",
      "u t",
      "c al",
      "e ed",
      "eed s",
      "te mp",
      "re s",
      "a tu",
      "p eeds",
      "s peeds",
      "er atu",
      "temp eratu",
      "temperatu re",
      "r un",
      "run ning",
      "l o",
      "inter connec",
      "interconnec t",
      "ne w",
      "** **",
      "lo cal",
      "g i",
      "gi ge",
      "fd fe",
      "s u",
      "o ut",
      "d ing",
      "g u",
      "fi gu",
      "pon ding",
      "con figu",
      "res ponding",
      "configu red",
      "c u",
      "ff e",
      "cu r",
      "a ge",
      "s t",
      "or age",
      "st orage",
      "f a",
      "o w",
      "ffff fe",
      "i t",
      "ac tion",
      "wa it",
      "i le",
      "m ain",
      "o f",
      "r t",
      "r ent",
      "sta rt",
      "ch il",
      "error s",
      "re main",
      "cur rent",
      "chil d",
      "t mp",
      "d ow",
      "fa ile",
      "dow n",
      "faile d",
      "c c",
      "e s",
      "x fffffffe",
      "su cc",
      "es s",
      "succ ess",
      "f c",
      "ff fe",
      "h ut",
      "s hut",
      "shut down",
      "r o",
      "9999 9",
      "p le",
      "com ple",
      "ffff e",
      "comple ted",
      "a d",
      "b c",
      "as t",
      "full y",
      "success fully",
      "b ffe",
      "f or",
      "b command",
      "er e",
      "th ere",
      "su bcommand",
      "subcommand s",
      "c r",
      "e mb",
      "i p",
      "i ti",
      "m n",
      "m emb",
      "va r",
      "con t",
      "sc ip",
      "fd mn",
      "res et",
      "cr iti",
      "memb er",
      "criti cal",
      "s r",
      "u sr",
      "ee ee",
      "h alt",
      "bc ast",
      "d member",
      "cluster ad",
      "clusterad dmember",
      "ab or",
      "ffffff e",
      "i c",
      "p an",
      "v e",
      "fe e",
      "ro l",
      "cont rol",
      "pan ic",
      "b ro",
      "c ast",
      "h o",
      "l d",
      "r is",
      "t re",
      "ac ti",
      "th res",
      "ex c",
      "ffffff fc",
      "ad cast",
      "bro adcast",
      "ho ld",
      "ris boot",
      "tre e",
      "acti ve",
      "thres hold",
      "b fe",
      "c cur",
      "m unix",
      "n v",
      "o ccur",
      "ge nv",
      "boot genv",
      "occur red",
      "bootgenv munix",
      "a ffe",
      "b le",
      "b ee",
      "b fffffe",
      "c an",
      "f bfffffe",
      "p ow",
      "p ro",
      "u e",
      "in ue",
      "ff bffe",
      "ser ted",
      "ffff f",
      "ffff bffe",
      "as serted",
      "cont inue",
      "abor ted",
      "exc eeds",
      "ble m",
      "bee n",
      "can not",
      "pow er",
      "pro blem",
      "a f",
      "b e",
      "b lo",
      "b ffffffe",
      "c k",
      "f de",
      "g h",
      "h i",
      "in sta",
      "ffff fc",
      "ffffff be",
      "temp hi",
      "ffffe ffe",
      "eeee eeee",
      "abor t",
      "blo ck",
      "fde e",
      "insta ll",
      "temphi gh",
      "block ed",
      "a r",
      "b ffff",
      "d s",
      "d fe",
      "d ffe",
      "d fffffe",
      "p su",
      "p ar",
      "u re",
      "de l",
      "ff fdfe",
      "ff fc",
      "il ure",
      "ti tion",
      "fd fffdfe",
      "fa ilure",
      "ffffe bfe",
      "bffff dfe",
      "ds k",
      "par tition",
      "a a",
      "b fffe",
      "c f",
      "c o",
      "d f",
      "h ile",
      "l s",
      "m s",
      "m ed",
      "o s",
      "p r",
      "p t",
      "s rm",
      "w hile",
      "de d",
      "om pt",
      "cl os",
      "ti med",
      "ffffff f",
      "ffffff fa",
      "ee ded",
      "fd fffe",
      "wait ing",
      "exc eeded",
      "co de",
      "ls f",
      "pr ompt",
      "clos ing",
      "b f",
      "c b",
      "t server",
      "ed fe",
      "ffff fd",
      "ffff bc",
      "ffffff ee",
      "gi ve",
      "fffffe fe",
      "start ing"
    ]
  }
}