{
  "version": "1.0",
  "truncation": null,
  "padding": null,
  "added_tokens": [
    {
      "id": 0,
      "content": "<pad>",
      "single_word": false,
      "lstrip": false,
      "rstrip": false,
      "normalized": false,
      "special": true
    },
    {
      "id": 1,
      "content": "<unk>",
      "single_word": false,
      "lstrip": false,
      "rstrip": false,
      "normalized": false,
      "special": true
    },
    {
      "id": 2,
      "content": " ",
      "single_word": false,
      "lstrip": false,
      "rstrip": false,
      "normalized": false,
      "special": true
    }
  ],
  "normalizer": {
    "type": "Sequence",
    "normalizers": [
      {
        "type": "NFKC"
      },
      {
        "type": "Lowercase"
      }
    ]
  },
  "pre_tokenizer": {
    "type": "Sequence",
    "pretokenizers": [
      {
        "type": "Whitespace"
      },
      {
        "type": "ByteLevel",
        "add_prefix_space": false,
        "trim_offsets": true,
        "use_regex": true
      }
    ]
  },
  "post_processor": {
    "type": "ByteLevel",
    "add_prefix_space": true,
    "trim_offsets": false,
    "use_regex": true
  },
  "decoder": null,
  "model": {
    "type": "BPE",
    "dropout": null,
    "unk_token": null,
    "continuing_subword_prefix": null,
    "end_of_word_suffix": null,
    "fuse_unk": false,
    "byte_fallback": false,
    "ignore_merges": false,
    "vocab": {
      "<pad>": 0,
      "<unk>": 1,
      " ": 2,
      "!": 3,
      "#": 4,
      "(": 5,
      ")": 6,
      "*": 7,
      "+": 8,
      ",": 9,
      "-": 10,
      ".": 11,
      "/": 12,
      "9": 13,
      ":": 14,
      "=": 15,
      ">": 16,
      "?": 17,
      "_": 18,
      "a": 19,
      "b": 20,
      "c": 21,
      "d": 22,
      "e": 23,
      "f": 24,
      "g": 25,
      "h": 26,
      "i": 27,
      "j": 28,
      "k": 29,
      "l": 30,
      "m": 31,
      "n": 32,
      "o": 33,
      "p": 34,
      "q": 35,
      "r": 36,
      "s": 37,
      "t": 38,
      "u": 39,
      "v": 40,
      "w": 41,
      "x": 42,
      "y": 43,
      "z": 44,
      "99": 45,
      "9999": 46,
      "ar": 47,
      "de": 48,
      "999": 49,
      "ff": 50,
      "or": 51,
      "..": 52,
      "in": 53,
      "ce": 54,
      "at": 55,
      "er": 56,
      "ec": 57,
      "iar": 58,
      "dear": 59,
      "ma": 60,
      "99999999": 61,
      "no": 62,
      "sy": 63,
      "ch": 64,
      "99999": 65,
      "sym": 66,
      "ed": 67,
      "sk": 68,
      "mask": 69,
      "io": 70,
      "....": 71,
      "lo": 72,
      "pr": 73,
      "ss": 74,
      "nd": 75,
      "ect": 76,
      "ing": 77,
      "node": 78,
      "ard": 79,
      "card": 80,
      "pro": 81,
      "ffff": 82,
      "err": 83,
      "le": 84,
      "id": 85,
      "ra": 86,
      "al": 87,
      "re": 88,
      "pd": 89,
      "vpd": 90,
      "cio": 91,
      "999999": 92,
      "ciod": 93,
      "error": 94,
      "ad": 95,
      "fi": 96,
      "ge": 97,
      "st": 98,
      "mi": 99,
      "rect": 100,
      "dc": 101,
      "file": 102,
      "ee": 103,
      "ou": 104,
      "ram": 105,
      "di": 106,
      "cor": 107,
      "fffff": 108,
      "gram": 109,
      "program": 110,
      "........": 111,
      "ion": 112,
      "miss": 113,
      "me": 114,
      "atch": 115,
      "do": 116,
      "not": 117,
      "eck": 118,
      "check": 119,
      "cess": 120,
      "process": 121,
      "ecid": 122,
      "processor": 123,
      "slo": 124,
      "ound": 125,
      "slot": 126,
      "bg": 127,
      "found": 128,
      "match": 129,
      "ac": 130,
      "bgl": 131,
      "ver": 132,
      "as": 133,
      "su": 134,
      "pt": 135,
      "9999999999999999": 136,
      "nt": 137,
      "ected": 138,
      "tected": 139,
      "detected": 140,
      "ory": 141,
      "direct": 142,
      "ab": 143,
      "directory": 144,
      "ading": 145,
      "cc": 146,
      "val": 147,
      "missing": 148,
      "inval": 149,
      "invalid": 150,
      "ima": 151,
      "loading": 152,
      "such": 153,
      "image": 154,
      "correct": 155,
      "ser": 156,
      "for": 157,
      "pe": 158,
      "and": 159,
      "dd": 160,
      "ome": 161,
      "int": 162,
      "fc": 163,
      "home": 164,
      "corrected": 165,
      "co": 166,
      "eco": 167,
      "il": 168,
      "per": 169,
      "seco": 170,
      "nds": 171,
      "seconds": 172,
      "ne": 173,
      "fa": 174,
      "),": 175,
      "map": 176,
      "dcr": 177,
      "te": 178,
      "bc": 179,
      "core": 180,
      "ner": 181,
      "of": 182,
      "gener": 183,
      "generat": 184,
      "cal": 185,
      "over": 186,
      "ut": 187,
      "ol": 188,
      "sw": 189,
      "bffff": 190,
      "us": 191,
      "9999999": 192,
      "ip": 193,
      "pi": 194,
      "999999999999999999999999": 195,
      "pp": 196,
      "cei": 197,
      "recei": 198,
      "ddc": 199,
      "ex": 200,
      "cr": 201,
      "par": 202,
      "ti": 203,
      "iled": 204,
      "failed": 205,
      "ts": 206,
      "tion": 207,
      "files": 208,
      "test": 209,
      "db": 210,
      "dir": 211,
      "on": 212,
      "generated": 213,
      "md": 214,
      "th": 215,
      "mission": 216,
      "log": 217,
      "ase": 218,
      "ca": 219,
      "vi": 220,
      "ate": 221,
      "ddcmd": 222,
      "be": 223,
      "cd": 224,
      "to": 225,
      "vice": 226,
      "fd": 227,
      "fe": 228,
      "ty": 229,
      "new": 230,
      "receiver": 231,
      "ni": 232,
      "inp": 233,
      "ran": 234,
      "................": 235,
      "app": 236,
      "dat": 237,
      "ig": 238,
      "is": 239,
      "um": 240,
      "chdir": 241,
      "service": 242,
      "login": 243,
      "apps": 244,
      "ddr": 245,
      "swl": 246,
      "(/": 247,
      "gb": 248,
      "rts": 249,
      "tor": 250,
      "the": 251,
      "torus": 252,
      "spe": 253,
      "un": 254,
      "input": 255,
      "hp": 256,
      "bd": 257,
      "ls": 258,
      "se": 259,
      "deni": 260,
      "permission": 261,
      "denied": 262,
      "da": 263,
      "lin": 264,
      "ml": 265,
      "sp": 266,
      "ted": 267,
      "upt": 268,
      "pre": 269,
      "errupt": 270,
      "interrupt": 271,
      "9999999999999999999999999999": 272,
      "exce": 273,
      "ba": 274,
      "ign": 275,
      "mpi": 276,
      "add": 277,
      "eeee": 278,
      "calls": 279,
      "aa": 280,
      "ib": 281,
      "lce": 282,
      "ating": 283,
      "spelce": 284,
      "ur": 285,
      "sys": 286,
      "able": 287,
      "ve": 288,
      "hpcc": 289,
      "po": 290,
      "ido": 291,
      "asm": 292,
      "rank": 293,
      "spasm": 294,
      "ibm": 295,
      "bol": 296,
      "cf": 297,
      "sh": 298,
      "symbol": 299,
      "ree": 300,
      "ress": 301,
      "address": 302,
      "ae": 303,
      "df": 304,
      "ption": 305,
      "abase": 306,
      "into": 307,
      "exception": 308,
      "ck": 309,
      "fb": 310,
      "chip": 311,
      "ptor": 312,
      "mb": 313,
      "inser": 314,
      "state": 315,
      "database": 316,
      "inserted": 317,
      "ction": 318,
      "ffffffff": 319,
      "nch": 320,
      "ro": 321,
      "tree": 322,
      "action": 323,
      "cb": 324,
      "pipe": 325,
      "af": 326,
      "ct": 327,
      "rc": 328,
      "src": 329,
      "low": 330,
      "raptor": 331,
      "eve": 332,
      "li": 333,
      "scr": 334,
      "synch": 335,
      "gent": 336,
      "ment": 337,
      "pare": 338,
      "urgent": 339,
      "event": 340,
      "bf": 341,
      "ea": 342,
      "el": 343,
      "num": 344,
      "pa": 345,
      "up": 346,
      "...": 347,
      "man": 348,
      "align": 349,
      "999999999999999999999999999": 350,
      "part": 351,
      "exceptions": 352,
      "alignment": 353,
      "bb": 354,
      "bin": 355,
      "ger": 356,
      "ker": 357,
      "mp": 358,
      "od": 359,
      "ting": 360,
      "tal": 361,
      "vn": 362,
      "wn": 363,
      "alle": 364,
      "stre": 365,
      "down": 366,
      "total": 367,
      "type": 368,
      "point": 369,
      "shut": 370,
      "))": 371,
      "fol": 372,
      "imb": 373,
      "mcard": 374,
      "mtype": 375,
      "99999999999999": 376,
      "str": 377,
      "mip": 378,
      "eep": 379,
      "out": 380,
      "bglv": 381,
      "sernum": 382,
      "forservice": 383,
      "cop": 384,
      "nel": 385,
      "sweep": 386,
      "line": 387,
      "mlp": 388,
      "mlct": 389,
      "prepare": 390,
      "kernel": 391,
      "mcardsernum": 392,
      "mlctn": 393,
      "prepareforservice": 394,
      "am": 395,
      "age": 396,
      "bw": 397,
      "case": 398,
      "it": 399,
      "kin": 400,
      "la": 401,
      "mm": 402,
      "ri": 403,
      "der": 404,
      "edram": 405,
      "stat": 406,
      "eee": 407,
      "testcase": 408,
      "link": 409,
      "eeeeeee": 410,
      "rom": 411,
      "lowup": 412,
      "pakin": 413,
      "vnm": 414,
      "allen": 415,
      "shutting": 416,
      "followup": 417,
      "bwallen": 418,
      "testcases": 419,
      "--": 420,
      "flo": 421,
      "from": 422,
      "ity": 423,
      "............": 424,
      "acti": 425,
      "ddcmdbglv": 426,
      "syscalls": 427,
      "cre": 428,
      "ef": 429,
      "glo": 430,
      "sign": 431,
      "uction": 432,
      "instr": 433,
      "lock": 434,
      "nda": 435,
      "ster": 436,
      "bglscr": 437,
      "code": 438,
      "generating": 439,
      "creating": 440,
      "signal": 441,
      "instruction": 442,
      "bglscratch": 443,
      "iti": 444,
      "ul": 445,
      "floating": 446,
      "hy": 447,
      "sli": 448,
      "tran": 449,
      "ation": 450,
      "che": 451,
      "micr": 452,
      "criti": 453,
      "time": 454,
      "data": 455,
      "interrupts": 456,
      "glosli": 457,
      "micro": 458,
      "critical": 459,
      "eff": 460,
      "gi": 461,
      "go": 462,
      "ic": 463,
      "lu": 464,
      "min": 465,
      "red": 466,
      "ue": 467,
      "ved": 468,
      "ord": 469,
      "ssage": 470,
      "regi": 471,
      "mira": 472,
      "ount": 473,
      "message": 474,
      "ack": 475,
      "nte": 476,
      "perf": 477,
      "linkcard": 478,
      "microseconds": 479,
      "register": 480,
      "an": 481,
      "ble": 482,
      "bit": 483,
      "block": 484,
      "eb": 485,
      "et": 486,
      "efc": 487,
      "efe": 488,
      "fpr": 489,
      "fun": 490,
      "mount": 491,
      "nder": 492,
      "smission": 493,
      "errno": 494,
      "retran": 495,
      "correctable": 496,
      "perfor": 497,
      "received": 498,
      "umt": 499,
      "sender": 500,
      "mini": 501,
      "miranda": 502,
      "retransmission": 503,
      "./": 504,
      "ace": 505,
      "ass": 506,
      "bu": 507,
      "bad": 508,
      "dou": 509,
      "efd": 510,
      "mer": 511,
      "ns": 512,
      "phy": 513,
      "run": 514,
      "ure": 515,
      "xy": 516,
      "999999999": 517,
      "bglio": 518,
      "mann": 519,
      "germann": 520,
      "stream": 521,
      "static": 522,
      "good": 523,
      "double": 524,
      "//": 525,
      "ag": 526,
      "en": 527,
      "hum": 528,
      "ical": 529,
      "zt": 530,
      "ine": 531,
      "cec": 532,
      "mach": 533,
      "nodecard": 534,
      "all": 535,
      "star": 536,
      "dca": 537,
      "tests": 538,
      "cache": 539,
      "mance": 540,
      "function": 541,
      "performance": 542,
      "asser": 543,
      "xyzt": 544,
      "hummer": 545,
      "machine": 546,
      "by": 547,
      "cp": 548,
      "fl": 549,
      "lts": 550,
      "mo": 551,
      "so": 552,
      "sle": 553,
      "sical": 554,
      "inate": 555,
      "eds": 556,
      "res": 557,
      "read": 558,
      "resu": 559,
      "stab": 560,
      "dime": 561,
      "con": 562,
      "copro": 563,
      "coord": 564,
      "ofdir": 565,
      "........................": 566,
      "exceeds": 567,
      "activ": 568,
      "active": 569,
      "lustre": 570,
      "redu": 571,
      "nsion": 572,
      "physical": 573,
      "enable": 574,
      "functional": 575,
      "results": 576,
      "dimension": 577,
      "coordinate": 578,
      "ofdirty": 579,
      "cdc": 580,
      "es": 581,
      "fce": 582,
      "lb": 583,
      "opt": 584,
      "rfi": 585,
      "spp": 586,
      "sca": 587,
      "wor": 588,
      "wer": 589,
      "xc": 590,
      "ary": 591,
      "dev": 592,
      "inf": 593,
      "mand": 594,
      "......": 595,
      "letest": 596,
      "ste": 597,
      "ash": 598,
      "summ": 599,
      "ility": 600,
      "tem": 601,
      "parity": 602,
      "ben": 603,
      "feaa": 604,
      "hpl": 605,
      "power": 606,
      "sher": 607,
      "cket": 608,
      "status": 609,
      "miniben": 610,
      "bug": 611,
      "flash": 612,
      "socket": 613,
      "stability": 614,
      "rfisher": 615,
      "sppm": 616,
      "scaletest": 617,
      "work": 618,
      "summary": 619,
      "bee": 620,
      "cx": 621,
      "dra": 622,
      "ep": 623,
      "eger": 624,
      "fcc": 625,
      "ful": 626,
      "has": 627,
      "jt": 628,
      "jeff": 629,
      "ler": 630,
      "latch": 631,
      "med": 632,
      "ok": 633,
      "ot": 634,
      "unte": 635,
      "xl": 636,
      "xffffffff": 637,
      "yate": 638,
      "ort": 639,
      "ature": 640,
      "ering": 641,
      "max": 642,
      "loc": 643,
      "rel": 644,
      "ciostream": 645,
      "errors": 646,
      "fix": 647,
      "sted": 648,
      "pes": 649,
      "perature": 650,
      "tomand": 651,
      "spent": 652,
      "prefix": 653,
      "scri": 654,
      "asserted": 655,
      "temperature": 656,
      "been": 657,
      "cxx": 658,
      "draeger": 659,
      "full": 660,
      "jtag": 661,
      "untested": 662,
      "yates": 663,
      "tomandjeff": 664,
      "/..": 665,
      "ap": 666,
      "aus": 667,
      "cs": 668,
      "cac": 669,
      "cable": 670,
      "ds": 671,
      "gree": 672,
      "im": 673,
      "ke": 674,
      "mid": 675,
      "mmi": 676,
      "nect": 677,
      "pla": 678,
      "pack": 679,
      "qu": 680,
      "que": 681,
      "rce": 682,
      "reco": 683,
      "scal": 684,
      "sod": 685,
      "tra": 686,
      "ton": 687,
      "und": 688,
      "wil": 689,
      "dec": 690,
      "descri": 691,
      "ore": 692,
      "ated": 693,
      "9999999999": 694,
      "reading": 695,
      "rese": 696,
      "get": 697,
      "stel": 698,
      "ource": 699,
      "acf": 700,
      "ccc": 701,
      "ccfc": 702,
      "server": 703,
      "form": 704,
      "fcd": 705,
      "cont": 706,
      "comm": 707,
      "mapfile": 708,
      "exec": 709,
      "tested": 710,
      "prep": 711,
      "liam": 712,
      "elton": 713,
      ".............": 714,
      "timeout": 715,
      "steering": 716,
      "location": 717,
      "auselton": 718,
      "greeno": 719,
      "midpla": 720,
      "qui": 721,
      "scaling": 722,
      "sodscaling": 723,
      "william": 724,
      "descriptor": 725,
      "reset": 726,
      "stella": 727,
      "midplane": 728,
      "williams": 729,
      "aver": 730,
      "bo": 731,
      "ber": 732,
      "big": 733,
      "cj": 734,
      "cdd": 735,
      "come": 736,
      "clock": 737,
      "ccec": 738,
      "ess": 739,
      "efb": 740,
      "gr": 741,
      "han": 742,
      "ij": 743,
      "ial": 744,
      "kb": 745,
      "kpt": 746,
      "lr": 747,
      "lw": 748,
      "linp": 749,
      "mc": 750,
      "mk": 751,
      "mod": 752,
      "mdca": 753,
      "nc": 754,
      "ning": 755,
      "ope": 756,
      "oper": 757,
      "pgood": 758,
      "plb": 759,
      "rst": 760,
      "rol": 761,
      "sable": 762,
      "ter": 763,
      "vol": 764,
      "wel": 765,
      "wri": 766,
      "are": 767,
      "deactiv": 768,
      "debug": 769,
      "ffc": 770,
      "chkpt": 771,
      "ndo": 772,
      "proper": 773,
      "rail": 774,
      "rando": 775,
      "requi": 776,
      "adc": 777,
      "first": 778,
      "store": 779,
      "disable": 780,
      ".........": 781,
      "pture": 782,
      "ccd": 783,
      "ddbc": 784,
      "com": 785,
      "old": 786,
      "ties": 787,
      "dblw": 788,
      "capture": 789,
      "cdfc": 790,
      "too": 791,
      ".................": 792,
      "....................": 793,
      "uncorrectable": 794,
      "sent": 795,
      "mps": 796,
      "mpgood": 797,
      "lines": 798,
      "ages": 799,
      "mmcs": 800,
      "rike": 801,
      "ndant": 802,
      "ulrike": 803,
      "allredu": 804,
      "started": 805,
      "dcache": 806,
      "byte": 807,
      "mode": 808,
      "...........................": 809,
      "activating": 810,
      "redundant": 811,
      "ofdirtydblw": 812,
      "ofdirtylines": 813,
      "format": 814,
      "control": 815,
      "averages": 816,
      "cjm": 817,
      "essl": 818,
      "hang": 819,
      "linpack": 820,
      "mdcask": 821,
      "operation": 822,
      "volt": 823,
      "welcome": 824,
      "write": 825,
      "deactivated": 826,
      "properties": 827,
      "required": 828,
      "allreduce": 829,
      "ofdirtydblword": 830,
      "afb": 831,
      "ante": 832,
      "bmi": 833,
      "band": 834,
      "bfc": 835,
      "bfa": 836,
      "bfd": 837,
      "bro": 838,
      "bri": 839,
      "ci": 840,
      "cce": 841,
      "cab": 842,
      "cddc": 843,
      "cur": 844,
      "cla": 845,
      "end": 846,
      "fp": 847,
      "fec": 848,
      "fee": 849,
      "gp": 850,
      "gu": 851,
      "gni": 852,
      "ht": 853,
      "ir": 854,
      "jul": 855,
      "jag": 856,
      "kmap": 857,
      "lect": 858,
      "late": 859,
      "ller": 860,
      "mf": 861,
      "mar": 862,
      "mory": 863,
      "mgr": 864,
      "nf": 865,
      "nk": 866,
      "nal": 867,
      "obyte": 868,
      "pas": 869,
      "port": 870,
      "qbo": 871,
      "tw": 872,
      "tou": 873,
      "tri": 874,
      "tue": 875,
      "tlb": 876,
      "va": 877,
      "wid": 878,
      "xer": 879,
      "xhpl": 880,
      "xhang": 881,
      "zer": 882,
      "zed": 883,
      "arante": 884,
      "device": 885,
      "ffa": 886,
      "erno": 887,
      "ecis": 888,
      "master": 889,
      "nosle": 890,
      "precis": 891,
      "adf": 892,
      "adca": 893,
      "fig": 894,
      "fiel": 895,
      "...........": 896,
      "memory": 897,
      "acb": 898,
      "access": 899,
      "bglmaster": 900,
      "ntion": 901,
      "abc": 902,
      "dddc": 903,
      "conte": 904,
      "percla": 905,
      "nex": 906,
      "temp": 907,
      "used": 908,
      "ppc": 909,
      "timed": 910,
      "testing": 911,
      "testqbo": 912,
      "ong": 913,
      "bench": 914,
      "cdf": 915,
      "cdbc": 916,
      "ight": 917,
      "serviceaction": 918,
      "under": 919,
      "unreco": 920,
      "select": 921,
      "space": 922,
      "bae": 923,
      "addr": 924,
      "ible": 925,
      "ckpt": 926,
      "treeaddr": 927,
      "ctr": 928,
      "strong": 929,
      "rich": 930,
      "..............": 931,
      "...............": 932,
      "hypercla": 933,
      "registers": 934,
      "streamtri": 935,
      "cpm": 936,
      "cpu": 937,
      "sles": 938,
      "resource": 939,
      "connect": 940,
      "config": 941,
      "cdcc": 942,
      "fcea": 943,
      "inferno": 944,
      "epstreamtri": 945,
      "fully": 946,
      "fulltest": 947,
      "/../": 948,
      "apc": 949,
      "dsmc": 950,
      "imprecis": 951,
      "packet": 952,
      "trace": 953,
      "undy": 954,
      "ncy": 955,
      "opening": 956,
      "random": 957,
      "compare": 958,
      "ulrikey": 959,
      "cjmundy": 960,
      "bmiller": 961,
      "bandwid": 962,
      "broadca": 963,
      "brian": 964,
      "cabot": 965,
      "endserviceaction": 966,
      "guarante": 967,
      "gnized": 968,
      "latency": 969,
      "mark": 970,
      "obytebug": 971,
      "pasci": 972,
      "touch": 973,
      "zerobytebug": 974,
      "nosleep": 975,
      "contention": 976,
      "testqboxhang": 977,
      "benchmark": 978,
      "unrecognized": 979,
      "hyperclaw": 980,
      "connection": 981,
      "epstreamtriad": 982,
      "imprecise": 983,
      "bandwidth": 984,
      "broadcast": 985,
      "guaranteed": 986,
      "au": 987,
      "ait": 988,
      "ader": 989,
      "ava": 990,
      "bs": 991,
      "bdc": 992,
      "bbc": 993,
      "but": 994,
      "base": 995,
      "bfe": 996,
      "blu": 997,
      "cv": 998,
      "cle": 999,
      "cad": 1000,
      "cbc": 1001,
      "cdb": 1002,
      "cbe": 1003,
      "cpes": 1004,
      "cdec": 1005,
      "dur": 1006,
      "dup": 1007,
      "ddec": 1008,
      "eed": 1009,
      "ebd": 1010,
      "eaa": 1011,
      "fre": 1012,
      "fbc": 1013,
      "flow": 1014,
      "gun": 1015,
      "gbglv": 1016,
      "hand": 1017,
      "hack": 1018,
      "ires": 1019,
      "ku": 1020,
      "ky": 1021,
      "ly": 1022,
      "lla": 1023,
      "nan": 1024,
      "nnect": 1025,
      "ob": 1026,
      "ole": 1027,
      "pur": 1028,
      "ry": 1029,
      "round": 1030,
      "rflo": 1031,
      "rund": 1032,
      "rbs": 1033,
      "rky": 1034,
      "sing": 1035,
      "sof": 1036,
      "source": 1037,
      "tz": 1038,
      "tec": 1039,
      "tch": 1040,
      "tun": 1041,
      "try": 1042,
      "ule": 1043,
      "vx": 1044,
      "was": 1045,
      "wait": 1046,
      "wires": 1047,
      "yx": 1048,
      "yes": 1049,
      "arch": 1050,
      "aril": 1051,
      "dedc": 1052,
      "deve": 1053,
      "demo": 1054,
      "ffb": 1055,
      "ffe": 1056,
      "fff": 1057,
      "fftw": 1058,
      "oraril": 1059,
      "inst": 1060,
      "inex": 1061,
      "inity": 1062,
      "cee": 1063,
      "ceec": 1064,
      "cedc": 1065,
      "atabase": 1066,
      "erts": 1067,
      "may": 1068,
      "99999999999": 1069,
      "9999999999999": 1070,
      "noio": 1071,
      "nocomm": 1072,
      "nozerobytebug": 1073,
      "chmod": 1074,
      "edd": 1075,
      "edf": 1076,
      "iolog": 1077,
      ".......": 1078,
      "lop": 1079,
      "load": 1080,
      "leg": 1081,
      "allocation": 1082,
      "alerts": 1083,
      "rever": 1084,
      "rent": 1085,
      "restar": 1086,
      "retry": 1087,
      "adcc": 1088,
      "sta": 1089,
      "mit": 1090,
      "act": 1091,
      "vered": 1092,
      "asic": 1093,
      "sup": 1094,
      "ntial": 1095,
      "cca": 1096,
      "ccdc": 1097,
      "fcf": 1098,
      "comp": 1099,
      "cons": 1100,
      "ill": 1101,
      "ilable": 1102,
      "nels": 1103,
      "fae": 1104,
      "maps": 1105,
      "mapfiles": 1106,
      "caltec": 1107,
      "exter": 1108,
      "paralle": 1109,
      "dbproperties": 1110,
      "thunder": 1111,
      "logs": 1112,
      "can": 1113,
      "ddcmdgbglv": 1114,
      "bea": 1115,
      "being": 1116,
      "cdac": 1117,
      "fetch": 1118,
      "news": 1119,
      "newmaps": 1120,
      "..................": 1121,
      "...................": 1122,
      "............................": 1123,
      "......................": 1124,
      "unable": 1125,
      "unava": 1126,
      "seque": 1127,
      "search": 1128,
      "severed": 1129,
      "sport": 1130,
      "press": 1131,
      "presta": 1132,
      "aaa": 1133,
      "aae": 1134,
      "uration": 1135,
      "pose": 1136,
      "idotran": 1137,
      "fbb": 1138,
      "root": 1139,
      "limit": 1140,
      "elight": 1141,
      "number": 1142,
      "shutdown": 1143,
      "lapack": 1144,
      "-->": 1145,
      "glob": 1146,
      "codes": 1147,
      "going": 1148,
      "ance": 1149,
      "blocks": 1150,
      "func": 1151,
      "efdf": 1152,
      "start": 1153,
      "assert": 1154,
      "cpmd": 1155,
      "slept": 1156,
      "conc": 1157,
      ".........................": 1158,
      "infinity": 1159,
      "maxim": 1160,
      "/../../": 1161,
      "queue": 1162,
      "reconnect": 1163,
      "comms": 1164,
      "module": 1165,
      "debugger": 1166,
      "current": 1167,
      "nfs": 1168,
      "fields": 1169,
      "accessible": 1170,
      "next": 1171,
      "temporaril": 1172,
      "usedatabase": 1173,
      "configuration": 1174,
      "bluelight": 1175,
      "cvs": 1176,
      "clear": 1177,
      "during": 1178,
      "gunnels": 1179,
      "handler": 1180,
      "llap": 1181,
      "purpose": 1182,
      "rflomp": 1183,
      "rundir": 1184,
      "single": 1185,
      "tzyx": 1186,
      "tuned": 1187,
      "develop": 1188,
      "instance": 1189,
      "inexact": 1190,
      "reverse": 1191,
      "restarting": 1192,
      "retrying": 1193,
      "console": 1194,
      "caltech": 1195,
      "external": 1196,
      "parallel": 1197,
      "unavailable": 1198,
      "sequential": 1199,
      "sportmgr": 1200,
      "idotransportmgr": 1201,
      "maximum": 1202,
      "temporarily": 1203,
      ")...": 1204,
      ")........................": 1205,
      ")...........................": 1206,
      ").......": 1207,
      "*)": 1208,
      "*,": 1209,
      "/)": 1210,
      "/./": 1211,
      "::": 1212,
      "?/": 1213,
      "ade": 1214,
      "aff": 1215,
      "aec": 1216,
      "aed": 1217,
      "aad": 1218,
      "ast": 1219,
      "aee": 1220,
      "ame": 1221,
      "aac": 1222,
      "aab": 1223,
      "aut": 1224,
      "ager": 1225,
      "adec": 1226,
      "aadc": 1227,
      "bl": 1228,
      "bde": 1229,
      "bec": 1230,
      "bdirect": 1231,
      "bcc": 1232,
      "bdd": 1233,
      "bus": 1234,
      "bip": 1235,
      "bbe": 1236,
      "bba": 1237,
      "bfb": 1238,
      "bvn": 1239,
      "back": 1240,
      "bot": 1241,
      "bacb": 1242,
      "cde": 1243,
      "clo": 1244,
      "ccess": 1245,
      "cpp": 1246,
      "cate": 1247,
      "cfd": 1248,
      "cfe": 1249,
      "count": 1250,
      "cstar": 1251,
      "cdca": 1252,
      "cnk": 1253,
      "dp": 1254,
      "dy": 1255,
      "dad": 1256,
      "dbg": 1257,
      "dac": 1258,
      "dab": 1259,
      "dfa": 1260,
      "due": 1261,
      "dcec": 1262,
      "dacf": 1263,
      "dadc": 1264,
      "ew": 1265,
      "efa": 1266,
      "eof": 1267,
      "ebe": 1268,
      "eba": 1269,
      "emb": 1270,
      "eaf": 1271,
      "eabc": 1272,
      "fer": 1273,
      "fra": 1274,
      "fad": 1275,
      "fdc": 1276,
      "fbe": 1277,
      "fbd": 1278,
      "fur": 1279,
      "fmm": 1280,
      "fchmod": 1281,
      "gat": 1282,
      "hn": 1283,
      "hw": 1284,
      "hing": 1285,
      "hel": 1286,
      "hit": 1287,
      "hering": 1288,
      "ition": 1289,
      "ivi": 1290,
      "icb": 1291,
      "icache": 1292,
      "iku": 1293,
      "ject": 1294,
      "job": 1295,
      "ken": 1296,
      "kill": 1297,
      "ll": 1298,
      "lus": 1299,
      "lpa": 1300,
      "lcontrol": 1301,
      "lnk": 1302,
      "light": 1303,
      "ming": 1304,
      "mul": 1305,
      "nb": 1306,
      "nm": 1307,
      "np": 1308,
      "nde": 1309,
      "ode": 1310,
      "opp": 1311,
      "pu": 1312,
      "pw": 1313,
      "ping": 1314,
      "pid": 1315,
      "pected": 1316,
      "put": 1317,
      "pol": 1318,
      "plus": 1319,
      "qb": 1320,
      "qw": 1321,
      "rs": 1322,
      "ring": 1323,
      "rou": 1324,
      "rome": 1325,
      "sma": 1326,
      "spar": 1327,
      "sam": 1328,
      "snan": 1329,
      "same": 1330,
      "tar": 1331,
      "tip": 1332,
      "tur": 1333,
      "tmp": 1334,
      "tau": 1335,
      "umask": 1336,
      "uid": 1337,
      "upd": 1338,
      "user": 1339,
      "uni": 1340,
      "uation": 1341,
      "unex": 1342,
      "udy": 1343,
      "vac": 1344,
      "vtrace": 1345,
      "ward": 1346,
      "xa": 1347,
      "xb": 1348,
      "xd": 1349,
      "xad": 1350,
      "xil": 1351,
      "arty": 1352,
      "dept": 1353,
      "decc": 1354,
      "dedd": 1355,
      "defc": 1356,
      "fft": 1357,
      "ffde": 1358,
      "ffer": 1359,
      "ffad": 1360,
      "fffc": 1361,
      "ffaa": 1362,
      "ffae": 1363,
      "ffcec": 1364,
      "ffbfc": 1365,
      "ffcdf": 1366,
      "orage": 1367,
      "order": 1368,
      "init": 1369,
      "initi": 1370,
      "inform": 1371,
      "inuation": 1372,
      "cea": 1373,
      "ceac": 1374,
      "cecc": 1375,
      "cefc": 1376,
      "cecd": 1377,
      "attem": 1378,
      "ernal": 1379,
      "eca": 1380,
      "ecc": 1381,
      "ecf": 1382,
      "ecac": 1383,
      "ecbc": 1384,
      "ecial": 1385,
      "iary": 1386,
      "main": 1387,
      "maccess": 1388,
      "non": 1389,
      "nop": 1390,
      "nopr": 1391,
      "noni": 1392,
      "nova": 1393,
      "synd": 1394,
      "syste": 1395,
      "chil": 1396,
      "chcontrol": 1397,
      "symlink": 1398,
      "edb": 1399,
      "edc": 1400,
      "iostate": 1401,
      ".....": 1402,
      "loader": 1403,
      "loew": 1404,
      "privi": 1405,
      "ssible": 1406,
      "ndpacket": 1407,
      "ndition": 1408,
      "proble": 1409,
      "proxy": 1410,
      "lement": 1411,
      "idou": 1412,
      "idmp": 1413,
      "rai": 1414,
      "alread": 1415,
      "alloc": 1416,
      "reas": 1417,
      "reser": 1418,
      "resh": 1419,
      "reque": 1420,
      "restarted": 1421,
      "refre": 1422,
      "ciodb": 1423,
      "ada": 1424,
      "adb": 1425,
      "adv": 1426,
      "adac": 1427,
      "adbc": 1428,
      "adbe": 1429,
      "ges": 1430,
      "stir": 1431,
      "stopp": 1432,
      "study": 1433,
      "storage": 1434,
      "dcd": 1435,
      "dcfc": 1436,
      "dccb": 1437,
      "dcaf": 1438,
      "dcode": 1439,
      "filesyste": 1440,
      "eea": 1441,
      "eek": 1442,
      "eebd": 1443,
      "eebf": 1444,
      "eebea": 1445,
      "died": 1446,
      "divac": 1447,
      "ioni": 1448,
      "meam": 1449,
      "done": 1450,
      "processes": 1451,
      "aca": 1452,
      "bglct": 1453,
      "verbo": 1454,
      "pts": 1455,
      "pting": 1456,
      "abb": 1457,
      "abac": 1458,
      "value": 1459,
      "serial": 1460,
      "force": 1461,
      "peer": 1462,
      "dda": 1463,
      "ddb": 1464,
      "ddd": 1465,
      "ddac": 1466,
      "ddfc": 1467,
      "internal": 1468,
      "fca": 1469,
      "fcddb": 1470,
      "commi": 1471,
      "condition": 1472,
      "illeg": 1473,
      "neare": 1474,
      "faa": 1475,
      "mapping": 1476,
      "bcast": 1477,
      "ofda": 1478,
      "general": 1479,
      "overflow": 1480,
      "ution": 1481,
      "oldcode": 1482,
      "swit": 1483,
      "usr": 1484,
      "ushing": 1485,
      "ipaddress": 1486,
      "pped": 1487,
      "ddca": 1488,
      "ddcc": 1489,
      "exe": 1490,
      "express": 1491,
      "crc": 1492,
      "parti": 1493,
      "parmd": 1494,
      "titi": 1495,
      "tsch": 1496,
      "testscri": 1497,
      "dbd": 1498,
      "dbec": 1499,
      "dbac": 1500,
      "dbcc": 1501,
      "dbbc": 1502,
      "dbfd": 1503,
      "only": 1504,
      "ther": 1505,
      "this": 1506,
      "thresh": 1507,
      "logical": 1508,
      "cae": 1509,
      "caused": 1510,
      "canoni": 1511,
      "beb": 1512,
      "beab": 1513,
      "befcc": 1514,
      "toall": 1515,
      "token": 1516,
      "toward": 1517,
      "fdf": 1518,
      "fea": 1519,
      "feaf": 1520,
      "newmpi": 1521,
      "newkernel": 1522,
      "newhack": 1523,
      "newcomp": 1524,
      "nic": 1525,
      "................................": 1526,
      ".............................": 1527,
      ".................................": 1528,
      "theader": 1529,
      "bda": 1530,
      "lseek": 1531,
      "sendpacket": 1532,
      "setiti": 1533,
      "dae": 1534,
      "daec": 1535,
      "daac": 1536,
      "dafc": 1537,
      "dahn": 1538,
      "linadv": 1539,
      "special": 1540,
      "present": 1541,
      "prefetch": 1542,
      "baker": 1543,
      "bank": 1544,
      "mpits": 1545,
      "aaec": 1546,
      "pop": 1547,
      "possible": 1548,
      "idoproxy": 1549,
      "cflu": 1550,
      "cfdddc": 1551,
      "short": 1552,
      "symbols": 1553,
      "aea": 1554,
      "aef": 1555,
      "aeec": 1556,
      "aeac": 1557,
      "dfbb": 1558,
      "ckap": 1559,
      "fbcc": 1560,
      "fbbc": 1561,
      "rocstar": 1562,
      "rocflu": 1563,
      "cbdc": 1564,
      "cbac": 1565,
      "cbcc": 1566,
      "cbbc": 1567,
      "after": 1568,
      "licate": 1569,
      "bfab": 1570,
      "pages": 1571,
      "panic": 1572,
      "upon": 1573,
      "manager": 1574,
      "bbadbe": 1575,
      "mpill": 1576,
      "mplement": 1577,
      "streit": 1578,
      "fold": 1579,
      "output": 1580,
      "edrams": 1581,
      "romio": 1582,
      "efedd": 1583,
      "efedc": 1584,
      "times": 1585,
      "timeofda": 1586,
      "microloader": 1587,
      "effd": 1588,
      "effe": 1589,
      "effcb": 1590,
      "luke": 1591,
      "minated": 1592,
      "miranova": 1593,
      "linkcards": 1594,
      "ebba": 1595,
      "efca": 1596,
      "efcd": 1597,
      "efcfc": 1598,
      "efcfb": 1599,
      "efeb": 1600,
      "efebc": 1601,
      "efeaa": 1602,
      "efebb": 1603,
      "performed": 1604,
      "performing": 1605,
      "acec": 1606,
      "assemb": 1607,
      "busy": 1608,
      "buber": 1609,
      "buffer": 1610,
      "efda": 1611,
      "efdbc": 1612,
      "runs": 1613,
      "running": 1614,
      "///": 1615,
      "cecfc": 1616,
      "nodecards": 1617,
      "alltoall": 1618,
      "assertion": 1619,
      "flushing": 1620,
      "soon": 1621,
      "readlink": 1622,
      "cdcf": 1623,
      "fcee": 1624,
      "steer": 1625,
      "apu": 1626,
      "csar": 1627,
      "cacd": 1628,
      "trap": 1629,
      "trapped": 1630,
      "orestart": 1631,
      "getpid": 1632,
      "getuid": 1633,
      "gettimeofda": 1634,
      "serverdb": 1635,
      "continuation": 1636,
      "execution": 1637,
      "quiet": 1638,
      "descriptors": 1639,
      "midplaneswit": 1640,
      "bertsch": 1641,
      "efbb": 1642,
      "efbf": 1643,
      "efbfd": 1644,
      "ground": 1645,
      "open": 1646,
      "terminated": 1647,
      "randomaccess": 1648,
      "command": 1649,
      ".....................": 1650,
      ".......................": 1651,
      "ulriketests": 1652,
      "hangtest": 1653,
      "writev": 1654,
      "bfcf": 1655,
      "bfda": 1656,
      "curioni": 1657,
      "tware": 1658,
      "ffade": 1659,
      "field": 1660,
      "underflow": 1661,
      "configfile": 1662,
      "nosleepyes": 1663,
      "nosleepnocomm": 1664,
      "auxil": 1665,
      "bbca": 1666,
      "baseline": 1667,
      "duplicate": 1668,
      "eedc": 1669,
      "freed": 1670,
      "fbcd": 1671,
      "kubot": 1672,
      "object": 1673,
      "softheader": 1674,
      "software": 1675,
      "yeszerobytebug": 1676,
      "nocommnosleep": 1677,
      "leged": 1678,
      "suppress": 1679,
      "cannot": 1680,
      "global": 1681,
      "consoleip": 1682,
      "consoleport": 1683,
      "affd": 1684,
      "autorestart": 1685,
      "blas": 1686,
      "biparty": 1687,
      "background": 1688,
      "close": 1689,
      "counter": 1690,
      "dpmgr": 1691,
      "dacc": 1692,
      "dfafa": 1693,
      "efaea": 1694,
      "fraction": 1695,
      "fady": 1696,
      "further": 1697,
      "gathering": 1698,
      "hwstab": 1699,
      "hellow": 1700,
      "icbi": 1701,
      "ikuo": 1702,
      "lpavtrace": 1703,
      "lcontroldescriptors": 1704,
      "lnkck": 1705,
      "multip": 1706,
      "nded": 1707,
      "pux": 1708,
      "pwd": 1709,
      "pollcontroldescriptors": 1710,
      "rounded": 1711,
      "small": 1712,
      "sparing": 1713,
      "samrai": 1714,
      "target": 1715,
      "turbdirect": 1716,
      "update": 1717,
      "userfunc": 1718,
      "unimplement": 1719,
      "unexpected": 1720,
      "depth": 1721,
      "ordering": 1722,
      "initial": 1723,
      "information": 1724,
      "attempting": 1725,
      "noprint": 1726,
      "syndrome": 1727,
      "child": 1728,
      "chcontroller": 1729,
      "loewe": 1730,
      "privileged": 1731,
      "problem": 1732,
      "idoudpmgr": 1733,
      "already": 1734,
      "allocate": 1735,
      "reason": 1736,
      "reserved": 1737,
      "request": 1738,
      "refresh": 1739,
      "stirturbdirect": 1740,
      "stopping": 1741,
      "filesystem": 1742,
      "bglctlpavtrace": 1743,
      "verbose": 1744,
      "values": 1745,
      "serialnumber": 1746,
      "commit": 1747,
      "illegal": 1748,
      "nearest": 1749,
      "bcastv": 1750,
      "expression": 1751,
      "partition": 1752,
      "parmdg": 1753,
      "testscripts": 1754,
      "threshold": 1755,
      "canonical": 1756,
      "setitimer": 1757,
      "idoproxydb": 1758,
      "ckapfer": 1759,
      "rocfluidmp": 1760,
      "streitz": 1761,
      "lukei": 1762,
      "assembly": 1763,
      "gettimeofday": 1764,
      "midplaneswitchcontroller": 1765,
      "nosleepyescomm": 1766,
      "auxiliary": 1767,
      "kubota": 1768,
      "suppressing": 1769,
      "bipartyz": 1770,
      "multiple": 1771,
      "unimplemented": 1772
    },
    "merges": [
      "9 9",
      "99 99",
      "a r",
      "d e",
      "99 9",
      "f f",
      "o r",
      ". .",
      "i n",
      "c e",
      "a t",
      "e r",
      "e c",
      "i ar",
      "de ar",
      "m a",
      "9999 9999",
      "n o",
      "s y",
      "c h",
      "9999 9",
      "sy m",
      "e d",
      "s k",
      "ma sk",
      "i o",
      ".. ..",
      "l o",
      "p r",
      "s s",
      "n d",
      "ec t",
      "in g",
      "no de",
      "ar d",
      "c ard",
      "pr o",
      "ff ff",
      "er r",
      "l e",
      "i d",
      "r a",
      "a l",
      "r e",
      "p d",
      "v pd",
      "c io",
      "9999 99",
      "cio d",
      "err or",
      "a d",
      "f i",
      "g e",
      "s t",
      "m i",
      "r ect",
      "d c",
      "fi le",
      "e e",
      "o u",
      "ra m",
      "d i",
      "c or",
      "ffff f",
      "g ram",
      "pro gram",
      ".... ....",
      "io n",
      "mi ss",
      "m e",
      "at ch",
      "d o",
      "no t",
      "ec k",
      "ch eck",
      "ce ss",
      "pro cess",
      "ec id",
      "process or",
      "s lo",
      "ou nd",
      "slo t",
      "b g",
      "f ound",
      "m atch",
      "a c",
      "bg l",
      "v er",
      "a s",
      "s u",
      "p t",
      "99999999 99999999",
      "n t",
      "ect ed",
      "t ected",
      "de tected",
      "or y",
      "di rect",
      "a b",
      "direct ory",
      "ad ing",
      "c c",
      "v al",
      "miss ing",
      "in val",
      "inval id",
      "i ma",
      "lo ading",
      "su ch",
      "ima ge",
      "cor rect",
      "s er",
      "f or",
      "p e",
      "a nd",
      "d d",
      "o me",
      "in t",
      "f c",
      "h ome",
      "correct ed",
      "c o",
      "ec o",
      "i l",
      "p er",
      "s eco",
      "nd s",
      "seco nds",
      "n e",
      "f a",
      ") ,",
      "ma p",
      "dc r",
      "t e",
      "b c",
      "cor e",
      "n er",
      "o f",
      "ge ner",
      "gener at",
      "c al",
      "o ver",
      "u t",
      "o l",
      "s w",
      "b ffff",
      "u s",
      "9999 999",
      "i p",
      "p i",
      "9999999999999999 99999999",
      "p p",
      "ce i",
      "re cei",
      "d dc",
      "e x",
      "c r",
      "p ar",
      "t i",
      "il ed",
      "fa iled",
      "t s",
      "t ion",
      "file s",
      "te st",
      "d b",
      "di r",
      "o n",
      "generat ed",
      "m d",
      "t h",
      "miss ion",
      "lo g",
      "as e",
      "c a",
      "v i",
      "at e",
      "ddc md",
      "b e",
      "c d",
      "t o",
      "vi ce",
      "f d",
      "f e",
      "t y",
      "ne w",
      "recei ver",
      "n i",
      "in p",
      "ra n",
      "........ ........",
      "a pp",
      "d at",
      "i g",
      "i s",
      "u m",
      "ch dir",
      "ser vice",
      "log in",
      "app s",
      "dd r",
      "sw l",
      "( /",
      "g b",
      "r ts",
      "t or",
      "th e",
      "tor us",
      "s pe",
      "u n",
      "inp ut",
      "h p",
      "b d",
      "l s",
      "s e",
      "de ni",
      "per mission",
      "deni ed",
      "d a",
      "l in",
      "m l",
      "s p",
      "t ed",
      "u pt",
      "pr e",
      "err upt",
      "int errupt",
      "999999999999999999999999 9999",
      "ex ce",
      "b a",
      "ig n",
      "m pi",
      "ad d",
      "ee ee",
      "cal ls",
      "a a",
      "i b",
      "l ce",
      "at ing",
      "spe lce",
      "u r",
      "sy s",
      "ab le",
      "v e",
      "hp cc",
      "p o",
      "id o",
      "as m",
      "ran k",
      "sp asm",
      "ib m",
      "b ol",
      "c f",
      "s h",
      "sym bol",
      "re e",
      "re ss",
      "add ress",
      "a e",
      "d f",
      "pt ion",
      "ab ase",
      "int o",
      "exce ption",
      "c k",
      "f b",
      "ch ip",
      "pt or",
      "m b",
      "in ser",
      "st ate",
      "dat abase",
      "inser ted",
      "c tion",
      "ffff ffff",
      "n ch",
      "r o",
      "t ree",
      "ac tion",
      "c b",
      "pi pe",
      "a f",
      "c t",
      "r c",
      "s rc",
      "lo w",
      "ra ptor",
      "e ve",
      "l i",
      "s cr",
      "sy nch",
      "ge nt",
      "me nt",
      "par e",
      "ur gent",
      "eve nt",
      "b f",
      "e a",
      "e l",
      "n um",
      "p a",
      "u p",
      ".. .",
      "ma n",
      "al ign",
      "999999999999999999999999 999",
      "par t",
      "exception s",
      "align ment",
      "b b",
      "b in",
      "g er",
      "k er",
      "m p",
      "o d",
      "t ing",
      "t al",
      "v n",
      "w n",
      "al le",
      "st re",
      "do wn",
      "to tal",
      "ty pe",
      "po int",
      "sh ut",
      ") )",
      "f ol",
      "i mb",
      "m card",
      "m type",
      "99999999 999999",
      "st r",
      "mi p",
      "ee p",
      "ou t",
      "bgl v",
      "ser num",
      "for service",
      "co p",
      "ne l",
      "sw eep",
      "lin e",
      "ml p",
      "ml ct",
      "pre pare",
      "ker nel",
      "mcard sernum",
      "mlct n",
      "prepare forservice",
      "a m",
      "a ge",
      "b w",
      "c ase",
      "i t",
      "k in",
      "l a",
      "m m",
      "r i",
      "de r",
      "ed ram",
      "st at",
      "ee e",
      "test case",
      "lin k",
      "eeee eee",
      "ro m",
      "low up",
      "pa kin",
      "vn m",
      "alle n",
      "shut ting",
      "fol lowup",
      "bw allen",
      "testcase s",
      "- -",
      "f lo",
      "f rom",
      "i ty",
      "........ ....",
      "ac ti",
      "ddcmd bglv",
      "sys calls",
      "c re",
      "e f",
      "g lo",
      "s ign",
      "u ction",
      "in str",
      "lo ck",
      "nd a",
      "st er",
      "bgl scr",
      "co de",
      "generat ing",
      "cre ating",
      "sign al",
      "instr uction",
      "bglscr atch",
      "i ti",
      "u l",
      "flo ating",
      "h y",
      "s li",
      "t ran",
      "at ion",
      "ch e",
      "mi cr",
      "cr iti",
      "ti me",
      "dat a",
      "interrupt s",
      "glo sli",
      "micr o",
      "criti cal",
      "e ff",
      "g i",
      "g o",
      "i c",
      "l u",
      "m in",
      "r ed",
      "u e",
      "v ed",
      "or d",
      "ss age",
      "re gi",
      "mi ra",
      "ou nt",
      "me ssage",
      "ac k",
      "nt e",
      "per f",
      "link card",
      "micro seconds",
      "regi ster",
      "a n",
      "b le",
      "b it",
      "b lock",
      "e b",
      "e t",
      "e fc",
      "e fe",
      "f pr",
      "f un",
      "m ount",
      "n der",
      "s mission",
      "err no",
      "re tran",
      "correct able",
      "per for",
      "recei ved",
      "um t",
      "se nder",
      "min i",
      "mira nda",
      "retran smission",
      ". /",
      "a ce",
      "a ss",
      "b u",
      "b ad",
      "d ou",
      "e fd",
      "m er",
      "n s",
      "p hy",
      "r un",
      "u re",
      "x y",
      "99999999 9",
      "bgl io",
      "man n",
      "ger mann",
      "stre am",
      "stat ic",
      "go od",
      "dou ble",
      "/ /",
      "a g",
      "e n",
      "h um",
      "i cal",
      "z t",
      "in e",
      "ce c",
      "ma ch",
      "node card",
      "al l",
      "st ar",
      "dc a",
      "test s",
      "ca che",
      "man ce",
      "fun ction",
      "perfor mance",
      "ass er",
      "xy zt",
      "hum mer",
      "mach ine",
      "b y",
      "c p",
      "f l",
      "l ts",
      "m o",
      "s o",
      "s le",
      "s ical",
      "in ate",
      "ed s",
      "re s",
      "re ad",
      "re su",
      "st ab",
      "di me",
      "co n",
      "co pro",
      "co ord",
      "of dir",
      "................ ........",
      "exce eds",
      "acti v",
      "acti ve",
      "lu stre",
      "red u",
      "ns ion",
      "phy sical",
      "en able",
      "function al",
      "resu lts",
      "dime nsion",
      "coord inate",
      "ofdir ty",
      "c dc",
      "e s",
      "f ce",
      "l b",
      "o pt",
      "r fi",
      "s pp",
      "s ca",
      "w or",
      "w er",
      "x c",
      "ar y",
      "de v",
      "in f",
      "ma nd",
      ".... ..",
      "le test",
      "st e",
      "as h",
      "su mm",
      "il ity",
      "te m",
      "par ity",
      "be n",
      "fe aa",
      "hp l",
      "po wer",
      "sh er",
      "ck et",
      "stat us",
      "mini ben",
      "bu g",
      "fl ash",
      "so cket",
      "stab ility",
      "rfi sher",
      "spp m",
      "sca letest",
      "wor k",
      "summ ary",
      "b ee",
      "c x",
      "d ra",
      "e p",
      "e ger",
      "f cc",
      "f ul",
      "h as",
      "j t",
      "j eff",
      "l er",
      "l atch",
      "m ed",
      "o k",
      "o t",
      "u nte",
      "x l",
      "x ffffffff",
      "y ate",
      "or t",
      "at ure",
      "er ing",
      "ma x",
      "lo c",
      "re l",
      "cio stream",
      "error s",
      "fi x",
      "st ed",
      "pe s",
      "per ature",
      "to mand",
      "spe nt",
      "pre fix",
      "scr i",
      "asser ted",
      "tem perature",
      "bee n",
      "cx x",
      "dra eger",
      "ful l",
      "jt ag",
      "unte sted",
      "yate s",
      "tomand jeff",
      "/ ..",
      "a p",
      "a us",
      "c s",
      "c ac",
      "c able",
      "d s",
      "g ree",
      "i m",
      "k e",
      "m id",
      "m mi",
      "n ect",
      "p la",
      "p ack",
      "q u",
      "q ue",
      "r ce",
      "r eco",
      "s cal",
      "s od",
      "t ra",
      "t on",
      "u nd",
      "w il",
      "de c",
      "de scri",
      "or e",
      "at ed",
      "99999999 99",
      "re ading",
      "re se",
      "ge t",
      "st el",
      "ou rce",
      "ac f",
      "cc c",
      "cc fc",
      "ser ver",
      "for m",
      "fc d",
      "co nt",
      "co mm",
      "map file",
      "ex ec",
      "test ed",
      "pre p",
      "li am",
      "el ton",
      "............ .",
      "time out",
      "ste ering",
      "loc ation",
      "aus elton",
      "gree no",
      "mid pla",
      "qu i",
      "scal ing",
      "sod scaling",
      "wil liam",
      "descri ptor",
      "rese t",
      "stel la",
      "midpla ne",
      "william s",
      "a ver",
      "b o",
      "b er",
      "b ig",
      "c j",
      "c dd",
      "c ome",
      "c lock",
      "c cec",
      "e ss",
      "e fb",
      "g r",
      "h an",
      "i j",
      "i al",
      "k b",
      "k pt",
      "l r",
      "l w",
      "l inp",
      "m c",
      "m k",
      "m od",
      "m dca",
      "n c",
      "n ing",
      "o pe",
      "o per",
      "p good",
      "p lb",
      "r st",
      "r ol",
      "s able",
      "t er",
      "v ol",
      "w el",
      "w ri",
      "ar e",
      "de activ",
      "de bug",
      "ff c",
      "ch kpt",
      "nd o",
      "pro per",
      "ra il",
      "ra ndo",
      "re qui",
      "ad c",
      "fi rst",
      "st ore",
      "di sable",
      "........ .",
      "pt ure",
      "cc d",
      "dd bc",
      "co m",
      "ol d",
      "ti es",
      "db lw",
      "ca pture",
      "cd fc",
      "to o",
      "................ .",
      "................ ....",
      "un correctable",
      "se nt",
      "mp s",
      "mp good",
      "line s",
      "age s",
      "mm cs",
      "ri ke",
      "nda nt",
      "ul rike",
      "all redu",
      "star ted",
      "dca che",
      "by te",
      "mo de",
      "........................ ...",
      "activ ating",
      "redu ndant",
      "ofdirty dblw",
      "ofdirty lines",
      "form at",
      "cont rol",
      "aver ages",
      "cj m",
      "ess l",
      "han g",
      "linp ack",
      "mdca sk",
      "oper ation",
      "vol t",
      "wel come",
      "wri te",
      "deactiv ated",
      "proper ties",
      "requi red",
      "allredu ce",
      "ofdirtydblw ord",
      "a fb",
      "a nte",
      "b mi",
      "b and",
      "b fc",
      "b fa",
      "b fd",
      "b ro",
      "b ri",
      "c i",
      "c ce",
      "c ab",
      "c ddc",
      "c ur",
      "c la",
      "e nd",
      "f p",
      "f ec",
      "f ee",
      "g p",
      "g u",
      "g ni",
      "h t",
      "i r",
      "j ul",
      "j ag",
      "k map",
      "l ect",
      "l ate",
      "l ler",
      "m f",
      "m ar",
      "m ory",
      "m gr",
      "n f",
      "n k",
      "n al",
      "o byte",
      "p as",
      "p ort",
      "q bo",
      "t w",
      "t ou",
      "t ri",
      "t ue",
      "t lb",
      "v a",
      "w id",
      "x er",
      "x hpl",
      "x hang",
      "z er",
      "z ed",
      "ar ante",
      "de vice",
      "ff a",
      "er no",
      "ec is",
      "ma ster",
      "no sle",
      "pr ecis",
      "ad f",
      "ad ca",
      "fi g",
      "fi el",
      "........ ...",
      "me mory",
      "ac b",
      "ac cess",
      "bgl master",
      "nt ion",
      "ab c",
      "dd dc",
      "co nte",
      "per cla",
      "ne x",
      "te mp",
      "us ed",
      "pp c",
      "ti med",
      "test ing",
      "test qbo",
      "on g",
      "be nch",
      "cd f",
      "cd bc",
      "ig ht",
      "service action",
      "un der",
      "un reco",
      "se lect",
      "sp ace",
      "ba e",
      "add r",
      "ib le",
      "ck pt",
      "tree addr",
      "ct r",
      "str ong",
      "ri ch",
      "............ ..",
      "............ ...",
      "hy percla",
      "register s",
      "stream tri",
      "cp m",
      "cp u",
      "sle s",
      "res ource",
      "con nect",
      "con fig",
      "cdc c",
      "fce a",
      "inf erno",
      "ep streamtri",
      "full y",
      "full test",
      "/.. /",
      "ap c",
      "ds mc",
      "im precis",
      "pack et",
      "tra ce",
      "und y",
      "nc y",
      "ope ning",
      "rando m",
      "com pare",
      "ulrike y",
      "cjm undy",
      "bmi ller",
      "band wid",
      "bro adca",
      "bri an",
      "cab ot",
      "end serviceaction",
      "gu arante",
      "gni zed",
      "late ncy",
      "mar k",
      "obyte bug",
      "pas ci",
      "tou ch",
      "zer obytebug",
      "nosle ep",
      "conte ntion",
      "testqbo xhang",
      "bench mark",
      "unreco gnized",
      "hypercla w",
      "connect ion",
      "epstreamtri ad",
      "imprecis e",
      "bandwid th",
      "broadca st",
      "guarante ed",
      "a u",
      "a it",
      "a der",
      "a va",
      "b s",
      "b dc",
      "b bc",
      "b ut",
      "b ase",
      "b fe",
      "b lu",
      "c v",
      "c le",
      "c ad",
      "c bc",
      "c db",
      "c be",
      "c pes",
      "c dec",
      "d ur",
      "d up",
      "d dec",
      "e ed",
      "e bd",
      "e aa",
      "f re",
      "f bc",
      "f low",
      "g un",
      "g bglv",
      "h and",
      "h ack",
      "i res",
      "k u",
      "k y",
      "l y",
      "l la",
      "n an",
      "n nect",
      "o b",
      "o le",
      "p ur",
      "r y",
      "r ound",
      "r flo",
      "r und",
      "r bs",
      "r ky",
      "s ing",
      "s of",
      "s ource",
      "t z",
      "t ec",
      "t ch",
      "t un",
      "t ry",
      "u le",
      "v x",
      "w as",
      "w ait",
      "w ires",
      "y x",
      "y es",
      "ar ch",
      "ar il",
      "de dc",
      "de ve",
      "de mo",
      "ff b",
      "ff e",
      "ff f",
      "ff tw",
      "or aril",
      "in st",
      "in ex",
      "in ity",
      "ce e",
      "ce ec",
      "ce dc",
      "at abase",
      "er ts",
      "ma y",
      "99999999 999",
      "99999999 99999",
      "no io",
      "no comm",
      "no zerobytebug",
      "ch mod",
      "ed d",
      "ed f",
      "io log",
      ".... ...",
      "lo p",
      "lo ad",
      "le g",
      "al location",
      "al erts",
      "re ver",
      "re nt",
      "re star",
      "re try",
      "ad cc",
      "st a",
      "mi t",
      "ac t",
      "ver ed",
      "as ic",
      "su p",
      "nt ial",
      "cc a",
      "cc dc",
      "fc f",
      "co mp",
      "co ns",
      "il l",
      "il able",
      "ne ls",
      "fa e",
      "map s",
      "map files",
      "cal tec",
      "ex ter",
      "par alle",
      "db properties",
      "th under",
      "log s",
      "ca n",
      "ddcmd gbglv",
      "be a",
      "be ing",
      "cd ac",
      "fe tch",
      "new s",
      "new maps",
      "................ ..",
      "................ ...",
      "................ ............",
      "................ ......",
      "un able",
      "un ava",
      "se que",
      "se arch",
      "se vered",
      "sp ort",
      "pre ss",
      "pre sta",
      "aa a",
      "aa e",
      "ur ation",
      "po se",
      "ido tran",
      "fb b",
      "ro ot",
      "li mit",
      "el ight",
      "num ber",
      "shut down",
      "la pack",
      "-- >",
      "glo b",
      "code s",
      "go ing",
      "an ce",
      "block s",
      "fun c",
      "efd f",
      "star t",
      "asser t",
      "cp md",
      "sle pt",
      "con c",
      "........................ .",
      "inf inity",
      "max im",
      "/.. /../",
      "que ue",
      "reco nnect",
      "comm s",
      "mod ule",
      "debug ger",
      "cur rent",
      "nf s",
      "fiel ds",
      "access ible",
      "nex t",
      "temp oraril",
      "used atabase",
      "config uration",
      "blu elight",
      "cv s",
      "cle ar",
      "dur ing",
      "gun nels",
      "hand ler",
      "lla p",
      "pur pose",
      "rflo mp",
      "rund ir",
      "sing le",
      "tz yx",
      "tun ed",
      "deve lop",
      "inst ance",
      "inex act",
      "rever se",
      "restar ting",
      "retry ing",
      "cons ole",
      "caltec h",
      "exter nal",
      "paralle l",
      "unava ilable",
      "seque ntial",
      "sport mgr",
      "idotran sportmgr",
      "maxim um",
      "temporaril y",
      ") ...",
      ") ........................",
      ") ...........................",
      ") .......",
      "* )",
      "* ,",
      "/ )",
      "/ ./",
      ": :",
      "? /",
      "a de",
      "a ff",
      "a ec",
      "a ed",
      "a ad",
      "a st",
      "a ee",
      "a me",
      "a ac",
      "a ab",
      "a ut",
      "a ger",
      "a dec",
      "a adc",
      "b l",
      "b de",
      "b ec",
      "b direct",
      "b cc",
      "b dd",
      "b us",
      "b ip",
      "b be",
      "b ba",
      "b fb",
      "b vn",
      "b ack",
      "b ot",
      "b acb",
      "c de",
      "c lo",
      "c cess",
      "c pp",
      "c ate",
      "c fd",
      "c fe",
      "c ount",
      "c star",
      "c dca",
      "c nk",
      "d p",
      "d y",
      "d ad",
      "d bg",
      "d ac",
      "d ab",
      "d fa",
      "d ue",
      "d cec",
      "d acf",
      "d adc",
      "e w",
      "e fa",
      "e of",
      "e be",
      "e ba",
      "e mb",
      "e af",
      "e abc",
      "f er",
      "f ra",
      "f ad",
      "f dc",
      "f be",
      "f bd",
      "f ur",
      "f mm",
      "f chmod",
      "g at",
      "h n",
      "h w",
      "h ing",
      "h el",
      "h it",
      "h ering",
      "i tion",
      "i vi",
      "i cb",
      "i cache",
      "i ku",
      "j ect",
      "j ob",
      "k en",
      "k ill",
      "l l",
      "l us",
      "l pa",
      "l control",
      "l nk",
      "l ight",
      "m ing",
      "m ul",
      "n b",
      "n m",
      "n p",
      "n de",
      "o de",
      "o pp",
      "p u",
      "p w",
      "p ing",
      "p id",
      "p ected",
      "p ut",
      "p ol",
      "p lus",
      "q b",
      "q w",
      "r s",
      "r ing",
      "r ou",
      "r ome",
      "s ma",
      "s par",
      "s am",
      "s nan",
      "s ame",
      "t ar",
      "t ip",
      "t ur",
      "t mp",
      "t au",
      "u mask",
      "u id",
      "u pd",
      "u ser",
      "u ni",
      "u ation",
      "u nex",
      "u dy",
      "v ac",
      "v trace",
      "w ard",
      "x a",
      "x b",
      "x d",
      "x ad",
      "x il",
      "ar ty",
      "de pt",
      "de cc",
      "de dd",
      "de fc",
      "ff t",
      "ff de",
      "ff er",
      "ff ad",
      "ff fc",
      "ff aa",
      "ff ae",
      "ff cec",
      "ff bfc",
      "ff cdf",
      "or age",
      "or der",
      "in it",
      "in iti",
      "in form",
      "in uation",
      "ce a",
      "ce ac",
      "ce cc",
      "ce fc",
      "ce cd",
      "at tem",
      "er nal",
      "ec a",
      "ec c",
      "ec f",
      "ec ac",
      "ec bc",
      "ec ial",
      "iar y",
      "ma in",
      "ma ccess",
      "no n",
      "no p",
      "no pr",
      "no ni",
      "no va",
      "sy nd",
      "sy ste",
      "ch il",
      "ch control",
      "sym link",
      "ed b",
      "ed c",
      "io state",
      ".... .",
      "lo ader",
      "lo ew",
      "pr ivi",
      "ss ible",
      "nd packet",
      "nd ition",
      "pro ble",
      "pro xy",
      "le ment",
      "id ou",
      "id mp",
      "ra i",
      "al read",
      "al loc",
      "re as",
      "re ser",
      "re sh",
      "re que",
      "re started",
      "re fre",
      "ciod b",
      "ad a",
      "ad b",
      "ad v",
      "ad ac",
      "ad bc",
      "ad be",
      "ge s",
      "st ir",
      "st opp",
      "st udy",
      "st orage",
      "dc d",
      "dc fc",
      "dc cb",
      "dc af",
      "dc ode",
      "file syste",
      "ee a",
      "ee k",
      "ee bd",
      "ee bf",
      "ee bea",
      "di ed",
      "di vac",
      "ion i",
      "me am",
      "do ne",
      "process es",
      "ac a",
      "bgl ct",
      "ver bo",
      "pt s",
      "pt ing",
      "ab b",
      "ab ac",
      "val ue",
      "ser ial",
      "for ce",
      "pe er",
      "dd a",
      "dd b",
      "dd d",
      "dd ac",
      "dd fc",
      "int ernal",
      "fc a",
      "fc ddb",
      "co mmi",
      "co ndition",
      "il leg",
      "ne are",
      "fa a",
      "map ping",
      "bc ast",
      "of da",
      "gener al",
      "over flow",
      "ut ion",
      "ol dcode",
      "sw it",
      "us r",
      "us hing",
      "ip address",
      "pp ed",
      "ddc a",
      "ddc c",
      "ex e",
      "ex press",
      "cr c",
      "par ti",
      "par md",
      "ti ti",
      "ts ch",
      "test scri",
      "db d",
      "db ec",
      "db ac",
      "db cc",
      "db bc",
      "db fd",
      "on ly",
      "th er",
      "th is",
      "th resh",
      "log ical",
      "ca e",
      "ca used",
      "ca noni",
      "be b",
      "be ab",
      "be fcc",
      "to all",
      "to ken",
      "to ward",
      "fd f",
      "fe a",
      "fe af",
      "new mpi",
      "new kernel",
      "new hack",
      "new comp",
      "ni c",
      "................ ................",
      "................ .............",
      "................ .................",
      "the ader",
      "bd a",
      "ls eek",
      "se ndpacket",
      "se titi",
      "da e",
      "da ec",
      "da ac",
      "da fc",
      "da hn",
      "lin adv",
      "sp ecial",
      "pre sent",
      "pre fetch",
      "ba ker",
      "ba nk",
      "mpi ts",
      "aa ec",
      "po p",
      "po ssible",
      "ido proxy",
      "cf lu",
      "cf dddc",
      "sh ort",
      "symbol s",
      "ae a",
      "ae f",
      "ae ec",
      "ae ac",
      "df bb",
      "ck ap",
      "fb cc",
      "fb bc",
      "ro cstar",
      "ro cflu",
      "cb dc",
      "cb ac",
      "cb cc",
      "cb bc",
      "af ter",
      "li cate",
      "bf ab",
      "pa ges",
      "pa nic",
      "up on",
      "man ager",
      "bb adbe",
      "mp ill",
      "mp lement",
      "stre it",
      "fol d",
      "out put",
      "edram s",
      "rom io",
      "ef edd",
      "ef edc",
      "time s",
      "time ofda",
      "micro loader",
      "eff d",
      "eff e",
      "eff cb",
      "lu ke",
      "min ated",
      "mira nova",
      "linkcard s",
      "eb ba",
      "efc a",
      "efc d",
      "efc fc",
      "efc fb",
      "efe b",
      "efe bc",
      "efe aa",
      "efe bb",
      "perfor med",
      "perfor ming",
      "ace c",
      "ass emb",
      "bu sy",
      "bu ber",
      "bu ffer",
      "efd a",
      "efd bc",
      "run s",
      "run ning",
      "// /",
      "cec fc",
      "nodecard s",
      "all toall",
      "asser tion",
      "fl ushing",
      "so on",
      "read link",
      "cdc f",
      "fce e",
      "ste er",
      "ap u",
      "cs ar",
      "cac d",
      "tra p",
      "tra pped",
      "ore start",
      "get pid",
      "get uid",
      "get timeofda",
      "server db",
      "cont inuation",
      "exec ution",
      "qui et",
      "descriptor s",
      "midplane swit",
      "ber tsch",
      "efb b",
      "efb f",
      "efb fd",
      "gr ound",
      "ope n",
      "ter minated",
      "rando maccess",
      "com mand",
      ".................... .",
      ".................... ...",
      "ulrike tests",
      "hang test",
      "write v",
      "bfc f",
      "bfd a",
      "cur ioni",
      "tw are",
      "ffa de",
      "fiel d",
      "under flow",
      "config file",
      "nosleep yes",
      "nosleep nocomm",
      "au xil",
      "bbc a",
      "base line",
      "dup licate",
      "eed c",
      "fre ed",
      "fbc d",
      "ku bot",
      "ob ject",
      "sof theader",
      "sof tware",
      "yes zerobytebug",
      "nocomm nosleep",
      "leg ed",
      "sup press",
      "can not",
      "glob al",
      "console ip",
      "console port",
      "aff d",
      "aut orestart",
      "bl as",
      "bip arty",
      "back ground",
      "clo se",
      "count er",
      "dp mgr",
      "dac c",
      "dfa fa",
      "efa ea",
      "fra ction",
      "fad y",
      "fur ther",
      "gat hering",
      "hw stab",
      "hel low",
      "icb i",
      "iku o",
      "lpa vtrace",
      "lcontrol descriptors",
      "lnk ck",
      "mul tip",
      "nde d",
      "pu x",
      "pw d",
      "pol lcontroldescriptors",
      "rou nded",
      "sma ll",
      "spar ing",
      "sam rai",
      "tar get",
      "tur bdirect",
      "upd ate",
      "user func",
      "uni mplement",
      "unex pected",
      "dept h",
      "order ing",
      "initi al",
      "inform ation",
      "attem pting",
      "nopr int",
      "synd rome",
      "chil d",
      "chcontrol ler",
      "loew e",
      "privi leged",
      "proble m",
      "idou dpmgr",
      "alread y",
      "alloc ate",
      "reas on",
      "reser ved",
      "reque st",
      "refre sh",
      "stir turbdirect",
      "stopp ing",
      "filesyste m",
      "bglct lpavtrace",
      "verbo se",
      "value s",
      "serial number",
      "commi t",
      "illeg al",
      "neare st",
      "bcast v",
      "express ion",
      "parti tion",
      "parmd g",
      "testscri pts",
      "thresh old",
      "canoni cal",
      "setiti mer",
      "idoproxy db",
      "ckap fer",
      "rocflu idmp",
      "streit z",
      "luke i",
      "assemb ly",
      "gettimeofda y",
      "midplaneswit chcontroller",
      "nosleepyes comm",
      "auxil iary",
      "kubot a",
      "suppress ing",
      "biparty z",
      "multip le",
      "unimplement ed"
    ]
  }
}