{
  "version": "1.0",
  "truncation": null,
  "padding": null,
  "added_tokens": [
    {
      "id": 0,
      "content": "<pad>",
      "single_word": false,
      "lstrip": false,
      "rstrip": false,
      "normalized": false,
      "special": true
    },
    {
      "id": 1,
      "content": "<unk>",
      "single_word": false,
      "lstrip": false,
      "rstrip": false,
      "normalized": false,
      "special": true
    },
    {
      "id": 2,
      "content": " ",
      "single_word": false,
      "lstrip": false,
      "rstrip": false,
      "normalized": false,
      "special": true
    }
  ],
  "normalizer": {
    "type": "Sequence",
    "normalizers": [
      {
        "type": "NFKC"
      },
      {
        "type": "Lowercase"
      }
    ]
  },
  "pre_tokenizer": {
    "type": "Sequence",
    "pretokenizers": [
      {
        "type": "Whitespace"
      },
      {
        "type": "ByteLevel",
        "add_prefix_space": false,
        "trim_offsets": true,
        "use_regex": true
      }
    ]
  },
  "post_processor": {
    "type": "ByteLevel",
    "add_prefix_space": true,
    "trim_offsets": false,
    "use_regex": true
  },
  "decoder": null,
  "model": {
    "type": "BPE",
    "dropout": null,
    "unk_token": null,
    "continuing_subword_prefix": null,
    "end_of_word_suffix": null,
    "fuse_unk": false,
    "byte_fallback": false,
    "ignore_merges": false,
    "vocab": {
      "<pad>": 0,
      "<unk>": 1,
      " ": 2,
      "!": 3,
      "#": 4,
      "$": 5,
      "%": 6,
      "&": 7,
      "'": 8,
      "(": 9,
      ")": 10,
      "*": 11,
      "+": 12,
      ",": 13,
      "-": 14,
      ".": 15,
      "/": 16,
      "9": 17,
      ":": 18,
      ";": 19,
      "<": 20,
      "=": 21,
      ">": 22,
      "?": 23,
      "@": 24,
      "[": 25,
      "\\": 26,
      "]": 27,
      "_": 28,
      "`": 29,
      "a": 30,
      "b": 31,
      "c": 32,
      "d": 33,
      "e": 34,
      "f": 35,
      "g": 36,
      "h": 37,
      "i": 38,
      "j": 39,
      "k": 40,
      "l": 41,
      "m": 42,
      "n": 43,
      "o": 44,
      "p": 45,
      "q": 46,
      "r": 47,
      "s": 48,
      "t": 49,
      "u": 50,
      "v": 51,
      "w": 52,
      "x": 53,
      "y": 54,
      "z": 55,
      "|": 56,
      "99": 57,
      "9999": 58,
      "99999999": 59,
      "ff": 60,
      "999": 61,
      "ar": 62,
      "de": 63,
      "no": 64,
      "in": 65,
      "se": 66,
      "99999": 67,
      "ce": 68,
      "car": 69,
      "card": 70,
      "at": 71,
      "node": 72,
      "ch": 73,
      "9999999999999999": 74,
      "or": 75,
      "ser": 76,
      "ec": 77,
      "do": 78,
      "),": 79,
      "ffff": 80,
      "lo": 81,
      "pd": 82,
      "vpd": 83,
      "pr": 84,
      "ed": 85,
      "ip": 86,
      "on": 87,
      "ss": 88,
      "serv": 89,
      "as": 90,
      "id": 91,
      "to": 92,
      "ee": 93,
      "ct": 94,
      "nd": 95,
      "par": 96,
      "ion": 97,
      "pro": 98,
      "ml": 99,
      "fffff": 100,
      "ice": 101,
      "service": 102,
      "ou": 103,
      "999999999999999999999999": 104,
      "dear": 105,
      "iar": 106,
      "proce": 107,
      "999999": 108,
      "ing": 109,
      "st": 110,
      "not": 111,
      "eck": 112,
      "process": 113,
      "check": 114,
      "processor": 115,
      "ecid": 116,
      "slo": 117,
      "slot": 118,
      "er": 119,
      "atch": 120,
      "ound": 121,
      "found": 122,
      "match": 123,
      "ck": 124,
      "sy": 125,
      "ab": 126,
      "th": 127,
      "ted": 128,
      "for": 129,
      "lock": 130,
      "ne": 131,
      "block": 132,
      "of": 133,
      "ask": 134,
      "dat": 135,
      "ting": 136,
      "the": 137,
      "ad": 138,
      "bl": 139,
      "sym": 140,
      "re": 141,
      "blk": 142,
      "mask": 143,
      "new": 144,
      "sh": 145,
      "ase": 146,
      "ido": 147,
      "um": 148,
      "serted": 149,
      "chip": 150,
      "pe": 151,
      "into": 152,
      "abase": 153,
      "database": 154,
      "inserted": 155,
      "ction": 156,
      "ty": 157,
      "ut": 158,
      "num": 159,
      "part": 160,
      "pre": 161,
      "type": 162,
      "pare": 163,
      "999999999999999999999999999": 164,
      "forservice": 165,
      "prepare": 166,
      "prepareforservice": 167,
      "))": 168,
      "mcard": 169,
      "sernum": 170,
      "ctn": 171,
      "mlctn": 172,
      "mcardsernum": 173,
      "mip": 174,
      "mtype": 175,
      "mlp": 176,
      "action": 177,
      "wn": 178,
      "down": 179,
      "shut": 180,
      "shutting": 181,
      "9999999999999999999999999999": 182,
      "..": 183,
      "99999999999999": 184,
      "le": 185,
      "ea": 186,
      "me": 187,
      "ssion": 188,
      "nt": 189,
      "ra": 190,
      "li": 191,
      "9999999": 192,
      "bffff": 193,
      "session": 194,
      "ma": 195,
      "em": 196,
      "dc": 197,
      "is": 198,
      "eeee": 199,
      "9999999999999999999": 200,
      "nodecard": 201,
      "fi": 202,
      "ent": 203,
      "ate": 204,
      "al": 205,
      "file": 206,
      "stem": 207,
      "system": 208,
      "si": 209,
      "cc": 210,
      "na": 211,
      "df": 212,
      "err": 213,
      "ffffffff": 214,
      "....": 215,
      "con": 216,
      "da": 217,
      "db": 218,
      "ti": 219,
      "ge": 220,
      "fc": 221,
      "om": 222,
      "dd": 223,
      "iv": 224,
      "ac": 225,
      "ran": 226,
      "fpr": 227,
      "mi": 228,
      "ected": 229,
      "error": 230,
      "ex": 231,
      "add": 232,
      "bc": 233,
      "rece": 234,
      "io": 235,
      "receiv": 236,
      "999999999999999999": 237,
      "ae": 238,
      "bf": 239,
      "tran": 240,
      "trans": 241,
      "be": 242,
      "ir": 243,
      "ba": 244,
      "ect": 245,
      "ated": 246,
      "served": 247,
      "ze": 248,
      "size": 249,
      "ok": 250,
      "cio": 251,
      "fe": 252,
      "ciod": 253,
      "cd": 254,
      "ded": 255,
      "fa": 256,
      "lin": 257,
      "eee": 258,
      "il": 259,
      "bd": 260,
      "eeeeeee": 261,
      "cf": 262,
      "bb": 263,
      "out": 264,
      "time": 265,
      "name": 266,
      "cli": 267,
      "client": 268,
      "cor": 269,
      "namesystem": 270,
      "state": 271,
      "ca": 272,
      "data": 273,
      "sed": 274,
      "link": 275,
      "timeout": 276,
      "filesystem": 277,
      "erfilesystem": 278,
      "sessionid": 279,
      "cate": 280,
      "est": 281,
      "com": 282,
      "af": 283,
      "ef": 284,
      "oo": 285,
      "stor": 286,
      "received": 287,
      "and": 288,
      "9999999999": 289,
      "exce": 290,
      "det": 291,
      "ter": 292,
      "map": 293,
      "detected": 294,
      "cb": 295,
      "9999999999999": 296,
      "linkcard": 297,
      "star": 298,
      "pon": 299,
      "read": 300,
      "an": 301,
      "main": 302,
      "rep": 303,
      "99999999999999999": 304,
      "domain": 305,
      "edblock": 306,
      "addstor": 307,
      "addstoredblock": 308,
      "oot": 309,
      "ram": 310,
      "starting": 311,
      "fer": 312,
      "aa": 313,
      "va": 314,
      "repli": 315,
      "thread": 316,
      "transfer": 317,
      "able": 318,
      "datanode": 319,
      "replicate": 320,
      "dir": 321,
      "nect": 322,
      "connect": 323,
      "us": 324,
      "........": 325,
      "corr": 326,
      "compon": 327,
      "component": 328,
      "et": 329,
      "by": 330,
      "pt": 331,
      "wid": 332,
      "cket": 333,
      "gram": 334,
      "root": 335,
      "program": 336,
      "wi": 337,
      "added": 338,
      "ds": 339,
      "lu": 340,
      "rom": 341,
      "connection": 342,
      "from": 343,
      "lust": 344,
      "transmi": 345,
      "su": 346,
      "corrected": 347,
      "clust": 348,
      "ver": 349,
      "ssing": 350,
      "addre": 351,
      "ation": 352,
      "address": 353,
      "secon": 354,
      "missing": 355,
      "seconds": 356,
      "eb": 357,
      "ni": 358,
      "hi": 359,
      "fd": 360,
      "val": 361,
      "dcr": 362,
      "ilable": 363,
      "vailable": 364,
      "sc": 365,
      "so": 366,
      "valid": 367,
      "xffffffff": 368,
      "min": 369,
      "gl": 370,
      "set": 371,
      "ms": 372,
      "go": 373,
      "with": 374,
      "clusterfilesystem": 375,
      "invalid": 376,
      "tted": 377,
      "chan": 378,
      "termin": 379,
      "transmitted": 380,
      "over": 381,
      "proces": 382,
      "per": 383,
      "whi": 384,
      "processed": 385,
      "eded": 386,
      "clo": 387,
      "socket": 388,
      "bgl": 389,
      "ory": 390,
      "pir": 391,
      "sr": 392,
      "expir": 393,
      "termination": 394,
      "upd": 395,
      "abli": 396,
      "shed": 397,
      "establi": 398,
      "established": 399,
      "una": 400,
      "nego": 401,
      "blockmap": 402,
      "tiated": 403,
      "exceeded": 404,
      "updated": 405,
      "unavailable": 406,
      "negotiated": 407,
      "expiring": 408,
      "change": 409,
      "which": 410,
      "closed": 411,
      "direct": 412,
      "directory": 413,
      "had": 414,
      "src": 415,
      "serverfilesystem": 416,
      "such": 417,
      "999999999": 418,
      "99999999999": 419,
      "tor": 420,
      "ffffff": 421,
      "cr": 422,
      "co": 423,
      "fb": 424,
      "ger": 425,
      "ption": 426,
      "dest": 427,
      "fee": 428,
      "fail": 429,
      "sw": 430,
      "torus": 431,
      "ho": 432,
      "pa": 433,
      "mp": 434,
      "ol": 435,
      "qu": 436,
      "net": 437,
      "home": 438,
      "lon": 439,
      "load": 440,
      "hwid": 441,
      "ima": 442,
      "image": 443,
      "loading": 444,
      "core": 445,
      "exception": 446,
      "cal": 447,
      "it": 448,
      "receiver": 449,
      "gen": 450,
      "failed": 451,
      "ru": 452,
      "log": 453,
      "stat": 454,
      "wwid": 455,
      "scsi": 456,
      "gener": 457,
      "files": 458,
      "fea": 459,
      "wor": 460,
      "generated": 461,
      "nc": 462,
      "test": 463,
      "ur": 464,
      "longer": 465,
      "inter": 466,
      "being": 467,
      "this": 468,
      "done": 469,
      "work": 470,
      "md": 471,
      "tem": 472,
      "put": 473,
      "der": 474,
      "input": 475,
      "uni": 476,
      "inst": 477,
      "lr": 478,
      "network": 479,
      "pp": 480,
      "fu": 481,
      "ddr": 482,
      "user": 483,
      "status": 484,
      "nf": 485,
      "up": 486,
      "arge": 487,
      "consi": 488,
      "sets": 489,
      "targe": 490,
      "inconsi": 491,
      "nodesets": 492,
      "stent": 493,
      "inconsistent": 494,
      "nb": 495,
      "pip": 496,
      "dele": 497,
      "pipe": 498,
      "tr": 499,
      "999999999999": 500,
      "allo": 501,
      "ctr": 502,
      "ls": 503,
      "fffffffe": 504,
      "allocate": 505,
      "xer": 506,
      "nodes": 507,
      "domains": 508,
      "targeting": 509,
      "allocateblock": 510,
      "te": 511,
      "ruction": 512,
      "instruction": 513,
      "hw": 514,
      "unix": 515,
      "swl": 516,
      "ede": 517,
      "fff": 518,
      "ll": 519,
      "temp": 520,
      "................": 521,
      "requ": 522,
      "mand": 523,
      "999999999999999": 524,
      "code": 525,
      "niff": 526,
      "nal": 527,
      "int": 528,
      "chdir": 529,
      "rand": 530,
      "login": 531,
      "(/": 532,
      "age": 533,
      "-[": 534,
      "ffe": 535,
      "ating": 536,
      "faa": 537,
      "gb": 538,
      "ddc": 539,
      "receiving": 540,
      "delete": 541,
      "ja": 542,
      "has": 543,
      "edfaa": 544,
      "java": 545,
      "eeper": 546,
      "packet": 547,
      "ber": 548,
      "invalidset": 549,
      "server": 550,
      "command": 551,
      "request": 552,
      "cur": 553,
      "ary": 554,
      "ts": 555,
      "eep": 556,
      "pps": 557,
      "sweep": 558,
      "apps": 559,
      "spe": 560,
      "cmd": 561,
      "alle": 562,
      "interr": 563,
      "cac": 564,
      "fcc": 565,
      "vi": 566,
      "fda": 567,
      "goo": 568,
      "tree": 569,
      "good": 570,
      "en": 571,
      "tempor": 572,
      "fdf": 573,
      "face": 574,
      "bol": 575,
      "es": 576,
      "ist": 577,
      "task": 578,
      "upt": 579,
      "symbol": 580,
      "temporary": 581,
      "orum": 582,
      "quorum": 583,
      "interface": 584,
      "full": 585,
      "interrupt": 586,
      "--": 587,
      "case": 588,
      "ob": 589,
      "pl": 590,
      "cec": 591,
      "res": 592,
      "rank": 593,
      "via": 594,
      "cases": 595,
      "nch": 596,
      "alt": 597,
      "efc": 598,
      "job": 599,
      "mpi": 600,
      "boot": 601,
      "mo": 602,
      "pas": 603,
      "red": 604,
      "ssage": 605,
      "message": 606,
      "scr": 607,
      "cre": 608,
      "ev": 609,
      "sen": 610,
      "number": 611,
      "sig": 612,
      "event": 613,
      "ffb": 614,
      "ced": 615,
      "mpit": 616,
      "mpits": 617,
      "ha": 618,
      "back": 619,
      "signal": 620,
      "tch": 621,
      "ort": 622,
      "synch": 623,
      "calls": 624,
      "backup": 625,
      "kin": 626,
      "und": 627,
      "ffa": 628,
      "rent": 629,
      "pakin": 630,
      "current": 631,
      "el": 632,
      "ial": 633,
      "sender": 634,
      "ant": 635,
      "fce": 636,
      "wr": 637,
      "low": 638,
      "retransmi": 639,
      "retransmission": 640,
      "mc": 641,
      "ook": 642,
      "po": 643,
      "zook": 644,
      "deni": 645,
      "mission": 646,
      "permission": 647,
      "zookeeper": 648,
      "denied": 649,
      "bw": 650,
      "spas": 651,
      "xc": 652,
      "xid": 653,
      "serial": 654,
      "eds": 655,
      "ipaddress": 656,
      "allen": 657,
      "redund": 658,
      "bwallen": 659,
      "spasm": 660,
      "serialnumber": 661,
      "redundant": 662,
      "ker": 663,
      "nction": 664,
      "sion": 665,
      "swi": 666,
      "tx": 667,
      "dfs": 668,
      "feea": 669,
      "feaa": 670,
      "function": 671,
      "switch": 672,
      "act": 673,
      "ta": 674,
      "available": 675,
      "adc": 676,
      "reg": 677,
      "ccc": 678,
      "line": 679,
      "testcases": 680,
      "efe": 681,
      "nel": 682,
      "ccd": 683,
      "ister": 684,
      "kernel": 685,
      "functional": 686,
      "register": 687,
      "bm": 688,
      "du": 689,
      "ibm": 690,
      "lce": 691,
      "sof": 692,
      "ure": 693,
      "sys": 694,
      "spelce": 695,
      "respon": 696,
      "ader": 697,
      "fol": 698,
      "ime": 699,
      "med": 700,
      "mid": 701,
      "mnt": 702,
      "op": 703,
      "rts": 704,
      "doop": 705,
      "eer": 706,
      "sysc": 707,
      "sho": 708,
      "alls": 709,
      "bfe": 710,
      "bglscr": 711,
      "logs": 712,
      "creating": 713,
      "hadoop": 714,
      "activ": 715,
      "syscalls": 716,
      "bglscratch": 717,
      "bff": 718,
      "cce": 719,
      "mb": 720,
      "edram": 721,
      "adb": 722,
      "...": 723,
      "micr": 724,
      "follow": 725,
      "./": 726,
      "ane": 727,
      "cdf": 728,
      "cation": 729,
      "eblock": 730,
      "fdb": 731,
      "xy": 732,
      "inf": 733,
      "local": 734,
      "theader": 735,
      "exceeds": 736,
      "ddcmd": 737,
      "plane": 738,
      "modu": 739,
      "softheader": 740,
      "midplane": 741,
      "micro": 742,
      "iti": 743,
      "tal": 744,
      "total": 745,
      "internal": 746,
      "gooding": 747,
      "writ": 748,
      "module": 749,
      "microseconds": 750,
      "eff": 751,
      "hy": 752,
      "cluster": 753,
      "perfor": 754,
      "xa": 755,
      "fffffe": 756,
      "ada": 757,
      "errno": 758,
      "ioexception": 759,
      "but": 760,
      "gh": 761,
      "phy": 762,
      "sna": 763,
      "tmp": 764,
      "ature": 765,
      "adf": 766,
      "reset": 767,
      "perature": 768,
      "temperature": 769,
      "cde": 770,
      "hp": 771,
      "ic": 772,
      "peer": 773,
      "ath": 774,
      "edc": 775,
      "story": 776,
      "correct": 777,
      "history": 778,
      "fdfe": 779,
      "hpcc": 780,
      "br": 781,
      "bad": 782,
      "cdc": 783,
      "end": 784,
      "las": 785,
      "psho": 786,
      "path": 787,
      "zxid": 788,
      "ffd": 789,
      "dev": 790,
      "ment": 791,
      "rapt": 792,
      "interconnect": 793,
      "snapsho": 794,
      "raptor": 795,
      "snapshot": 796,
      "ali": 797,
      "cp": 798,
      "eec": 799,
      "keeper": 800,
      "zt": 801,
      "ffc": 802,
      "serviceaction": 803,
      "fcd": 804,
      "run": 805,
      "xyzt": 806,
      "info": 807,
      "correctable": 808,
      "endserviceaction": 809,
      "bee": 810,
      "cdb": 811,
      "un": 812,
      "che": 813,
      "rando": 814,
      "ild": 815,
      "ffffffe": 816,
      "packetrespon": 817,
      "fdaf": 818,
      "txt": 819,
      "packetresponder": 820,
      "ade": 821,
      "bin": 822,
      "cad": 823,
      "din": 824,
      "dime": 825,
      "nsion": 826,
      "ue": 827,
      "upon": 828,
      "vn": 829,
      "ordin": 830,
      "lib": 831,
      "sical": 832,
      "bfb": 833,
      "coordin": 834,
      "long": 835,
      "deleting": 836,
      "tag": 837,
      "performed": 838,
      "physical": 839,
      "random": 840,
      "dimension": 841,
      "coordinate": 842,
      "bfc": 843,
      "cab": 844,
      "jtag": 845,
      "xe": 846,
      "child": 847,
      "does": 848,
      "pes": 849,
      "contr": 850,
      "bfd": 851,
      "belong": 852,
      "any": 853,
      "fdae": 854,
      "control": 855,
      ":/": 856,
      "bu": 857,
      "mk": 858,
      "spp": 859,
      "storage": 860,
      "randtxt": 861,
      "sppm": 862,
      "bec": 863,
      "cda": 864,
      "mmi": 865,
      "sort": 866,
      "var": 867,
      "fffe": 868,
      "shutdown": 869,
      "bfa": 870,
      "............": 871,
      "writeblock": 872,
      "am": 873,
      "aec": 874,
      "cdd": 875,
      "fdc": 876,
      "flas": 877,
      "ler": 878,
      "ning": 879,
      "xb": 880,
      "cee": 881,
      "edb": 882,
      "ount": 883,
      "man": 884,
      "comm": 885,
      "start": 886,
      "criti": 887,
      "tests": 888,
      "active": 889,
      "flash": 890,
      "critical": 891,
      "bi": 892,
      "glo": 893,
      "ity": 894,
      "mdb": 895,
      "wer": 896,
      "dec": 897,
      "ecc": 898,
      "ast": 899,
      "mem": 900,
      "dbc": 901,
      "glv": 902,
      "ddcmdb": 903,
      "power": 904,
      "ght": 905,
      "sortrand": 906,
      "big": 907,
      "ddcmdbglv": 908,
      "aee": 909,
      "gn": 910,
      "ik": 911,
      "imb": 912,
      "lts": 913,
      "xf": 914,
      "attemp": 915,
      "stre": 916,
      "resu": 917,
      "max": 918,
      "dac": 919,
      "errors": 920,
      "bdir": 921,
      "interrupts": 922,
      "followup": 923,
      "communi": 924,
      "attempting": 925,
      "results": 926,
      "ace": 927,
      "bg": 928,
      "gent": 929,
      "off": 930,
      "sli": 931,
      "xml": 932,
      "ffea": 933,
      "eea": 934,
      "paralle": 935,
      "eac": 936,
      "all": 937,
      "ccb": 938,
      "aeb": 939,
      "ired": 940,
      "fefff": 941,
      "urgent": 942,
      "required": 943,
      "env": 944,
      "glosli": 945,
      "stream": 946,
      "parallel": 947,
      "apa": 948,
      "jmc": 949,
      "pjmc": 950,
      "ine": 951,
      "cart": 952,
      "chine": 953,
      "ecf": 954,
      "ffffe": 955,
      "edf": 956,
      "asserted": 957,
      "parity": 958,
      "renew": 959,
      "machine": 960,
      "ccf": 961,
      "fcb": 962,
      "acb": 963,
      "comp": 964,
      "efd": 965,
      "ang": 966,
      "usr": 967,
      "succe": 968,
      "subdir": 969,
      "failing": 970,
      "been": 971,
      "pjmccart": 972,
      "bde": 973,
      "cfc": 974,
      "mount": 975,
      "port": 976,
      "vpes": 977,
      "xfffffffe": 978,
      "ceb": 979,
      "eef": 980,
      "abc": 981,
      "dcd": 982,
      "cca": 983,
      "fcf": 984,
      "efb": 985,
      "spent": 986,
      "align": 987,
      "vnm": 988,
      "aea": 989,
      "acc": 990,
      "bbc": 991,
      "efa": 992,
      "hdfs": 993,
      "sid": 994,
      "vol": 995,
      "ffaa": 996,
      "org": 997,
      "eeb": 998,
      "proper": 999,
      "resh": 1000,
      "umm": 1001,
      "lev": 1002,
      "lio": 1003,
      "ties": 1004,
      "exist": 1005,
      "aef": 1006,
      "ille": 1007,
      "version": 1008,
      "cop": 1009,
      "german": 1010,
      "........................": 1011,
      "curi": 1012,
      "quorumserver": 1013,
      "quorumpeer": 1014,
      "follower": 1015,
      "bglio": 1016,
      "apache": 1017,
      "alignment": 1018,
      "properties": 1019,
      "germann": 1020,
      "::": 1021,
      "aed": 1022,
      "bo": 1023,
      "fbc": 1024,
      "grep": 1025,
      "latch": 1026,
      "mn": 1027,
      "war": 1028,
      "xffff": 1029,
      "cea": 1030,
      "doe": 1031,
      "eda": 1032,
      "aba": 1033,
      "abd": 1034,
      "conf": 1035,
      "baa": 1036,
      "cau": 1037,
      "afb": 1038,
      "dirs": 1039,
      "fdmn": 1040,
      "perf": 1041,
      "fffffff": 1042,
      "old": 1043,
      "device": 1044,
      "cpmd": 1045,
      "communication": 1046,
      "comple": 1047,
      "level": 1048,
      ":-": 1049,
      "aac": 1050,
      "bdf": 1051,
      "cable": 1052,
      "cxid": 1053,
      "fac": 1054,
      "gi": 1055,
      "gal": 1056,
      "hen": 1057,
      "ly": 1058,
      "lang": 1059,
      "mmc": 1060,
      "ntype": 1061,
      "opt": 1062,
      "qpath": 1063,
      "when": 1064,
      "ying": 1065,
      "nodeexist": 1066,
      "eca": 1067,
      "edd": 1068,
      "stab": 1069,
      "processing": 1070,
      "blue": 1071,
      "revalid": 1072,
      "reqpath": 1073,
      "mirand": 1074,
      "errorcode": 1075,
      "got": 1076,
      "while": 1077,
      "coll": 1078,
      "exceptions": 1079,
      "trying": 1080,
      "create": 1081,
      "txntype": 1082,
      "keeperexception": 1083,
      "keepererrorcode": 1084,
      "offset": 1085,
      "illegal": 1086,
      "mmcs": 1087,
      "nodeexists": 1088,
      "revalidating": 1089,
      "miranda": 1090,
      "ap": 1091,
      "afc": 1092,
      "cbc": 1093,
      "fde": 1094,
      "flo": 1095,
      "fab": 1096,
      "im": 1097,
      "sle": 1098,
      "use": 1099,
      "wa": 1100,
      "xce": 1101,
      "deactiv": 1102,
      "onment": 1103,
      "eexce": 1104,
      "thresh": 1105,
      "nex": 1106,
      "ates": 1107,
      "ironment": 1108,
      "stateexce": 1109,
      "func": 1110,
      "enable": 1111,
      "currently": 1112,
      "environment": 1113,
      "caught": 1114,
      "illegalstateexce": 1115,
      "deactivated": 1116,
      "threshold": 1117,
      "illegalstateexception": 1118,
      "aab": 1119,
      "bcc": 1120,
      "bit": 1121,
      "cle": 1122,
      "dad": 1123,
      "eed": 1124,
      "fae": 1125,
      "gr": 1126,
      "ili": 1127,
      "my": 1128,
      "ope": 1129,
      "rec": 1130,
      "sing": 1131,
      "xd": 1132,
      "yates": 1133,
      "initi": 1134,
      "probl": 1135,
      "eae": 1136,
      "aler": 1137,
      "dfc": 1138,
      "ommand": 1139,
      "aca": 1140,
      "acf": 1141,
      "bcb": 1142,
      "bcommand": 1143,
      "receiveblock": 1144,
      "reading": 1145,
      "ance": 1146,
      "subcommand": 1147,
      "mini": 1148,
      "point": 1149,
      "stabili": 1150,
      "clear": 1151,
      "problem": 1152,
      "subcommands": 1153,
      "stability": 1154,
      "()": 1155,
      "bs": 1156,
      "bdc": 1157,
      "bac": 1158,
      "cbb": 1159,
      "ding": 1160,
      "dur": 1161,
      "ebc": 1162,
      "ebe": 1163,
      "fp": 1164,
      "hand": 1165,
      "hpl": 1166,
      "pected": 1167,
      "pan": 1168,
      "rce": 1169,
      "rbs": 1170,
      "uo": 1171,
      "ux": 1172,
      "unex": 1173,
      "was": 1174,
      "ecd": 1175,
      "pred": 1176,
      "ource": 1177,
      "abe": 1178,
      "prep": 1179,
      "meso": 1180,
      "mapred": 1181,
      "dca": 1182,
      "dcc": 1183,
      "dfe": 1184,
      "acd": 1185,
      "bcast": 1186,
      "fan": 1187,
      "started": 1188,
      "veri": 1189,
      "static": 1190,
      "instance": 1191,
      "....................": 1192,
      "responding": 1193,
      "aliz": 1194,
      "controller": 1195,
      "memory": 1196,
      "ikuo": 1197,
      "maxim": 1198,
      "gige": 1199,
      "single": 1200,
      "initializ": 1201,
      "during": 1202,
      "handler": 1203,
      "panic": 1204,
      "unexpected": 1205,
      "mesos": 1206,
      "maximum": 1207,
      "afa": 1208,
      "beck": 1209,
      "bdb": 1210,
      "bffe": 1211,
      "clock": 1212,
      "dce": 1213,
      "dra": 1214,
      "ece": 1215,
      "eof": 1216,
      "eger": 1217,
      "fec": 1218,
      "fdd": 1219,
      "fbd": 1220,
      "fbb": 1221,
      "mar": 1222,
      "pgood": 1223,
      "sram": 1224,
      "summ": 1225,
      "ul": 1226,
      "ve": 1227,
      "cef": 1228,
      "orbeck": 1229,
      "too": 1230,
      "abf": 1231,
      "nels": 1232,
      "ble": 1233,
      "umt": 1234,
      "../": 1235,
      "ntime": 1236,
      "rail": 1237,
      "fig": 1238,
      "cccc": 1239,
      "config": 1240,
      "exe": 1241,
      "ection": 1242,
      "oken": 1243,
      "aaa": 1244,
      "terminating": 1245,
      "close": 1246,
      "copro": 1247,
      "mpgood": 1248,
      "runtime": 1249,
      "fully": 1250,
      "switchcontroller": 1251,
      "registers": 1252,
      "midplaneswitchcontroller": 1253,
      "broken": 1254,
      "success": 1255,
      "volt": 1256,
      "draeger": 1257,
      "summary": 1258,
      "**": 1259,
      "/.": 1260,
      "//": 1261,
      "aae": 1262,
      "afe": 1263,
      "ams": 1264,
      "amb": 1265,
      "bda": 1266,
      "bba": 1267,
      "dde": 1268,
      "ddb": 1269,
      "ging": 1270,
      "ij": 1271,
      "ient": 1272,
      "lp": 1273,
      "oadc": 1274,
      "ulr": 1275,
      "wil": 1276,
      "zer": 1277,
      "orter": 1278,
      "abb": 1279,
      "liams": 1280,
      "mana": 1281,
      "fication": 1282,
      "cccd": 1283,
      "cont": 1284,
      "daa": 1285,
      "timed": 1286,
      "fca": 1287,
      "addr": 1288,
      "bef": 1289,
      "fef": 1290,
      "scip": 1291,
      "fffffffc": 1292,
      "nfs": 1293,
      "election": 1294,
      "broadc": 1295,
      "box": 1296,
      "warning": 1297,
      "completed": 1298,
      "floating": 1299,
      "initializing": 1300,
      "configur": 1301,
      "ambient": 1302,
      "ulrik": 1303,
      "williams": 1304,
      "zero": 1305,
      "manager": 1306,
      "broadcast": 1307,
      "ame": 1308,
      "bce": 1309,
      "bea": 1310,
      "bbe": 1311,
      "cou": 1312,
      "cae": 1313,
      "cbf": 1314,
      "cba": 1315,
      "cfe": 1316,
      "cfa": 1317,
      "dff": 1318,
      "ebf": 1319,
      "eba": 1320,
      "ebd": 1321,
      "esr": 1322,
      "halt": 1323,
      "jeff": 1324,
      "ld": 1325,
      "mdc": 1326,
      "nio": 1327,
      "pty": 1328,
      "rfi": 1329,
      "source": 1330,
      "unt": 1331,
      "yinterrupt": 1332,
      "zed": 1333,
      "are": 1334,
      "def": 1335,
      "infer": 1336,
      "cecc": 1337,
      "sert": 1338,
      "onnect": 1339,
      "assert": 1340,
      "propo": 1341,
      "str": 1342,
      "blocks": 1343,
      "ofdir": 1344,
      "retrying": 1345,
      "sher": 1346,
      "light": 1347,
      "empty": 1348,
      "dcf": 1349,
      "ccce": 1350,
      "daf": 1351,
      "dbyinterrupt": 1352,
      "get": 1353,
      "fcac": 1354,
      "ddd": 1355,
      "acce": 1356,
      "feff": 1357,
      "linux": 1358,
      "cfd": 1359,
      "ested": 1360,
      "afd": 1361,
      "wires": 1362,
      "lustre": 1363,
      "msr": 1364,
      "going": 1365,
      "channels": 1366,
      "pap": 1367,
      "ition": 1368,
      "target": 1369,
      "speeds": 1370,
      "devel": 1371,
      "bug": 1372,
      "...............": 1373,
      "member": 1374,
      "ffffeffe": 1375,
      "succeeded": 1376,
      "bluelight": 1377,
      "slept": 1378,
      "wait": 1379,
      "reconnect": 1380,
      "alert": 1381,
      "fpscr": 1382,
      "verification": 1383,
      "eofexception": 1384,
      "closedbyinterrupt": 1385,
      "could": 1386,
      "mdcask": 1387,
      "rfisher": 1388,
      "untested": 1389,
      "inferno": 1390,
      "proposed": 1391,
      "ofdirty": 1392,
      "closedbyinterruptexception": 1393,
      "cnt": 1394,
      "cbe": 1395,
      "cmc": 1396,
      "dis": 1397,
      "ey": 1398,
      "fed": 1399,
      "fba": 1400,
      "hom": 1401,
      "itor": 1402,
      "mon": 1403,
      "oper": 1404,
      "rma": 1405,
      "ris": 1406,
      "sto": 1407,
      "tra": 1408,
      "uble": 1409,
      "wcnt": 1410,
      "dea": 1411,
      "deb": 1412,
      "des": 1413,
      "norma": 1414,
      "sel": 1415,
      "send": 1416,
      "cedc": 1417,
      "cebc": 1418,
      "cecb": 1419,
      "double": 1420,
      "tomand": 1421,
      "proxy": 1422,
      "ste": 1423,
      "steer": 1424,
      "abort": 1425,
      "idoproxy": 1426,
      "typas": 1427,
      "eaa": 1428,
      "meta": 1429,
      "eeeeeeee": 1430,
      "ccdc": 1431,
      "dbproperties": 1432,
      "bcd": 1433,
      "iolog": 1434,
      "caf": 1435,
      "can": 1436,
      "cache": 1437,
      "antypas": 1438,
      "supp": 1439,
      "setting": 1440,
      "changing": 1441,
      "crc": 1442,
      "install": 1443,
      ".................": 1444,
      "mode": 1445,
      "scrip": 1446,
      "have": 1447,
      "shock": 1448,
      "cdfc": 1449,
      "brdes": 1450,
      "last": 1451,
      "running": 1452,
      "buber": 1453,
      "usedatabase": 1454,
      "orters": 1455,
      "configured": 1456,
      "ulrikey": 1457,
      "homme": 1458,
      "monitor": 1459,
      "operation": 1460,
      "risboot": 1461,
      "tomandjeff": 1462,
      "supporters": 1463,
      "aad": 1464,
      "ause": 1465,
      "bdd": 1466,
      "dp": 1467,
      "dty": 1468,
      "ddf": 1469,
      "dda": 1470,
      "ddbc": 1471,
      "emap": 1472,
      "fad": 1473,
      "fbe": 1474,
      "humm": 1475,
      "iter": 1476,
      "ky": 1477,
      "lt": 1478,
      "mgr": 1479,
      "occ": 1480,
      "rky": 1481,
      "sp": 1482,
      "same": 1483,
      "xl": 1484,
      "fffc": 1485,
      "arch": 1486,
      "dee": 1487,
      "dedc": 1488,
      "debug": 1489,
      "descrip": 1490,
      "non": 1491,
      "sent": 1492,
      "atter": 1493,
      "ther": 1494,
      "blockinfo": 1495,
      "remain": 1496,
      "umemap": 1497,
      "eaf": 1498,
      "may": 1499,
      "dcb": 1500,
      "......": 1501,
      "dbf": 1502,
      "gene": 1503,
      "mit": 1504,
      "bcf": 1505,
      "reception": 1506,
      "beb": 1507,
      "bench": 1508,
      "fetch": 1509,
      "lines": 1510,
      "bbb": 1511,
      "caa": 1512,
      "cacc": 1513,
      "efdf": 1514,
      "efdb": 1515,
      "store": 1516,
      "mapfile": 1517,
      "scatter": 1518,
      "pack": 1519,
      "urred": 1520,
      "lla": 1521,
      "interrup": 1522,
      "vicar": 1523,
      "writer": 1524,
      "write": 1525,
      "performan": 1526,
      "snapshotting": 1527,
      ".............": 1528,
      "volumemap": 1529,
      "complete": 1530,
      "bluegene": 1531,
      "open": 1532,
      "opening": 1533,
      "mark": 1534,
      "successfully": 1535,
      "contin": 1536,
      "access": 1537,
      "disable": 1538,
      "select": 1539,
      "stella": 1540,
      "auselt": 1541,
      "dtyp": 1542,
      "hummer": 1543,
      "occurred": 1544,
      "descriptor": 1545,
      "benchmark": 1546,
      "performance": 1547,
      "auselton": 1548,
      "=/": 1549,
      "aaf": 1550,
      "bed": 1551,
      "bmi": 1552,
      "bae": 1553,
      "bbd": 1554,
      "cj": 1555,
      "cx": 1556,
      "cating": 1557,
      "cada": 1558,
      "dup": 1559,
      "ddec": 1560,
      "eab": 1561,
      "ebb": 1562,
      "hn": 1563,
      "iwhich": 1564,
      "jgh": 1565,
      "jul": 1566,
      "kb": 1567,
      "ku": 1568,
      "kpt": 1569,
      "la": 1570,
      "lb": 1571,
      "lver": 1572,
      "pur": 1573,
      "pwr": 1574,
      "qbox": 1575,
      "round": 1576,
      "sca": 1577,
      "uce": 1578,
      "vm": 1579,
      "xbf": 1580,
      "xhpl": 1581,
      "fft": 1582,
      "ffer": 1583,
      "ffbc": 1584,
      "ffca": 1585,
      "search": 1586,
      "ceec": 1587,
      "cardsto": 1588,
      "chkpt": 1589,
      "ecb": 1590,
      "ffffc": 1591,
      "asic": 1592,
      "eeno": 1593,
      "fffffc": 1594,
      "form": 1595,
      "rel": 1596,
      "partition": 1597,
      "prefi": 1598,
      "prefetch": 1599,
      "letest": 1600,
      "limit": 1601,
      "dae": 1602,
      "dahn": 1603,
      "dddc": 1604,
      "ive": 1605,
      "acdc": 1606,
      "exec": 1607,
      "addmember": 1608,
      "bfdc": 1609,
      "ben": 1610,
      "ciostream": 1611,
      "feb": 1612,
      "linpack": 1613,
      "compare": 1614,
      "efea": 1615,
      "efcc": 1616,
      "efda": 1617,
      "ready": 1618,
      "replication": 1619,
      ".........": 1620,
      "dscal": 1621,
      "dsmc": 1622,
      "solver": 1623,
      "sodscal": 1624,
      "calte": 1625,
      "tested": 1626,
      "testqbox": 1627,
      "ppc": 1628,
      "ten": 1629,
      "ller": 1630,
      "..................": 1631,
      "...................": 1632,
      "ages": 1633,
      "berts": 1634,
      "fdfa": 1635,
      "fdfc": 1636,
      "plb": 1637,
      "efcd": 1638,
      "ffbffe": 1639,
      "hack": 1640,
      "linear": 1641,
      "written": 1642,
      "clusteraddmember": 1643,
      "cdbc": 1644,
      "uncorrectable": 1645,
      "buffer": 1646,
      "communicating": 1647,
      "parityalignment": 1648,
      ".........................": 1649,
      "...........................": 1650,
      "bota": 1651,
      "apc": 1652,
      "sles": 1653,
      "greeno": 1654,
      "miniben": 1655,
      "steering": 1656,
      "idoproxydb": 1657,
      "cannot": 1658,
      "hommes": 1659,
      "interrupted": 1660,
      "bmiller": 1661,
      "cjm": 1662,
      "cxx": 1663,
      "iwhichcardsto": 1664,
      "kubota": 1665,
      "pwroff": 1666,
      "scaletest": 1667,
      "prefix": 1668,
      "solvers": 1669,
      "sodscaling": 1670,
      "caltech": 1671,
      "bertsch": 1672,
      "iwhichcardstopwroff": 1673,
      "/)": 1674,
      "/../": 1675,
      "au": 1676,
      "ale": 1677,
      "aver": 1678,
      "affe": 1679,
      "bab": 1680,
      "bis": 1681,
      "cff": 1682,
      "cas": 1683,
      "cbd": 1684,
      "cbfb": 1685,
      "dbl": 1686,
      "ess": 1687,
      "ead": 1688,
      "eue": 1689,
      "fm": 1690,
      "fbf": 1691,
      "flu": 1692,
      "fcec": 1693,
      "fced": 1694,
      "gni": 1695,
      "hang": 1696,
      "iting": 1697,
      "kmap": 1698,
      "mas": 1699,
      "ogni": 1700,
      "qb": 1701,
      "rst": 1702,
      "table": 1703,
      "tur": 1704,
      "tue": 1705,
      "taddr": 1706,
      "tlb": 1707,
      "vx": 1708,
      "we": 1709,
      "wel": 1710,
      "yun": 1711,
      "decd": 1712,
      "incomplete": 1713,
      "cece": 1714,
      "cefc": 1715,
      "ceac": 1716,
      "orted": 1717,
      "location": 1718,
      "ong": 1719,
      "nding": 1720,
      "parmd": 1721,
      "aborted": 1722,
      "adac": 1723,
      "rever": 1724,
      "idos": 1725,
      "idochip": 1726,
      "pending": 1727,
      "partad": 1728,
      "lit": 1729,
      "lized": 1730,
      "bffffffe": 1731,
      "mail": 1732,
      "dccc": 1733,
      "dcbc": 1734,
      "first": 1735,
      "already": 1736,
      "sic": 1737,
      "ccfc": 1738,
      "cccb": 1739,
      "dfbc": 1740,
      "daec": 1741,
      "fcdc": 1742,
      "fcdb": 1743,
      "fcbc": 1744,
      "iver": 1745,
      "bca": 1746,
      "bfec": 1747,
      "cddc": 1748,
      "efde": 1749,
      "efec": 1750,
      "efdc": 1751,
      "efbc": 1752,
      "replicas": 1753,
      "dsk": 1754,
      "romio": 1755,
      "niel": 1756,
      "sod": 1757,
      "minus": 1758,
      "bglidochip": 1759,
      "ffffffbe": 1760,
      "come": 1761,
      "failure": 1762,
      "mps": 1763,
      "queue": 1764,
      "genvm": 1765,
      "generating": 1766,
      "word": 1767,
      "testing": 1768,
      "interval": 1769,
      "pping": 1770,
      "userfunc": 1771,
      "ddcc": 1772,
      "serverdb": 1773,
      "caca": 1774,
      "fccc": 1775,
      "treeaddr": 1776,
      "-->": 1777,
      "plus": 1778,
      "efca": 1779,
      "bootgenvm": 1780,
      "undy": 1781,
      "fceb": 1782,
      "cdec": 1783,
      "cdcc": 1784,
      "cpu": 1785,
      "under": 1786,
      "unrec": 1787,
      "adec": 1788,
      "://": 1789,
      "xffffc": 1790,
      "fdee": 1791,
      "waiting": 1792,
      "dcache": 1793,
      "strong": 1794,
      "develf": 1795,
      "ofdirtylines": 1796,
      "ofdirtydbl": 1797,
      "normalized": 1798,
      "split": 1799,
      "debugger": 1800,
      "format": 1801,
      "replicationmonitor": 1802,
      "cjmundy": 1803,
      "averages": 1804,
      "essl": 1805,
      "flush": 1806,
      "master": 1807,
      "ognized": 1808,
      "taddriver": 1809,
      "welcome": 1810,
      "yunsic": 1811,
      "reverse": 1812,
      "pendingreplicationmonitor": 1813,
      "mailbox": 1814,
      "nielsen": 1815,
      "bootgenvmunix": 1816,
      "unrecognized": 1817,
      "ofdirtydblword": 1818,
      "==": 1819,
      "amd": 1820,
      "acec": 1821,
      "cpp": 1822,
      "count": 1823,
      "dab": 1824,
      "div": 1825,
      "dffe": 1826,
      "dfffffe": 1827,
      "ddac": 1828,
      "ddfc": 1829,
      "dition": 1830,
      "elo": 1831,
      "effe": 1832,
      "effb": 1833,
      "eedc": 1834,
      "ewe": 1835,
      "fg": 1836,
      "fy": 1837,
      "flow": 1838,
      "fresh": 1839,
      "give": 1840,
      "hel": 1841,
      "ible": 1842,
      "jar": 1843,
      "jor": 1844,
      "late": 1845,
      "mpt": 1846,
      "mul": 1847,
      "nk": 1848,
      "ot": 1849,
      "pth": 1850,
      "tex": 1851,
      "uation": 1852,
      "ues": 1853,
      "xad": 1854,
      "xda": 1855,
      "xfffffe": 1856,
      "ygi": 1857,
      "ffdc": 1858,
      "ffcc": 1859,
      "ffac": 1860,
      "ffae": 1861,
      "ffba": 1862,
      "ffcd": 1863,
      "ffcb": 1864,
      "del": 1865,
      "dede": 1866,
      "decc": 1867,
      "dedd": 1868,
      "deac": 1869,
      "debc": 1870,
      "demo": 1871,
      "depth": 1872,
      "inity": 1873,
      "ses": 1874,
      "sequ": 1875,
      "cedd": 1876,
      "cebf": 1877,
      "char": 1878,
      "order": 1879,
      "ffffca": 1880,
      "loewe": 1881,
      "towar": 1882,
      "ndwid": 1883,
      "prompt": 1884,
      "fffffbfe": 1885,
      "stir": 1886,
      "abfc": 1887,
      "blocked": 1888,
      "addc": 1889,
      "adcc": 1890,
      "adfc": 1891,
      "refresh": 1892,
      "news": 1893,
      "ump": 1894,
      "pression": 1895,
      "rack": 1896,
      "bffffdfe": 1897,
      "major": 1898,
      "fiel": 1899,
      "ention": 1900,
      "dfa": 1901,
      "dfb": 1902,
      "dfd": 1903,
      "dfcc": 1904,
      "dfac": 1905,
      "errstr": 1906,
      ".....": 1907,
      ".......": 1908,
      "condition": 1909,
      "dacb": 1910,
      "dba": 1911,
      "dbd": 1912,
      "gete": 1913,
      "fcff": 1914,
      "fcde": 1915,
      "fcce": 1916,
      "fcdd": 1917,
      "fcbe": 1918,
      "acac": 1919,
      "acbc": 1920,
      "expression": 1921,
      "iostate": 1922,
      "aefe": 1923,
      "bfea": 1924,
      "bfbb": 1925,
      "bfeb": 1926,
      "baker": 1927,
      "bandwid": 1928,
      "fefe": 1929,
      "ill": 1930,
      "cfb": 1931,
      "bbde": 1932,
      "caec": 1933,
      "caac": 1934,
      "capt": 1935,
      "linkerror": 1936,
      "timeoutexception": 1937,
      "efce": 1938,
      "efdd": 1939,
      "efbf": 1940,
      "efbd": 1941,
      "efbb": 1942,
      "cbbc": 1943,
      "hit": 1944,
      "high": 1945,
      "fddc": 1946,
      "fdfff": 1947,
      "msg": 1948,
      "sockettimeoutexception": 1949,
      "bglmaster": 1950,
      "srm": 1951,
      "expired": 1952,
      "fffffffa": 1953,
      "host": 1954,
      "general": 1955,
      "ncy": 1956,
      "................................": 1957,
      "cacd": 1958,
      "cacf": 1959,
      "fccd": 1960,
      "fccf": 1961,
      "resource": 1962,
      "efcf": 1963,
      "reduce": 1964,
      "fcea": 1965,
      "fcef": 1966,
      "efeb": 1967,
      "efef": 1968,
      "due": 1969,
      "soft": 1970,
      "bffc": 1971,
      "bffd": 1972,
      "infinity": 1973,
      "develo": 1974,
      "cpm": 1975,
      "runs": 1976,
      "unable": 1977,
      "cabc": 1978,
      "cabd": 1979,
      "cabf": 1980,
      "cabot": 1981,
      "jtagid": 1982,
      "beca": 1983,
      "..............": 1984,
      "fdcc": 1985,
      "gnu": 1986,
      "ware": 1987,
      "alerts": 1988,
      "verify": 1989,
      ".....................": 1990,
      "......................": 1991,
      ".......................": 1992,
      "bdbb": 1993,
      "****": 1994,
      "contention": 1995,
      "getting": 1996,
      "feffed": 1997,
      "papi": 1998,
      "trace": 1999,
      "normal": 2000,
      "fady": 2001,
      "there": 2002,
      "continue": 2003,
      "continuation": 2004,
      "accessible": 2005,
      "law": 2006,
      "purge": 2007,
      "testqboxhang": 2008,
      "parmdg": 2009,
      "fgygi": 2010,
      "latency": 2011,
      "text": 2012,
      "toward": 2013,
      "stirtur": 2014,
      "getel": 2015,
      "bandwidth": 2016,
      "fefefeff": 2017,
      "capture": 2018,
      "fdfffdfe": 2019,
      "develop": 2020,
      "):": 2021,
      ")...": 2022,
      ")........................": 2023,
      "*)": 2024,
      "aff": 2025,
      "ail": 2026,
      "aeac": 2027,
      "aaba": 2028,
      "bip": 2029,
      "bcec": 2030,
      "ci": 2031,
      "cs": 2032,
      "cu": 2033,
      "ccec": 2034,
      "cffffffe": 2035,
      "cpes": 2036,
      "caeb": 2037,
      "claw": 2038,
      "dg": 2039,
      "dy": 2040,
      "dcec": 2041,
      "dabc": 2042,
      "ek": 2043,
      "ep": 2044,
      "efff": 2045,
      "efaa": 2046,
      "effa": 2047,
      "fch": 2048,
      "fur": 2049,
      "fabc": 2050,
      "gu": 2051,
      "gbgl": 2052,
      "gun": 2053,
      "ise": 2054,
      "ich": 2055,
      "iss": 2056,
      "iad": 2057,
      "ian": 2058,
      "iap": 2059,
      "ject": 2060,
      "jni": 2061,
      "ke": 2062,
      "kt": 2063,
      "led": 2064,
      "lac": 2065,
      "leep": 2066,
      "lapa": 2067,
      "lare": 2068,
      "mf": 2069,
      "mer": 2070,
      "mea": 2071,
      "nl": 2072,
      "ned": 2073,
      "os": 2074,
      "own": 2075,
      "pu": 2076,
      "ppre": 2077,
      "psu": 2078,
      "pnet": 2079,
      "pux": 2080,
      "pcount": 2081,
      "pkt": 2082,
      "qx": 2083,
      "rm": 2084,
      "ro": 2085,
      "rt": 2086,
      "rw": 2087,
      "rfft": 2088,
      "rich": 2089,
      "sma": 2090,
      "smi": 2091,
      "spa": 2092,
      "sam": 2093,
      "sorter": 2094,
      "sleep": 2095,
      "tc": 2096,
      "tz": 2097,
      "tip": 2098,
      "teb": 2099,
      "tserver": 2100,
      "tun": 2101,
      "ug": 2102,
      "uch": 2103,
      "ving": 2104,
      "vis": 2105,
      "wra": 2106,
      "wal": 2107,
      "xde": 2108,
      "xdb": 2109,
      "xfc": 2110,
      "xfa": 2111,
      "xca": 2112,
      "xaf": 2113,
      "xffffff": 2114,
      "xvicar": 2115,
      "yx": 2116,
      "yes": 2117,
      "ffde": 2118,
      "ffce": 2119,
      "ffee": 2120,
      "ffab": 2121,
      "ffdb": 2122,
      "ffadd": 2123,
      "ffbf": 2124,
      "ffbd": 2125,
      "ffcf": 2126,
      "ffbb": 2127,
      "ffaf": 2128,
      "ffcdf": 2129,
      "ffbfb": 2130,
      "arty": 2131,
      "aril": 2132,
      "arant": 2133,
      "dece": 2134,
      "deed": 2135,
      "debf": 2136,
      "defe": 2137,
      "debcc": 2138,
      "denormalized": 2139,
      "nosleep": 2140,
      "inex": 2141,
      "init": 2142,
      "seille": 2143,
      "seek": 2144,
      "ceab": 2145,
      "cecd": 2146,
      "cebd": 2147,
      "cecf": 2148,
      "ceca": 2149,
      "ceeb": 2150,
      "cards": 2151,
      "ecac": 2152,
      "ecise": 2153,
      "ffffbffe": 2154,
      "lost": 2155,
      "precise": 2156,
      "edde": 2157,
      "edda": 2158,
      "edfc": 2159,
      "edfa": 2160,
      "educe": 2161,
      "edump": 2162,
      "topurge": 2163,
      "touch": 2164,
      "eeec": 2165,
      "ctl": 2166,
      "ndir": 2167,
      "parame": 2168,
      "ioni": 2169,
      "fffffd": 2170,
      "servicenetwork": 2171,
      "servicemailbox": 2172,
      "sta": 2173,
      "stu": 2174,
      "still": 2175,
      "ers": 2176,
      "erist": 2177,
      "ckpt": 2178,
      "ckap": 2179,
      "abec": 2180,
      "abdc": 2181,
      "abdb": 2182,
      "abac": 2183,
      "abbc": 2184,
      "abled": 2185,
      "thunder": 2186,
      "force": 2187,
      "adv": 2188,
      "adbc": 2189,
      "adbe": 2190,
      "blac": 2191,
      "restarting": 2192,
      "resets": 2193,
      "newmap": 2194,
      "idotrans": 2195,
      "idoclient": 2196,
      "idomar": 2197,
      "present": 2198,
      "preqx": 2199,
      "presta": 2200,
      "rai": 2201,
      "rain": 2202,
      "bffffa": 2203,
      "bffffd": 2204,
      "dcdc": 2205,
      "dcda": 2206,
      "dcdd": 2207,
      "dcac": 2208,
      "dcbf": 2209,
      "dcount": 2210,
      "fier": 2211,
      "ential": 2212,
      "allr": 2213,
      "ccda": 2214,
      "ccdd": 2215,
      "ccbc": 2216,
      "ccbf": 2217,
      "ccba": 2218,
      "dfbb": 2219,
      "conc": 2220,
      "conso": 2221,
      "dace": 2222,
      "dacc": 2223,
      "dafc": 2224,
      "daac": 2225,
      "dacd": 2226,
      "dbb": 2227,
      "dbe": 2228,
      "dbg": 2229,
      "dbec": 2230,
      "dbdc": 2231,
      "dbfd": 2232,
      "fcdf": 2233,
      "fcda": 2234,
      "fcfc": 2235,
      "fcbf": 2236,
      "fcffe": 2237,
      "fcdcf": 2238,
      "fcdbf": 2239,
      "ddmd": 2240,
      "acfc": 2241,
      "acbb": 2242,
      "exter": 2243,
      "adding": 2244,
      "bcdc": 2245,
      "receivet": 2246,
      "bfed": 2247,
      "bfee": 2248,
      "bfac": 2249,
      "bfaf": 2250,
      "bfdea": 2251,
      "beab": 2252,
      "bebd": 2253,
      "baf": 2254,
      "baec": 2255,
      "bacc": 2256,
      "baac": 2257,
      "bank": 2258,
      "feffff": 2259,
      "fefffff": 2260,
      "fefc": 2261,
      "febc": 2262,
      "febf": 2263,
      "fefab": 2264,
      "cdadc": 2265,
      "cdfffe": 2266,
      "faec": 2267,
      "fafc": 2268,
      "fafa": 2269,
      "linadv": 2270,
      "bdab": 2271,
      "bbab": 2272,
      "bbac": 2273,
      "output": 2274,
      "coredump": 2275,
      "caee": 2276,
      "cafc": 2277,
      "caus": 2278,
      "ests": 2279,
      "comms": 2280,
      "afbb": 2281,
      "efed": 2282,
      "efee": 2283,
      "efbe": 2284,
      "efdbc": 2285,
      "efccb": 2286,
      "efdcd": 2287,
      "efdcb": 2288,
      "detail": 2289,
      "ters": 2290,
      "mapfiles": 2291,
      "cbec": 2292,
      "cbea": 2293,
      "cbdc": 2294,
      "cbfc": 2295,
      "cbac": 2296,
      "replac": 2297,
      "aacc": 2298,
      "...........": 2299,
      "etests": 2300,
      "byteb": 2301,
      "suppre": 2302,
      "ebde": 2303,
      "ebee": 2304,
      "ebda": 2305,
      "ebdb": 2306,
      "ebba": 2307,
      "fdff": 2308,
      "fdfffff": 2309,
      "fdfffe": 2310,
      "processes": 2311,
      "perclaw": 2312,
      "bglerr": 2313,
      "fbdc": 2314,
      "fbda": 2315,
      "fbac": 2316,
      "fbbc": 2317,
      "fbba": 2318,
      "rundir": 2319,
      "loguser": 2320,
      "feaf": 2321,
      "wordcount": 2322,
      "worker": 2323,
      "ddrsize": 2324,
      "consider": 2325,
      "triad": 2326,
      "allocation": 2327,
      "ctrs": 2328,
      "lsf": 2329,
      "hwstab": 2330,
      "edef": 2331,
      "llap": 2332,
      "llnl": 2333,
      "temphigh": 2334,
      "............................": 2335,
      "codes": 2336,
      "jag": 2337,
      "curioni": 2338,
      "fccbf": 2339,
      "fcccf": 2340,
      "enabled": 2341,
      "temporaril": 2342,
      "symbols": 2343,
      "fulltest": 2344,
      "object": 2345,
      "efcb": 2346,
      "efcbc": 2347,
      "efcfd": 2348,
      "mpich": 2349,
      "mod": 2350,
      "mods": 2351,
      "pasci": 2352,
      "signed": 2353,
      "ffbff": 2354,
      "ffbdf": 2355,
      "ffaec": 2356,
      "ffafa": 2357,
      "fcee": 2358,
      "fcebd": 2359,
      "fcecb": 2360,
      "pose": 2361,
      "acterist": 2362,
      "activating": 2363,
      "edrams": 2364,
      "ddcmdgbgl": 2365,
      "effd": 2366,
      "hyperclaw": 2367,
      "ics": 2368,
      "brian": 2369,
      "unsigned": 2370,
      "cabe": 2371,
      "build": 2372,
      "cdac": 2373,
      "glob": 2374,
      "declare": 2375,
      "bdirect": 2376,
      "streamtriad": 2377,
      "bdea": 2378,
      "bdee": 2379,
      "portmgr": 2380,
      "efaea": 2381,
      "ffaaa": 2382,
      "eebea": 2383,
      "existing": 2384,
      "grepa": 2385,
      "xffffb": 2386,
      "xffffd": 2387,
      "caused": 2388,
      "float": 2389,
      "flopcount": 2390,
      "imprecise": 2391,
      "next": 2392,
      "enableflush": 2393,
      "problems": 2394,
      "marseille": 2395,
      "configuration": 2396,
      "ulriketests": 2397,
      "zerobyteb": 2398,
      "cfaf": 2399,
      "assertion": 2400,
      "stopping": 2401,
      "sending": 2402,
      "spec": 2403,
      "efdfd": 2404,
      "purpose": 2405,
      "fftw": 2406,
      "/../../": 2407,
      "aug": 2408,
      "autopurge": 2409,
      "fmmods": 2410,
      "underflow": 2411,
      "mailboxmonitor": 2412,
      "divac": 2413,
      "hello": 2414,
      "multip": 2415,
      "sequential": 2416,
      "characterist": 2417,
      "ordered": 2418,
      "fields": 2419,
      "software": 2420,
      "stirturbdirect": 2421,
      "biparty": 2422,
      "csar": 2423,
      "cupps": 2424,
      "epstreamtriad": 2425,
      "further": 2426,
      "guarant": 2427,
      "gunnels": 2428,
      "issues": 2429,
      "lapack": 2430,
      "meam": 2431,
      "small": 2432,
      "smith": 2433,
      "space": 2434,
      "samrai": 2435,
      "tzyx": 2436,
      "tuned": 2437,
      "visus": 2438,
      "wray": 2439,
      "walk": 2440,
      "inexact": 2441,
      "parameters": 2442,
      "servicenetworkcharacterist": 2443,
      "servicemailboxes": 2444,
      "ckapfer": 2445,
      "blacs": 2446,
      "newmaps": 2447,
      "idotransportmgr": 2448,
      "idoclientmgr": 2449,
      "idomarsh": 2450,
      "allreduce": 2451,
      "console": 2452,
      "external": 2453,
      "receivetrain": 2454,
      "causing": 2455,
      "detailed": 2456,
      "replacing": 2457,
      "suppressing": 2458,
      "loguserinfo": 2459,
      "temporarily": 2460,
      "ddcmdgbglv": 2461,
      "declareservicenetworkcharacterist": 2462,
      "flopcounters": 2463,
      "marseillebgl": 2464,
      "zerobytebug": 2465,
      "multiple": 2466,
      "bipartyz": 2467,
      "guaranteed": 2468,
      "declareservicenetworkcharacteristics": 2469,
      "!(": 2470,
      "&)": 2471,
      "&,": 2472,
      ")'": 2473,
      ")...........................": 2474,
      ").......": 2475,
      ")......................": 2476,
      ").......................": 2477,
      "*,": 2478,
      "*&)": 2479,
      "/./": 2480,
      "=<": 2481,
      "=!(": 2482,
      "?/": 2483,
      "ay": 2484,
      "aut": 2485,
      "aeee": 2486,
      "aadc": 2487,
      "accc": 2488,
      "aada": 2489,
      "aedc": 2490,
      "affd": 2491,
      "afcb": 2492,
      "aabc": 2493,
      "afffffff": 2494,
      "aux": 2495,
      "aving": 2496,
      "bar": 2497,
      "batch": 2498,
      "bio": 2499,
      "bbf": 2500,
      "bus": 2501,
      "bnet": 2502,
      "bfff": 2503,
      "bffb": 2504,
      "badc": 2505,
      "bedc": 2506,
      "bvn": 2507,
      "bdec": 2508,
      "bdbc": 2509,
      "beac": 2510,
      "baeb": 2511,
      "bacb": 2512,
      "bceb": 2513,
      "babc": 2514,
      "beda": 2515,
      "bates": 2516,
      "babf": 2517,
      "babb": 2518,
      "bpnet": 2519,
      "cn": 2520,
      "cto": 2521,
      "cffa": 2522,
      "cadc": 2523,
      "cadb": 2524,
      "cffea": 2525,
      "dk": 2526,
      "dr": 2527,
      "dram": 2528,
      "dffa": 2529,
      "dada": 2530,
      "dadf": 2531,
      "dffd": 2532,
      "dfffe": 2533,
      "dabd": 2534,
      "dfffffff": 2535,
      "dabf": 2536,
      "dabb": 2537,
      "ddaf": 2538,
      "dlb": 2539,
      "dump": 2540,
      "dware": 2541,
      "efffff": 2542,
      "eadf": 2543,
      "ebfb": 2544,
      "ebfa": 2545,
      "ecee": 2546,
      "eceb": 2547,
      "eabc": 2548,
      "eabd": 2549,
      "eabf": 2550,
      "ether": 2551,
      "fr": 2552,
      "ft": 2553,
      "fsy": 2554,
      "fre": 2555,
      "foo": 2556,
      "fstat": 2557,
      "ftest": 2558,
      "fadc": 2559,
      "fedc": 2560,
      "ftests": 2561,
      "fdec": 2562,
      "fecc": 2563,
      "faef": 2564,
      "fbaa": 2565,
      "fbef": 2566,
      "fla": 2567,
      "gm": 2568,
      "gp": 2569,
      "gs": 2570,
      "ged": 2571,
      "gid": 2572,
      "gum": 2573,
      "gra": 2574,
      "gate": 2575,
      "gcc": 2576,
      "groot": 2577,
      "gapps": 2578,
      "gath": 2579,
      "gging": 2580,
      "har": 2581,
      "hid": 2582,
      "han": 2583,
      "hul": 2584,
      "ide": 2585,
      "ior": 2586,
      "ited": 2587,
      "ile": 2588,
      "icb": 2589,
      "iet": 2590,
      "ical": 2591,
      "ies": 2592,
      "ification": 2593,
      "icache": 2594,
      "jn": 2595,
      "jr": 2596,
      "jre": 2597,
      "jection": 2598,
      "jvm": 2599,
      "jdk": 2600,
      "keb": 2601,
      "ktest": 2602,
      "kill": 2603,
      "llo": 2604,
      "ling": 2605,
      "lstat": 2606,
      "large": 2607,
      "lnk": 2608,
      "lseek": 2609,
      "mm": 2610,
      "mpd": 2611,
      "ming": 2612,
      "mbl": 2613,
      "mis": 2614,
      "merr": 2615,
      "nm": 2616,
      "nu": 2617,
      "nee": 2618,
      "nted": 2619,
      "nected": 2620,
      "nded": 2621,
      "nlev": 2622,
      "nve": 2623,
      "nmsg": 2624,
      "obe": 2625,
      "option": 2626,
      "ph": 2627,
      "pid": 2628,
      "ping": 2629,
      "pted": 2630,
      "pol": 2631,
      "qs": 2632,
      "qw": 2633,
      "qrt": 2634,
      "rs": 2635,
      "ry": 2636,
      "rou": 2637,
      "sn": 2638,
      "sor": 2639,
      "spar": 2640,
      "scom": 2641,
      "scan": 2642,
      "sla": 2643,
      "sses": 2644,
      "slaw": 2645,
      "sgs": 2646,
      "sqrt": 2647,
      "tet": 2648,
      "tmgr": 2649,
      "tmpd": 2650,
      "uid": 2651,
      "umask": 2652,
      "ubgl": 2653,
      "ures": 2654,
      "ugh": 2655,
      "udp": 2656,
      "vt": 2657,
      "vaddr": 2658,
      "vbuffer": 2659,
      "vtrace": 2660,
      "ws": 2661,
      "win": 2662,
      "wed": 2663,
      "watch": 2664,
      "xff": 2665,
      "xec": 2666,
      "xed": 2667,
      "xfffff": 2668,
      "xab": 2669,
      "xdc": 2670,
      "xac": 2671,
      "xbc": 2672,
      "xae": 2673,
      "xfe": 2674,
      "xbd": 2675,
      "xbb": 2676,
      "xef": 2677,
      "xcb": 2678,
      "xaa": 2679,
      "xfb": 2680,
      "xfee": 2681,
      "xfff": 2682,
      "xbfe": 2683,
      "xfcd": 2684,
      "xfffe": 2685,
      "xbfa": 2686,
      "xfffffff": 2687,
      "xafd": 2688,
      "xfefefeff": 2689,
      "yz": 2690,
      "yur": 2691,
      "||": 2692,
      "ffec": 2693,
      "ffad": 2694,
      "ffeeee": 2695,
      "ffda": 2696,
      "ffbe": 2697,
      "fffd": 2698,
      "fffb": 2699,
      "ffcec": 2700,
      "ffced": 2701,
      "ffbfe": 2702,
      "ffadb": 2703,
      "ffada": 2704,
      "ffadf": 2705,
      "ffcde": 2706,
      "ffbfd": 2707,
      "ffbfa": 2708,
      "ffcee": 2709,
      "ffaeb": 2710,
      "ffacb": 2711,
      "ffdcd": 2712,
      "ffbaa": 2713,
      "ffafb": 2714,
      "ffaca": 2715,
      "ffacf": 2716,
      "ffbcb": 2717,
      "ffdcc": 2718,
      "ffcef": 2719,
      "ffabf": 2720,
      "ffdbf": 2721,
      "ffbbb": 2722,
      "art": 2723,
      "arest": 2724,
      "argum": 2725,
      "den": 2726,
      "deec": 2727,
      "dedf": 2728,
      "defc": 2729,
      "debd": 2730,
      "debb": 2731,
      "deeb": 2732,
      "defb": 2733,
      "deeca": 2734,
      "degroot": 2735,
      "nop": 2736,
      "nopr": 2737,
      "noio": 2738,
      "nova": 2739,
      "noni": 2740,
      "nocomm": 2741,
      "nozerobytebug": 2742,
      "inform": 2743,
      "incount": 2744,
      "injection": 2745,
      "seti": 2746,
      "sever": 2747,
      "sembl": 2748,
      "cer": 2749,
      "ceda": 2750,
      "cedb": 2751,
      "cebe": 2752,
      "cebb": 2753,
      "cefd": 2754,
      "ceabe": 2755,
      "att": 2756,
      "ative": 2757,
      "ching": 2758,
      "chem": 2759,
      "chown": 2760,
      "chmod": 2761,
      "orest": 2762,
      "ories": 2763,
      "ecff": 2764,
      "ecde": 2765,
      "ecce": 2766,
      "ecab": 2767,
      "ecad": 2768,
      "eccc": 2769,
      "ecbc": 2770,
      "ecfe": 2771,
      "ecfa": 2772,
      "ecbb": 2773,
      "ecaf": 2774,
      "ecaa": 2775,
      "ecdca": 2776,
      "ecvbuffer": 2777,
      "dog": 2778,
      "loor": 2779,
      "lone": 2780,
      "look": 2781,
      "loader": 2782,
      "pdbg": 2783,
      "priv": 2784,
      "eddc": 2785,
      "edcc": 2786,
      "eddf": 2787,
      "edac": 2788,
      "edbc": 2789,
      "edba": 2790,
      "edfe": 2791,
      "edbb": 2792,
      "edca": 2793,
      "edaa": 2794,
      "only": 2795,
      "ssive": 2796,
      "ason": 2797,
      "assembl": 2798,
      "idx": 2799,
      "toall": 2800,
      "todebugger": 2801,
      "eece": 2802,
      "eefc": 2803,
      "eebc": 2804,
      "eeae": 2805,
      "eebf": 2806,
      "eeba": 2807,
      "eebd": 2808,
      "eebb": 2809,
      "ndro": 2810,
      "prof": 2811,
      "fffffefe": 2812,
      "iary": 2813,
      "stand": 2814,
      "notification": 2815,
      "ering": 2816,
      "cktime": 2817,
      "syndro": 2818,
      "abed": 2819,
      "abcc": 2820,
      "abca": 2821,
      "abef": 2822,
      "nearest": 2823,
      "ofda": 2824,
      "adce": 2825,
      "adda": 2826,
      "adfa": 2827,
      "bll": 2828,
      "blas": 2829,
      "blast": 2830,
      "readd": 2831,
      "reserved": 2832,
      "rename": 2833,
      "renc": 2834,
      "remo": 2835,
      "retag": 2836,
      "restarted": 2837,
      "reopen": 2838,
      "remer": 2839,
      "reason": 2840,
      "newmpi": 2841,
      "newcomp": 2842,
      "newhack": 2843,
      "shho": 2844,
      "short": 2845,
      "idoms": 2846,
      "idomsg": 2847,
      "idoudp": 2848,
      "ution": 2849,
      "utime": 2850,
      "partsn": 2851,
      "preta": 2852,
      "len": 2853,
      "leme": 2854,
      "leader": 2855,
      "leaving": 2856,
      "eade": 2857,
      "eace": 2858,
      "eaec": 2859,
      "eafc": 2860,
      "eaae": 2861,
      "eaca": 2862,
      "eapp": 2863,
      "mehul": 2864,
      "ranova": 2865,
      "list": 2866,
      "licate": 2867,
      "libr": 2868,
      "sessiontimeout": 2869,
      "macce": 2870,
      "make": 2871,
      "makeb": 2872,
      "mallo": 2873,
      "emm": 2874,
      "dcu": 2875,
      "dcdf": 2876,
      "dcdb": 2877,
      "dcfc": 2878,
      "dcae": 2879,
      "dcbd": 2880,
      "dccf": 2881,
      "dccb": 2882,
      "dcaee": 2883,
      "iso": 2884,
      "entry": 2885,
      "alerr": 2886,
      "systemcontroller": 2887,
      "ccr": 2888,
      "ccab": 2889,
      "ccdb": 2890,
      "ccac": 2891,
      "ccbe": 2892,
      "ccbd": 2893,
      "cccf": 2894,
      "ccca": 2895,
      "ccaf": 2896,
      "ccsame": 2897,
      "nan": 2898,
      "dfde": 2899,
      "dfec": 2900,
      "dfed": 2901,
      "dfdc": 2902,
      "dfae": 2903,
      "dfcf": 2904,
      "dfdac": 2905,
      "errhan": 2906,
      "const": 2907,
      "connected": 2908,
      "daff": 2909,
      "daea": 2910,
      "dacf": 2911,
      "daaf": 2912,
      "dafdc": 2913,
      "daabd": 2914,
      "daabe": 2915,
      "dafca": 2916,
      "dbea": 2917,
      "dbcc": 2918,
      "dbdd": 2919,
      "dbbc": 2920,
      "dbsr": 2921,
      "dbcr": 2922,
      "dbremer": 2923,
      "timer": 2924,
      "ticktime": 2925,
      "getr": 2926,
      "fcab": 2927,
      "fcba": 2928,
      "fcded": 2929,
      "fcbd": 2930,
      "fcbb": 2931,
      "fcaf": 2932,
      "fcfff": 2933,
      "fcfaa": 2934,
      "fcddc": 2935,
      "fcfcc": 2936,
      "fcfda": 2937,
      "fccec": 2938,
      "fcbfe": 2939,
      "fcbff": 2940,
      "fcfdb": 2941,
      "fcfcd": 2942,
      "fcbfb": 2943,
      "fcbec": 2944,
      "fcdec": 2945,
      "fcfcb": 2946,
      "fcceb": 2947,
      "fcdcd": 2948,
      "fccea": 2949,
      "fcbaa": 2950,
      "fcdaa": 2951,
      "fcdaf": 2952,
      "fcddd": 2953,
      "fcdeb": 2954,
      "fcbcf": 2955,
      "fcbeb": 2956,
      "fcbbb": 2957,
      "fcdae": 2958,
      "ddff": 2959,
      "ddde": 2960,
      "ddad": 2961,
      "dddd": 2962,
      "ddabe": 2963,
      "acda": 2964,
      "acbf": 2965,
      "acfa": 2966,
      "acbd": 2967,
      "acaf": 2968,
      "accec": 2969,
      "miranova": 2970,
      "exit": 2971,
      "exited": 2972,
      "bcab": 2973,
      "bcda": 2974,
      "bcfc": 2975,
      "bcac": 2976,
      "bcbc": 2977,
      "bcbf": 2978,
      "bcbe": 2979,
      "bcaa": 2980,
      "aede": 2981,
      "aefc": 2982,
      "aebf": 2983,
      "aebe": 2984,
      "aebd": 2985,
      "aebb": 2986,
      "aefee": 2987,
      "aeffa": 2988,
      "aeedf": 2989,
      "bfde": 2990,
      "bfab": 2991,
      "bfcc": 2992,
      "bfda": 2993,
      "bfbf": 2994,
      "bfaa": 2995,
      "bfdac": 2996,
      "bfcefc": 2997,
      "bfbaf": 2998,
      "bead": 2999,
      "bebc": 3000,
      "bebe": 3001,
      "beba": 3002,
      "bebb": 3003,
      "befb": 3004,
      "befcc": 3005,
      "bebfdc": 3006,
      "baff": 3007,
      "baab": 3008,
      "bafc": 3009,
      "baae": 3010,
      "ciodb": 3011,
      "feab": 3012,
      "fead": 3013,
      "feffe": 3014,
      "fefcd": 3015,
      "fefeb": 3016,
      "fefafa": 3017,
      "cdde": 3018,
      "cdce": 3019,
      "dedreplication": 3020,
      "faf": 3021,
      "fade": 3022,
      "faad": 3023,
      "facc": 3024,
      "faedb": 3025,
      "faecd": 3026,
      "ilt": 3027,
      "iler": 3028,
      "iliary": 3029,
      "bdde": 3030,
      "cfee": 3031,
      "cfdddc": 3032,
      "cfloor": 3033,
      "bbec": 3034,
      "bbdc": 3035,
      "bbae": 3036,
      "bbbb": 3037,
      "bbccf": 3038,
      "bbadbe": 3039,
      "outstand": 3040,
      "times": 3041,
      "timeofda": 3042,
      "cade": 3043,
      "cace": 3044,
      "caea": 3045,
      "caaa": 3046,
      "caeeb": 3047,
      "caffee": 3048,
      "canoni": 3049,
      "caching": 3050,
      "commit": 3051,
      "afde": 3052,
      "afdb": 3053,
      "afbc": 3054,
      "afbe": 3055,
      "afbd": 3056,
      "after": 3057,
      "afabf": 3058,
      "efad": 3059,
      "efac": 3060,
      "efba": 3061,
      "efddc": 3062,
      "efccd": 3063,
      "efbfe": 3064,
      "efadf": 3065,
      "efedc": 3066,
      "efbfd": 3067,
      "efedb": 3068,
      "efecf": 3069,
      "efeef": 3070,
      "efeeb": 3071,
      "efbaa": 3072,
      "efeca": 3073,
      "efedd": 3074,
      "efdfc": 3075,
      "efbcb": 3076,
      "efecd": 3077,
      "efdca": 3078,
      "efdfe": 3079,
      "efcef": 3080,
      "efdaa": 3081,
      "efbef": 3082,
      "efdef": 3083,
      "efdcf": 3084,
      "efdaf": 3085,
      "efddd": 3086,
      "efdea": 3087,
      "efdeb": 3088,
      "efeaa": 3089,
      "efbcd": 3090,
      "efecb": 3091,
      "efbaf": 3092,
      "excessive": 3093,
      "mapping": 3094,
      "cbad": 3095,
      "cbcc": 3096,
      "cbdd": 3097,
      "cbba": 3098,
      "cbrt": 3099,
      "readv": 3100,
      "readblock": 3101,
      "aaee": 3102,
      "aaac": 3103,
      "aafa": 3104,
      "aaaf": 3105,
      "aaabc": 3106,
      "aaecab": 3107,
      "valone": 3108,
      "usage": 3109,
      "corrupt": 3110,
      "byte": 3111,
      "ptarge": 3112,
      "ptance": 3113,
      "luke": 3114,
      "suit": 3115,
      "subnet": 3116,
      "verbo": 3117,
      "addresses": 3118,
      "ebce": 3119,
      "ebed": 3120,
      "ebea": 3121,
      "ebae": 3122,
      "ebbd": 3123,
      "fdde": 3124,
      "values": 3125,
      "sock": 3126,
      "sopt": 3127,
      "validate": 3128,
      "glp": 3129,
      "gov": 3130,
      "terminated": 3131,
      "overflow": 3132,
      "closing": 3133,
      "socketexception": 3134,
      "bglc": 3135,
      "bglcode": 3136,
      "bglsys": 3137,
      "bglctl": 3138,
      "update": 3139,
      "directories": 3140,
      "ffffffc": 3141,
      "ffffffd": 3142,
      "ffffffee": 3143,
      "fbde": 3144,
      "fbec": 3145,
      "fbab": 3146,
      "fbcc": 3147,
      "fbdb": 3148,
      "fbfc": 3149,
      "fbfffffe": 3150,
      "feeb": 3151,
      "feeaa": 3152,
      "failures": 3153,
      "page": 3154,
      "pavtrace": 3155,
      "mpxl": 3156,
      "mpleme": 3157,
      "ols": 3158,
      "quiet": 3159,
      "itz": 3160,
      "logfile": 3161,
      "logical": 3162,
      "feac": 3163,
      "feaaa": 3164,
      "testscrip": 3165,
      "testsuit": 3166,
      "interexception": 3167,
      "unit": 3168,
      "unimpleme": 3169,
      "instr": 3170,
      "pped": 3171,
      "ppcfloor": 3172,
      "edea": 3173,
      "edec": 3174,
      "edefb": 3175,
      "llpo": 3176,
      "llseek": 3177,
      "....................................": 3178,
      "...............................": 3179,
      ".................................": 3180,
      ".............................": 3181,
      "ddca": 3182,
      "ddcb": 3183,
      "ddcd": 3184,
      "cmdline": 3185,
      "cacb": 3186,
      "fcca": 3187,
      "fccb": 3188,
      "fccff": 3189,
      "fccde": 3190,
      "fccce": 3191,
      "fccab": 3192,
      "fccdf": 3193,
      "fccba": 3194,
      "fccfe": 3195,
      "fcccd": 3196,
      "fccbd": 3197,
      "fccbb": 3198,
      "fccaf": 3199,
      "fccaa": 3200,
      "fccfd": 3201,
      "fccfb": 3202,
      "fdac": 3203,
      "fdaea": 3204,
      "encer": 3205,
      "fdfb": 3206,
      "fdfdf": 3207,
      "fdfdb": 3208,
      "fdfac": 3209,
      "fdfae": 3210,
      "facee": 3211,
      "efcdf": 3212,
      "efcda": 3213,
      "efcfc": 3214,
      "efcbe": 3215,
      "efcfe": 3216,
      "efcbd": 3217,
      "efcbb": 3218,
      "efcaf": 3219,
      "efcaa": 3220,
      "efcfb": 3221,
      "efcbad": 3222,
      "sensor": 3223,
      "ffbde": 3224,
      "ffbab": 3225,
      "ffbcc": 3226,
      "ffbda": 3227,
      "ffbdb": 3228,
      "ffbbc": 3229,
      "ffbae": 3230,
      "ffbbf": 3231,
      "ffbbe": 3232,
      "ffbbd": 3233,
      "ffbffbff": 3234,
      "backgr": 3235,
      "ffaff": 3236,
      "ffade": 3237,
      "ffaed": 3238,
      "ffaee": 3239,
      "ffaab": 3240,
      "ffaea": 3241,
      "ffafc": 3242,
      "ffaae": 3243,
      "ffafe": 3244,
      "ffaaf": 3245,
      "fceff": 3246,
      "fceec": 3247,
      "fceed": 3248,
      "fcead": 3249,
      "fcecc": 3250,
      "fceda": 3251,
      "fcedb": 3252,
      "fcebc": 3253,
      "fceae": 3254,
      "fcebf": 3255,
      "fcebe": 3256,
      "fcefe": 3257,
      "fcecd": 3258,
      "fcebb": 3259,
      "fcefd": 3260,
      "zookeeperserver": 3261,
      "txyz": 3262,
      "regctl": 3263,
      "efeff": 3264,
      "efece": 3265,
      "efeab": 3266,
      "efebc": 3267,
      "efefe": 3268,
      "efebd": 3269,
      "efebb": 3270,
      "efefd": 3271,
      "fold": 3272,
      "shots": 3273,
      "bffee": 3274,
      "bffea": 3275,
      "bffac": 3276,
      "bffcf": 3277,
      "bffcbf": 3278,
      "cceb": 3279,
      "cceea": 3280,
      "cceda": 3281,
      "micron": 3282,
      "cdfbab": 3283,
      "fdbb": 3284,
      "fdbc": 3285,
      "fdbdf": 3286,
      "fdbbf": 3287,
      "modulo": 3288,
      "microloader": 3289,
      "effc": 3290,
      "effbc": 3291,
      "efffe": 3292,
      "effbb": 3293,
      "effca": 3294,
      "effcb": 3295,
      "effaa": 3296,
      "efffd": 3297,
      "performing": 3298,
      "xaed": 3299,
      "fffffefa": 3300,
      "ghdr": 3301,
      "snan": 3302,
      "snapreta": 3303,
      "cdea": 3304,
      "cdee": 3305,
      "icbcast": 3306,
      "cdca": 3307,
      "ffdce": 3308,
      "ffddaff": 3309,
      "cpgra": 3310,
      "eecc": 3311,
      "ffcbf": 3312,
      "ffcbd": 3313,
      "ffcbb": 3314,
      "fcdff": 3315,
      "fcdce": 3316,
      "fcdab": 3317,
      "runcate": 3318,
      "beeb": 3319,
      "beeaab": 3320,
      "cdbe": 3321,
      "unlink": 3322,
      "randomacce": 3323,
      "adea": 3324,
      "bind": 3325,
      "libvisus": 3326,
      "bfbec": 3327,
      "bfbab": 3328,
      "bfcb": 3329,
      "bfcf": 3330,
      "bfcbd": 3331,
      "caba": 3332,
      "bfdab": 3333,
      "controlling": 3334,
      "busy": 3335,
      "built": 3336,
      "mkdir": 3337,
      "becd": 3338,
      "amr": 3339,
      "fdcff": 3340,
      "xbbe": 3341,
      "memtest": 3342,
      "aeea": 3343,
      "xfed": 3344,
      "streitz": 3345,
      "maxbug": 3346,
      "maxsessiontimeout": 3347,
      "acef": 3348,
      "acebf": 3349,
      "ffeaeb": 3350,
      "alltoall": 3351,
      "fcbce": 3352,
      "fcbab": 3353,
      "fcbea": 3354,
      "fcbdf": 3355,
      "fcbdd": 3356,
      "fcbac": 3357,
      "fcbba": 3358,
      "compiler": 3359,
      "efdff": 3360,
      "efdce": 3361,
      "efdab": 3362,
      "efddf": 3363,
      "efdda": 3364,
      "bdeb": 3365,
      "bdef": 3366,
      "bdece": 3367,
      "bdecc": 3368,
      "bdeae": 3369,
      "bdeaa": 3370,
      "bdecab": 3371,
      "cfca": 3372,
      "fcfbf": 3373,
      "fcfbe": 3374,
      "fcfbd": 3375,
      "efbcc": 3376,
      "efbda": 3377,
      "efbbe": 3378,
      "efbbd": 3379,
      "aligned": 3380,
      "accad": 3381,
      "bbca": 3382,
      "bbcb": 3383,
      "..........................": 3384,
      "fbca": 3385,
      "fbcd": 3386,
      "grepb": 3387,
      "xffffcb": 3388,
      "aacd": 3389,
      "bdfa": 3390,
      "bdfe": 3391,
      "afcbf": 3392,
      "fdef": 3393,
      "fdead": 3394,
      "fabea": 3395,
      "fabda": 3396,
      "fabdd": 3397,
      "wave": 3398,
      "aabb": 3399,
      "aabf": 3400,
      "bccac": 3401,
      "xdcef": 3402,
      "initial": 3403,
      "alerio": 3404,
      "clearport": 3405,
      "bdcb": 3406,
      "ebca": 3407,
      "dcaaf": 3408,
      "bcastv": 3409,
      "initialization": 3410,
      "initializeapp": 3411,
      "bffebcbe": 3412,
      "fecb": 3413,
      "fecfc": 3414,
      "fbbb": 3415,
      "fbbae": 3416,
      "ulative": 3417,
      "ccccccc": 3418,
      "cccccccd": 3419,
      "configfile": 3420,
      "///": 3421,
      "afebf": 3422,
      "bdae": 3423,
      "bbade": 3424,
      "ddba": 3425,
      "bbeb": 3426,
      "dffacb": 3427,
      "jeffgreeno": 3428,
      "strobe": 3429,
      "getgid": 3430,
      "getpid": 3431,
      "getuid": 3432,
      "gettimeofda": 3433,
      "accepted": 3434,
      "acceptance": 3435,
      "fefffc": 3436,
      "targetclose": 3437,
      "cbeb": 3438,
      "disconnected": 3439,
      "trap": 3440,
      "train": 3441,
      "trapping": 3442,
      "trapped": 3443,
      "selftest": 3444,
      "sendpacket": 3445,
      "sendmsg": 3446,
      "sendworker": 3447,
      "sendtrain": 3448,
      "stepping": 3449,
      "efdfb": 3450,
      "efdbb": 3451,
      "efdbd": 3452,
      "efdbe": 3453,
      "packages": 3454,
      "interrupting": 3455,
      "writelog": 3456,
      "openjdk": 3457,
      "duplicate": 3458,
      "eabea": 3459,
      "xbfaeb": 3460,
      "ffbca": 3461,
      "prefetching": 3462,
      "prefetches": 3463,
      "execution": 3464,
      "aleamr": 3465,
      "fmm": 3466,
      "hangtest": 3467,
      "turn": 3468,
      "tlbentry": 3469,
      "fcdbe": 3470,
      "flushing": 3471,
      "divide": 3472,
      "hellow": 3473,
      "multi": 3474,
      "xdaabe": 3475,
      "ffbaf": 3476,
      "sequencer": 3477,
      "ordering": 3478,
      "refreshes": 3479,
      "field": 3480,
      "bbdeba": 3481,
      "hostname": 3482,
      "verifystu": 3483,
      "purgeinterval": 3484,
      "stirturbpnet": 3485,
      "dgtest": 3486,
      "dgemm": 3487,
      "dyna": 3488,
      "fchown": 3489,
      "fchmod": 3490,
      "pull": 3491,
      "rmw": 3492,
      "rmdir": 3493,
      "rows": 3494,
      "xfcffd": 3495,
      "yescomm": 3496,
      "yeszerobytebug": 3497,
      "nosleepyescomm": 3498,
      "study": 3499,
      "fcbfabd": 3500,
      "ddmdv": 3501,
      "bfeefe": 3502,
      "bfafec": 3503,
      "fefabb": 3504,
      "global": 3505,
      "special": 3506,
      "speculative": 3507,
      "walkup": 3508,
      "idomarshalerr": 3509,
      "idomarshalerio": 3510,
      "consoleip": 3511,
      "consoleport": 3512,
      "ayoo": 3513,
      "autorest": 3514,
      "auxiliary": 3515,
      "batchfiles": 3516,
      "cnvt": 3517,
      "ctools": 3518,
      "ethernet": 3519,
      "fraction": 3520,
      "ftruncate": 3521,
      "fsync": 3522,
      "freed": 3523,
      "foobar": 3524,
      "flagging": 3525,
      "gmt": 3526,
      "gathering": 3527,
      "hardware": 3528,
      "hidden": 3529,
      "ileged": 3530,
      "icbi": 3531,
      "jng": 3532,
      "jratt": 3533,
      "lnkck": 3534,
      "mmu": 3535,
      "miscompare": 3536,
      "nullpo": 3537,
      "neededreplication": 3538,
      "nmsglen": 3539,
      "poll": 3540,
      "rounded": 3541,
      "sparing": 3542,
      "scomerror": 3543,
      "scancom": 3544,
      "slave": 3545,
      "slawrenc": 3546,
      "tetshho": 3547,
      "tmpdir": 3548,
      "winerr": 3549,
      "watchdog": 3550,
      "xedcb": 3551,
      "xfffffef": 3552,
      "xfffead": 3553,
      "yuri": 3554,
      "ffeeeefe": 3555,
      "fffbccf": 3556,
      "argument": 3557,
      "noprint": 3558,
      "nocommnosleep": 3559,
      "information": 3560,
      "setitimer": 3561,
      "severed": 3562,
      "chembio": 3563,
      "looking": 3564,
      "privileged": 3565,
      "assembly": 3566,
      "syndrome": 3567,
      "readdir": 3568,
      "removing": 3569,
      "retagging": 3570,
      "idomsghdr": 3571,
      "idoudpmgr": 3572,
      "library": 3573,
      "makebglp": 3574,
      "malloc": 3575,
      "ccsamef": 3576,
      "getrusage": 3577,
      "ddddddd": 3578,
      "faedbae": 3579,
      "outstanding": 3580,
      "canonical": 3581,
      "ptargetmgr": 3582,
      "lukei": 3583,
      "subnets": 3584,
      "verbose": 3585,
      "bglctlpavtrace": 3586,
      "mpxlc": 3587,
      "testscripts": 3588,
      "testsuite": 3589,
      "unimplemented": 3590,
      "background": 3591,
      "snapretaincount": 3592,
      "cpgraph": 3593,
      "beeaabff": 3594,
      "randomaccess": 3595,
      "initializeappmemory": 3596,
      "jeffgreenough": 3597,
      "gettimeofday": 3598,
      "sendmsgtodebugger": 3599,
      "verifystuff": 3600,
      "idomarshalerrecvbuffer": 3601,
      "autorestart": 3602,
      "nullpointerexception": 3603,
      "neededreplications": 3604,
      "tetshhot": 3605
    },
    "merges": [
      "9 9",
      "99 99",
      "9999 9999",
      "f f",
      "99 9",
      "a r",
      "d e",
      "n o",
      "i n",
      "s e",
      "9999 9",
      "c e",
      "c ar",
      "car d",
      "a t",
      "no de",
      "c h",
      "99999999 99999999",
      "o r",
      "se r",
      "e c",
      "d o",
      ") ,",
      "ff ff",
      "l o",
      "p d",
      "v pd",
      "p r",
      "e d",
      "i p",
      "o n",
      "s s",
      "ser v",
      "a s",
      "i d",
      "t o",
      "e e",
      "c t",
      "n d",
      "p ar",
      "i on",
      "pr o",
      "m l",
      "ffff f",
      "i ce",
      "serv ice",
      "o u",
      "9999999999999999 99999999",
      "de ar",
      "i ar",
      "pro ce",
      "9999 99",
      "in g",
      "s t",
      "no t",
      "ec k",
      "proce ss",
      "ch eck",
      "process or",
      "ec id",
      "s lo",
      "slo t",
      "e r",
      "at ch",
      "ou nd",
      "f ound",
      "m atch",
      "c k",
      "s y",
      "a b",
      "t h",
      "t ed",
      "f or",
      "lo ck",
      "n e",
      "b lock",
      "o f",
      "as k",
      "d at",
      "t ing",
      "th e",
      "a d",
      "b l",
      "sy m",
      "r e",
      "bl k",
      "m ask",
      "ne w",
      "s h",
      "a se",
      "i do",
      "u m",
      "ser ted",
      "ch ip",
      "p e",
      "in to",
      "ab ase",
      "dat abase",
      "in serted",
      "ct ion",
      "t y",
      "u t",
      "n um",
      "par t",
      "pr e",
      "ty pe",
      "par e",
      "999999999999999999999999 999",
      "for service",
      "pre pare",
      "prepare forservice",
      ") )",
      "m card",
      "ser num",
      "ct n",
      "ml ctn",
      "mcard sernum",
      "m ip",
      "m type",
      "ml p",
      "a ction",
      "w n",
      "do wn",
      "sh ut",
      "shut ting",
      "999999999999999999999999 9999",
      ". .",
      "99999999 999999",
      "l e",
      "e a",
      "m e",
      "ss ion",
      "n t",
      "r a",
      "l i",
      "9999 999",
      "b ffff",
      "se ssion",
      "m a",
      "e m",
      "d c",
      "i s",
      "ee ee",
      "9999999999999999 999",
      "node card",
      "f i",
      "e nt",
      "at e",
      "a l",
      "fi le",
      "st em",
      "sy stem",
      "s i",
      "c c",
      "n a",
      "d f",
      "er r",
      "ffff ffff",
      ".. ..",
      "c on",
      "d a",
      "d b",
      "t i",
      "g e",
      "f c",
      "o m",
      "d d",
      "i v",
      "a c",
      "ra n",
      "f pr",
      "m i",
      "ec ted",
      "err or",
      "e x",
      "ad d",
      "b c",
      "re ce",
      "i o",
      "rece iv",
      "9999999999999999 99",
      "a e",
      "b f",
      "t ran",
      "tran s",
      "b e",
      "i r",
      "b a",
      "ec t",
      "at ed",
      "serv ed",
      "z e",
      "si ze",
      "o k",
      "c io",
      "f e",
      "cio d",
      "c d",
      "de d",
      "f a",
      "l in",
      "ee e",
      "i l",
      "b d",
      "eeee eee",
      "c f",
      "b b",
      "ou t",
      "ti me",
      "na me",
      "c li",
      "cli ent",
      "c or",
      "name system",
      "st ate",
      "c a",
      "dat a",
      "se d",
      "lin k",
      "time out",
      "file system",
      "er filesystem",
      "session id",
      "c ate",
      "e st",
      "c om",
      "a f",
      "e f",
      "o o",
      "st or",
      "receiv ed",
      "a nd",
      "99999999 99",
      "ex ce",
      "de t",
      "t er",
      "ma p",
      "det ected",
      "c b",
      "99999999 99999",
      "link card",
      "st ar",
      "p on",
      "re ad",
      "a n",
      "ma in",
      "re p",
      "9999999999999999 9",
      "do main",
      "ed block",
      "add stor",
      "addstor edblock",
      "oo t",
      "ra m",
      "star ting",
      "f er",
      "a a",
      "v a",
      "rep li",
      "th read",
      "trans fer",
      "ab le",
      "data node",
      "repli cate",
      "d ir",
      "n ect",
      "con nect",
      "u s",
      ".... ....",
      "cor r",
      "com pon",
      "compon ent",
      "e t",
      "b y",
      "p t",
      "w id",
      "ck et",
      "g ram",
      "r oot",
      "pro gram",
      "w i",
      "ad ded",
      "d s",
      "l u",
      "r om",
      "connect ion",
      "f rom",
      "lu st",
      "trans mi",
      "s u",
      "corr ected",
      "c lust",
      "v er",
      "ss ing",
      "add re",
      "at ion",
      "addre ss",
      "se con",
      "mi ssing",
      "secon ds",
      "e b",
      "n i",
      "h i",
      "f d",
      "v al",
      "dc r",
      "il able",
      "va ilable",
      "s c",
      "s o",
      "val id",
      "x ffffffff",
      "m in",
      "g l",
      "se t",
      "m s",
      "g o",
      "wi th",
      "clust erfilesystem",
      "in valid",
      "t ted",
      "ch an",
      "ter min",
      "transmi tted",
      "o ver",
      "proce s",
      "p er",
      "w hi",
      "proces sed",
      "e ded",
      "c lo",
      "so cket",
      "b gl",
      "or y",
      "p ir",
      "s r",
      "ex pir",
      "termin ation",
      "u pd",
      "ab li",
      "sh ed",
      "est abli",
      "establi shed",
      "u na",
      "ne go",
      "block map",
      "ti ated",
      "exce eded",
      "upd ated",
      "una vailable",
      "nego tiated",
      "expir ing",
      "chan ge",
      "whi ch",
      "clo sed",
      "dir ect",
      "direct ory",
      "h ad",
      "sr c",
      "serv erfilesystem",
      "su ch",
      "99999999 9",
      "99999999 999",
      "t or",
      "ffff ff",
      "c r",
      "c o",
      "f b",
      "g er",
      "pt ion",
      "de st",
      "f ee",
      "fa il",
      "s w",
      "tor us",
      "h o",
      "p a",
      "m p",
      "o l",
      "q u",
      "ne t",
      "ho me",
      "lo n",
      "lo ad",
      "h wid",
      "i ma",
      "ima ge",
      "load ing",
      "cor e",
      "exce ption",
      "c al",
      "i t",
      "receiv er",
      "ge n",
      "fail ed",
      "r u",
      "lo g",
      "st at",
      "w wid",
      "sc si",
      "gen er",
      "file s",
      "f ea",
      "w or",
      "gener ated",
      "n c",
      "t est",
      "u r",
      "lon ger",
      "in ter",
      "be ing",
      "th is",
      "do ne",
      "wor k",
      "m d",
      "t em",
      "p ut",
      "de r",
      "in put",
      "u ni",
      "in st",
      "l r",
      "net work",
      "p p",
      "f u",
      "dd r",
      "u ser",
      "stat us",
      "n f",
      "u p",
      "ar ge",
      "con si",
      "set s",
      "t arge",
      "in consi",
      "node sets",
      "st ent",
      "inconsi stent",
      "n b",
      "p ip",
      "de le",
      "pip e",
      "t r",
      "99999999 9999",
      "al lo",
      "ct r",
      "l s",
      "ffffff fe",
      "allo cate",
      "x er",
      "node s",
      "domain s",
      "targe ting",
      "allocate block",
      "t e",
      "ru ction",
      "inst ruction",
      "h w",
      "uni x",
      "sw l",
      "e de",
      "ff f",
      "l l",
      "tem p",
      "........ ........",
      "re qu",
      "ma nd",
      "99999999 9999999",
      "co de",
      "ni ff",
      "n al",
      "in t",
      "ch dir",
      "ra nd",
      "log in",
      "( /",
      "a ge",
      "- [",
      "ff e",
      "at ing",
      "fa a",
      "g b",
      "d dc",
      "receiv ing",
      "dele te",
      "j a",
      "h as",
      "ed faa",
      "ja va",
      "ee per",
      "pa cket",
      "b er",
      "invalid set",
      "serv er",
      "com mand",
      "requ est",
      "c ur",
      "ar y",
      "t s",
      "ee p",
      "pp s",
      "sw eep",
      "a pps",
      "s pe",
      "c md",
      "al le",
      "int err",
      "c ac",
      "f cc",
      "v i",
      "f da",
      "g oo",
      "tr ee",
      "goo d",
      "e n",
      "temp or",
      "f df",
      "fa ce",
      "b ol",
      "e s",
      "i st",
      "t ask",
      "u pt",
      "sym bol",
      "tempor ary",
      "or um",
      "qu orum",
      "inter face",
      "fu ll",
      "interr upt",
      "- -",
      "c ase",
      "o b",
      "p l",
      "ce c",
      "re s",
      "ran k",
      "vi a",
      "case s",
      "n ch",
      "al t",
      "e fc",
      "j ob",
      "mp i",
      "b oot",
      "m o",
      "p as",
      "r ed",
      "ss age",
      "me ssage",
      "sc r",
      "c re",
      "e v",
      "se n",
      "num ber",
      "si g",
      "ev ent",
      "ff b",
      "ce d",
      "mp it",
      "mpit s",
      "h a",
      "ba ck",
      "sig nal",
      "t ch",
      "or t",
      "sy nch",
      "cal ls",
      "back up",
      "k in",
      "u nd",
      "ff a",
      "re nt",
      "pa kin",
      "cur rent",
      "e l",
      "i al",
      "sen der",
      "a nt",
      "f ce",
      "w r",
      "lo w",
      "re transmi",
      "retransmi ssion",
      "m c",
      "o ok",
      "p o",
      "z ook",
      "de ni",
      "mi ssion",
      "per mission",
      "zook eeper",
      "deni ed",
      "b w",
      "s pas",
      "x c",
      "x id",
      "ser ial",
      "ed s",
      "ip address",
      "alle n",
      "red und",
      "bw allen",
      "spas m",
      "serial number",
      "redund ant",
      "k er",
      "n ction",
      "s ion",
      "s wi",
      "t x",
      "df s",
      "fee a",
      "fea a",
      "fu nction",
      "swi tch",
      "a ct",
      "t a",
      "a vailable",
      "ad c",
      "re g",
      "cc c",
      "lin e",
      "test cases",
      "e fe",
      "ne l",
      "cc d",
      "ist er",
      "ker nel",
      "function al",
      "reg ister",
      "b m",
      "d u",
      "i bm",
      "l ce",
      "s of",
      "u re",
      "sy s",
      "spe lce",
      "res pon",
      "a der",
      "f ol",
      "i me",
      "m ed",
      "m id",
      "m nt",
      "o p",
      "r ts",
      "do op",
      "ee r",
      "sy sc",
      "sh o",
      "al ls",
      "bf e",
      "bgl scr",
      "log s",
      "cre ating",
      "ha doop",
      "act iv",
      "sysc alls",
      "bglscr atch",
      "b ff",
      "c ce",
      "m b",
      "ed ram",
      "ad b",
      ".. .",
      "mi cr",
      "fol low",
      ". /",
      "a ne",
      "c df",
      "c ation",
      "e block",
      "f db",
      "x y",
      "in f",
      "lo cal",
      "the ader",
      "exce eds",
      "ddc md",
      "pl ane",
      "mo du",
      "sof theader",
      "mid plane",
      "micr o",
      "i ti",
      "t al",
      "to tal",
      "inter nal",
      "good ing",
      "wr it",
      "modu le",
      "micro seconds",
      "e ff",
      "h y",
      "clust er",
      "per for",
      "x a",
      "fffff e",
      "ad a",
      "err no",
      "io exception",
      "b ut",
      "g h",
      "p hy",
      "s na",
      "t mp",
      "at ure",
      "ad f",
      "re set",
      "per ature",
      "tem perature",
      "c de",
      "h p",
      "i c",
      "p eer",
      "at h",
      "ed c",
      "stor y",
      "corr ect",
      "hi story",
      "fdf e",
      "hp cc",
      "b r",
      "b ad",
      "c dc",
      "e nd",
      "l as",
      "p sho",
      "p ath",
      "z xid",
      "ff d",
      "de v",
      "me nt",
      "ra pt",
      "inter connect",
      "sna psho",
      "rapt or",
      "snapsho t",
      "a li",
      "c p",
      "e ec",
      "k eeper",
      "z t",
      "ff c",
      "service action",
      "fc d",
      "ru n",
      "xy zt",
      "inf o",
      "correct able",
      "end serviceaction",
      "b ee",
      "c db",
      "u n",
      "ch e",
      "ran do",
      "il d",
      "ffffff e",
      "packet respon",
      "fda f",
      "tx t",
      "packetrespon der",
      "a de",
      "b in",
      "c ad",
      "d in",
      "d ime",
      "n sion",
      "u e",
      "u pon",
      "v n",
      "or din",
      "li b",
      "si cal",
      "bf b",
      "co ordin",
      "lon g",
      "dele ting",
      "ta g",
      "perfor med",
      "phy sical",
      "rando m",
      "dime nsion",
      "coordin ate",
      "b fc",
      "c ab",
      "j tag",
      "x e",
      "ch ild",
      "do es",
      "pe s",
      "con tr",
      "bf d",
      "be long",
      "an y",
      "fda e",
      "contr ol",
      ": /",
      "b u",
      "m k",
      "s pp",
      "stor age",
      "rand txt",
      "spp m",
      "b ec",
      "c da",
      "m mi",
      "s ort",
      "v ar",
      "ff fe",
      "shut down",
      "bf a",
      "........ ....",
      "writ eblock",
      "a m",
      "a ec",
      "c dd",
      "f dc",
      "f las",
      "l er",
      "n ing",
      "x b",
      "ce e",
      "ed b",
      "ou nt",
      "ma n",
      "com m",
      "star t",
      "cr iti",
      "test s",
      "activ e",
      "flas h",
      "criti cal",
      "b i",
      "g lo",
      "i ty",
      "m db",
      "w er",
      "de c",
      "ec c",
      "as t",
      "me m",
      "db c",
      "gl v",
      "ddc mdb",
      "po wer",
      "gh t",
      "sort rand",
      "bi g",
      "ddcmdb glv",
      "a ee",
      "g n",
      "i k",
      "i mb",
      "l ts",
      "x f",
      "at temp",
      "st re",
      "re su",
      "ma x",
      "da c",
      "error s",
      "bd ir",
      "interrupt s",
      "follow up",
      "comm uni",
      "attemp ting",
      "resu lts",
      "a ce",
      "b g",
      "g ent",
      "o ff",
      "s li",
      "x ml",
      "ff ea",
      "ee a",
      "par alle",
      "ea c",
      "al l",
      "cc b",
      "ae b",
      "ir ed",
      "fe fff",
      "ur gent",
      "requ ired",
      "en v",
      "glo sli",
      "stre am",
      "paralle l",
      "a pa",
      "j mc",
      "p jmc",
      "in e",
      "car t",
      "ch ine",
      "ec f",
      "ffff e",
      "ed f",
      "as serted",
      "par ity",
      "re new",
      "ma chine",
      "cc f",
      "fc b",
      "ac b",
      "com p",
      "ef d",
      "an g",
      "us r",
      "su cce",
      "su bdir",
      "fail ing",
      "bee n",
      "pjmc cart",
      "b de",
      "c fc",
      "m ount",
      "p ort",
      "v pes",
      "x fffffffe",
      "ce b",
      "ee f",
      "ab c",
      "dc d",
      "cc a",
      "fc f",
      "ef b",
      "spe nt",
      "ali gn",
      "vn m",
      "a ea",
      "a cc",
      "b bc",
      "e fa",
      "h dfs",
      "s id",
      "v ol",
      "ff aa",
      "or g",
      "ee b",
      "pro per",
      "re sh",
      "um m",
      "le v",
      "li o",
      "ti es",
      "ex ist",
      "ae f",
      "il le",
      "ver sion",
      "co p",
      "ger man",
      "................ ........",
      "cur i",
      "quorum server",
      "quorum peer",
      "follow er",
      "bg lio",
      "apa che",
      "align ment",
      "proper ties",
      "german n",
      ": :",
      "a ed",
      "b o",
      "f bc",
      "g rep",
      "l atch",
      "m n",
      "w ar",
      "x ffff",
      "ce a",
      "do e",
      "ed a",
      "ab a",
      "ab d",
      "con f",
      "ba a",
      "ca u",
      "af b",
      "dir s",
      "fd mn",
      "per f",
      "ffffff f",
      "ol d",
      "dev ice",
      "cp md",
      "communi cation",
      "comp le",
      "lev el",
      ": -",
      "a ac",
      "b df",
      "c able",
      "c xid",
      "f ac",
      "g i",
      "g al",
      "h en",
      "l y",
      "l ang",
      "m mc",
      "n type",
      "o pt",
      "q path",
      "w hen",
      "y ing",
      "node exist",
      "ec a",
      "ed d",
      "st ab",
      "process ing",
      "bl ue",
      "re valid",
      "re qpath",
      "mi rand",
      "error code",
      "go t",
      "whi le",
      "co ll",
      "exception s",
      "tr ying",
      "cre ate",
      "tx ntype",
      "keeper exception",
      "keeper errorcode",
      "off set",
      "ille gal",
      "mmc s",
      "nodeexist s",
      "revalid ating",
      "mirand a",
      "a p",
      "a fc",
      "c bc",
      "f de",
      "f lo",
      "f ab",
      "i m",
      "s le",
      "u se",
      "w a",
      "x ce",
      "de activ",
      "on ment",
      "ee xce",
      "th resh",
      "ne x",
      "ate s",
      "ir onment",
      "stat eexce",
      "fu nc",
      "en able",
      "current ly",
      "env ironment",
      "cau ght",
      "illegal stateexce",
      "deactiv ated",
      "thresh old",
      "illegalstateexce ption",
      "a ab",
      "b cc",
      "b it",
      "c le",
      "d ad",
      "e ed",
      "f ae",
      "g r",
      "i li",
      "m y",
      "o pe",
      "r ec",
      "s ing",
      "x d",
      "y ates",
      "in iti",
      "pro bl",
      "ea e",
      "al er",
      "df c",
      "om mand",
      "ac a",
      "ac f",
      "bc b",
      "bc ommand",
      "receiv eblock",
      "read ing",
      "an ce",
      "su bcommand",
      "min i",
      "po int",
      "stab ili",
      "cle ar",
      "probl em",
      "subcommand s",
      "stabili ty",
      "( )",
      "b s",
      "b dc",
      "b ac",
      "c bb",
      "d ing",
      "d ur",
      "e bc",
      "e be",
      "f p",
      "h and",
      "h pl",
      "p ected",
      "p an",
      "r ce",
      "r bs",
      "u o",
      "u x",
      "u nex",
      "w as",
      "ec d",
      "pr ed",
      "ou rce",
      "ab e",
      "pre p",
      "me so",
      "ma pred",
      "dc a",
      "dc c",
      "df e",
      "ac d",
      "bc ast",
      "fa n",
      "star ted",
      "ver i",
      "stat ic",
      "inst ance",
      "................ ....",
      "respon ding",
      "ali z",
      "control ler",
      "mem ory",
      "ik uo",
      "max im",
      "gi ge",
      "sing le",
      "initi aliz",
      "dur ing",
      "hand ler",
      "pan ic",
      "unex pected",
      "meso s",
      "maxim um",
      "a fa",
      "b eck",
      "b db",
      "b ffe",
      "c lock",
      "d ce",
      "d ra",
      "e ce",
      "e of",
      "e ger",
      "f ec",
      "f dd",
      "f bd",
      "f bb",
      "m ar",
      "p good",
      "s ram",
      "s umm",
      "u l",
      "v e",
      "ce f",
      "or beck",
      "to o",
      "ab f",
      "ne ls",
      "bl e",
      "um t",
      ".. /",
      "nt ime",
      "ra il",
      "fi g",
      "cc cc",
      "con fig",
      "ex e",
      "ect ion",
      "ok en",
      "aa a",
      "termin ating",
      "clo se",
      "co pro",
      "mp good",
      "ru ntime",
      "full y",
      "switch controller",
      "register s",
      "midplane switchcontroller",
      "br oken",
      "succe ss",
      "vol t",
      "dra eger",
      "summ ary",
      "* *",
      "/ .",
      "/ /",
      "a ae",
      "a fe",
      "a ms",
      "a mb",
      "b da",
      "b ba",
      "d de",
      "d db",
      "g ing",
      "i j",
      "i ent",
      "l p",
      "o adc",
      "u lr",
      "w il",
      "z er",
      "or ter",
      "ab b",
      "li ams",
      "ma na",
      "fi cation",
      "cc cd",
      "con t",
      "da a",
      "ti med",
      "fc a",
      "add r",
      "be f",
      "fe f",
      "sc ip",
      "ffffff fc",
      "nf s",
      "el ection",
      "br oadc",
      "bo x",
      "war ning",
      "comple ted",
      "flo ating",
      "initializ ing",
      "config ur",
      "amb ient",
      "ulr ik",
      "wil liams",
      "zer o",
      "mana ger",
      "broadc ast",
      "a me",
      "b ce",
      "b ea",
      "b be",
      "c ou",
      "c ae",
      "c bf",
      "c ba",
      "c fe",
      "c fa",
      "d ff",
      "e bf",
      "e ba",
      "e bd",
      "e sr",
      "h alt",
      "j eff",
      "l d",
      "m dc",
      "n io",
      "p ty",
      "r fi",
      "s ource",
      "u nt",
      "y interrupt",
      "z ed",
      "ar e",
      "de f",
      "in fer",
      "ce cc",
      "ser t",
      "on nect",
      "as sert",
      "pro po",
      "st r",
      "block s",
      "of dir",
      "re trying",
      "sh er",
      "li ght",
      "em pty",
      "dc f",
      "cc ce",
      "da f",
      "db yinterrupt",
      "ge t",
      "fc ac",
      "dd d",
      "ac ce",
      "fe ff",
      "lin ux",
      "cf d",
      "est ed",
      "af d",
      "wi res",
      "lust re",
      "ms r",
      "go ing",
      "chan nels",
      "pa p",
      "it ion",
      "targe t",
      "spe eds",
      "dev el",
      "bu g",
      "............ ...",
      "mem ber",
      "ffffe ffe",
      "succe eded",
      "blue light",
      "sle pt",
      "wa it",
      "rec onnect",
      "aler t",
      "fp scr",
      "veri fication",
      "eof exception",
      "close dbyinterrupt",
      "cou ld",
      "mdc ask",
      "rfi sher",
      "unt ested",
      "infer no",
      "propo sed",
      "ofdir ty",
      "closedbyinterrupt exception",
      "c nt",
      "c be",
      "c mc",
      "d is",
      "e y",
      "f ed",
      "f ba",
      "h om",
      "i tor",
      "m on",
      "o per",
      "r ma",
      "r is",
      "s to",
      "t ra",
      "u ble",
      "w cnt",
      "de a",
      "de b",
      "de s",
      "no rma",
      "se l",
      "se nd",
      "ce dc",
      "ce bc",
      "ce cb",
      "do uble",
      "to mand",
      "pro xy",
      "st e",
      "st eer",
      "ab ort",
      "ido proxy",
      "ty pas",
      "ea a",
      "me ta",
      "eeee eeee",
      "cc dc",
      "db properties",
      "bc d",
      "io log",
      "ca f",
      "ca n",
      "ca che",
      "an typas",
      "su pp",
      "set ting",
      "chan ging",
      "cr c",
      "inst all",
      "................ .",
      "mo de",
      "scr ip",
      "ha ve",
      "sho ck",
      "cdf c",
      "br des",
      "las t",
      "run ning",
      "bu ber",
      "use database",
      "orter s",
      "configur ed",
      "ulrik ey",
      "hom me",
      "mon itor",
      "oper ation",
      "ris boot",
      "tomand jeff",
      "supp orters",
      "a ad",
      "a use",
      "b dd",
      "d p",
      "d ty",
      "d df",
      "d da",
      "d dbc",
      "e map",
      "f ad",
      "f be",
      "h umm",
      "i ter",
      "k y",
      "l t",
      "m gr",
      "o cc",
      "r ky",
      "s p",
      "s ame",
      "x l",
      "ff fc",
      "ar ch",
      "de e",
      "de dc",
      "de bug",
      "de scrip",
      "no n",
      "se nt",
      "at ter",
      "th er",
      "block info",
      "re main",
      "um emap",
      "ea f",
      "ma y",
      "dc b",
      ".... ..",
      "db f",
      "ge ne",
      "mi t",
      "bc f",
      "rece ption",
      "be b",
      "be nch",
      "fe tch",
      "lin es",
      "bb b",
      "ca a",
      "ca cc",
      "ef df",
      "ef db",
      "stor e",
      "map file",
      "sc atter",
      "pa ck",
      "ur red",
      "ll a",
      "interr up",
      "vi car",
      "wr iter",
      "writ e",
      "perfor man",
      "snapshot ting",
      "............ .",
      "vol umemap",
      "comple te",
      "blue gene",
      "ope n",
      "ope ning",
      "mar k",
      "success fully",
      "cont in",
      "acce ss",
      "dis able",
      "sel ect",
      "ste lla",
      "ause lt",
      "dty p",
      "humm er",
      "occ urred",
      "descrip tor",
      "bench mark",
      "performan ce",
      "auselt on",
      "= /",
      "a af",
      "b ed",
      "b mi",
      "b ae",
      "b bd",
      "c j",
      "c x",
      "c ating",
      "c ada",
      "d up",
      "d dec",
      "e ab",
      "e bb",
      "h n",
      "i which",
      "j gh",
      "j ul",
      "k b",
      "k u",
      "k pt",
      "l a",
      "l b",
      "l ver",
      "p ur",
      "p wr",
      "q box",
      "r ound",
      "s ca",
      "u ce",
      "v m",
      "x bf",
      "x hpl",
      "ff t",
      "ff er",
      "ff bc",
      "ff ca",
      "se arch",
      "ce ec",
      "card sto",
      "ch kpt",
      "ec b",
      "ffff c",
      "as ic",
      "ee no",
      "fffff c",
      "for m",
      "re l",
      "part ition",
      "pre fi",
      "pre fetch",
      "le test",
      "li mit",
      "da e",
      "da hn",
      "dd dc",
      "iv e",
      "ac dc",
      "ex ec",
      "add member",
      "bf dc",
      "be n",
      "cio stream",
      "fe b",
      "lin pack",
      "com pare",
      "ef ea",
      "ef cc",
      "ef da",
      "read y",
      "repli cation",
      "........ .",
      "ds cal",
      "ds mc",
      "so lver",
      "so dscal",
      "cal te",
      "test ed",
      "test qbox",
      "pp c",
      "te n",
      "ll er",
      "................ ..",
      "................ ...",
      "age s",
      "ber ts",
      "fdf a",
      "fdf c",
      "pl b",
      "efc d",
      "ffb ffe",
      "ha ck",
      "line ar",
      "writ ten",
      "cluster addmember",
      "cdb c",
      "un correctable",
      "bu ffer",
      "communi cating",
      "parity alignment",
      "........................ .",
      "........................ ...",
      "bo ta",
      "ap c",
      "sle s",
      "gr eeno",
      "mini ben",
      "steer ing",
      "idoproxy db",
      "can not",
      "homme s",
      "interrup ted",
      "bmi ller",
      "cj m",
      "cx x",
      "iwhich cardsto",
      "ku bota",
      "pwr off",
      "sca letest",
      "prefi x",
      "solver s",
      "sodscal ing",
      "calte ch",
      "berts ch",
      "iwhichcardsto pwroff",
      "/ )",
      "/ ../",
      "a u",
      "a le",
      "a ver",
      "a ffe",
      "b ab",
      "b is",
      "c ff",
      "c as",
      "c bd",
      "c bfb",
      "d bl",
      "e ss",
      "e ad",
      "e ue",
      "f m",
      "f bf",
      "f lu",
      "f cec",
      "f ced",
      "g ni",
      "h ang",
      "i ting",
      "k map",
      "m as",
      "o gni",
      "q b",
      "r st",
      "t able",
      "t ur",
      "t ue",
      "t addr",
      "t lb",
      "v x",
      "w e",
      "w el",
      "y un",
      "de cd",
      "in complete",
      "ce ce",
      "ce fc",
      "ce ac",
      "or ted",
      "lo cation",
      "on g",
      "nd ing",
      "par md",
      "ab orted",
      "ad ac",
      "re ver",
      "ido s",
      "ido chip",
      "pe nding",
      "part ad",
      "li t",
      "li zed",
      "bffff ffe",
      "ma il",
      "dc cc",
      "dc bc",
      "fi rst",
      "al ready",
      "si c",
      "cc fc",
      "cc cb",
      "df bc",
      "da ec",
      "fc dc",
      "fc db",
      "fc bc",
      "iv er",
      "bc a",
      "bf ec",
      "cd dc",
      "ef de",
      "ef ec",
      "ef dc",
      "ef bc",
      "repli cas",
      "ds k",
      "rom io",
      "ni el",
      "so d",
      "min us",
      "bgl idochip",
      "ffffff be",
      "co me",
      "fail ure",
      "mp s",
      "qu eue",
      "gen vm",
      "gener ating",
      "wor d",
      "test ing",
      "inter val",
      "pp ing",
      "user func",
      "ddc c",
      "server db",
      "cac a",
      "fcc c",
      "tree addr",
      "-- >",
      "pl us",
      "efc a",
      "boot genvm",
      "und y",
      "fce b",
      "cde c",
      "cdc c",
      "cp u",
      "un der",
      "un rec",
      "ade c",
      ":/ /",
      "xffff c",
      "fde e",
      "wa iting",
      "dca che",
      "str ong",
      "devel f",
      "ofdirty lines",
      "ofdirty dbl",
      "norma lized",
      "sp lit",
      "debug ger",
      "form at",
      "replication monitor",
      "cjm undy",
      "aver ages",
      "ess l",
      "flu sh",
      "mas ter",
      "ogni zed",
      "taddr iver",
      "wel come",
      "yun sic",
      "rever se",
      "pending replicationmonitor",
      "mail box",
      "niel sen",
      "bootgenvm unix",
      "unrec ognized",
      "ofdirtydbl word",
      "= =",
      "a md",
      "a cec",
      "c pp",
      "c ount",
      "d ab",
      "d iv",
      "d ffe",
      "d fffffe",
      "d dac",
      "d dfc",
      "d ition",
      "e lo",
      "e ffe",
      "e ffb",
      "e edc",
      "e we",
      "f g",
      "f y",
      "f low",
      "f resh",
      "g ive",
      "h el",
      "i ble",
      "j ar",
      "j or",
      "l ate",
      "m pt",
      "m ul",
      "n k",
      "o t",
      "p th",
      "t ex",
      "u ation",
      "u es",
      "x ad",
      "x da",
      "x fffffe",
      "y gi",
      "ff dc",
      "ff cc",
      "ff ac",
      "ff ae",
      "ff ba",
      "ff cd",
      "ff cb",
      "de l",
      "de de",
      "de cc",
      "de dd",
      "de ac",
      "de bc",
      "de mo",
      "de pth",
      "in ity",
      "se s",
      "se qu",
      "ce dd",
      "ce bf",
      "ch ar",
      "or der",
      "ffff ca",
      "lo ewe",
      "to war",
      "nd wid",
      "pro mpt",
      "fffff bfe",
      "st ir",
      "ab fc",
      "block ed",
      "ad dc",
      "ad cc",
      "ad fc",
      "re fresh",
      "new s",
      "um p",
      "pre ssion",
      "ra ck",
      "bffff dfe",
      "ma jor",
      "fi el",
      "ent ion",
      "df a",
      "df b",
      "df d",
      "df cc",
      "df ac",
      "err str",
      ".... .",
      ".... ...",
      "con dition",
      "da cb",
      "db a",
      "db d",
      "ge te",
      "fc ff",
      "fc de",
      "fc ce",
      "fc dd",
      "fc be",
      "ac ac",
      "ac bc",
      "ex pression",
      "io state",
      "ae fe",
      "bf ea",
      "bf bb",
      "bf eb",
      "ba ker",
      "ba ndwid",
      "fe fe",
      "il l",
      "cf b",
      "bb de",
      "ca ec",
      "ca ac",
      "ca pt",
      "link error",
      "timeout exception",
      "ef ce",
      "ef dd",
      "ef bf",
      "ef bd",
      "ef bb",
      "cb bc",
      "hi t",
      "hi gh",
      "fd dc",
      "fd fff",
      "ms g",
      "socket timeoutexception",
      "bgl master",
      "sr m",
      "expir ed",
      "ffffff fa",
      "ho st",
      "gener al",
      "nc y",
      "................ ................",
      "cac d",
      "cac f",
      "fcc d",
      "fcc f",
      "res ource",
      "efc f",
      "red uce",
      "fce a",
      "fce f",
      "efe b",
      "efe f",
      "du e",
      "sof t",
      "bff c",
      "bff d",
      "inf inity",
      "dev elo",
      "cp m",
      "run s",
      "un able",
      "cab c",
      "cab d",
      "cab f",
      "cab ot",
      "jtag id",
      "bec a",
      "............ ..",
      "fdc c",
      "gn u",
      "war e",
      "aler ts",
      "veri fy",
      ".................... .",
      ".................... ..",
      ".................... ...",
      "bdb b",
      "** **",
      "cont ention",
      "get ting",
      "feff ed",
      "pap i",
      "tra ce",
      "norma l",
      "fad y",
      "ther e",
      "contin ue",
      "contin uation",
      "access ible",
      "la w",
      "pur ge",
      "testqbox hang",
      "parmd g",
      "fg ygi",
      "late ncy",
      "tex t",
      "towar d",
      "stir tur",
      "gete l",
      "bandwid th",
      "fefe feff",
      "capt ure",
      "fdfff dfe",
      "develo p",
      ") :",
      ") ...",
      ") ........................",
      "* )",
      "a ff",
      "a il",
      "a eac",
      "a aba",
      "b ip",
      "b cec",
      "c i",
      "c s",
      "c u",
      "c cec",
      "c ffffffe",
      "c pes",
      "c aeb",
      "c law",
      "d g",
      "d y",
      "d cec",
      "d abc",
      "e k",
      "e p",
      "e fff",
      "e faa",
      "e ffa",
      "f ch",
      "f ur",
      "f abc",
      "g u",
      "g bgl",
      "g un",
      "i se",
      "i ch",
      "i ss",
      "i ad",
      "i an",
      "i ap",
      "j ect",
      "j ni",
      "k e",
      "k t",
      "l ed",
      "l ac",
      "l eep",
      "l apa",
      "l are",
      "m f",
      "m er",
      "m ea",
      "n l",
      "n ed",
      "o s",
      "o wn",
      "p u",
      "p pre",
      "p su",
      "p net",
      "p ux",
      "p count",
      "p kt",
      "q x",
      "r m",
      "r o",
      "r t",
      "r w",
      "r fft",
      "r ich",
      "s ma",
      "s mi",
      "s pa",
      "s am",
      "s orter",
      "s leep",
      "t c",
      "t z",
      "t ip",
      "t eb",
      "t server",
      "t un",
      "u g",
      "u ch",
      "v ing",
      "v is",
      "w ra",
      "w al",
      "x de",
      "x db",
      "x fc",
      "x fa",
      "x ca",
      "x af",
      "x ffffff",
      "x vicar",
      "y x",
      "y es",
      "ff de",
      "ff ce",
      "ff ee",
      "ff ab",
      "ff db",
      "ff add",
      "ff bf",
      "ff bd",
      "ff cf",
      "ff bb",
      "ff af",
      "ff cdf",
      "ff bfb",
      "ar ty",
      "ar il",
      "ar ant",
      "de ce",
      "de ed",
      "de bf",
      "de fe",
      "de bcc",
      "de normalized",
      "no sleep",
      "in ex",
      "in it",
      "se ille",
      "se ek",
      "ce ab",
      "ce cd",
      "ce bd",
      "ce cf",
      "ce ca",
      "ce eb",
      "card s",
      "ec ac",
      "ec ise",
      "ffff bffe",
      "lo st",
      "pr ecise",
      "ed de",
      "ed da",
      "ed fc",
      "ed fa",
      "ed uce",
      "ed ump",
      "to purge",
      "to uch",
      "ee ec",
      "ct l",
      "nd ir",
      "par ame",
      "ion i",
      "fffff d",
      "service network",
      "service mailbox",
      "st a",
      "st u",
      "st ill",
      "er s",
      "er ist",
      "ck pt",
      "ck ap",
      "ab ec",
      "ab dc",
      "ab db",
      "ab ac",
      "ab bc",
      "ab led",
      "th under",
      "for ce",
      "ad v",
      "ad bc",
      "ad be",
      "bl ac",
      "re starting",
      "re sets",
      "new map",
      "ido trans",
      "ido client",
      "ido mar",
      "pre sent",
      "pre qx",
      "pre sta",
      "ra i",
      "ra in",
      "bffff a",
      "bffff d",
      "dc dc",
      "dc da",
      "dc dd",
      "dc ac",
      "dc bf",
      "dc ount",
      "fi er",
      "ent ial",
      "al lr",
      "cc da",
      "cc dd",
      "cc bc",
      "cc bf",
      "cc ba",
      "df bb",
      "con c",
      "con so",
      "da ce",
      "da cc",
      "da fc",
      "da ac",
      "da cd",
      "db b",
      "db e",
      "db g",
      "db ec",
      "db dc",
      "db fd",
      "fc df",
      "fc da",
      "fc fc",
      "fc bf",
      "fc ffe",
      "fc dcf",
      "fc dbf",
      "dd md",
      "ac fc",
      "ac bb",
      "ex ter",
      "add ing",
      "bc dc",
      "receiv et",
      "bf ed",
      "bf ee",
      "bf ac",
      "bf af",
      "bf dea",
      "be ab",
      "be bd",
      "ba f",
      "ba ec",
      "ba cc",
      "ba ac",
      "ba nk",
      "fe ffff",
      "fe fffff",
      "fe fc",
      "fe bc",
      "fe bf",
      "fe fab",
      "cd adc",
      "cd fffe",
      "fa ec",
      "fa fc",
      "fa fa",
      "lin adv",
      "bd ab",
      "bb ab",
      "bb ac",
      "out put",
      "cor edump",
      "ca ee",
      "ca fc",
      "ca us",
      "est s",
      "com ms",
      "af bb",
      "ef ed",
      "ef ee",
      "ef be",
      "ef dbc",
      "ef ccb",
      "ef dcd",
      "ef dcb",
      "det ail",
      "ter s",
      "map files",
      "cb ec",
      "cb ea",
      "cb dc",
      "cb fc",
      "cb ac",
      "rep lac",
      "aa cc",
      "........ ...",
      "et ests",
      "by teb",
      "su ppre",
      "eb de",
      "eb ee",
      "eb da",
      "eb db",
      "eb ba",
      "fd ff",
      "fd fffff",
      "fd fffe",
      "proces ses",
      "per claw",
      "bgl err",
      "fb dc",
      "fb da",
      "fb ac",
      "fb bc",
      "fb ba",
      "ru ndir",
      "log user",
      "fea f",
      "wor dcount",
      "work er",
      "ddr size",
      "consi der",
      "tr iad",
      "allo cation",
      "ctr s",
      "ls f",
      "hw stab",
      "ede f",
      "ll ap",
      "ll nl",
      "temp high",
      "................ ............",
      "code s",
      "ja g",
      "cur ioni",
      "fcc bf",
      "fcc cf",
      "en abled",
      "tempor aril",
      "symbol s",
      "full test",
      "ob ject",
      "efc b",
      "efc bc",
      "efc fd",
      "mpi ch",
      "mo d",
      "mo ds",
      "pas ci",
      "sig ned",
      "ffb ff",
      "ffb df",
      "ffa ec",
      "ffa fa",
      "fce e",
      "fce bd",
      "fce cb",
      "po se",
      "act erist",
      "activ ating",
      "edram s",
      "ddcmd gbgl",
      "eff d",
      "hy perclaw",
      "ic s",
      "br ian",
      "un signed",
      "cab e",
      "bu ild",
      "cda c",
      "glo b",
      "dec lare",
      "bdir ect",
      "stream triad",
      "bde a",
      "bde e",
      "port mgr",
      "efa ea",
      "ffaa a",
      "eeb ea",
      "exist ing",
      "grep a",
      "xffff b",
      "xffff d",
      "cau sed",
      "flo at",
      "flo pcount",
      "im precise",
      "nex t",
      "enable flush",
      "problem s",
      "mar seille",
      "configur ation",
      "ulrik etests",
      "zero byteb",
      "cfa f",
      "assert ion",
      "sto pping",
      "send ing",
      "sp ec",
      "efdf d",
      "pur pose",
      "fft w",
      "/../ ../",
      "au g",
      "au topurge",
      "fm mods",
      "under flow",
      "mailbox monitor",
      "div ac",
      "hel lo",
      "mul tip",
      "sequ ential",
      "char acterist",
      "order ed",
      "fiel ds",
      "soft ware",
      "stirtur bdirect",
      "bip arty",
      "cs ar",
      "cu pps",
      "ep streamtriad",
      "fur ther",
      "gu arant",
      "gun nels",
      "iss ues",
      "lapa ck",
      "mea m",
      "sma ll",
      "smi th",
      "spa ce",
      "sam rai",
      "tz yx",
      "tun ed",
      "vis us",
      "wra y",
      "wal k",
      "inex act",
      "parame ters",
      "servicenetwork characterist",
      "servicemailbox es",
      "ckap fer",
      "blac s",
      "newmap s",
      "idotrans portmgr",
      "idoclient mgr",
      "idomar sh",
      "allr educe",
      "conso le",
      "exter nal",
      "receivet rain",
      "caus ing",
      "detail ed",
      "replac ing",
      "suppre ssing",
      "loguser info",
      "temporaril y",
      "ddcmdgbgl v",
      "declare servicenetworkcharacterist",
      "flopcount ers",
      "marseille bgl",
      "zerobyteb ug",
      "multip le",
      "biparty z",
      "guarant eed",
      "declareservicenetworkcharacterist ics",
      "! (",
      "& )",
      "& ,",
      ") '",
      ") ...........................",
      ") .......",
      ") ......................",
      ") .......................",
      "* ,",
      "* &)",
      "/ ./",
      "= <",
      "= !(",
      "? /",
      "a y",
      "a ut",
      "a eee",
      "a adc",
      "a ccc",
      "a ada",
      "a edc",
      "a ffd",
      "a fcb",
      "a abc",
      "a fffffff",
      "a ux",
      "a ving",
      "b ar",
      "b atch",
      "b io",
      "b bf",
      "b us",
      "b net",
      "b fff",
      "b ffb",
      "b adc",
      "b edc",
      "b vn",
      "b dec",
      "b dbc",
      "b eac",
      "b aeb",
      "b acb",
      "b ceb",
      "b abc",
      "b eda",
      "b ates",
      "b abf",
      "b abb",
      "b pnet",
      "c n",
      "c to",
      "c ffa",
      "c adc",
      "c adb",
      "c ffea",
      "d k",
      "d r",
      "d ram",
      "d ffa",
      "d ada",
      "d adf",
      "d ffd",
      "d fffe",
      "d abd",
      "d fffffff",
      "d abf",
      "d abb",
      "d daf",
      "d lb",
      "d ump",
      "d ware",
      "e fffff",
      "e adf",
      "e bfb",
      "e bfa",
      "e cee",
      "e ceb",
      "e abc",
      "e abd",
      "e abf",
      "e ther",
      "f r",
      "f t",
      "f sy",
      "f re",
      "f oo",
      "f stat",
      "f test",
      "f adc",
      "f edc",
      "f tests",
      "f dec",
      "f ecc",
      "f aef",
      "f baa",
      "f bef",
      "f la",
      "g m",
      "g p",
      "g s",
      "g ed",
      "g id",
      "g um",
      "g ra",
      "g ate",
      "g cc",
      "g root",
      "g apps",
      "g ath",
      "g ging",
      "h ar",
      "h id",
      "h an",
      "h ul",
      "i de",
      "i or",
      "i ted",
      "i le",
      "i cb",
      "i et",
      "i cal",
      "i es",
      "i fication",
      "i cache",
      "j n",
      "j r",
      "j re",
      "j ection",
      "j vm",
      "j dk",
      "k eb",
      "k test",
      "k ill",
      "l lo",
      "l ing",
      "l stat",
      "l arge",
      "l nk",
      "l seek",
      "m m",
      "m pd",
      "m ing",
      "m bl",
      "m is",
      "m err",
      "n m",
      "n u",
      "n ee",
      "n ted",
      "n ected",
      "n ded",
      "n lev",
      "n ve",
      "n msg",
      "o be",
      "o ption",
      "p h",
      "p id",
      "p ing",
      "p ted",
      "p ol",
      "q s",
      "q w",
      "q rt",
      "r s",
      "r y",
      "r ou",
      "s n",
      "s or",
      "s par",
      "s com",
      "s can",
      "s la",
      "s ses",
      "s law",
      "s gs",
      "s qrt",
      "t et",
      "t mgr",
      "t mpd",
      "u id",
      "u mask",
      "u bgl",
      "u res",
      "u gh",
      "u dp",
      "v t",
      "v addr",
      "v buffer",
      "v trace",
      "w s",
      "w in",
      "w ed",
      "w atch",
      "x ff",
      "x ec",
      "x ed",
      "x fffff",
      "x ab",
      "x dc",
      "x ac",
      "x bc",
      "x ae",
      "x fe",
      "x bd",
      "x bb",
      "x ef",
      "x cb",
      "x aa",
      "x fb",
      "x fee",
      "x fff",
      "x bfe",
      "x fcd",
      "x fffe",
      "x bfa",
      "x fffffff",
      "x afd",
      "x fefefeff",
      "y z",
      "y ur",
      "| |",
      "ff ec",
      "ff ad",
      "ff eeee",
      "ff da",
      "ff be",
      "ff fd",
      "ff fb",
      "ff cec",
      "ff ced",
      "ff bfe",
      "ff adb",
      "ff ada",
      "ff adf",
      "ff cde",
      "ff bfd",
      "ff bfa",
      "ff cee",
      "ff aeb",
      "ff acb",
      "ff dcd",
      "ff baa",
      "ff afb",
      "ff aca",
      "ff acf",
      "ff bcb",
      "ff dcc",
      "ff cef",
      "ff abf",
      "ff dbf",
      "ff bbb",
      "ar t",
      "ar est",
      "ar gum",
      "de n",
      "de ec",
      "de df",
      "de fc",
      "de bd",
      "de bb",
      "de eb",
      "de fb",
      "de eca",
      "de groot",
      "no p",
      "no pr",
      "no io",
      "no va",
      "no ni",
      "no comm",
      "no zerobytebug",
      "in form",
      "in count",
      "in jection",
      "se ti",
      "se ver",
      "se mbl",
      "ce r",
      "ce da",
      "ce db",
      "ce be",
      "ce bb",
      "ce fd",
      "ce abe",
      "at t",
      "at ive",
      "ch ing",
      "ch em",
      "ch own",
      "ch mod",
      "or est",
      "or ies",
      "ec ff",
      "ec de",
      "ec ce",
      "ec ab",
      "ec ad",
      "ec cc",
      "ec bc",
      "ec fe",
      "ec fa",
      "ec bb",
      "ec af",
      "ec aa",
      "ec dca",
      "ec vbuffer",
      "do g",
      "lo or",
      "lo ne",
      "lo ok",
      "lo ader",
      "pd bg",
      "pr iv",
      "ed dc",
      "ed cc",
      "ed df",
      "ed ac",
      "ed bc",
      "ed ba",
      "ed fe",
      "ed bb",
      "ed ca",
      "ed aa",
      "on ly",
      "ss ive",
      "as on",
      "as sembl",
      "id x",
      "to all",
      "to debugger",
      "ee ce",
      "ee fc",
      "ee bc",
      "ee ae",
      "ee bf",
      "ee ba",
      "ee bd",
      "ee bb",
      "nd ro",
      "pro f",
      "fffff efe",
      "iar y",
      "st and",
      "not ification",
      "er ing",
      "ck time",
      "sy ndro",
      "ab ed",
      "ab cc",
      "ab ca",
      "ab ef",
      "ne arest",
      "of da",
      "ad ce",
      "ad da",
      "ad fa",
      "bl l",
      "bl as",
      "bl ast",
      "re add",
      "re served",
      "re name",
      "re nc",
      "re mo",
      "re tag",
      "re started",
      "re open",
      "re mer",
      "re ason",
      "new mpi",
      "new comp",
      "new hack",
      "sh ho",
      "sh ort",
      "ido ms",
      "ido msg",
      "ido udp",
      "ut ion",
      "ut ime",
      "part sn",
      "pre ta",
      "le n",
      "le me",
      "le ader",
      "le aving",
      "ea de",
      "ea ce",
      "ea ec",
      "ea fc",
      "ea ae",
      "ea ca",
      "ea pp",
      "me hul",
      "ra nova",
      "li st",
      "li cate",
      "li br",
      "session timeout",
      "ma cce",
      "ma ke",
      "ma keb",
      "ma llo",
      "em m",
      "dc u",
      "dc df",
      "dc db",
      "dc fc",
      "dc ae",
      "dc bd",
      "dc cf",
      "dc cb",
      "dc aee",
      "is o",
      "ent ry",
      "al err",
      "system controller",
      "cc r",
      "cc ab",
      "cc db",
      "cc ac",
      "cc be",
      "cc bd",
      "cc cf",
      "cc ca",
      "cc af",
      "cc same",
      "na n",
      "df de",
      "df ec",
      "df ed",
      "df dc",
      "df ae",
      "df cf",
      "df dac",
      "err han",
      "con st",
      "con nected",
      "da ff",
      "da ea",
      "da cf",
      "da af",
      "da fdc",
      "da abd",
      "da abe",
      "da fca",
      "db ea",
      "db cc",
      "db dd",
      "db bc",
      "db sr",
      "db cr",
      "db remer",
      "ti mer",
      "ti cktime",
      "ge tr",
      "fc ab",
      "fc ba",
      "fc ded",
      "fc bd",
      "fc bb",
      "fc af",
      "fc fff",
      "fc faa",
      "fc ddc",
      "fc fcc",
      "fc fda",
      "fc cec",
      "fc bfe",
      "fc bff",
      "fc fdb",
      "fc fcd",
      "fc bfb",
      "fc bec",
      "fc dec",
      "fc fcb",
      "fc ceb",
      "fc dcd",
      "fc cea",
      "fc baa",
      "fc daa",
      "fc daf",
      "fc ddd",
      "fc deb",
      "fc bcf",
      "fc beb",
      "fc bbb",
      "fc dae",
      "dd ff",
      "dd de",
      "dd ad",
      "dd dd",
      "dd abe",
      "ac da",
      "ac bf",
      "ac fa",
      "ac bd",
      "ac af",
      "ac cec",
      "mi ranova",
      "ex it",
      "ex ited",
      "bc ab",
      "bc da",
      "bc fc",
      "bc ac",
      "bc bc",
      "bc bf",
      "bc be",
      "bc aa",
      "ae de",
      "ae fc",
      "ae bf",
      "ae be",
      "ae bd",
      "ae bb",
      "ae fee",
      "ae ffa",
      "ae edf",
      "bf de",
      "bf ab",
      "bf cc",
      "bf da",
      "bf bf",
      "bf aa",
      "bf dac",
      "bf cefc",
      "bf baf",
      "be ad",
      "be bc",
      "be be",
      "be ba",
      "be bb",
      "be fb",
      "be fcc",
      "be bfdc",
      "ba ff",
      "ba ab",
      "ba fc",
      "ba ae",
      "cio db",
      "fe ab",
      "fe ad",
      "fe ffe",
      "fe fcd",
      "fe feb",
      "fe fafa",
      "cd de",
      "cd ce",
      "ded replication",
      "fa f",
      "fa de",
      "fa ad",
      "fa cc",
      "fa edb",
      "fa ecd",
      "il t",
      "il er",
      "il iary",
      "bd de",
      "cf ee",
      "cf dddc",
      "cf loor",
      "bb ec",
      "bb dc",
      "bb ae",
      "bb bb",
      "bb ccf",
      "bb adbe",
      "out stand",
      "time s",
      "time ofda",
      "ca de",
      "ca ce",
      "ca ea",
      "ca aa",
      "ca eeb",
      "ca ffee",
      "ca noni",
      "ca ching",
      "com mit",
      "af de",
      "af db",
      "af bc",
      "af be",
      "af bd",
      "af ter",
      "af abf",
      "ef ad",
      "ef ac",
      "ef ba",
      "ef ddc",
      "ef ccd",
      "ef bfe",
      "ef adf",
      "ef edc",
      "ef bfd",
      "ef edb",
      "ef ecf",
      "ef eef",
      "ef eeb",
      "ef baa",
      "ef eca",
      "ef edd",
      "ef dfc",
      "ef bcb",
      "ef ecd",
      "ef dca",
      "ef dfe",
      "ef cef",
      "ef daa",
      "ef bef",
      "ef def",
      "ef dcf",
      "ef daf",
      "ef ddd",
      "ef dea",
      "ef deb",
      "ef eaa",
      "ef bcd",
      "ef ecb",
      "ef baf",
      "exce ssive",
      "map ping",
      "cb ad",
      "cb cc",
      "cb dd",
      "cb ba",
      "cb rt",
      "read v",
      "read block",
      "aa ee",
      "aa ac",
      "aa fa",
      "aa af",
      "aa abc",
      "aa ecab",
      "va lone",
      "us age",
      "corr upt",
      "by te",
      "pt arge",
      "pt ance",
      "lu ke",
      "su it",
      "su bnet",
      "ver bo",
      "addre sses",
      "eb ce",
      "eb ed",
      "eb ea",
      "eb ae",
      "eb bd",
      "fd de",
      "val ues",
      "so ck",
      "so pt",
      "valid ate",
      "gl p",
      "go v",
      "termin ated",
      "over flow",
      "clo sing",
      "socket exception",
      "bgl c",
      "bgl code",
      "bgl sys",
      "bgl ctl",
      "upd ate",
      "direct ories",
      "ffffff c",
      "ffffff d",
      "ffffff ee",
      "fb de",
      "fb ec",
      "fb ab",
      "fb cc",
      "fb db",
      "fb fc",
      "fb fffffe",
      "fee b",
      "fee aa",
      "fail ures",
      "pa ge",
      "pa vtrace",
      "mp xl",
      "mp leme",
      "ol s",
      "qu iet",
      "it z",
      "log file",
      "log ical",
      "fea c",
      "fea aa",
      "test scrip",
      "test suit",
      "inter exception",
      "uni t",
      "uni mpleme",
      "inst r",
      "pp ed",
      "pp cfloor",
      "ede a",
      "ede c",
      "ede fb",
      "ll po",
      "ll seek",
      "................ ....................",
      "................ ...............",
      "................ .................",
      "................ .............",
      "ddc a",
      "ddc b",
      "ddc d",
      "cmd line",
      "cac b",
      "fcc a",
      "fcc b",
      "fcc ff",
      "fcc de",
      "fcc ce",
      "fcc ab",
      "fcc df",
      "fcc ba",
      "fcc fe",
      "fcc cd",
      "fcc bd",
      "fcc bb",
      "fcc af",
      "fcc aa",
      "fcc fd",
      "fcc fb",
      "fda c",
      "fda ea",
      "en cer",
      "fdf b",
      "fdf df",
      "fdf db",
      "fdf ac",
      "fdf ae",
      "face e",
      "efc df",
      "efc da",
      "efc fc",
      "efc be",
      "efc fe",
      "efc bd",
      "efc bb",
      "efc af",
      "efc aa",
      "efc fb",
      "efc bad",
      "sen sor",
      "ffb de",
      "ffb ab",
      "ffb cc",
      "ffb da",
      "ffb db",
      "ffb bc",
      "ffb ae",
      "ffb bf",
      "ffb be",
      "ffb bd",
      "ffb ffbff",
      "back gr",
      "ffa ff",
      "ffa de",
      "ffa ed",
      "ffa ee",
      "ffa ab",
      "ffa ea",
      "ffa fc",
      "ffa ae",
      "ffa fe",
      "ffa af",
      "fce ff",
      "fce ec",
      "fce ed",
      "fce ad",
      "fce cc",
      "fce da",
      "fce db",
      "fce bc",
      "fce ae",
      "fce bf",
      "fce be",
      "fce fe",
      "fce cd",
      "fce bb",
      "fce fd",
      "zookeeper server",
      "tx yz",
      "reg ctl",
      "efe ff",
      "efe ce",
      "efe ab",
      "efe bc",
      "efe fe",
      "efe bd",
      "efe bb",
      "efe fd",
      "fol d",
      "sho ts",
      "bff ee",
      "bff ea",
      "bff ac",
      "bff cf",
      "bff cbf",
      "cce b",
      "cce ea",
      "cce da",
      "micr on",
      "cdf bab",
      "fdb b",
      "fdb c",
      "fdb df",
      "fdb bf",
      "modu lo",
      "micro loader",
      "eff c",
      "eff bc",
      "eff fe",
      "eff bb",
      "eff ca",
      "eff cb",
      "eff aa",
      "eff fd",
      "perfor ming",
      "xa ed",
      "fffffe fa",
      "gh dr",
      "sna n",
      "sna preta",
      "cde a",
      "cde e",
      "ic bcast",
      "cdc a",
      "ffd ce",
      "ffd daff",
      "cp gra",
      "eec c",
      "ffc bf",
      "ffc bd",
      "ffc bb",
      "fcd ff",
      "fcd ce",
      "fcd ab",
      "run cate",
      "bee b",
      "bee aab",
      "cdb e",
      "un link",
      "rando macce",
      "ade a",
      "bin d",
      "lib visus",
      "bfb ec",
      "bfb ab",
      "bfc b",
      "bfc f",
      "bfc bd",
      "cab a",
      "bfd ab",
      "control ling",
      "bu sy",
      "bu ilt",
      "mk dir",
      "bec d",
      "am r",
      "fdc ff",
      "xb be",
      "mem test",
      "aee a",
      "xf ed",
      "stre itz",
      "max bug",
      "max sessiontimeout",
      "ace f",
      "ace bf",
      "ffea eb",
      "all toall",
      "fcb ce",
      "fcb ab",
      "fcb ea",
      "fcb df",
      "fcb dd",
      "fcb ac",
      "fcb ba",
      "comp iler",
      "efd ff",
      "efd ce",
      "efd ab",
      "efd df",
      "efd da",
      "bde b",
      "bde f",
      "bde ce",
      "bde cc",
      "bde ae",
      "bde aa",
      "bde cab",
      "cfc a",
      "fcf bf",
      "fcf be",
      "fcf bd",
      "efb cc",
      "efb da",
      "efb be",
      "efb bd",
      "align ed",
      "acc ad",
      "bbc a",
      "bbc b",
      "........................ ..",
      "fbc a",
      "fbc d",
      "grep b",
      "xffff cb",
      "aac d",
      "bdf a",
      "bdf e",
      "afc bf",
      "fde f",
      "fde ad",
      "fab ea",
      "fab da",
      "fab dd",
      "wa ve",
      "aab b",
      "aab f",
      "bcc ac",
      "xd cef",
      "initi al",
      "aler io",
      "clear port",
      "bdc b",
      "ebc a",
      "dca af",
      "bcast v",
      "initializ ation",
      "initializ eapp",
      "bffe bcbe",
      "fec b",
      "fec fc",
      "fbb b",
      "fbb ae",
      "ul ative",
      "cccc ccc",
      "cccc cccd",
      "config file",
      "// /",
      "afe bf",
      "bda e",
      "bba de",
      "ddb a",
      "bbe b",
      "dff acb",
      "jeff greeno",
      "str obe",
      "get gid",
      "get pid",
      "get uid",
      "get timeofda",
      "acce pted",
      "acce ptance",
      "feff fc",
      "target close",
      "cbe b",
      "dis connected",
      "tra p",
      "tra in",
      "tra pping",
      "tra pped",
      "sel ftest",
      "send packet",
      "send msg",
      "send worker",
      "send train",
      "ste pping",
      "efdf b",
      "efdb b",
      "efdb d",
      "efdb e",
      "pack ages",
      "interrup ting",
      "write log",
      "open jdk",
      "dup licate",
      "eab ea",
      "xbf aeb",
      "ffbc a",
      "prefetch ing",
      "prefetch es",
      "exec ution",
      "ale amr",
      "fm m",
      "hang test",
      "tur n",
      "tlb entry",
      "fcdb e",
      "flush ing",
      "div ide",
      "hel low",
      "mul ti",
      "xda abe",
      "ffba f",
      "sequ encer",
      "order ing",
      "refresh es",
      "fiel d",
      "bbde ba",
      "host name",
      "verify stu",
      "purge interval",
      "stirtur bpnet",
      "dg test",
      "dg emm",
      "dy na",
      "fch own",
      "fch mod",
      "pu ll",
      "rm w",
      "rm dir",
      "ro ws",
      "xfc ffd",
      "yes comm",
      "yes zerobytebug",
      "nosleep yescomm",
      "stu dy",
      "fcbf abd",
      "ddmd v",
      "bfee fe",
      "bfaf ec",
      "fefab b",
      "glob al",
      "spec ial",
      "spec ulative",
      "walk up",
      "idomarsh alerr",
      "idomarsh alerio",
      "console ip",
      "console port",
      "ay oo",
      "aut orest",
      "aux iliary",
      "batch files",
      "cn vt",
      "cto ols",
      "ether net",
      "fr action",
      "ft runcate",
      "fsy nc",
      "fre ed",
      "foo bar",
      "fla gging",
      "gm t",
      "gath ering",
      "har dware",
      "hid den",
      "ile ged",
      "icb i",
      "jn g",
      "jr att",
      "lnk ck",
      "mm u",
      "mis compare",
      "nu llpo",
      "nee dedreplication",
      "nmsg len",
      "pol l",
      "rou nded",
      "spar ing",
      "scom error",
      "scan com",
      "sla ve",
      "slaw renc",
      "tet shho",
      "tmpd ir",
      "win err",
      "watch dog",
      "xed cb",
      "xfffff ef",
      "xfffe ad",
      "yur i",
      "ffeeee fe",
      "fffb ccf",
      "argum ent",
      "nopr int",
      "nocomm nosleep",
      "inform ation",
      "seti timer",
      "sever ed",
      "chem bio",
      "look ing",
      "priv ileged",
      "assembl y",
      "syndro me",
      "readd ir",
      "remo ving",
      "retag ging",
      "idoms ghdr",
      "idoudp mgr",
      "libr ary",
      "makeb glp",
      "mallo c",
      "ccsame f",
      "getr usage",
      "dddd ddd",
      "faedb ae",
      "outstand ing",
      "canoni cal",
      "ptarge tmgr",
      "luke i",
      "subnet s",
      "verbo se",
      "bglctl pavtrace",
      "mpxl c",
      "testscrip ts",
      "testsuit e",
      "unimpleme nted",
      "backgr ound",
      "snapreta incount",
      "cpgra ph",
      "beeaab ff",
      "randomacce ss",
      "initializeapp memory",
      "jeffgreeno ugh",
      "gettimeofda y",
      "sendmsg todebugger",
      "verifystu ff",
      "idomarshalerr ecvbuffer",
      "autorest art",
      "nullpo interexception",
      "neededreplication s",
      "tetshho t"
    ]
  }
}