{
  "version": "1.0",
  "truncation": null,
  "padding": null,
  "added_tokens": [
    {
      "id": 0,
      "content": "<pad>",
      "single_word": false,
      "lstrip": false,
      "rstrip": false,
      "normalized": false,
      "special": true
    },
    {
      "id": 1,
      "content": "<unk>",
      "single_word": false,
      "lstrip": false,
      "rstrip": false,
      "normalized": false,
      "special": true
    },
    {
      "id": 2,
      "content": " ",
      "single_word": false,
      "lstrip": false,
      "rstrip": false,
      "normalized": false,
      "special": true
    }
  ],
  "normalizer": {
    "type": "Sequence",
    "normalizers": [
      {
        "type": "NFKC"
      },
      {
        "type": "Lowercase"
      }
    ]
  },
  "pre_tokenizer": {
    "type": "Sequence",
    "pretokenizers": [
      {
        "type": "Whitespace"
      },
      {
        "type": "ByteLevel",
        "add_prefix_space": false,
        "trim_offsets": true,
        "use_regex": true
      }
    ]
  },
  "post_processor": {
    "type": "ByteLevel",
    "add_prefix_space": true,
    "trim_offsets": false,
    "use_regex": true
  },
  "decoder": null,
  "model": {
    "type": "BPE",
    "dropout": null,
    "unk_token": null,
    "continuing_subword_prefix": null,
    "end_of_word_suffix": null,
    "fuse_unk": false,
    "byte_fallback": false,
    "ignore_merges": false,
    "vocab": {
      "<pad>": 0,
      "<unk>": 1,
      " ": 2,
      "!": 3,
      "#": 4,
      "$": 5,
      "%": 6,
      "&": 7,
      "'": 8,
      "(": 9,
      ")": 10,
      "*": 11,
      "+": 12,
      ",": 13,
      "-": 14,
      ".": 15,
      "/": 16,
      "9": 17,
      ":": 18,
      "=": 19,
      ">": 20,
      "?": 21,
      "[": 22,
      "]": 23,
      "_": 24,
      "`": 25,
      "a": 26,
      "b": 27,
      "c": 28,
      "d": 29,
      "e": 30,
      "f": 31,
      "g": 32,
      "h": 33,
      "i": 34,
      "j": 35,
      "k": 36,
      "l": 37,
      "m": 38,
      "n": 39,
      "o": 40,
      "p": 41,
      "q": 42,
      "r": 43,
      "s": 44,
      "t": 45,
      "u": 46,
      "v": 47,
      "w": 48,
      "x": 49,
      "y": 50,
      "z": 51,
      "|": 52,
      "99": 53,
      "in": 54,
      "9999": 55,
      "er": 56,
      "or": 57,
      "..": 58,
      "en": 59,
      "at": 60,
      "ing": 61,
      "on": 62,
      "cor": 63,
      "ating": 64,
      "al": 65,
      "gen": 66,
      "ti": 67,
      "core": 68,
      "gener": 69,
      "generating": 70,
      "err": 71,
      "ce": 72,
      "99999": 73,
      "ec": 74,
      "....": 75,
      "int": 76,
      "ar": 77,
      "le": 78,
      "cr": 79,
      "tion": 80,
      "pt": 81,
      "999": 82,
      "upt": 83,
      "errupt": 84,
      "interrupt": 85,
      "ent": 86,
      "de": 87,
      "ed": 88,
      "ma": 89,
      "mi": 90,
      "ig": 91,
      "ign": 92,
      "ex": 93,
      "st": 94,
      "ss": 95,
      "re": 96,
      "do": 97,
      "ond": 98,
      "an": 99,
      "error": 100,
      "ect": 101,
      "lo": 102,
      "exce": 103,
      "ption": 104,
      "exception": 105,
      "cal": 106,
      "ment": 107,
      "sec": 108,
      "onds": 109,
      "seconds": 110,
      "align": 111,
      "alignment": 112,
      "exceptions": 113,
      "sp": 114,
      "micr": 115,
      "micro": 116,
      "microseconds": 117,
      "ch": 118,
      "ble": 119,
      "gr": 120,
      "me": 121,
      "........": 122,
      "99999999": 123,
      "ut": 124,
      "iar": 125,
      "rect": 126,
      "um": 127,
      "dear": 128,
      "inp": 129,
      "ro": 130,
      "input": 131,
      "io": 132,
      "ot": 133,
      "cri": 134,
      "interrupts": 135,
      "tical": 136,
      "critical": 137,
      "dd": 138,
      "cio": 139,
      "pro": 140,
      "dou": 141,
      "correct": 142,
      "ile": 143,
      "ur": 144,
      "inst": 145,
      "ciod": 146,
      "th": 147,
      "am": 148,
      "po": 149,
      "for": 150,
      "the": 151,
      "ction": 152,
      "point": 153,
      "tot": 154,
      "total": 155,
      "no": 156,
      "umm": 157,
      "flo": 158,
      "floating": 159,
      "double": 160,
      "humm": 161,
      "hummer": 162,
      "as": 163,
      "time": 164,
      "sy": 165,
      "dat": 166,
      "tr": 167,
      "data": 168,
      "ge": 169,
      "it": 170,
      "max": 171,
      "spent": 172,
      "file": 173,
      "ido": 174,
      "999999": 175,
      "is": 176,
      "gram": 177,
      "program": 178,
      "mgr": 179,
      "ff": 180,
      "bg": 181,
      "and": 182,
      "sym": 183,
      "bgl": 184,
      "ert": 185,
      "ass": 186,
      "tl": 187,
      "so": 188,
      "ad": 189,
      "et": 190,
      "ddr": 191,
      "assert": 192,
      "sk": 193,
      "mask": 194,
      "ru": 195,
      "9999999": 196,
      "ress": 197,
      "corrected": 198,
      "able": 199,
      "of": 200,
      "instru": 201,
      "instruction": 202,
      "ck": 203,
      "un": 204,
      "ion": 205,
      "dp": 206,
      "per": 207,
      "pp": 208,
      "sign": 209,
      "signal": 210,
      "ca": 211,
      "urce": 212,
      "source": 213,
      "tran": 214,
      "im": 215,
      "ort": 216,
      "sport": 217,
      "idotran": 218,
      "sportmgr": 219,
      "idotransportmgr": 220,
      "miss": 221,
      "id": 222,
      "ading": 223,
      "di": 224,
      "tlb": 225,
      "ls": 226,
      "calls": 227,
      "ine": 228,
      "cket": 229,
      "age": 230,
      "par": 231,
      "ected": 232,
      "det": 233,
      "detected": 234,
      "ler": 235,
      "correctable": 236,
      "bs": 237,
      "ance": 238,
      "was": 239,
      "dur": 240,
      "hand": 241,
      "rbs": 242,
      "sing": 243,
      "instance": 244,
      "maxim": 245,
      "during": 246,
      "handler": 247,
      "single": 248,
      "maximum": 249,
      "che": 250,
      "cache": 251,
      "ity": 252,
      "val": 253,
      "parity": 254,
      "valid": 255,
      "invalid": 256,
      "node": 257,
      "add": 258,
      "address": 259,
      "missing": 260,
      "te": 261,
      "ima": 262,
      "image": 263,
      "loading": 264,
      "not": 265,
      "el": 266,
      "................": 267,
      "su": 268,
      "ard": 269,
      "fun": 270,
      "function": 271,
      "card": 272,
      "ol": 273,
      "db": 274,
      "ver": 275,
      "stor": 276,
      "ace": 277,
      "ome": 278,
      "rt": 279,
      "ac": 280,
      "pa": 281,
      "home": 282,
      "ory": 283,
      "direct": 284,
      "directory": 285,
      "line": 286,
      "stre": 287,
      "mp": 288,
      "such": 289,
      "rts": 290,
      "fa": 291,
      "co": 292,
      "xy": 293,
      "trace": 294,
      "sen": 295,
      "to": 296,
      "iled": 297,
      "failed": 298,
      "::": 299,
      "exp": 300,
      "proxy": 301,
      "idoproxy": 302,
      "idoproxydb": 303,
      "cond": 304,
      "cpp": 305,
      "hit": 306,
      "ition": 307,
      "ression": 308,
      "expression": 309,
      "condition": 310,
      "*)": 311,
      "ctl": 312,
      "*,": 313,
      "acket": 314,
      "idou": 315,
      "vtrace": 316,
      "bglctl": 317,
      "dpmgr": 318,
      "dpacket": 319,
      "pavtrace": 320,
      "sendpacket": 321,
      "idoudpmgr": 322,
      "bglctlpavtrace": 323,
      "mo": 324,
      "ated": 325,
      "perat": 326,
      "999999999": 327,
      "atch": 328,
      "......": 329,
      "app": 330,
      "apps": 331,
      "ib": 332,
      "us": 333,
      "il": 334,
      "ffff": 335,
      "ssage": 336,
      "message": 337,
      "ve": 338,
      "pre": 339,
      "acti": 340,
      "go": 341,
      "od": 342,
      "good": 343,
      "active": 344,
      "man": 345,
      "tem": 346,
      "cc": 347,
      "ra": 348,
      "rece": 349,
      "recei": 350,
      "files": 351,
      "stat": 352,
      "se": 353,
      "storage": 354,
      "eck": 355,
      "check": 356,
      "fi": 357,
      "generated": 358,
      "sw": 359,
      "stream": 360,
      "ee": 361,
      "enable": 362,
      "dc": 363,
      "min": 364,
      "swl": 365,
      "ure": 366,
      "socket": 367,
      "perature": 368,
      "temperature": 369,
      "latch": 370,
      "ok": 371,
      "asserted": 372,
      "ciostream": 373,
      "prefi": 374,
      "prefix": 375,
      "ran": 376,
      "be": 377,
      "dir": 378,
      "gb": 379,
      "mach": 380,
      "machine": 381,
      "dcr": 382,
      "rank": 383,
      "mission": 384,
      "symb": 385,
      "lock": 386,
      "symbol": 387,
      "reading": 388,
      "log": 389,
      "hp": 390,
      "spas": 391,
      "spasm": 392,
      ".........": 393,
      "lin": 394,
      "chdir": 395,
      "ic": 396,
      "login": 397,
      "den": 398,
      "ied": 399,
      "permission": 400,
      "denied": 401,
      "vp": 402,
      "vpd": 403,
      "link": 404,
      "mpi": 405,
      "mb": 406,
      "code": 407,
      "has": 408,
      "been": 409,
      "spel": 410,
      "spelce": 411,
      "vered": 412,
      "severed": 413,
      ".....": 414,
      "res": 415,
      "(/": 416,
      "ter": 417,
      "form": 418,
      "lr": 419,
      "ved": 420,
      "ag": 421,
      "errno": 422,
      "received": 423,
      "ibm": 424,
      "format": 425,
      "hpcc": 426,
      "ster": 427,
      "gi": 428,
      "regi": 429,
      "register": 430,
      "store": 431,
      "cess": 432,
      "ddc": 433,
      "bit": 434,
      "forman": 435,
      "performan": 436,
      "performance": 437,
      "map": 438,
      "md": 439,
      "reset": 440,
      "iben": 441,
      "miniben": 442,
      "ly": 443,
      "ddcmd": 444,
      "process": 445,
      "processor": 446,
      "ger": 447,
      "ptor": 448,
      "low": 449,
      "tag": 450,
      "jtag": 451,
      "clock": 452,
      "pgood": 453,
      "vol": 454,
      "mpgood": 455,
      "rail": 456,
      "volt": 457,
      "unt": 458,
      "mount": 459,
      "//": 460,
      "bglio": 461,
      "errors": 462,
      "ecid": 463,
      "state": 464,
      "lu": 465,
      "by": 466,
      "mode": 467,
      "lustre": 468,
      "li": 469,
      "ern": 470,
      "pe": 471,
      "over": 472,
      "test": 473,
      "gent": 474,
      "urgent": 475,
      "9999999999999999": 476,
      "und": 477,
      "out": 478,
      "fc": 479,
      "syn": 480,
      "scal": 481,
      "con": 482,
      "operat": 483,
      "operation": 484,
      "vn": 485,
      "slo": 486,
      "slot": 487,
      "fffff": 488,
      "fo": 489,
      "raptor": 490,
      "found": 491,
      "bc": 492,
      "fp": 493,
      ".............": 494,
      "up": 495,
      "mann": 496,
      "germann": 497,
      "exec": 498,
      "vnm": 499,
      "receiver": 500,
      "tor": 501,
      "torus": 502,
      "est": 503,
      "kern": 504,
      "kernel": 505,
      "...": 506,
      "hy": 507,
      "functional": 508,
      "etest": 509,
      "scaletest": 510,
      "fet": 511,
      "fetch": 512,
      "cop": 513,
      "ea": 514,
      "uce": 515,
      "educe": 516,
      "allr": 517,
      "allreduce": 518,
      "pm": 519,
      "bu": 520,
      "read": 521,
      "af": 522,
      "match": 523,
      "ne": 524,
      "phy": 525,
      "bug": 526,
      "used": 527,
      "caused": 528,
      "debug": 529,
      "lan": 530,
      "midp": 531,
      "lane": 532,
      "midplane": 533,
      "new": 534,
      "load": 535,
      "timeout": 536,
      "ul": 537,
      "ab": 538,
      "pr": 539,
      "reas": 540,
      "minated": 541,
      "terminated": 542,
      "reason": 543,
      "es": 544,
      "......................": 545,
      "..............": 546,
      "status": 547,
      "fol": 548,
      "dro": 549,
      "syndro": 550,
      "syndrome": 551,
      "can": 552,
      "ful": 553,
      "alert": 554,
      "get": 555,
      "sppm": 556,
      "cle": 557,
      "clear": 558,
      "fully": 559,
      "are": 560,
      "sel": 561,
      "mit": 562,
      "select": 563,
      "asic": 564,
      "limit": 565,
      "emb": 566,
      "informat": 567,
      "assemb": 568,
      "information": 569,
      "assembly": 570,
      "alerts": 571,
      "follow": 572,
      "followup": 573,
      "bf": 574,
      "ering": 575,
      "mc": 576,
      "cont": 577,
      "xc": 578,
      "demo": 579,
      "sr": 580,
      "src": 581,
      "run": 582,
      "after": 583,
      "imb": 584,
      "bin": 585,
      "999999999999999999999999": 586,
      "ord": 587,
      "cd": 588,
      "bd": 589,
      "arch": 590,
      "search": 591,
      "pi": 592,
      "pipe": 593,
      "attem": 594,
      "pting": 595,
      "attempting": 596,
      "ille": 597,
      "gal": 598,
      "illegal": 599,
      "rol": 600,
      "control": 601,
      "ap": 602,
      ".................": 603,
      "tre": 604,
      "wa": 605,
      "wait": 606,
      "ef": 607,
      "),": 608,
      "bglv": 609,
      "space": 610,
      "static": 611,
      "da": 612,
      "ation": 613,
      "glo": 614,
      "....................": 615,
      "stab": 616,
      "perf": 617,
      "pare": 618,
      "ffffffff": 619,
      "sli": 620,
      "glosli": 621,
      "ddcmdbglv": 622,
      "all": 623,
      "dis": 624,
      "disable": 625,
      "block": 626,
      "ev": 627,
      "ty": 628,
      "9999999999999999999999999999": 629,
      "eaa": 630,
      "///": 631,
      "...............": 632,
      "tree": 633,
      "synch": 634,
      "event": 635,
      "com": 636,
      "type": 637,
      "9999999999": 638,
      "ates": 639,
      "yates": 640,
      "wor": 641,
      "work": 642,
      "la": 643,
      "ba": 644,
      "scri": 645,
      "feaa": 646,
      "bffff": 647,
      "eld": 648,
      "field": 649,
      "bi": 650,
      "sys": 651,
      "vi": 652,
      "ged": 653,
      "iv": 654,
      "ileged": 655,
      "trap": 656,
      ".............................": 657,
      "dcbf": 658,
      "priv": 659,
      "privileged": 660,
      "icbi": 661,
      "vice": 662,
      "ility": 663,
      "stability": 664,
      "eeee": 665,
      "byte": 666,
      "umt": 667,
      "..................": 668,
      ".........................": 669,
      "cast": 670,
      "ux": 671,
      "ser": 672,
      "fee": 673,
      "cf": 674,
      "fro": 675,
      "from": 676,
      "aux": 677,
      "iary": 678,
      "iliary": 679,
      "auxiliary": 680,
      "ecis": 681,
      "impr": 682,
      "ecise": 683,
      "imprecise": 684,
      "descri": 685,
      "descriptor": 686,
      "swee": 687,
      "sweep": 688,
      "eating": 689,
      "creating": 690,
      "compare": 691,
      ".....................": 692,
      "service": 693,
      "ple": 694,
      "date": 695,
      "mented": 696,
      "unim": 697,
      "update": 698,
      "ordering": 699,
      "plemented": 700,
      "unimplemented": 701,
      "kin": 702,
      "pakin": 703,
      "prep": 704,
      "dev": 705,
      "fur": 706,
      "ther": 707,
      "ressing": 708,
      "ppressing": 709,
      "suppressing": 710,
      "further": 711,
      "ame": 712,
      "bro": 713,
      "adcast": 714,
      "broadcast": 715,
      "df": 716,
      "tests": 717,
      "ae": 718,
      "same": 719,
      "enc": 720,
      "bas": 721,
      "lat": 722,
      "ency": 723,
      "latency": 724,
      "opt": 725,
      "fl": 726,
      "tested": 727,
      "ip": 728,
      "bw": 729,
      "allen": 730,
      "bwallen": 731,
      "fe": 732,
      ".......": 733,
      "............": 734,
      "hpl": 735,
      "ash": 736,
      "flash": 737,
      ").......": 738,
      "enabled": 739,
      "nal": 740,
      "exter": 741,
      "external": 742,
      "blem": 743,
      "problem": 744,
      "ml": 745,
      "ll": 746,
      "fig": 747,
      "config": 748,
      "gat": 749,
      "usr": 750,
      "sup": 751,
      "instr": 752,
      "kpt": 753,
      "chkpt": 754,
      "gath": 755,
      "uration": 756,
      "configuration": 757,
      "gathering": 758,
      "debugger": 759,
      "poll": 760,
      "died": 761,
      "controldescriptor": 762,
      "pollcontroldescriptor": 763,
      "pollcontroldescriptors": 764,
      "inf": 765,
      "ofdi": 766,
      "rty": 767,
      "ofdirty": 768,
      "ack": 769,
      "ram": 770,
      "stel": 771,
      "stella": 772,
      "edram": 773,
      "copro": 774,
      "rel": 775,
      "bb": 776,
      "erno": 777,
      "inferno": 778,
      "loc": 779,
      "eff": 780,
      "linp": 781,
      "linpack": 782,
      "cb": 783,
      "location": 784,
      "ri": 785,
      "fis": 786,
      "her": 787,
      "rfis": 788,
      "rfisher": 789,
      "base": 790,
      "aus": 791,
      "ton": 792,
      "elton": 793,
      "auselton": 794,
      "old": 795,
      "gre": 796,
      "eno": 797,
      "greeno": 798,
      "aa": 799,
      "mdc": 800,
      "ask": 801,
      "mdcask": 802,
      "xl": 803,
      "cx": 804,
      "cxx": 805,
      "scr": 806,
      "ep": 807,
      "ess": 808,
      "essl": 809,
      "cas": 810,
      "cases": 811,
      "scratch": 812,
      "testcases": 813,
      "bglscratch": 814,
      "syscalls": 815,
      "prefetch": 816,
      "eee": 817,
      "registers": 818,
      "xyz": 819,
      "xyzt": 820,
      "gu": 821,
      "uch": 822,
      "aran": 823,
      "teed": 824,
      "touch": 825,
      "guaran": 826,
      "guaranteed": 827,
      "icache": 828,
      "pur": 829,
      "pose": 830,
      "purpose": 831,
      "eeeeeee": 832,
      "sle": 833,
      "temp": 834,
      "ate": 835,
      "pping": 836,
      "action": 837,
      "ical": 838,
      "packet": 839,
      "conn": 840,
      "ection": 841,
      "connection": 842,
      "sod": 843,
      "bfc": 844,
      "scaling": 845,
      "sodscaling": 846,
      "bbc": 847,
      "cpm": 848,
      "jeff": 849,
      "untested": 850,
      "mps": 851,
      "xffffffff": 852,
      "sto": 853,
      "mand": 854,
      "pan": 855,
      "panic": 856,
      "bcc": 857,
      "stopping": 858,
      "bec": 859,
      "ution": 860,
      "execution": 861,
      "sh": 862,
      "fd": 863,
      "rundir": 864,
      "part": 865,
      "iad": 866,
      "triad": 867,
      "tomand": 868,
      "streamtriad": 869,
      "epstreamtriad": 870,
      "tomandjeff": 871,
      "qu": 872,
      "summ": 873,
      "ary": 874,
      "summary": 875,
      "ting": 876,
      "./": 877,
      "into": 878,
      "pas": 879,
      "cards": 880,
      "999999999999999999999999999": 881,
      "fft": 882,
      "rand": 883,
      "mirand": 884,
      "miranda": 885,
      "chip": 886,
      "eds": 887,
      "exceeds": 888,
      "law": 889,
      "sion": 890,
      "dim": 891,
      "sical": 892,
      "inate": 893,
      "ension": 894,
      "coord": 895,
      "physical": 896,
      "dimension": 897,
      "coordinate": 898,
      "ci": 899,
      "claw": 900,
      "jag": 901,
      "mf": 902,
      "perclaw": 903,
      "hyperclaw": 904,
      "rich": 905,
      "pasci": 906,
      "bad": 907,
      "ins": 908,
      "kb": 909,
      "database": 910,
      "erted": 911,
      "inserted": 912,
      "forservice": 913,
      "prepare": 914,
      "prepareforservice": 915,
      "))": 916,
      "ct": 917,
      "dra": 918,
      "eger": 919,
      "mcards": 920,
      "ernum": 921,
      "mlct": 922,
      "draeger": 923,
      "mcardsernum": 924,
      "mlctn": 925,
      "wn": 926,
      "lines": 927,
      "down": 928,
      "shut": 929,
      "lt": 930,
      "tun": 931,
      "resu": 932,
      "lts": 933,
      "tuned": 934,
      "results": 935,
      "comp": 936,
      "ages": 937,
      "mtype": 938,
      "mip": 939,
      "mlp": 940,
      "aver": 941,
      "dcache": 942,
      "lw": 943,
      "dblw": 944,
      "ofdirtylines": 945,
      "ofdirtydblw": 946,
      "averages": 947,
      "ofdirtydblword": 948,
      "pes": 949,
      "cce": 950,
      "sent": 951,
      "nf": 952,
      "band": 953,
      "wid": 954,
      "bandwid": 955,
      "bandwidth": 956,
      "shutting": 957,
      "ccfc": 958,
      "cp": 959,
      "iz": 960,
      "99999999999999": 961,
      "red": 962,
      "rando": 963,
      "nfs": 964,
      "ized": 965,
      "mapfile": 966,
      "news": 967,
      "resh": 968,
      "rec": 969,
      "xhpl": 970,
      "ste": 971,
      "ying": 972,
      "retr": 973,
      "slept": 974,
      "retrying": 975,
      "efc": 976,
      "hw": 977,
      "come": 978,
      "wel": 979,
      "welcome": 980,
      "tial": 981,
      "va": 982,
      "hwstab": 983,
      "med": 984,
      "rk": 985,
      "thresh": 986,
      "threshold": 987,
      "rky": 988,
      "gn": 989,
      "ogn": 990,
      "unrec": 991,
      "eaddr": 992,
      "treeaddr": 993,
      "cpu": 994,
      "ognized": 995,
      "unrecognized": 996,
      "eb": 997,
      "resource": 998,
      "pth": 999,
      "depth": 1000,
      "ial": 1001,
      "spec": 1002,
      "dec": 1003,
      "general": 1004,
      "apu": 1005,
      "force": 1006,
      "special": 1007,
      "peer": 1008,
      "comm": 1009,
      "op": 1010,
      "open": 1011,
      "mk": 1012,
      "ctr": 1013,
      "xer": 1014,
      "timed": 1015,
      "intern": 1016,
      "internal": 1017,
      "mmi": 1018,
      "deve": 1019,
      "lop": 1020,
      "develop": 1021,
      "testing": 1022,
      "send": 1023,
      "fm": 1024,
      "sender": 1025,
      "smission": 1026,
      "retran": 1027,
      "retransmission": 1028,
      "fpr": 1029,
      "ckpt": 1030,
      "nodec": 1031,
      "nodecard": 1032,
      "ava": 1033,
      "pw": 1034,
      "mar": 1035,
      "bri": 1036,
      "brian": 1037,
      "activ": 1038,
      "stu": 1039,
      "ben": 1040,
      "chmar": 1041,
      "benchmar": 1042,
      "benchmark": 1043,
      "ccec": 1044,
      "dy": 1045,
      "pwd": 1046,
      "unava": 1047,
      "ilable": 1048,
      "unavailable": 1049,
      "sequ": 1050,
      "gp": 1051,
      "nk": 1052,
      "orar": 1053,
      "ential": 1054,
      "only": 1055,
      "pts": 1056,
      "eline": 1057,
      "toall": 1058,
      "ily": 1059,
      "mapfiles": 1060,
      "testscri": 1061,
      "newcomp": 1062,
      "alltoall": 1063,
      "fields": 1064,
      "baseline": 1065,
      "temporar": 1066,
      "study": 1067,
      "sequential": 1068,
      "testscripts": 1069,
      "temporarily": 1070,
      "--": 1071,
      "fdf": 1072,
      "runs": 1073,
      "its": 1074,
      "mpits": 1075,
      "opening": 1076,
      "bvn": 1077,
      "rs": 1078,
      "efe": 1079,
      "fmm": 1080,
      "wil": 1081,
      "ams": 1082,
      "liams": 1083,
      "williams": 1084,
      "random": 1085,
      "steering": 1086,
      "zer": 1087,
      "zero": 1088,
      "ant": 1089,
      "undant": 1090,
      "redundant": 1091,
      "activating": 1092,
      "cable": 1093,
      "bot": 1094,
      "bo": 1095,
      "efd": 1096,
      "fb": 1097,
      "box": 1098,
      "mini": 1099,
      "big": 1100,
      "linkcard": 1101,
      "ention": 1102,
      "contention": 1103,
      "han": 1104,
      "hang": 1105,
      "gun": 1106,
      "gbglv": 1107,
      "device": 1108,
      "ddcmdgbglv": 1109,
      "nels": 1110,
      "fftw": 1111,
      "gunnels": 1112,
      "too": 1113,
      "ertion": 1114,
      "assertion": 1115,
      "requ": 1116,
      "microload": 1117,
      "microloader": 1118,
      "ob": 1119,
      "rit": 1120,
      "writ": 1121,
      "qbox": 1122,
      "testqbox": 1123,
      "ds": 1124,
      "pl": 1125,
      "star": 1126,
      "cur": 1127,
      "testqboxhang": 1128,
      "nosle": 1129,
      "bytebug": 1130,
      "zerobytebug": 1131,
      "nosleep": 1132,
      "hel": 1133,
      "ht": 1134,
      "controller": 1135,
      "dsmc": 1136,
      "perform": 1137,
      "fcc": 1138,
      "ight": 1139,
      "cdfc": 1140,
      "chcontroller": 1141,
      "itchcontroller": 1142,
      "switchcontroller": 1143,
      "midplaneswitchcontroller": 1144,
      "cdec": 1145,
      "../": 1146,
      "noio": 1147,
      "vx": 1148,
      "ired": 1149,
      "required": 1150,
      "bfa": 1151,
      "/)": 1152,
      "rent": 1153,
      "current": 1154,
      "eed": 1155,
      "cpes": 1156,
      "rever": 1157,
      "-->": 1158,
      "reverse": 1159,
      "oldcode": 1160,
      "ject": 1161,
      "object": 1162,
      "bcast": 1163,
      "tition": 1164,
      "partition": 1165,
      "ccess": 1166,
      "cnk": 1167,
      "lnk": 1168,
      "light": 1169,
      "maccess": 1170,
      "nozerobytebug": 1171,
      "cabot": 1172,
      "conc": 1173,
      "newkernel": 1174,
      "fold": 1175,
      "randomaccess": 1176,
      "comms": 1177,
      "bcastv": 1178,
      "lnkck": 1179,
      "ffa": 1180,
      "hellow": 1181,
      "cdb": 1182,
      "........................": 1183,
      "cddc": 1184,
      "ue": 1185,
      "aae": 1186,
      "plb": 1187,
      "cec": 1188,
      "aring": 1189,
      "sparing": 1190,
      "performing": 1191,
      "99999999999": 1192,
      "write": 1193,
      "ku": 1194,
      "cdc": 1195,
      "but": 1196,
      "ke": 1197,
      "put": 1198,
      "output": 1199,
      "fae": 1200,
      "ffc": 1201,
      "wer": 1202,
      "power": 1203,
      "glob": 1204,
      "fce": 1205,
      "end": 1206,
      "serviceaction": 1207,
      "endserviceaction": 1208,
      "mem": 1209,
      "cfd": 1210,
      "ber": 1211,
      "syste": 1212,
      "system": 1213,
      "dbd": 1214,
      "ong": 1215,
      "ppc": 1216,
      "dup": 1217,
      "sles": 1218,
      "apc": 1219,
      "str": 1220,
      "jul": 1221,
      "/../": 1222,
      "kmap": 1223,
      "tue": 1224,
      "yes": 1225,
      "nocomm": 1226,
      "strong": 1227,
      "cee": 1228,
      "bota": 1229,
      "kubota": 1230,
      "cdbc": 1231,
      "ffe": 1232,
      "cac": 1233,
      "unable": 1234,
      "efa": 1235,
      "cdcc": 1236,
      "mod": 1237,
      "dad": 1238,
      "filesystem": 1239,
      "restar": 1240,
      "pack": 1241,
      "lapack": 1242,
      "cbc": 1243,
      "memory": 1244,
      "cedc": 1245,
      "fca": 1246,
      "dddc": 1247,
      "access": 1248,
      "ccc": 1249,
      "ffb": 1250,
      "ccdc": 1251,
      "cdac": 1252,
      "bbe": 1253,
      "efaea": 1254,
      "one": 1255,
      "manag": 1256,
      "manager": 1257,
      "aac": 1258,
      "ible": 1259,
      "itial": 1260,
      "initial": 1261,
      "cham": 1262,
      "daf": 1263,
      "fbb": 1264,
      "ix": 1265,
      "onix": 1266,
      "ddac": 1267,
      "global": 1268,
      "chamonix": 1269,
      "restarting": 1270,
      "bfb": 1271,
      "ddec": 1272,
      "ddbc": 1273,
      "9999999999999": 1274,
      "modu": 1275,
      "dafca": 1276,
      "fea": 1277,
      "hack": 1278,
      "ues": 1279,
      "accessible": 1280,
      "module": 1281,
      "values": 1282,
      "start": 1283,
      "num": 1284,
      "number": 1285,
      "present": 1286,
      "ush": 1287,
      "flush": 1288,
      "sta": 1289,
      "presta": 1290,
      "aad": 1291,
      "?/": 1292,
      "fer": 1293,
      "lic": 1294,
      "ova": 1295,
      "sam": 1296,
      "onical": 1297,
      "mapping": 1298,
      "miran": 1299,
      "nopr": 1300,
      "adv": 1301,
      "ckap": 1302,
      "rai": 1303,
      "logical": 1304,
      "linadv": 1305,
      "maps": 1306,
      "luke": 1307,
      "busy": 1308,
      "newhack": 1309,
      "newmaps": 1310,
      "canonical": 1311,
      "nosleepyes": 1312,
      "nosleepnocomm": 1313,
      "duplic": 1314,
      "samrai": 1315,
      "miranova": 1316,
      "noprint": 1317,
      "ckapfer": 1318,
      "lukei": 1319,
      "nosleepyescomm": 1320,
      "duplicate": 1321,
      "cefc": 1322,
      "daec": 1323,
      "dadc": 1324,
      "fdc": 1325,
      "jm": 1326,
      "nex": 1327,
      "allocation": 1328,
      "next": 1329,
      "dbac": 1330,
      "abf": 1331,
      "ecac": 1332,
      "fcd": 1333,
      "ho": 1334,
      "...........................": 1335,
      "root": 1336,
      "cate": 1337,
      "mme": 1338,
      "cecc": 1339,
      "trun": 1340,
      "homme": 1341,
      "truncate": 1342,
      "ta": 1343,
      "dda": 1344,
      "being": 1345,
      "this": 1346,
      "fff": 1347,
      "server": 1348,
      "dbbc": 1349,
      "ties": 1350,
      "proper": 1351,
      "properties": 1352,
      "hn": 1353,
      "dahn": 1354,
      "cbac": 1355,
      "efb": 1356,
      "bfe": 1357,
      "ade": 1358,
      "ij": 1359,
      "ild": 1360,
      "done": 1361,
      "sti": 1362,
      "ulr": 1363,
      "ulri": 1364,
      "urb": 1365,
      "rturb": 1366,
      "stirturb": 1367,
      "cjm": 1368,
      "ced": 1369,
      "stirturbdirect": 1370,
      "blu": 1371,
      "uation": 1372,
      "inuation": 1373,
      "iostate": 1374,
      "continuation": 1375,
      "request": 1376,
      "()": 1377,
      "meam": 1378,
      "ddcc": 1379,
      "ebd": 1380,
      "undy": 1381,
      "cjmundy": 1382,
      "tz": 1383,
      "yx": 1384,
      "cae": 1385,
      "tzyx": 1386,
      "...........": 1387,
      "ddfc": 1388,
      "cdd": 1389,
      "eec": 1390,
      "uncorrectable": 1391,
      "cecfc": 1392,
      "clo": 1393,
      "cpmd": 1394,
      "eedc": 1395,
      "mail": 1396,
      "mailbox": 1397,
      "ceec": 1398,
      "key": 1399,
      "ulrikey": 1400,
      "qb": 1401,
      "hommes": 1402,
      "ccd": 1403,
      "gh": 1404,
      "...................": 1405,
      "ebe": 1406,
      "port": 1407,
      "wi": 1408,
      "nodecards": 1409,
      "started": 1410,
      "pture": 1411,
      "capture": 1412,
      "unexp": 1413,
      "unexpected": 1414,
      "eof": 1415,
      "bae": 1416,
      "tmp": 1417,
      "child": 1418,
      "processes": 1419,
      "writev": 1420,
      "acf": 1421,
      "ill": 1422,
      "mmc": 1423,
      "mmcs": 1424,
      "acc": 1425,
      "dae": 1426,
      "ock": 1427,
      "shock": 1428,
      "fre": 1429,
      "job": 1430,
      "kill": 1431,
      "freed": 1432,
      "exe": 1433,
      "rm": 1434,
      "arget": 1435,
      "ffd": 1436,
      "main": 1437,
      "sof": 1438,
      "bea": 1439,
      "ebba": 1440,
      "mal": 1441,
      "round": 1442,
      "deactiv": 1443,
      "full": 1444,
      "daac": 1445,
      "dabc": 1446,
      "deactivated": 1447,
      "rst": 1448,
      "first": 1449,
      "dab": 1450,
      "def": 1451,
      "buber": 1452,
      "ormal": 1453,
      "lsee": 1454,
      "minus": 1455,
      "plus": 1456,
      "ormalized": 1457,
      "lseek": 1458,
      "fulltest": 1459,
      "cad": 1460,
      "fec": 1461,
      "mon": 1462,
      "aeec": 1463,
      "cbca": 1464,
      "dafc": 1465,
      "mer": 1466,
      "afb": 1467,
      "aeac": 1468,
      "/./": 1469,
      "bbd": 1470,
      "ugh": 1471,
      "prof": 1472,
      "symlink": 1473,
      "party": 1474,
      "newmpi": 1475,
      "biparty": 1476,
      "greenough": 1477,
      "jeffgreenough": 1478,
      "short": 1479,
      "hangtest": 1480,
      "/../../": 1481,
      "yeszerobytebug": 1482,
      "nocommnosleep": 1483,
      "rmdir": 1484,
      "bipartyz": 1485,
      "fail": 1486,
      "bde": 1487,
      "deac": 1488,
      "devel": 1489,
      "cbbc": 1490,
      "user": 1491,
      "cbcc": 1492,
      "beab": 1493,
      "hello": 1494,
      "egen": 1495,
      "cbdc": 1496,
      "bluegen": 1497,
      "bluegene": 1498,
      "bmi": 1499,
      "ller": 1500,
      "upon": 1501,
      "performed": 1502,
      "bmiller": 1503,
      "info": 1504,
      "cfc": 1505,
      "ecc": 1506,
      "dbfd": 1507,
      "going": 1508,
      "efed": 1509,
      "wires": 1510,
      "bfcf": 1511,
      "vpes": 1512,
      "dbdc": 1513,
      "aef": 1514,
      "target": 1515,
      "dbcc": 1516,
      "efda": 1517,
      "feaf": 1518,
      "valone": 1519,
      "cdf": 1520,
      "adf": 1521,
      "aaa": 1522,
      "sed": 1523,
      "func": 1524,
      "closed": 1525,
      "we": 1526,
      "shutdown": 1527,
      ")........................": 1528,
      "cca": 1529,
      "ward": 1530,
      "inex": 1531,
      "inity": 1532,
      "flow": 1533,
      "................................": 1534,
      "act": 1535,
      "toward": 1536,
      "infinity": 1537,
      "inexact": 1538,
      "eca": 1539,
      "fcf": 1540,
      "fcea": 1541,
      "itor": 1542,
      "linkcards": 1543,
      "monitor": 1544,
      "daea": 1545,
      "adb": 1546,
      "dbec": 1547,
      "under": 1548,
      "master": 1549,
      "bglmaster": 1550,
      "dl": 1551,
      "ftruncate": 1552,
      "jn": 1553,
      "ktest": 1554,
      "titi": 1555,
      "mio": 1556,
      "micron": 1557,
      "romio": 1558,
      "times": 1559,
      "setiti": 1560,
      "dlb": 1561,
      "jng": 1562,
      "setitimer": 1563,
      "ffer": 1564,
      "buffer": 1565,
      "ain": 1566,
      "bdc": 1567,
      "train": 1568,
      "fresh": 1569,
      "iku": 1570,
      "dedc": 1571,
      "refresh": 1572,
      "eea": 1573,
      "ikuo": 1574,
      "ban": 1575,
      "nc": 1576,
      "bank": 1577,
      "bfeb": 1578,
      "aec": 1579,
      "bert": 1580,
      "lib": 1581,
      "sch": 1582,
      "anty": 1583,
      "bertsch": 1584,
      "antypas": 1585,
      "eebea": 1586,
      "cbe": 1587,
      "edc": 1588,
      ".......................": 1589,
      "cfdddc": 1590,
      "servicemailbox": 1591,
      "mailboxmonitor": 1592,
      "servicemailboxes": 1593,
      "acb": 1594,
      "ceac": 1595,
      "thead": 1596,
      "softhead": 1597,
      "softheader": 1598,
      "faee": 1599,
      "bbb": 1600,
      "dca": 1601,
      "na": 1602,
      "tec": 1603,
      "caltec": 1604,
      "caltech": 1605,
      "decc": 1606,
      "efdd": 1607,
      "nd": 1608,
      "xd": 1609,
      "cda": 1610,
      "iap": 1611,
      "ceb": 1612,
      "vetrain": 1613,
      "receivetrain": 1614,
      "cli": 1615,
      "nb": 1616,
      "entmgr": 1617,
      "idocli": 1618,
      "command": 1619,
      "idoclientmgr": 1620,
      "debc": 1621,
      "close": 1622,
      "ffbff": 1623,
      "ewe": 1624,
      "fch": 1625,
      "loewe": 1626,
      "runtime": 1627,
      "ffbffbff": 1628,
      "efdb": 1629,
      "dcec": 1630,
      "eue": 1631,
      "nect": 1632,
      "onnect": 1633,
      "elight": 1634,
      "eef": 1635,
      "blocks": 1636,
      "queue": 1637,
      "reconnect": 1638,
      "bluelight": 1639,
      "fbc": 1640,
      "atab": 1641,
      "iolog": 1642,
      "ase": 1643,
      "ada": 1644,
      "dbproperties": 1645,
      "logs": 1646,
      "usedatab": 1647,
      "usedatabase": 1648,
      "fba": 1649,
      "art": 1650,
      "efea": 1651,
      "aee": 1652,
      "parmd": 1653,
      "parmdg": 1654,
      "dcaf": 1655,
      "pux": 1656,
      "vac": 1657,
      "divac": 1658,
      "dacc": 1659,
      "non": 1660,
      "alloc": 1661,
      "cannot": 1662,
      "allocate": 1663,
      "xa": 1664,
      "failing": 1665,
      "efdc": 1666,
      "ters": 1667,
      "lete": 1668,
      "adc": 1669,
      "adac": 1670,
      "efde": 1671,
      "efca": 1672,
      "complete": 1673,
      ")...": 1674,
      "fra": 1675,
      "nan": 1676,
      "normalized": 1677,
      "divi": 1678,
      "............................": 1679,
      "denormalized": 1680,
      "efeb": 1681,
      "underflow": 1682,
      "fraction": 1683,
      "divide": 1684,
      "cbb": 1685,
      "fcca": 1686,
      "efef": 1687,
      "dac": 1688,
      "defbf": 1689,
      "sole": 1690,
      "console": 1691,
      "fbca": 1692,
      "ted": 1693,
      "ciodb": 1694,
      "restarted": 1695,
      "hot": 1696,
      "mall": 1697,
      "small": 1698,
      "tet": 1699,
      "itz": 1700,
      "ioni": 1701,
      "streitz": 1702,
      "foob": 1703,
      "readlink": 1704,
      "shhot": 1705,
      "curioni": 1706,
      "userfunc": 1707,
      "fchmod": 1708,
      "tetshhot": 1709,
      "foobar": 1710,
      "edb": 1711,
      "efdf": 1712,
      "iver": 1713,
      "sic": 1714,
      "yun": 1715,
      "ddriver": 1716,
      "partad": 1717,
      "taddriver": 1718,
      "develf": 1719,
      "yunsic": 1720,
      "ecf": 1721,
      "name": 1722,
      "faa": 1723,
      "aba": 1724,
      "efcb": 1725,
      "linux": 1726,
      "serverdb": 1727,
      "cebc": 1728,
      "efce": 1729,
      "efcc": 1730,
      "soft": 1731,
      "aea": 1732,
      "beb": 1733,
      "parame": 1734,
      "enableflush": 1735,
      "loguser": 1736,
      "parameters": 1737,
      "loguserinfo": 1738,
      "bl": 1739,
      "alle": 1740,
      "paralle": 1741,
      "parallel": 1742,
      "dce": 1743,
      "ede": 1744,
      "with": 1745,
      "efbb": 1746,
      "jor": 1747,
      "major": 1748,
      "cde": 1749,
      "abd": 1750,
      "cfe": 1751,
      "xffff": 1752,
      "dcfc": 1753,
      "ece": 1754,
      "ded": 1755,
      "adda": 1756,
      "ize": 1757,
      "size": 1758,
      "ccce": 1759,
      "aed": 1760,
      "fda": 1761,
      "dee": 1762,
      "mods": 1763,
      "fmmods": 1764,
      "eaf": 1765,
      "efec": 1766,
      "col": 1767,
      "hi": 1768,
      "qx": 1769,
      "umask": 1770,
      "pop": 1771,
      "timeof": 1772,
      "papi": 1773,
      "preqx": 1774,
      "build": 1775,
      "readv": 1776,
      "gettimeof": 1777,
      "day": 1778,
      "efff": 1779,
      "blas": 1780,
      "coll": 1781,
      "gettimeofday": 1782,
      "ging": 1783,
      "edf": 1784,
      "pjm": 1785,
      "scompare": 1786,
      "cea": 1787,
      "may": 1788,
      "miscompare": 1789,
      "ccart": 1790,
      "abcc": 1791,
      "edrams": 1792,
      "pjmccart": 1793,
      "sram": 1794,
      "effb": 1795,
      "effd": 1796,
      "ware": 1797,
      "ccb": 1798,
      "abe": 1799,
      "aada": 1800,
      "abc": 1801,
      "ebc": 1802,
      "fac": 1803,
      "ive": 1804,
      "lver": 1805,
      "solver": 1806,
      "linear": 1807,
      "solvers": 1808,
      "bee": 1809,
      "jgh": 1810,
      "dbfc": 1811,
      "aaac": 1812,
      "dace": 1813,
      "ccf": 1814,
      "ten": 1815,
      "eda": 1816,
      "written": 1817,
      "qrt": 1818,
      "sqrt": 1819,
      "char": 1820,
      "dcbc": 1821,
      "failure": 1822,
      "ker": 1823,
      "bfd": 1824,
      "baker": 1825,
      "ptarget": 1826,
      "const": 1827,
      "aeb": 1828,
      "targetclose": 1829,
      "bdcb": 1830,
      "ptargetmgr": 1831,
      "init": 1832,
      "eac": 1833,
      "gro": 1834,
      "reception": 1835,
      "ffba": 1836,
      "addc": 1837,
      "fcb": 1838,
      "abfc": 1839,
      "doe": 1840,
      "adcc": 1841,
      "aacd": 1842,
      "software": 1843,
      "ebf": 1844,
      "fcec": 1845,
      "adbe": 1846,
      "afa": 1847,
      "edd": 1848,
      "acd": 1849,
      "bff": 1850,
      "baa": 1851,
      "crc": 1852,
      "coun": 1853,
      "starting": 1854,
      "systemcontroller": 1855,
      "ning": 1856,
      "edbb": 1857,
      "ckgro": 1858,
      "abac": 1859,
      "running": 1860,
      "backgro": 1861,
      "efcf": 1862,
      "aadc": 1863,
      "background": 1864,
      "://": 1865,
      "cbf": 1866,
      "defc": 1867,
      "dirs": 1868,
      ")......................": 1869,
      ")...........................": 1870,
      ").......................": 1871,
      "bce": 1872,
      "cn": 1873,
      "ccr": 1874,
      "dbs": 1875,
      "iet": 1876,
      "ieee": 1877,
      "java": 1878,
      "msr": 1879,
      "snan": 1880,
      "ug": 1881,
      "vt": 1882,
      "erved": 1883,
      "arest": 1884,
      "deec": 1885,
      "roun": 1886,
      ".................................": 1887,
      "...............................": 1888,
      "dbcr": 1889,
      "reserved": 1890,
      "overflow": 1891,
      "fpscr": 1892,
      "nearest": 1893,
      "esr": 1894,
      "quiet": 1895,
      "cnvt": 1896,
      "dbsr": 1897,
      "rounded": 1898,
      "fbbc": 1899,
      "remer": 1900,
      "cab": 1901,
      "dbremer": 1902,
      "gooding": 1903,
      "abb": 1904,
      "aca": 1905,
      "fbcc": 1906,
      "sid": 1907,
      "repl": 1908,
      "acing": 1909,
      "consid": 1910,
      "configfile": 1911,
      "consoleip": 1912,
      "consoleport": 1913,
      "replacing": 1914,
      "consider": 1915,
      "cba": 1916,
      "fbfc": 1917,
      "fbec": 1918,
      "my": 1919,
      "nve": 1920,
      "own": 1921,
      "tx": 1922,
      "uid": 1923,
      "ecd": 1924,
      "lev": 1925,
      "mid": 1926,
      "adec": 1927,
      "unic": 1928,
      "acda": 1929,
      "getuid": 1930,
      "serial": 1931,
      "ipaddress": 1932,
      "communic": 1933,
      "memmon": 1934,
      "tau": 1935,
      "txt": 1936,
      "serialnumber": 1937,
      "ies": 1938,
      "jtagid": 1939,
      "aabc": 1940,
      "):": 1941,
      "fbf": 1942,
      "xb": 1943,
      "caug": 1944,
      "dfbb": 1945,
      "caught": 1946,
      "afc": 1947,
      "thunder": 1948,
      "ffae": 1949,
      "eeb": 1950,
      "llap": 1951,
      "ebde": 1952,
      "aut": 1953,
      "orest": 1954,
      "trapp": 1955,
      "dbc": 1956,
      "fcde": 1957,
      "afd": 1958,
      "feea": 1959,
      "autorest": 1960,
      "autorestart": 1961,
      "nm": 1962,
      "initializ": 1963,
      "communication": 1964,
      "fbd": 1965,
      "ketest": 1966,
      "ulriketest": 1967,
      "cada": 1968,
      "ulriketests": 1969,
      "fy": 1970,
      "ify": 1971,
      "nop": 1972,
      "verify": 1973,
      "aaec": 1974,
      "aacc": 1975,
      "ffea": 1976,
      "ffaa": 1977,
      "xe": 1978,
      "dbg": 1979,
      "dcc": 1980,
      "bdf": 1981,
      "efcd": 1982,
      "fad": 1983,
      "face": 1984,
      "bfdc": 1985,
      "aaf": 1986,
      "fg": 1987,
      "iw": 1988,
      "por": 1989,
      "pad": 1990,
      "pages": 1991,
      "renc": 1992,
      "sla": 1993,
      "slaw": 1994,
      "tur": 1995,
      "ygi": 1996,
      "ative": 1997,
      "cef": 1998,
      "stand": 1999,
      "ssible": 2000,
      "retag": 2001,
      "ching": 2002,
      "chcard": 2003,
      "roff": 2004,
      "dden": 2005,
      "possible": 2006,
      "ite": 2007,
      "soon": 2008,
      "caching": 2009,
      "ches": 2010,
      "suite": 2011,
      "prefet": 2012,
      "testsuite": 2013,
      "outstand": 2014,
      "ulative": 2015,
      "commit": 2016,
      "scratchpad": 2017,
      "prefetching": 2018,
      "stopw": 2019,
      "stepping": 2020,
      "speculative": 2021,
      "mkdir": 2022,
      "..........................": 2023,
      "flushing": 2024,
      "refreshes": 2025,
      "hichcard": 2026,
      "hidden": 2027,
      "initialization": 2028,
      "fgygi": 2029,
      "iwhichcard": 2030,
      "portion": 2031,
      "slave": 2032,
      "slawrenc": 2033,
      "turn": 2034,
      "retagging": 2035,
      "prefetches": 2036,
      "outstanding": 2037,
      "stopwroff": 2038,
      "iwhichcardstopwroff": 2039,
      "bus": 2040,
      "cbd": 2041,
      "gctl": 2042,
      "qw": 2043,
      "scan": 2044,
      "erface": 2045,
      "ories": 2046,
      "interface": 2047,
      "stro": 2048,
      "regctl": 2049,
      "unit": 2050,
      "....................................": 2051,
      "directories": 2052,
      "agging": 2053,
      "flagging": 2054,
      "gate": 2055,
      "rmw": 2056,
      "counter": 2057,
      "trapped": 2058,
      "scancom": 2059,
      "strobe": 2060,
      "bac": 2061,
      "cat": 2062,
      "scat": 2063,
      "cccc": 2064,
      "bfafec": 2065,
      "xffffc": 2066,
      "scatter": 2067,
      "dfa": 2068,
      "ffbf": 2069,
      "dfc": 2070,
      "cecf": 2071,
      "caa": 2072,
      "bcb": 2073,
      "efcbc": 2074,
      "efcbd": 2075,
      "bacb": 2076,
      "dcd": 2077,
      "bda": 2078,
      "fefff": 2079,
      "ebea": 2080,
      "aaba": 2081,
      "els": 2082,
      "iels": 2083,
      "ken": 2084,
      "niels": 2085,
      "ssive": 2086,
      "excessive": 2087,
      "adbc": 2088,
      "cacc": 2089,
      "efcfc": 2090,
      "efcfd": 2091,
      "failures": 2092,
      "nielsen": 2093,
      "reduce": 2094,
      "efbf": 2095,
      "mul": 2096,
      "sg": 2097,
      "fcbc": 2098,
      "fcda": 2099,
      "effa": 2100,
      "fccc": 2101,
      "fcee": 2102,
      "multi": 2103,
      "vic": 2104,
      "incomplete": 2105,
      "ffab": 2106,
      "ffcb": 2107,
      "caca": 2108,
      "befcc": 2109,
      "efee": 2110,
      "fady": 2111,
      "bba": 2112,
      "net": 2113,
      "cece": 2114,
      "ailed": 2115,
      "cff": 2116,
      "ioexception": 2117,
      "detailed": 2118,
      "fffffff": 2119,
      "bcbc": 2120,
      "getting": 2121,
      "problems": 2122,
      "vicar": 2123,
      "cbea": 2124,
      "ecb": 2125,
      "coul": 2126,
      "dcdc": 2127,
      "afe": 2128,
      "could": 2129,
      "dccc": 2130,
      "dbaaf": 2131,
      "efcbe": 2132,
      "ir": 2133,
      "fcce": 2134,
      "bccb": 2135,
      "decd": 2136,
      "fcef": 2137,
      "cw": 2138,
      "fstat": 2139,
      "fsyn": 2140,
      "ftests": 2141,
      "hig": 2142,
      "nlev": 2143,
      "pid": 2144,
      "ren": 2145,
      "txyz": 2146,
      "utime": 2147,
      "ale": 2148,
      "cept": 2149,
      "readd": 2150,
      "chmod": 2151,
      "chown": 2152,
      "ddmd": 2153,
      "trus": 2154,
      "getrus": 2155,
      "bglc": 2156,
      "verbo": 2157,
      "accept": 2158,
      "cccd": 2159,
      "ull": 2160,
      "getcw": 2161,
      "getpid": 2162,
      "bbac": 2163,
      "effc": 2164,
      "stuff": 2165,
      "fccf": 2166,
      "memtest": 2167,
      "fchown": 2168,
      "level": 2169,
      "verifystuff": 2170,
      "sgs": 2171,
      "fsync": 2172,
      "high": 2173,
      "rename": 2174,
      "readdir": 2175,
      "getrusage": 2176,
      "verbose": 2177,
      "acceptance": 2178,
      "getcwd": 2179,
      "bdd": 2180,
      "resets": 2181,
      "pull": 2182,
      "rack": 2183,
      "bebfdc": 2184,
      "bfda": 2185,
      "efbfc": 2186,
      "efbfe": 2187,
      "efbfd": 2188,
      "efcfe": 2189,
      "bab": 2190,
      "cecb": 2191,
      "ffce": 2192,
      "ffac": 2193,
      "efcdf": 2194,
      "eba": 2195,
      "fab": 2196,
      "efbc": 2197,
      "xf": 2198,
      "ffbe": 2199,
      "ffffc": 2200,
      "fcdd": 2201,
      "fcdb": 2202,
      "efbd": 2203,
      "efeca": 2204,
      "bbde": 2205,
      "efddf": 2206,
      "efecb": 2207,
      "cfa": 2208,
      "fef": 2209,
      "nl": 2210,
      "bcf": 2211,
      "baab": 2212,
      "llnl": 2213,
      "efebc": 2214,
      "efebd": 2215,
      "efebb": 2216,
      "br": 2217,
      "cmc": 2218,
      "fbe": 2219,
      "des": 2220,
      "ready": 2221,
      "bbdeba": 2222,
      "brdes": 2223,
      "aab": 2224,
      "bdb": 2225,
      "batch": 2226,
      "beck": 2227,
      "bates": 2228,
      "pcoun": 2229,
      "ring": 2230,
      "orbeck": 2231,
      "float": 2232,
      "flopcoun": 2233,
      "bgla": 2234,
      "cabd": 2235,
      "token": 2236,
      "seille": 2237,
      "lang": 2238,
      "efbbc": 2239,
      "efbbe": 2240,
      "disconn": 2241,
      "aafc": 2242,
      "sendtrain": 2243,
      "marseille": 2244,
      "efbbd": 2245,
      "ddmdv": 2246,
      "batchfiles": 2247,
      "flopcounters": 2248,
      "disconnected": 2249,
      "marseillebgl": 2250,
      "bed": 2251,
      "due": 2252,
      "ols": 2253,
      "already": 2254,
      "ffdb": 2255,
      "ffaf": 2256,
      "cacd": 2257,
      "symbols": 2258,
      "mpich": 2259,
      "fcdc": 2260,
      "bcd": 2261,
      "eae": 2262,
      "abbc": 2263,
      "efbe": 2264,
      "effca": 2265,
      "effcb": 2266,
      "steer": 2267,
      "fceb": 2268,
      "multiple": 2269,
      "cedd": 2270,
      "ffcf": 2271,
      "ffffffe": 2272,
      "efba": 2273,
      "effbc": 2274,
      "effbd": 2275,
      "effbb": 2276,
      "dea": 2277,
      "efdbd": 2278,
      "fced": 2279,
      "efdbc": 2280,
      "bacc": 2281,
      "ling": 2282,
      "ws": 2283,
      "cecd": 2284,
      "rows": 2285,
      "ffca": 2286,
      "controlling": 2287,
      "affd": 2288,
      "bffc": 2289,
      "dr": 2290,
      "dde": 2291,
      "wal": 2292,
      "exit": 2293,
      "ffbb": 2294,
      "bfec": 2295,
      "bfac": 2296,
      "daa": 2297,
      "walk": 2298,
      "dum": 2299,
      "lar": 2300,
      "ubgl": 2301,
      "ots": 2302,
      "ffcc": 2303,
      "cabe": 2304,
      "gov": 2305,
      "cccb": 2306,
      "shots": 2307,
      "efdfd": 2308,
      "dump": 2309,
      "dff": 2310,
      "fed": 2311,
      "fdb": 2312,
      "ffbc": 2313,
      "caf": 2314,
      "ccbf": 2315,
      "abdc": 2316,
      "broken": 2317,
      "feff": 2318,
      "oldkernel": 2319,
      "efccb": 2320,
      "fbfee": 2321,
      "ay": 2322,
      "bca": 2323,
      "brk": 2324,
      "cs": 2325,
      "cmd": 2326,
      "dacb": 2327,
      "ead": 2328,
      "gid": 2329,
      "hard": 2330,
      "iss": 2331,
      "kt": 2332,
      "lstat": 2333,
      "llseek": 2334,
      "lchown": 2335,
      "np": 2336,
      "oo": 2337,
      "pkt": 2338,
      "watch": 2339,
      "coredump": 2340,
      "make": 2341,
      "reade": 2342,
      "dog": 2343,
      "lost": 2344,
      "grap": 2345,
      "threade": 2346,
      "polog": 2347,
      "ffad": 2348,
      "ffdc": 2349,
      "bglerr": 2350,
      "unlink": 2351,
      "cace": 2352,
      "acs": 2353,
      "topolog": 2354,
      "cccf": 2355,
      "fier": 2356,
      "dcdd": 2357,
      "socketexception": 2358,
      "logfile": 2359,
      "codes": 2360,
      "bits": 2361,
      "afde": 2362,
      "afebf": 2363,
      "getgid": 2364,
      "bfcc": 2365,
      "bdab": 2366,
      "cfb": 2367,
      "dfe": 2368,
      "cbrt": 2369,
      "cpgrap": 2370,
      "ctrs": 2371,
      "dafdc": 2372,
      "modulo": 2373,
      "malloc": 2374,
      "efdcb": 2375,
      "blacs": 2376,
      "xffffd": 2377,
      "drv": 2378,
      "large": 2379,
      "ayoo": 2380,
      "cmdline": 2381,
      "hardware": 2382,
      "issues": 2383,
      "watchdog": 2384,
      "threaded": 2385,
      "topologies": 2386,
      "cpgraph": 2387,
      "cffea": 2388,
      "fdd": 2389,
      "pnet": 2390,
      "adfc": 2391,
      "caac": 2392,
      "cacf": 2393,
      "ffffff": 2394,
      "stateexception": 2395,
      "illegalstateexception": 2396,
      "effe": 2397,
      "bbcb": 2398,
      "efdca": 2399,
      "fbde": 2400,
      "currently": 2401,
      "dcac": 2402,
      "eth": 2403,
      "fcac": 2404,
      "long": 2405,
      "ddf": 2406,
      "ffbd": 2407,
      "cafc": 2408,
      "cabc": 2409,
      "parityalignment": 2410,
      "pap": 2411,
      "ccbc": 2412,
      "ernet": 2413,
      "csar": 2414,
      "ethernet": 2415,
      "bceb": 2416,
      "fde": 2417,
      "ceda": 2418,
      "dedd": 2419,
      "ddd": 2420,
      "ccdd": 2421,
      "bef": 2422,
      "efeef": 2423,
      "efcca": 2424,
      "efdfc": 2425,
      "efdfb": 2426,
      "ebb": 2427,
      "cebd": 2428,
      "ecff": 2429,
      "deb": 2430,
      "cadd": 2431,
      "baeb": 2432,
      "stirturbpnet": 2433,
      "efdbb": 2434,
      "trapping": 2435,
      "bis": 2436,
      "dede": 2437,
      "ccda": 2438,
      "dcdf": 2439,
      "fcbfa": 2440,
      "eab": 2441,
      "efdef": 2442,
      "efcfb": 2443,
      "fccfa": 2444,
      "fccbf": 2445,
      "fccfb": 2446,
      "dada": 2447,
      "xfffffff": 2448,
      "cfaf": 2449,
      "bbf": 2450,
      "dty": 2451,
      "dacf": 2452,
      "hile": 2453,
      "lp": 2454,
      "rupt": 2455,
      "rfft": 2456,
      "wra": 2457,
      "while": 2458,
      "env": 2459,
      "corrupt": 2460,
      "cabf": 2461,
      "acbc": 2462,
      "dcb": 2463,
      "dcrs": 2464,
      "overable": 2465,
      "fcbf": 2466,
      "fcdf": 2467,
      "fcbfb": 2468,
      "cfbc": 2469,
      "recoverable": 2470,
      "cadc": 2471,
      "initializing": 2472,
      "dtyp": 2473,
      "wray": 2474,
      "acac": 2475,
      "fdae": 2476,
      "mm": 2477,
      "table": 2478,
      "cedb": 2479,
      "cebe": 2480,
      "cebf": 2481,
      "degro": 2482,
      "idos": 2483,
      "idochip": 2484,
      "ffbdf": 2485,
      "bglcode": 2486,
      "bglidochip": 2487,
      "caec": 2488,
      "dbf": 2489,
      "accc": 2490,
      "dcf": 2491,
      "efbaa": 2492,
      "cbec": 2493,
      "cbfc": 2494,
      "efcbb": 2495,
      "dyna": 2496,
      "bbeb": 2497,
      "efbaf": 2498,
      "efdbe": 2499,
      "efcaa": 2500,
      "dacd": 2501,
      "afcbf": 2502,
      "dfafa": 2503,
      "degroot": 2504,
      "aeee": 2505,
      "bcab": 2506,
      "ctoo": 2507,
      "dg": 2508,
      "dge": 2509,
      "dram": 2510,
      "idate": 2511,
      "jr": 2512,
      "pmo": 2513,
      "pdbg": 2514,
      "qs": 2515,
      "sn": 2516,
      "tc": 2517,
      "xfffff": 2518,
      "att": 2519,
      "argu": 2520,
      "stname": 2521,
      "sppmo": 2522,
      "chcham": 2523,
      "ddb": 2524,
      "install": 2525,
      "amr": 2526,
      "popt": 2527,
      "maxbug": 2528,
      "ffda": 2529,
      "bglp": 2530,
      "bglinfo": 2531,
      "sopt": 2532,
      "validate": 2533,
      "dbe": 2534,
      "mpxl": 2535,
      "mpill": 2536,
      "ccba": 2537,
      "ccsame": 2538,
      "hpm": 2539,
      "mpihpm": 2540,
      "list": 2541,
      "efeea": 2542,
      "efeeb": 2543,
      "allc": 2544,
      "allgath": 2545,
      "eaae": 2546,
      "coproc": 2547,
      "fdfa": 2548,
      "partsn": 2549,
      "sending": 2550,
      "fccb": 2551,
      "writelog": 2552,
      "hostname": 2553,
      "bdee": 2554,
      "efedb": 2555,
      "efedc": 2556,
      "efedd": 2557,
      "functests": 2558,
      "efdcd": 2559,
      "efcef": 2560,
      "aleamr": 2561,
      "fcdbf": 2562,
      "ffdbf": 2563,
      "efbef": 2564,
      "makebglp": 2565,
      "ctools": 2566,
      "dgtest": 2567,
      "dgemm": 2568,
      "jratt": 2569,
      "argument": 2570,
      "sppmopt": 2571,
      "mpxlc": 2572,
      "ccsamef": 2573,
      "allgather": 2574,
      "ccac": 2575,
      "fffc": 2576,
      "ffbfb": 2577,
      "ffafe": 2578,
      "caee": 2579,
      "dba": 2580,
      "acdc": 2581,
      "acbd": 2582,
      "faf": 2583,
      "ffffca": 2584,
      "bebd": 2585,
      "efddc": 2586,
      "efeaa": 2587,
      "efeff": 2588,
      "efefe": 2589,
      "efefd": 2590,
      "dfb": 2591,
      "bbadbe": 2592,
      "efdce": 2593,
      "fccba": 2594,
      "fccbb": 2595,
      "ffaff": 2596,
      "fcebd": 2597,
      "efddb": 2598,
      "efddd": 2599,
      "efeab": 2600,
      "efdcf": 2601,
      "beeb": 2602,
      "aefe": 2603,
      "aug": 2604,
      "affaa": 2605,
      "baf": 2606,
      "bla": 2607,
      "beea": 2608,
      "dabf": 2609,
      "edef": 2610,
      "gin": 2611,
      "win": 2612,
      "xaa": 2613,
      "atall": 2614,
      "errhan": 2615,
      "ceeb": 2616,
      "noapc": 2617,
      "idomar": 2618,
      "ffec": 2619,
      "ffcd": 2620,
      "ffabf": 2621,
      "ccbe": 2622,
      "begin": 2623,
      "fcff": 2624,
      "fcbe": 2625,
      "fcbb": 2626,
      "fcbbb": 2627,
      "abff": 2628,
      "bdec": 2629,
      "wave": 2630,
      "dfcc": 2631,
      "feb": 2632,
      "shal": 2633,
      "fdcc": 2634,
      "fdfc": 2635,
      "ebed": 2636,
      "fccd": 2637,
      "fcecb": 2638,
      "efdea": 2639,
      "efdeb": 2640,
      "fcbba": 2641,
      "communicating": 2642,
      "feffed": 2643,
      "blast": 2644,
      "beeaabff": 2645,
      "winerr": 2646,
      "atallbegin": 2647,
      "idomarshal": 2648,
      "==": 2649,
      "aff": 2650,
      "abea": 2651,
      "bcec": 2652,
      "bdef": 2653,
      "cfee": 2654,
      "fddc": 2655,
      "msg": 2656,
      "sor": 2657,
      "errstr": 2658,
      "ceab": 2659,
      "cebb": 2660,
      "dece": 2661,
      "debd": 2662,
      "deeb": 2663,
      "edba": 2664,
      "mains": 2665,
      "domains": 2666,
      "aligned": 2667,
      "gete": 2668,
      "ffbfc": 2669,
      "ffacb": 2670,
      "ffadc": 2671,
      "ffbfd": 2672,
      "cacb": 2673,
      "caeb": 2674,
      "dbb": 2675,
      "acfc": 2676,
      "acbf": 2677,
      "sensor": 2678,
      "eebf": 2679,
      "fcbde": 2680,
      "fcbdf": 2681,
      "eabd": 2682,
      "efecf": 2683,
      "baec": 2684,
      "baac": 2685,
      "dfd": 2686,
      "dfbc": 2687,
      "dfbf": 2688,
      "fead": 2689,
      "bbec": 2690,
      "cbde": 2691,
      "fdaf": 2692,
      "badc": 2693,
      "efece": 2694,
      "efdff": 2695,
      "fccce": 2696,
      "fccff": 2697,
      "fcccf": 2698,
      "fccfe": 2699,
      "ffaca": 2700,
      "fcebe": 2701,
      "fcebf": 2702,
      "fcaf": 2703,
      "ffbde": 2704,
      "ffbbd": 2705,
      "bdea": 2706,
      "ccaf": 2707,
      "dcaee": 2708,
      "efcaf": 2709,
      "efefeff": 2710,
      "efdfe": 2711,
      "efecd": 2712,
      "fcbdd": 2713,
      "network": 2714,
      "fcdcf": 2715,
      "getel": 2716,
      "aeea": 2717,
      "cv": 2718,
      "cfff": 2719,
      "fefefeff": 2720,
      "hul": 2721,
      "ior": 2722,
      "rflo": 2723,
      "son": 2724,
      "vis": 2725,
      "xbf": 2726,
      "xvicar": 2727,
      "erio": 2728,
      "ality": 2729,
      "ceca": 2730,
      "ecbb": 2731,
      "deed": 2732,
      "mehul": 2733,
      "ddba": 2734,
      "ffde": 2735,
      "ffadd": 2736,
      "ffbbc": 2737,
      "ffcec": 2738,
      "ffced": 2739,
      "ffcdf": 2740,
      "ffbbb": 2741,
      "ffbcb": 2742,
      "ffdcd": 2743,
      "person": 2744,
      "caba": 2745,
      "version": 2746,
      "faec": 2747,
      "faef": 2748,
      "dcce": 2749,
      "fcfc": 2750,
      "fcba": 2751,
      "fcdbd": 2752,
      "fcbea": 2753,
      "fcdfe": 2754,
      "fffffe": 2755,
      "bcbf": 2756,
      "eabea": 2757,
      "afbb": 2758,
      "cdde": 2759,
      "bdde": 2760,
      "efccc": 2761,
      "efccd": 2762,
      "babc": 2763,
      "dfed": 2764,
      "feac": 2765,
      "feffff": 2766,
      "fefc": 2767,
      "bbbb": 2768,
      "effef": 2769,
      "ebdb": 2770,
      "ebbd": 2771,
      "efdab": 2772,
      "fccde": 2773,
      "fccdd": 2774,
      "fccbe": 2775,
      "fccbd": 2776,
      "fccdf": 2777,
      "ffaec": 2778,
      "cdcf": 2779,
      "fcecc": 2780,
      "fcecd": 2781,
      "ffbca": 2782,
      "fcdff": 2783,
      "accad": 2784,
      "ffdce": 2785,
      "ffdcc": 2786,
      "dabd": 2787,
      "bdeb": 2788,
      "efdaa": 2789,
      "dcaaf": 2790,
      "fcdbe": 2791,
      "fcdfd": 2792,
      "xfffffe": 2793,
      "idomarshalerio": 2794,
      "cvs": 2795,
      "rflomp": 2796,
      "visus": 2797,
      "personality": 2798,
      "!(": 2799,
      "=!(": 2800,
      "aabf": 2801,
      "bffd": 2802,
      "ms": 2803,
      "pll": 2804,
      "rw": 2805,
      "smi": 2806,
      "scom": 2807,
      "xad": 2808,
      "xfa": 2809,
      "xda": 2810,
      "yur": 2811,
      "ered": 2812,
      "tig": 2813,
      "ecce": 2814,
      "ecad": 2815,
      "edfa": 2816,
      "fffe": 2817,
      "ffbcc": 2818,
      "ffbae": 2819,
      "ffafb": 2820,
      "ffaaa": 2821,
      "ffadb": 2822,
      "ffaeb": 2823,
      "caea": 2824,
      "acec": 2825,
      "fafc": 2826,
      "todebugger": 2827,
      "ccca": 2828,
      "ccdb": 2829,
      "eeba": 2830,
      "dcu": 2831,
      "dcdb": 2832,
      "dcbd": 2833,
      "fcbd": 2834,
      "fcbec": 2835,
      "fcfd": 2836,
      "fccec": 2837,
      "fcffe": 2838,
      "fccac": 2839,
      "fcdaf": 2840,
      "fcbfe": 2841,
      "fcdae": 2842,
      "fcffd": 2843,
      "fcceb": 2844,
      "fcbeb": 2845,
      "fccea": 2846,
      "fcbaa": 2847,
      "contig": 2848,
      "abec": 2849,
      "bfea": 2850,
      "bfbb": 2851,
      "ordered": 2852,
      "bdfa": 2853,
      "bdfc": 2854,
      "efac": 2855,
      "efbcc": 2856,
      "efbcb": 2857,
      "efbda": 2858,
      "cfde": 2859,
      "dfac": 2860,
      "aefc": 2861,
      "febc": 2862,
      "febf": 2863,
      "feffe": 2864,
      "bbab": 2865,
      "cbdd": 2866,
      "beca": 2867,
      "becb": 2868,
      "fdff": 2869,
      "fdac": 2870,
      "efcda": 2871,
      "sendmsg": 2872,
      "efdaf": 2873,
      "fccfd": 2874,
      "ffaed": 2875,
      "ffafa": 2876,
      "ffbaf": 2877,
      "adea": 2878,
      "ghdr": 2879,
      "fecc": 2880,
      "fcfdb": 2881,
      "fcfda": 2882,
      "cbeb": 2883,
      "noncontig": 2884,
      "fccaa": 2885,
      "fccab": 2886,
      "cdea": 2887,
      "fcbce": 2888,
      "fcbff": 2889,
      "fcbac": 2890,
      "fcbab": 2891,
      "afabf": 2892,
      "fcbcf": 2893,
      "efbcd": 2894,
      "bdbb": 2895,
      "exited": 2896,
      "walkup": 2897,
      "fffffffc": 2898,
      "msghdr": 2899,
      "smith": 2900,
      "scomerror": 2901,
      "yuri": 2902,
      "sendmsgtodebugger": 2903,
      "&)": 2904,
      "*&)": 2905,
      "->": 2906,
      "/.": 2907,
      "aabb": 2908,
      "afffffff": 2909,
      "bll": 2910,
      "bffe": 2911,
      "cu": 2912,
      "cstar": 2913,
      "dffc": 2914,
      "dcae": 2915,
      "dccd": 2916,
      "dccb": 2917,
      "dfffffff": 2918,
      "em": 2919,
      "effff": 2920,
      "ftest": 2921,
      "facc": 2922,
      "fadc": 2923,
      "fdee": 2924,
      "fdbc": 2925,
      "gapps": 2926,
      "gcc": 2927,
      "len": 2928,
      "oid": 2929,
      "pu": 2930,
      "vbuffer": 2931,
      "void": 2932,
      "wed": 2933,
      "xde": 2934,
      "xff": 2935,
      "xca": 2936,
      "xdb": 2937,
      "xaf": 2938,
      "xef": 2939,
      "xfee": 2940,
      "xae": 2941,
      "xbb": 2942,
      "xfb": 2943,
      "xbfa": 2944,
      "xffd": 2945,
      "ervic": 2946,
      "enet": 2947,
      "tics": 2948,
      "errec": 2949,
      "cedf": 2950,
      "ecbc": 2951,
      "pty": 2952,
      "debf": 2953,
      "defe": 2954,
      "debcc": 2955,
      "edde": 2956,
      "edfc": 2957,
      "edda": 2958,
      "local": 2959,
      "rocf": 2960,
      "rocstar": 2961,
      "ddff": 2962,
      "floor": 2963,
      "idomsg": 2964,
      "idomsghdr": 2965,
      "iso": 2966,
      "istics": 2967,
      "ffee": 2968,
      "ffbec": 2969,
      "ffbfa": 2970,
      "ffcee": 2971,
      "ffacf": 2972,
      "ffacc": 2973,
      "bglsys": 2974,
      "bglpersonality": 2975,
      "adce": 2976,
      "adfa": 2977,
      "ddrsize": 2978,
      "unsign": 2979,
      "pps": 2980,
      "cade": 2981,
      "idx": 2982,
      "idmp": 2983,
      "chemb": 2984,
      "dbea": 2985,
      "acef": 2986,
      "acter": 2987,
      "acbb": 2988,
      "fafa": 2989,
      "fabc": 2990,
      "fabf": 2991,
      "ffffffc": 2992,
      "ffffffd": 2993,
      "ccbd": 2994,
      "eeec": 2995,
      "dcda": 2996,
      "luidmp": 2997,
      "testlong": 2998,
      "fcddc": 2999,
      "fcdec": 3000,
      "fcfcc": 3001,
      "fcfcd": 3002,
      "fcfff": 3003,
      "fcded": 3004,
      "fcfcb": 3005,
      "fffffd": 3006,
      "bcdc": 3007,
      "eabc": 3008,
      "eabf": 3009,
      "readblock": 3010,
      "afbc": 3011,
      "abdb": 3012,
      "eservic": 3013,
      "clearport": 3014,
      "selftest": 3015,
      "bfed": 3016,
      "bfee": 3017,
      "bfdea": 3018,
      "cdadc": 3019,
      "cdfffe": 3020,
      "bdfea": 3021,
      "efdda": 3022,
      "daaf": 3023,
      "workchar": 3024,
      "bffffa": 3025,
      "bffffd": 3026,
      "aebb": 3027,
      "aeedf": 3028,
      "feec": 3029,
      "fefffff": 3030,
      "febd": 3031,
      "bbca": 3032,
      "effab": 3033,
      "efffe": 3034,
      "effaa": 3035,
      "efffd": 3036,
      "cbba": 3037,
      "bfcb": 3038,
      "becd": 3039,
      "fdec": 3040,
      "fdfffff": 3041,
      "recv": 3042,
      "ebfa": 3043,
      "ebee": 3044,
      "declar": 3045,
      "fbac": 3046,
      "fbdc": 3047,
      "fbab": 3048,
      "fbba": 3049,
      "eedb": 3050,
      "ffade": 3051,
      "ffaac": 3052,
      "ffaab": 3053,
      "fceff": 3054,
      "fcead": 3055,
      "fceca": 3056,
      "fcedb": 3057,
      "fcebc": 3058,
      "fceaf": 3059,
      "fceda": 3060,
      "fceae": 3061,
      "fcefe": 3062,
      "fcebb": 3063,
      "fcefd": 3064,
      "ppcfloor": 3065,
      "efaa": 3066,
      "fcab": 3067,
      "ffbed": 3068,
      "still": 3069,
      "()'": 3070,
      "ebda": 3071,
      "eecc": 3072,
      "dabb": 3073,
      "cadb": 3074,
      "bdeaa": 3075,
      "libvisus": 3076,
      "edea": 3077,
      "edefb": 3078,
      "xffffb": 3079,
      "xffffff": 3080,
      "bffdea": 3081,
      "fcdeb": 3082,
      "nmsg": 3083,
      "fbda": 3084,
      "facee": 3085,
      "fcddb": 3086,
      "fcddd": 3087,
      "fefffc": 3088,
      "longlong": 3089,
      "idomarshalerrec": 3090,
      "cupps": 3091,
      "empty": 3092,
      "enetworkchar": 3093,
      "rocfluidmp": 3094,
      "unsigned": 3095,
      "chembio": 3096,
      "acteristics": 3097,
      "eservicenetworkchar": 3098,
      "declareservicenetworkchar": 3099,
      "nmsglen": 3100,
      "idomarshalerrecvbuffer": 3101,
      "declareservicenetworkcharacteristics": 3102,
      "&,": 3103,
      ")'": 3104,
      "aedc": 3105,
      "afcb": 3106,
      "bcac": 3107,
      "bffb": 3108,
      "babf": 3109,
      "bfff": 3110,
      "bbae": 3111,
      "bedc": 3112,
      "beda": 3113,
      "babb": 3114,
      "bdbc": 3115,
      "bcaa": 3116,
      "bnet": 3117,
      "cffa": 3118,
      "cbfb": 3119,
      "dffa": 3120,
      "dfae": 3121,
      "dffd": 3122,
      "dfcf": 3123,
      "dccf": 3124,
      "dfcb": 3125,
      "eadd": 3126,
      "eace": 3127,
      "efffff": 3128,
      "ebbc": 3129,
      "ecee": 3130,
      "ebfb": 3131,
      "ebae": 3132,
      "eadf": 3133,
      "eceb": 3134,
      "ebaa": 3135,
      "fbfb": 3136,
      "fdef": 3137,
      "fdaea": 3138,
      "fedc": 3139,
      "fefeb": 3140,
      "jection": 3141,
      "merr": 3142,
      "null": 3143,
      "option": 3144,
      "page": 3145,
      "ry": 3146,
      "ual": 3147,
      "xce": 3148,
      "xec": 3149,
      "xed": 3150,
      "xac": 3151,
      "xdc": 3152,
      "xbe": 3153,
      "xfc": 3154,
      "xbc": 3155,
      "xab": 3156,
      "xbd": 3157,
      "xba": 3158,
      "xfe": 3159,
      "xfd": 3160,
      "xbbe": 3161,
      "xfcd": 3162,
      "xfff": 3163,
      "xbfe": 3164,
      "xabb": 3165,
      "xafd": 3166,
      "xfcffd": 3167,
      "||": 3168,
      "injection": 3169,
      "erexception": 3170,
      "cefd": 3171,
      "ecde": 3172,
      "ecfa": 3173,
      "eccc": 3174,
      "ecaf": 3175,
      "ecda": 3176,
      "ecba": 3177,
      "ecae": 3178,
      "ecfe": 3179,
      "ecccc": 3180,
      "ecdca": 3181,
      "entry": 3182,
      "deab": 3183,
      "dedf": 3184,
      "debb": 3185,
      "defb": 3186,
      "deeca": 3187,
      "edec": 3188,
      "edca": 3189,
      "edac": 3190,
      "edcc": 3191,
      "eddc": 3192,
      "edbc": 3193,
      "eddf": 3194,
      "edaa": 3195,
      "edbae": 3196,
      "mib": 3197,
      "ddde": 3198,
      "dddd": 3199,
      "ddad": 3200,
      "ddca": 3201,
      "ddaf": 3202,
      "ddab": 3203,
      "pointerexception": 3204,
      "fffa": 3205,
      "fffd": 3206,
      "ffdda": 3207,
      "ffbfe": 3208,
      "ffcae": 3209,
      "ffadf": 3210,
      "ffada": 3211,
      "ffcef": 3212,
      "ffcaa": 3213,
      "ffbda": 3214,
      "adcb": 3215,
      "added": 3216,
      "caaa": 3217,
      "caeeb": 3218,
      "caffee": 3219,
      "tlbentry": 3220,
      "addresses": 3221,
      "subnet": 3222,
      "dbde": 3223,
      "dbdd": 3224,
      "acebf": 3225,
      "rtual": 3226,
      "acdd": 3227,
      "acfa": 3228,
      "accec": 3229,
      "fade": 3230,
      "faad": 3231,
      "fabd": 3232,
      "fabb": 3233,
      "fabea": 3234,
      "faecd": 3235,
      "fabda": 3236,
      "fabdd": 3237,
      "faedbae": 3238,
      "appmemory": 3239,
      "ffffe": 3240,
      "fffffc": 3241,
      "ccfa": 3242,
      "eece": 3243,
      "eefc": 3244,
      "eebc": 3245,
      "eebd": 3246,
      "eeae": 3247,
      "eebb": 3248,
      "bead": 3249,
      "beac": 3250,
      "bebe": 3251,
      "bebc": 3252,
      "bebf": 3253,
      "beba": 3254,
      "bebb": 3255,
      "befb": 3256,
      "icbcast": 3257,
      "ddcb": 3258,
      "ddcd": 3259,
      "fcfa": 3260,
      "fccae": 3261,
      "fcfaa": 3262,
      "fcdcd": 3263,
      "fcfab": 3264,
      "fffffefa": 3265,
      "bcbe": 3266,
      "bcfc": 3267,
      "bcda": 3268,
      "bccac": 3269,
      "eaec": 3270,
      "eade": 3271,
      "eaca": 3272,
      "eabe": 3273,
      "eafc": 3274,
      "afdb": 3275,
      "afcc": 3276,
      "afbe": 3277,
      "afbd": 3278,
      "abed": 3279,
      "abdd": 3280,
      "abca": 3281,
      "bfde": 3282,
      "bfca": 3283,
      "bfbf": 3284,
      "bfbec": 3285,
      "bfcefc": 3286,
      "bfdab": 3287,
      "bfdac": 3288,
      "xcb": 3289,
      "xcd": 3290,
      "runrecv": 3291,
      "cdce": 3292,
      "cdca": 3293,
      "cdfbab": 3294,
      "bdae": 3295,
      "bdfe": 3296,
      "bdecc": 3297,
      "efad": 3298,
      "efadf": 3299,
      "daabd": 3300,
      "daabe": 3301,
      "bafc": 3302,
      "baae": 3303,
      "feaaa": 3304,
      "virtual": 3305,
      "feeb": 3306,
      "feeaa": 3307,
      "cfca": 3308,
      "cfecf": 3309,
      "dfec": 3310,
      "dfde": 3311,
      "dfdc": 3312,
      "dfdac": 3313,
      "aede": 3314,
      "aebe": 3315,
      "aebf": 3316,
      "aebd": 3317,
      "aeffa": 3318,
      "encer": 3319,
      "fefcd": 3320,
      "fefcf": 3321,
      "fefab": 3322,
      "fefafa": 3323,
      "fefabb": 3324,
      "bbdb": 3325,
      "bbdc": 3326,
      "bbdee": 3327,
      "bbccf": 3328,
      "cbad": 3329,
      "aafa": 3330,
      "aaee": 3331,
      "aaaf": 3332,
      "bfcbd": 3333,
      "bccf": 3334,
      "fdde": 3335,
      "fdfae": 3336,
      "fdffc": 3337,
      "fdffffe": 3338,
      "cceb": 3339,
      "cceea": 3340,
      "cceda": 3341,
      "efcbad": 3342,
      "vaddr": 3343,
      "ebce": 3344,
      "ebca": 3345,
      "ebeee": 3346,
      "sequencer": 3347,
      "fdfb": 3348,
      "fdfe": 3349,
      "fdfdb": 3350,
      "fdfac": 3351,
      "fdfdf": 3352,
      "fdfeabe": 3353,
      "efdcc": 3354,
      "fbdb": 3355,
      "fbbe": 3356,
      "fbbf": 3357,
      "fbbae": 3358,
      "fcccd": 3359,
      "bfaa": 3360,
      "bfab": 3361,
      "bfaf": 3362,
      "ffaee": 3363,
      "ffafc": 3364,
      "ffaea": 3365,
      "ffaaf": 3366,
      "ffaae": 3367,
      "cdbe": 3368,
      "ffcde": 3369,
      "ffcbc": 3370,
      "ffcbf": 3371,
      "ffcbd": 3372,
      "ffcbb": 3373,
      "fceec": 3374,
      "fceed": 3375,
      "fceeb": 3376,
      "efafb": 3377,
      "dadf": 3378,
      "ffbdb": 3379,
      "ffbbe": 3380,
      "ffbab": 3381,
      "ffbbf": 3382,
      "initialize": 3383,
      "fbbb": 3384,
      "bfbaf": 3385,
      "bfbab": 3386,
      "feab": 3387,
      "fdcff": 3388,
      "fcdce": 3389,
      "fcdca": 3390,
      "fcdab": 3391,
      "ddabe": 3392,
      "fffbccf": 3393,
      "eecb": 3394,
      "fecb": 3395,
      "fecfc": 3396,
      "bdece": 3397,
      "bdeae": 3398,
      "aefee": 3399,
      "aaabc": 3400,
      "ccab": 3401,
      "fcfbe": 3402,
      "fcfbf": 3403,
      "fcfbd": 3404,
      "xdcef": 3405,
      "fbcd": 3406,
      "fbcbeb": 3407,
      "fbaa": 3408,
      "xaed": 3409,
      "fccaf": 3410,
      "cdee": 3411,
      "xffffcb": 3412,
      "xffffffe": 3413,
      "xfffffffe": 3414,
      "ceabe": 3415,
      "abef": 3416,
      "ffbaa": 3417,
      "bffac": 3418,
      "bffee": 3419,
      "bffbc": 3420,
      "bffea": 3421,
      "bffcf": 3422,
      "acaf": 3423,
      "aaecab": 3424,
      "ffeaeb": 3425,
      "ccccccc": 3426,
      "cccccccd": 3427,
      "fcdaa": 3428,
      "bbade": 3429,
      "irq": 3430,
      "ullen": 3431,
      "xfed": 3432,
      "xfefefeff": 3433,
      "fbef": 3434,
      "fcdcb": 3435,
      "ffcaf": 3436,
      "bffcbf": 3437,
      "dffacb": 3438,
      "fdbb": 3439,
      "fdbbf": 3440,
      "fdbdf": 3441,
      "fffffffa": 3442,
      "fffffffe": 3443,
      "fffffffb": 3444,
      "fdead": 3445,
      "fcbfabd": 3446,
      "mmu": 3447,
      "xfffffdc": 3448,
      "xfffffef": 3449,
      "xfffffebc": 3450,
      "xaade": 3451,
      "bdecab": 3452,
      "xdaabe": 3453,
      "bffebcbe": 3454,
      "xfffead": 3455,
      "xbfaeb": 3456,
      "bfeefe": 3457,
      "recvmsghdr": 3458,
      "nullpointerexception": 3459,
      "xedcb": 3460,
      "ddddddd": 3461,
      "ffddaff": 3462,
      "subnets": 3463,
      "fdffcbe": 3464,
      "initializeappmemory": 3465
    },
    "merges": [
      "9 9",
      "i n",
      "99 99",
      "e r",
      "o r",
      ". .",
      "e n",
      "a t",
      "in g",
      "o n",
      "c or",
      "at ing",
      "a l",
      "g en",
      "t i",
      "cor e",
      "gen er",
      "gener ating",
      "er r",
      "c e",
      "9999 9",
      "e c",
      ".. ..",
      "in t",
      "a r",
      "l e",
      "c r",
      "ti on",
      "p t",
      "99 9",
      "u pt",
      "err upt",
      "int errupt",
      "en t",
      "d e",
      "e d",
      "m a",
      "m i",
      "i g",
      "ig n",
      "e x",
      "s t",
      "s s",
      "r e",
      "d o",
      "on d",
      "a n",
      "err or",
      "ec t",
      "l o",
      "ex ce",
      "p tion",
      "exce ption",
      "c al",
      "m ent",
      "s ec",
      "ond s",
      "sec onds",
      "al ign",
      "align ment",
      "exception s",
      "s p",
      "mi cr",
      "micr o",
      "micro seconds",
      "c h",
      "b le",
      "g r",
      "m e",
      ".... ....",
      "9999 9999",
      "u t",
      "i ar",
      "r ect",
      "u m",
      "de ar",
      "in p",
      "r o",
      "inp ut",
      "i o",
      "o t",
      "cr i",
      "interrupt s",
      "ti cal",
      "cri tical",
      "d d",
      "c io",
      "p ro",
      "do u",
      "cor rect",
      "i le",
      "u r",
      "in st",
      "cio d",
      "t h",
      "a m",
      "p o",
      "f or",
      "th e",
      "c tion",
      "po int",
      "t ot",
      "tot al",
      "n o",
      "um m",
      "f lo",
      "flo ating",
      "dou ble",
      "h umm",
      "humm er",
      "a s",
      "ti me",
      "s y",
      "d at",
      "t r",
      "dat a",
      "g e",
      "i t",
      "ma x",
      "sp ent",
      "f ile",
      "i do",
      "9999 99",
      "i s",
      "gr am",
      "pro gram",
      "m gr",
      "f f",
      "b g",
      "an d",
      "sy m",
      "bg l",
      "er t",
      "a ss",
      "t l",
      "s o",
      "a d",
      "e t",
      "dd r",
      "ass ert",
      "s k",
      "ma sk",
      "r u",
      "9999 999",
      "re ss",
      "correct ed",
      "a ble",
      "o f",
      "inst ru",
      "instru ction",
      "c k",
      "u n",
      "i on",
      "d p",
      "p er",
      "p p",
      "s ign",
      "sign al",
      "c a",
      "ur ce",
      "so urce",
      "tr an",
      "i m",
      "or t",
      "sp ort",
      "ido tran",
      "sport mgr",
      "idotran sportmgr",
      "mi ss",
      "i d",
      "ad ing",
      "d i",
      "tl b",
      "l s",
      "cal ls",
      "in e",
      "ck et",
      "a ge",
      "p ar",
      "ect ed",
      "de t",
      "det ected",
      "l er",
      "correct able",
      "b s",
      "an ce",
      "w as",
      "d ur",
      "h and",
      "r bs",
      "s ing",
      "inst ance",
      "max im",
      "dur ing",
      "hand ler",
      "sing le",
      "maxim um",
      "ch e",
      "ca che",
      "it y",
      "v al",
      "par ity",
      "val id",
      "in valid",
      "no de",
      "a dd",
      "add ress",
      "miss ing",
      "t e",
      "i ma",
      "ima ge",
      "lo ading",
      "n ot",
      "e l",
      "........ ........",
      "s u",
      "ar d",
      "f un",
      "fun ction",
      "c ard",
      "o l",
      "d b",
      "v er",
      "st or",
      "a ce",
      "o me",
      "r t",
      "a c",
      "p a",
      "h ome",
      "or y",
      "di rect",
      "direct ory",
      "l ine",
      "st re",
      "m p",
      "su ch",
      "rt s",
      "f a",
      "c o",
      "x y",
      "tr ace",
      "s en",
      "t o",
      "ile d",
      "fa iled",
      ": :",
      "ex p",
      "pro xy",
      "ido proxy",
      "idoproxy db",
      "c ond",
      "c pp",
      "h it",
      "i tion",
      "ress ion",
      "exp ression",
      "cond ition",
      "* )",
      "c tl",
      "* ,",
      "a cket",
      "i dou",
      "v trace",
      "bgl ctl",
      "dp mgr",
      "dp acket",
      "pa vtrace",
      "sen dpacket",
      "idou dpmgr",
      "bglctl pavtrace",
      "m o",
      "at ed",
      "per at",
      "9999 99999",
      "at ch",
      ".... ..",
      "a pp",
      "app s",
      "i b",
      "u s",
      "i l",
      "ff ff",
      "ss age",
      "me ssage",
      "v e",
      "p re",
      "ac ti",
      "g o",
      "o d",
      "go od",
      "acti ve",
      "ma n",
      "te m",
      "c c",
      "r a",
      "re ce",
      "rece i",
      "file s",
      "st at",
      "s e",
      "stor age",
      "ec k",
      "ch eck",
      "f i",
      "gener ated",
      "s w",
      "stre am",
      "e e",
      "en able",
      "d c",
      "m in",
      "sw l",
      "u re",
      "so cket",
      "perat ure",
      "tem perature",
      "l atch",
      "o k",
      "assert ed",
      "cio stream",
      "pre fi",
      "prefi x",
      "r an",
      "b e",
      "di r",
      "g b",
      "ma ch",
      "mach ine",
      "d cr",
      "ran k",
      "miss ion",
      "sym b",
      "lo ck",
      "symb ol",
      "re ading",
      "lo g",
      "h p",
      "sp as",
      "spas m",
      "........ .",
      "l in",
      "ch dir",
      "i c",
      "log in",
      "d en",
      "i ed",
      "per mission",
      "den ied",
      "v p",
      "vp d",
      "lin k",
      "mp i",
      "m b",
      "co de",
      "h as",
      "be en",
      "sp el",
      "spel ce",
      "ver ed",
      "se vered",
      ".... .",
      "re s",
      "( /",
      "t er",
      "for m",
      "l r",
      "v ed",
      "a g",
      "err no",
      "recei ved",
      "ib m",
      "form at",
      "hp cc",
      "st er",
      "g i",
      "re gi",
      "regi ster",
      "stor e",
      "ce ss",
      "dd c",
      "b it",
      "for man",
      "per forman",
      "performan ce",
      "ma p",
      "m d",
      "res et",
      "ib en",
      "min iben",
      "l y",
      "ddc md",
      "pro cess",
      "process or",
      "g er",
      "pt or",
      "lo w",
      "t ag",
      "j tag",
      "c lock",
      "p good",
      "v ol",
      "mp good",
      "ra il",
      "vol t",
      "un t",
      "mo unt",
      "/ /",
      "bgl io",
      "error s",
      "ec id",
      "stat e",
      "l u",
      "b y",
      "mo de",
      "lu stre",
      "l i",
      "er n",
      "p e",
      "o ver",
      "te st",
      "gen t",
      "ur gent",
      "99999999 99999999",
      "un d",
      "o ut",
      "f c",
      "sy n",
      "s cal",
      "c on",
      "o perat",
      "operat ion",
      "v n",
      "s lo",
      "slo t",
      "ffff f",
      "f o",
      "ra ptor",
      "fo und",
      "b c",
      "f p",
      "........ .....",
      "u p",
      "man n",
      "ger mann",
      "ex ec",
      "vn m",
      "recei ver",
      "t or",
      "tor us",
      "e st",
      "k ern",
      "kern el",
      ".. .",
      "h y",
      "function al",
      "et est",
      "scal etest",
      "f et",
      "fet ch",
      "co p",
      "e a",
      "u ce",
      "ed uce",
      "al lr",
      "allr educe",
      "p m",
      "b u",
      "re ad",
      "a f",
      "m atch",
      "n e",
      "p hy",
      "bu g",
      "us ed",
      "ca used",
      "de bug",
      "l an",
      "mi dp",
      "lan e",
      "midp lane",
      "ne w",
      "lo ad",
      "time out",
      "u l",
      "a b",
      "p r",
      "re as",
      "min ated",
      "ter minated",
      "reas on",
      "e s",
      "................ ......",
      "........ ......",
      "stat us",
      "f ol",
      "d ro",
      "syn dro",
      "syndro me",
      "c an",
      "f ul",
      "al ert",
      "ge t",
      "sp pm",
      "c le",
      "cle ar",
      "ful ly",
      "ar e",
      "s el",
      "mi t",
      "sel ect",
      "as ic",
      "li mit",
      "e mb",
      "in format",
      "ass emb",
      "informat ion",
      "assemb ly",
      "alert s",
      "fol low",
      "follow up",
      "b f",
      "er ing",
      "m c",
      "con t",
      "x c",
      "de mo",
      "s r",
      "sr c",
      "ru n",
      "af ter",
      "im b",
      "b in",
      "9999999999999999 99999999",
      "or d",
      "c d",
      "b d",
      "ar ch",
      "se arch",
      "p i",
      "pi pe",
      "at tem",
      "pt ing",
      "attem pting",
      "il le",
      "g al",
      "ille gal",
      "ro l",
      "cont rol",
      "a p",
      "................ .",
      "t re",
      "w a",
      "wa it",
      "e f",
      ") ,",
      "bgl v",
      "sp ace",
      "stat ic",
      "d a",
      "at ion",
      "g lo",
      "................ ....",
      "st ab",
      "per f",
      "par e",
      "ffff ffff",
      "s li",
      "glo sli",
      "ddcmd bglv",
      "al l",
      "d is",
      "dis able",
      "b lock",
      "e v",
      "t y",
      "999999999999999999999999 9999",
      "ea a",
      "// /",
      ".............. .",
      "tre e",
      "syn ch",
      "ev ent",
      "co m",
      "ty pe",
      "99999999 99",
      "at es",
      "y ates",
      "w or",
      "wor k",
      "l a",
      "b a",
      "s cri",
      "f eaa",
      "b ffff",
      "el d",
      "fi eld",
      "b i",
      "sy s",
      "v i",
      "g ed",
      "i v",
      "ile ged",
      "tr ap",
      "................ .............",
      "dc bf",
      "pr iv",
      "priv ileged",
      "ic bi",
      "vi ce",
      "il ity",
      "stab ility",
      "ee ee",
      "by te",
      "um t",
      "................ ..",
      "................ .........",
      "ca st",
      "u x",
      "s er",
      "f ee",
      "c f",
      "f ro",
      "fro m",
      "a ux",
      "iar y",
      "il iary",
      "aux iliary",
      "ec is",
      "im pr",
      "ecis e",
      "impr ecise",
      "de scri",
      "descri ptor",
      "sw ee",
      "swee p",
      "e ating",
      "cr eating",
      "com pare",
      "................ .....",
      "ser vice",
      "p le",
      "dat e",
      "ment ed",
      "un im",
      "up date",
      "ord ering",
      "ple mented",
      "unim plemented",
      "k in",
      "pa kin",
      "pre p",
      "de v",
      "f ur",
      "th er",
      "ress ing",
      "pp ressing",
      "su ppressing",
      "fur ther",
      "a me",
      "b ro",
      "ad cast",
      "bro adcast",
      "d f",
      "test s",
      "a e",
      "s ame",
      "en c",
      "b as",
      "l at",
      "enc y",
      "lat ency",
      "o pt",
      "f l",
      "test ed",
      "i p",
      "b w",
      "all en",
      "bw allen",
      "f e",
      "...... .",
      "........ ....",
      "hp l",
      "as h",
      "fl ash",
      ") .......",
      "enable d",
      "n al",
      "ex ter",
      "exter nal",
      "ble m",
      "pro blem",
      "m l",
      "l l",
      "f ig",
      "con fig",
      "g at",
      "us r",
      "su p",
      "inst r",
      "k pt",
      "ch kpt",
      "gat h",
      "ur ation",
      "config uration",
      "gath ering",
      "debug ger",
      "po ll",
      "di ed",
      "control descriptor",
      "poll controldescriptor",
      "pollcontroldescriptor s",
      "in f",
      "of di",
      "rt y",
      "ofdi rty",
      "a ck",
      "r am",
      "st el",
      "stel la",
      "ed ram",
      "co pro",
      "re l",
      "b b",
      "er no",
      "inf erno",
      "lo c",
      "e ff",
      "l inp",
      "linp ack",
      "c b",
      "loc ation",
      "r i",
      "f is",
      "h er",
      "r fis",
      "rfis her",
      "bas e",
      "a us",
      "t on",
      "el ton",
      "aus elton",
      "ol d",
      "g re",
      "en o",
      "gre eno",
      "a a",
      "m dc",
      "as k",
      "mdc ask",
      "x l",
      "c x",
      "cx x",
      "s cr",
      "e p",
      "e ss",
      "ess l",
      "c as",
      "cas es",
      "scr atch",
      "test cases",
      "bgl scratch",
      "sys calls",
      "pre fetch",
      "ee e",
      "register s",
      "xy z",
      "xyz t",
      "g u",
      "u ch",
      "ar an",
      "te ed",
      "to uch",
      "gu aran",
      "guaran teed",
      "i cache",
      "p ur",
      "po se",
      "pur pose",
      "eeee eee",
      "s le",
      "te mp",
      "at e",
      "pp ing",
      "a ction",
      "i cal",
      "pa cket",
      "con n",
      "ec tion",
      "conn ection",
      "so d",
      "b fc",
      "scal ing",
      "sod scaling",
      "b bc",
      "c pm",
      "j eff",
      "un tested",
      "mp s",
      "x ffffffff",
      "st o",
      "man d",
      "p an",
      "pan ic",
      "b cc",
      "sto pping",
      "b ec",
      "u tion",
      "exec ution",
      "s h",
      "f d",
      "run dir",
      "par t",
      "i ad",
      "tr iad",
      "to mand",
      "stream triad",
      "ep streamtriad",
      "tomand jeff",
      "q u",
      "s umm",
      "ar y",
      "summ ary",
      "t ing",
      ". /",
      "int o",
      "p as",
      "card s",
      "999999999999999999999999 999",
      "ff t",
      "r and",
      "mi rand",
      "mirand a",
      "ch ip",
      "ed s",
      "exce eds",
      "la w",
      "s ion",
      "d im",
      "s ical",
      "in ate",
      "en sion",
      "co ord",
      "phy sical",
      "dim ension",
      "coord inate",
      "c i",
      "c law",
      "j ag",
      "m f",
      "per claw",
      "hy perclaw",
      "ri ch",
      "pas ci",
      "b ad",
      "in s",
      "k b",
      "data base",
      "ert ed",
      "ins erted",
      "for service",
      "pre pare",
      "prepare forservice",
      ") )",
      "c t",
      "d ra",
      "e ger",
      "m cards",
      "ern um",
      "ml ct",
      "dra eger",
      "mcards ernum",
      "mlct n",
      "w n",
      "line s",
      "do wn",
      "sh ut",
      "l t",
      "t un",
      "re su",
      "lt s",
      "tun ed",
      "resu lts",
      "co mp",
      "age s",
      "m type",
      "mi p",
      "ml p",
      "a ver",
      "d cache",
      "l w",
      "db lw",
      "ofdirty lines",
      "ofdirty dblw",
      "aver ages",
      "ofdirtydblw ord",
      "pe s",
      "c ce",
      "s ent",
      "n f",
      "b and",
      "w id",
      "band wid",
      "bandwid th",
      "shut ting",
      "cc fc",
      "c p",
      "i z",
      "99999999 999999",
      "r ed",
      "ran do",
      "nf s",
      "iz ed",
      "map file",
      "new s",
      "res h",
      "r ec",
      "x hpl",
      "st e",
      "y ing",
      "re tr",
      "sle pt",
      "retr ying",
      "e fc",
      "h w",
      "c ome",
      "w el",
      "wel come",
      "ti al",
      "v a",
      "hw stab",
      "m ed",
      "r k",
      "th resh",
      "thresh old",
      "rk y",
      "g n",
      "o gn",
      "un rec",
      "ea ddr",
      "tre eaddr",
      "cp u",
      "ogn ized",
      "unrec ognized",
      "e b",
      "re source",
      "pt h",
      "de pth",
      "i al",
      "sp ec",
      "d ec",
      "gener al",
      "ap u",
      "for ce",
      "spec ial",
      "pe er",
      "com m",
      "o p",
      "op en",
      "m k",
      "c tr",
      "x er",
      "ti med",
      "int ern",
      "intern al",
      "m mi",
      "de ve",
      "lo p",
      "deve lop",
      "test ing",
      "sen d",
      "f m",
      "send er",
      "s mission",
      "re tran",
      "retran smission",
      "fp r",
      "ck pt",
      "no dec",
      "nodec ard",
      "a va",
      "p w",
      "m ar",
      "b ri",
      "bri an",
      "acti v",
      "st u",
      "b en",
      "ch mar",
      "ben chmar",
      "benchmar k",
      "cce c",
      "d y",
      "pw d",
      "un ava",
      "il able",
      "unava ilable",
      "se qu",
      "g p",
      "n k",
      "or ar",
      "en tial",
      "on ly",
      "pt s",
      "el ine",
      "to all",
      "il y",
      "map files",
      "test scri",
      "new comp",
      "all toall",
      "field s",
      "bas eline",
      "temp orar",
      "stu dy",
      "sequ ential",
      "testscri pts",
      "temporar ily",
      "- -",
      "f df",
      "run s",
      "it s",
      "mp its",
      "open ing",
      "b vn",
      "r s",
      "ef e",
      "fm m",
      "w il",
      "am s",
      "li ams",
      "wil liams",
      "rando m",
      "ste ering",
      "z er",
      "zer o",
      "an t",
      "und ant",
      "red undant",
      "activ ating",
      "c able",
      "b ot",
      "b o",
      "ef d",
      "f b",
      "bo x",
      "min i",
      "b ig",
      "link card",
      "en tion",
      "cont ention",
      "h an",
      "han g",
      "g un",
      "g bglv",
      "de vice",
      "ddcmd gbglv",
      "ne ls",
      "fft w",
      "gun nels",
      "to o",
      "er tion",
      "ass ertion",
      "re qu",
      "micro load",
      "microload er",
      "o b",
      "r it",
      "w rit",
      "q box",
      "test qbox",
      "d s",
      "p l",
      "st ar",
      "c ur",
      "testqbox hang",
      "no sle",
      "byte bug",
      "zero bytebug",
      "nosle ep",
      "h el",
      "h t",
      "control ler",
      "ds mc",
      "per form",
      "f cc",
      "ig ht",
      "cd fc",
      "ch controller",
      "it chcontroller",
      "sw itchcontroller",
      "midplane switchcontroller",
      "cd ec",
      ".. /",
      "no io",
      "v x",
      "i red",
      "requ ired",
      "b fa",
      "/ )",
      "r ent",
      "cur rent",
      "e ed",
      "c pes",
      "re ver",
      "-- >",
      "rever se",
      "old code",
      "j ect",
      "ob ject",
      "b cast",
      "ti tion",
      "par tition",
      "c cess",
      "c nk",
      "l nk",
      "l ight",
      "ma ccess",
      "no zerobytebug",
      "ca bot",
      "con c",
      "new kernel",
      "fol d",
      "rando maccess",
      "comm s",
      "bcast v",
      "lnk ck",
      "ff a",
      "hel low",
      "c db",
      "................ ........",
      "c ddc",
      "u e",
      "a ae",
      "pl b",
      "ce c",
      "ar ing",
      "sp aring",
      "perform ing",
      "99999999 999",
      "writ e",
      "k u",
      "c dc",
      "b ut",
      "k e",
      "p ut",
      "out put",
      "fa e",
      "ff c",
      "w er",
      "po wer",
      "glo b",
      "f ce",
      "en d",
      "service action",
      "end serviceaction",
      "me m",
      "cf d",
      "b er",
      "sy ste",
      "syste m",
      "db d",
      "on g",
      "pp c",
      "d up",
      "sle s",
      "ap c",
      "st r",
      "j ul",
      "/ ../",
      "k map",
      "t ue",
      "y es",
      "no comm",
      "str ong",
      "ce e",
      "bot a",
      "ku bota",
      "cdb c",
      "ff e",
      "ca c",
      "un able",
      "e fa",
      "cd cc",
      "mo d",
      "d ad",
      "file system",
      "re star",
      "pa ck",
      "la pack",
      "c bc",
      "mem ory",
      "ce dc",
      "f ca",
      "dd dc",
      "ac cess",
      "cc c",
      "ff b",
      "cc dc",
      "cd ac",
      "b be",
      "efa ea",
      "on e",
      "man ag",
      "manag er",
      "a ac",
      "i ble",
      "i tial",
      "in itial",
      "ch am",
      "d af",
      "f bb",
      "i x",
      "on ix",
      "dd ac",
      "glob al",
      "cham onix",
      "restar ting",
      "bf b",
      "dd ec",
      "dd bc",
      "99999999 99999",
      "mod u",
      "daf ca",
      "f ea",
      "h ack",
      "u es",
      "access ible",
      "modu le",
      "val ues",
      "star t",
      "n um",
      "num ber",
      "pre sent",
      "us h",
      "fl ush",
      "st a",
      "pre sta",
      "a ad",
      "? /",
      "f er",
      "l ic",
      "o va",
      "s am",
      "on ical",
      "ma pping",
      "mi ran",
      "no pr",
      "ad v",
      "ck ap",
      "ra i",
      "log ical",
      "lin adv",
      "map s",
      "lu ke",
      "bu sy",
      "new hack",
      "new maps",
      "can onical",
      "nosleep yes",
      "nosleep nocomm",
      "dup lic",
      "sam rai",
      "miran ova",
      "nopr int",
      "ckap fer",
      "luke i",
      "nosleepyes comm",
      "duplic ate",
      "ce fc",
      "da ec",
      "dad c",
      "f dc",
      "j m",
      "n ex",
      "al location",
      "nex t",
      "db ac",
      "ab f",
      "ec ac",
      "fc d",
      "h o",
      "........................ ...",
      "ro ot",
      "c ate",
      "m me",
      "ce cc",
      "tr un",
      "ho mme",
      "trun cate",
      "t a",
      "dd a",
      "be ing",
      "th is",
      "ff f",
      "ser ver",
      "db bc",
      "ti es",
      "pro per",
      "proper ties",
      "h n",
      "da hn",
      "cb ac",
      "ef b",
      "bf e",
      "a de",
      "i j",
      "il d",
      "d one",
      "s ti",
      "u lr",
      "ulr i",
      "ur b",
      "rt urb",
      "sti rturb",
      "c jm",
      "ce d",
      "stirturb direct",
      "b lu",
      "u ation",
      "in uation",
      "io state",
      "cont inuation",
      "requ est",
      "( )",
      "me am",
      "dd cc",
      "e bd",
      "und y",
      "cjm undy",
      "t z",
      "y x",
      "ca e",
      "tz yx",
      "........ ...",
      "dd fc",
      "c dd",
      "e ec",
      "un correctable",
      "cec fc",
      "c lo",
      "cp md",
      "eed c",
      "ma il",
      "mail box",
      "ce ec",
      "ke y",
      "ulri key",
      "q b",
      "homme s",
      "cc d",
      "g h",
      "................ ...",
      "e be",
      "p ort",
      "w i",
      "nodecard s",
      "start ed",
      "pt ure",
      "ca pture",
      "un exp",
      "unexp ected",
      "e of",
      "ba e",
      "t mp",
      "ch ild",
      "process es",
      "writ ev",
      "ac f",
      "il l",
      "m mc",
      "mmc s",
      "ac c",
      "da e",
      "o ck",
      "sh ock",
      "f re",
      "j ob",
      "k ill",
      "fre ed",
      "ex e",
      "r m",
      "ar get",
      "ff d",
      "ma in",
      "so f",
      "be a",
      "eb ba",
      "m al",
      "ro und",
      "de activ",
      "ful l",
      "da ac",
      "da bc",
      "deactiv ated",
      "r st",
      "fi rst",
      "d ab",
      "de f",
      "bu ber",
      "or mal",
      "ls ee",
      "min us",
      "pl us",
      "ormal ized",
      "lsee k",
      "full test",
      "c ad",
      "f ec",
      "m on",
      "ae ec",
      "cb ca",
      "da fc",
      "m er",
      "af b",
      "ae ac",
      "/ ./",
      "b bd",
      "u gh",
      "pro f",
      "sym link",
      "par ty",
      "new mpi",
      "bi party",
      "greeno ugh",
      "jeff greenough",
      "sh ort",
      "hang test",
      "/../ ../",
      "yes zerobytebug",
      "nocomm nosleep",
      "rm dir",
      "biparty z",
      "fa il",
      "b de",
      "de ac",
      "dev el",
      "cb bc",
      "us er",
      "cb cc",
      "be ab",
      "hel lo",
      "e gen",
      "cb dc",
      "blu egen",
      "bluegen e",
      "b mi",
      "l ler",
      "up on",
      "perform ed",
      "bmi ller",
      "in fo",
      "c fc",
      "ec c",
      "db fd",
      "go ing",
      "ef ed",
      "wi res",
      "bfc f",
      "vp es",
      "db dc",
      "a ef",
      "t arget",
      "db cc",
      "ef da",
      "fea f",
      "val one",
      "cd f",
      "ad f",
      "aa a",
      "s ed",
      "fun c",
      "clo sed",
      "w e",
      "shut down",
      ") ........................",
      "c ca",
      "w ard",
      "in ex",
      "in ity",
      "flo w",
      "................ ................",
      "ac t",
      "to ward",
      "inf inity",
      "inex act",
      "ec a",
      "fc f",
      "fce a",
      "it or",
      "link cards",
      "mon itor",
      "da ea",
      "ad b",
      "db ec",
      "und er",
      "ma ster",
      "bgl master",
      "d l",
      "f truncate",
      "j n",
      "k test",
      "ti ti",
      "mi o",
      "micr on",
      "ro mio",
      "time s",
      "se titi",
      "dl b",
      "jn g",
      "setiti mer",
      "ff er",
      "bu ffer",
      "a in",
      "b dc",
      "tr ain",
      "f resh",
      "i ku",
      "de dc",
      "re fresh",
      "ee a",
      "iku o",
      "b an",
      "n c",
      "ban k",
      "bf eb",
      "a ec",
      "b ert",
      "l ib",
      "s ch",
      "an ty",
      "bert sch",
      "anty pas",
      "ee bea",
      "c be",
      "ed c",
      "...................... .",
      "cf dddc",
      "service mailbox",
      "mailbox monitor",
      "servicemailbox es",
      "ac b",
      "ce ac",
      "the ad",
      "sof thead",
      "softhead er",
      "fa ee",
      "bb b",
      "d ca",
      "n a",
      "t ec",
      "cal tec",
      "caltec h",
      "dec c",
      "ef dd",
      "n d",
      "x d",
      "cd a",
      "i ap",
      "ce b",
      "ve train",
      "recei vetrain",
      "c li",
      "n b",
      "ent mgr",
      "ido cli",
      "com mand",
      "idocli entmgr",
      "de bc",
      "clo se",
      "ffb ff",
      "e we",
      "f ch",
      "lo ewe",
      "run time",
      "ffb ffbff",
      "ef db",
      "d cec",
      "e ue",
      "n ect",
      "on nect",
      "el ight",
      "ee f",
      "block s",
      "qu eue",
      "rec onnect",
      "blu elight",
      "f bc",
      "at ab",
      "io log",
      "as e",
      "ad a",
      "db properties",
      "log s",
      "used atab",
      "usedatab ase",
      "f ba",
      "ar t",
      "ef ea",
      "a ee",
      "par md",
      "parmd g",
      "dca f",
      "p ux",
      "v ac",
      "di vac",
      "d acc",
      "n on",
      "al loc",
      "can not",
      "alloc ate",
      "x a",
      "fail ing",
      "ef dc",
      "ter s",
      "le te",
      "ad c",
      "ad ac",
      "ef de",
      "ef ca",
      "comp lete",
      ") ...",
      "f ra",
      "n an",
      "n ormalized",
      "di vi",
      "................ ............",
      "den ormalized",
      "ef eb",
      "under flow",
      "fra ction",
      "divi de",
      "c bb",
      "fc ca",
      "ef ef",
      "d ac",
      "def bf",
      "so le",
      "con sole",
      "fb ca",
      "t ed",
      "ciod b",
      "restar ted",
      "h ot",
      "m all",
      "s mall",
      "t et",
      "it z",
      "ion i",
      "stre itz",
      "fo ob",
      "read link",
      "sh hot",
      "cur ioni",
      "user func",
      "fch mod",
      "tet shhot",
      "foob ar",
      "ed b",
      "ef df",
      "i ver",
      "s ic",
      "y un",
      "ddr iver",
      "part ad",
      "ta ddriver",
      "devel f",
      "yun sic",
      "ec f",
      "n ame",
      "fa a",
      "ab a",
      "efc b",
      "lin ux",
      "server db",
      "ce bc",
      "ef ce",
      "ef cc",
      "sof t",
      "a ea",
      "be b",
      "par ame",
      "enable flush",
      "log user",
      "parame ters",
      "loguser info",
      "b l",
      "al le",
      "par alle",
      "paralle l",
      "d ce",
      "e de",
      "wi th",
      "ef bb",
      "j or",
      "ma jor",
      "c de",
      "ab d",
      "cf e",
      "x ffff",
      "dc fc",
      "e ce",
      "de d",
      "add a",
      "iz e",
      "s ize",
      "cc ce",
      "a ed",
      "f da",
      "de e",
      "mo ds",
      "fm mods",
      "ea f",
      "ef ec",
      "c ol",
      "h i",
      "q x",
      "u mask",
      "po p",
      "time of",
      "pa pi",
      "pre qx",
      "bu ild",
      "read v",
      "get timeof",
      "da y",
      "eff f",
      "bl as",
      "col l",
      "gettimeof day",
      "g ing",
      "ed f",
      "p jm",
      "s compare",
      "ce a",
      "ma y",
      "mi scompare",
      "cc art",
      "ab cc",
      "edram s",
      "pjm ccart",
      "sr am",
      "eff b",
      "eff d",
      "w are",
      "cc b",
      "a be",
      "aad a",
      "a bc",
      "e bc",
      "f ac",
      "i ve",
      "l ver",
      "so lver",
      "line ar",
      "solver s",
      "b ee",
      "j gh",
      "db fc",
      "aa ac",
      "d ace",
      "cc f",
      "t en",
      "ed a",
      "writ ten",
      "q rt",
      "s qrt",
      "ch ar",
      "dc bc",
      "fail ure",
      "k er",
      "bf d",
      "ba ker",
      "pt arget",
      "con st",
      "ae b",
      "target close",
      "bdc b",
      "ptarget mgr",
      "in it",
      "e ac",
      "gr o",
      "rece ption",
      "ff ba",
      "add c",
      "fc b",
      "ab fc",
      "do e",
      "ad cc",
      "aac d",
      "soft ware",
      "e bf",
      "f cec",
      "ad be",
      "a fa",
      "ed d",
      "ac d",
      "b ff",
      "ba a",
      "cr c",
      "co un",
      "star ting",
      "system controller",
      "n ing",
      "ed bb",
      "ck gro",
      "ab ac",
      "run ning",
      "ba ckgro",
      "efc f",
      "aad c",
      "backgro und",
      ": //",
      "c bf",
      "de fc",
      "dir s",
      ") ......................",
      ") ...........................",
      ") .......................",
      "b ce",
      "c n",
      "c cr",
      "d bs",
      "i et",
      "i eee",
      "j ava",
      "m sr",
      "s nan",
      "u g",
      "v t",
      "er ved",
      "ar est",
      "de ec",
      "ro un",
      "................ .................",
      "................ ...............",
      "db cr",
      "res erved",
      "over flow",
      "fp scr",
      "ne arest",
      "es r",
      "qu iet",
      "cn vt",
      "dbs r",
      "roun ded",
      "f bbc",
      "re mer",
      "ca b",
      "db remer",
      "good ing",
      "ab b",
      "a ca",
      "f bcc",
      "s id",
      "re pl",
      "ac ing",
      "con sid",
      "config file",
      "console ip",
      "console port",
      "repl acing",
      "consid er",
      "c ba",
      "f bfc",
      "f bec",
      "m y",
      "n ve",
      "o wn",
      "t x",
      "u id",
      "ec d",
      "le v",
      "mi d",
      "ad ec",
      "un ic",
      "ac da",
      "get uid",
      "ser ial",
      "ip address",
      "comm unic",
      "mem mon",
      "ta u",
      "tx t",
      "serial number",
      "i es",
      "jtag id",
      "aa bc",
      ") :",
      "f bf",
      "x b",
      "ca ug",
      "df bb",
      "caug ht",
      "a fc",
      "th under",
      "ff ae",
      "ee b",
      "ll ap",
      "eb de",
      "a ut",
      "or est",
      "tr app",
      "db c",
      "fc de",
      "af d",
      "fee a",
      "aut orest",
      "autorest art",
      "n m",
      "initial iz",
      "communic ation",
      "f bd",
      "k etest",
      "ulri ketest",
      "cad a",
      "ulriketest s",
      "f y",
      "i fy",
      "no p",
      "ver ify",
      "aa ec",
      "aac c",
      "ff ea",
      "ff aa",
      "x e",
      "d bg",
      "d cc",
      "bd f",
      "efc d",
      "f ad",
      "f ace",
      "bf dc",
      "a af",
      "f g",
      "i w",
      "p or",
      "p ad",
      "p ages",
      "r enc",
      "s la",
      "s law",
      "t ur",
      "y gi",
      "at ive",
      "ce f",
      "st and",
      "ss ible",
      "re tag",
      "ch ing",
      "ch card",
      "ro ff",
      "dd en",
      "po ssible",
      "it e",
      "so on",
      "ca ching",
      "che s",
      "su ite",
      "pre fet",
      "test suite",
      "out stand",
      "ul ative",
      "com mit",
      "scratch pad",
      "prefetch ing",
      "sto pw",
      "ste pping",
      "spec ulative",
      "mk dir",
      "........................ ..",
      "flush ing",
      "refresh es",
      "hi chcard",
      "hi dden",
      "initializ ation",
      "fg ygi",
      "iw hichcard",
      "por tion",
      "sla ve",
      "slaw renc",
      "tur n",
      "retag ging",
      "prefet ches",
      "outstand ing",
      "stopw roff",
      "iwhichcard stopwroff",
      "b us",
      "c bd",
      "g ctl",
      "q w",
      "s can",
      "er face",
      "or ies",
      "int erface",
      "st ro",
      "re gctl",
      "un it",
      "................ ....................",
      "direct ories",
      "ag ging",
      "fl agging",
      "gat e",
      "rm w",
      "coun ter",
      "trapp ed",
      "scan com",
      "stro be",
      "b ac",
      "c at",
      "s cat",
      "cc cc",
      "bfa fec",
      "xffff c",
      "scat ter",
      "d fa",
      "ff bf",
      "d fc",
      "ce cf",
      "ca a",
      "bc b",
      "efc bc",
      "efc bd",
      "b acb",
      "dc d",
      "bd a",
      "fe fff",
      "ebe a",
      "a aba",
      "e ls",
      "i els",
      "k en",
      "n iels",
      "ss ive",
      "exce ssive",
      "ad bc",
      "ca cc",
      "efc fc",
      "efc fd",
      "failure s",
      "niels en",
      "r educe",
      "ef bf",
      "m ul",
      "s g",
      "fc bc",
      "fc da",
      "eff a",
      "fcc c",
      "fce e",
      "mul ti",
      "v ic",
      "in complete",
      "ff ab",
      "ff cb",
      "ca ca",
      "be fcc",
      "ef ee",
      "fad y",
      "b ba",
      "n et",
      "ce ce",
      "a iled",
      "c ff",
      "io exception",
      "det ailed",
      "ffff fff",
      "bc bc",
      "get ting",
      "problem s",
      "vic ar",
      "c bea",
      "ec b",
      "co ul",
      "dc dc",
      "af e",
      "coul d",
      "d ccc",
      "db aaf",
      "efc be",
      "i r",
      "fc ce",
      "bcc b",
      "dec d",
      "fce f",
      "c w",
      "f stat",
      "f syn",
      "f tests",
      "h ig",
      "n lev",
      "p id",
      "r en",
      "t xyz",
      "u time",
      "al e",
      "ce pt",
      "re add",
      "ch mod",
      "ch own",
      "dd md",
      "tr us",
      "ge trus",
      "bgl c",
      "ver bo",
      "ac cept",
      "cc cd",
      "ul l",
      "get cw",
      "get pid",
      "bb ac",
      "eff c",
      "stu ff",
      "fcc f",
      "mem test",
      "fch own",
      "lev el",
      "verify stuff",
      "sg s",
      "fsyn c",
      "hig h",
      "ren ame",
      "readd ir",
      "getrus age",
      "verbo se",
      "accept ance",
      "getcw d",
      "b dd",
      "reset s",
      "p ull",
      "ra ck",
      "be bfdc",
      "bf da",
      "ef bfc",
      "ef bfe",
      "ef bfd",
      "efc fe",
      "b ab",
      "ce cb",
      "ff ce",
      "ff ac",
      "efc df",
      "e ba",
      "fa b",
      "ef bc",
      "x f",
      "ff be",
      "ffff c",
      "fc dd",
      "fc db",
      "ef bd",
      "ef eca",
      "bb de",
      "efdd f",
      "efec b",
      "c fa",
      "f ef",
      "n l",
      "bc f",
      "ba ab",
      "ll nl",
      "efe bc",
      "efe bd",
      "efe bb",
      "b r",
      "c mc",
      "f be",
      "de s",
      "read y",
      "bbde ba",
      "br des",
      "a ab",
      "b db",
      "b atch",
      "b eck",
      "b ates",
      "p coun",
      "r ing",
      "or beck",
      "flo at",
      "flo pcoun",
      "bgl a",
      "ca bd",
      "to ken",
      "se ille",
      "lan g",
      "ef bbc",
      "ef bbe",
      "dis conn",
      "aa fc",
      "send train",
      "mar seille",
      "efb bd",
      "ddmd v",
      "batch files",
      "flopcoun ters",
      "disconn ected",
      "marseille bgl",
      "b ed",
      "d ue",
      "o ls",
      "al ready",
      "ff db",
      "ff af",
      "ca cd",
      "symb ols",
      "mpi ch",
      "fc dc",
      "bc d",
      "ea e",
      "ab bc",
      "ef be",
      "eff ca",
      "eff cb",
      "ste er",
      "fce b",
      "multi ple",
      "ce dd",
      "ff cf",
      "ffff ffe",
      "ef ba",
      "eff bc",
      "eff bd",
      "eff bb",
      "de a",
      "ef dbd",
      "fce d",
      "efdb c",
      "b acc",
      "l ing",
      "w s",
      "ce cd",
      "ro ws",
      "ff ca",
      "control ling",
      "a ffd",
      "b ffc",
      "d r",
      "d de",
      "w al",
      "ex it",
      "ff bb",
      "bf ec",
      "bf ac",
      "da a",
      "wal k",
      "d um",
      "l ar",
      "u bgl",
      "ot s",
      "ff cc",
      "ca be",
      "go v",
      "cc cb",
      "sh ots",
      "efdf d",
      "dum p",
      "d ff",
      "f ed",
      "f db",
      "ff bc",
      "ca f",
      "cc bf",
      "ab dc",
      "bro ken",
      "fe ff",
      "old kernel",
      "efcc b",
      "fbf ee",
      "a y",
      "b ca",
      "b rk",
      "c s",
      "c md",
      "d acb",
      "e ad",
      "g id",
      "h ard",
      "i ss",
      "k t",
      "l stat",
      "l lseek",
      "l chown",
      "n p",
      "o o",
      "p kt",
      "w atch",
      "core dump",
      "ma ke",
      "re ade",
      "do g",
      "lo st",
      "gr ap",
      "th reade",
      "po log",
      "ff ad",
      "ff dc",
      "bgl err",
      "un link",
      "ca ce",
      "ac s",
      "to polog",
      "cc cf",
      "fi er",
      "dc dd",
      "socket exception",
      "log file",
      "code s",
      "bit s",
      "af de",
      "af ebf",
      "get gid",
      "bf cc",
      "bd ab",
      "cf b",
      "df e",
      "cb rt",
      "cp grap",
      "ctr s",
      "daf dc",
      "modu lo",
      "mal loc",
      "efdc b",
      "bl acs",
      "xffff d",
      "dr v",
      "lar ge",
      "ay oo",
      "cmd line",
      "hard ware",
      "iss ues",
      "watch dog",
      "threade d",
      "topolog ies",
      "cpgrap h",
      "c ffea",
      "f dd",
      "p net",
      "ad fc",
      "ca ac",
      "ca cf",
      "ffff ff",
      "state exception",
      "illegal stateexception",
      "eff e",
      "bbc b",
      "efd ca",
      "fb de",
      "current ly",
      "d cac",
      "e th",
      "f cac",
      "l ong",
      "dd f",
      "ff bd",
      "ca fc",
      "ca bc",
      "parity alignment",
      "pa p",
      "cc bc",
      "ern et",
      "cs ar",
      "eth ernet",
      "b ceb",
      "f de",
      "ce da",
      "de dd",
      "dd d",
      "cc dd",
      "be f",
      "ef eef",
      "efc ca",
      "efd fc",
      "efdf b",
      "e bb",
      "ce bd",
      "ec ff",
      "de b",
      "ca dd",
      "ba eb",
      "stirturb pnet",
      "efdb b",
      "trapp ing",
      "b is",
      "de de",
      "cc da",
      "dc df",
      "fc bfa",
      "ea b",
      "ef def",
      "efc fb",
      "fcc fa",
      "fcc bf",
      "fcc fb",
      "dad a",
      "xffff fff",
      "cfa f",
      "b bf",
      "d ty",
      "d acf",
      "h ile",
      "l p",
      "r upt",
      "r fft",
      "w ra",
      "w hile",
      "en v",
      "cor rupt",
      "ca bf",
      "ac bc",
      "dc b",
      "dcr s",
      "over able",
      "fc bf",
      "fc df",
      "fc bfb",
      "cf bc",
      "rec overable",
      "cad c",
      "initializ ing",
      "dty p",
      "wra y",
      "a cac",
      "f dae",
      "m m",
      "t able",
      "ce db",
      "ce be",
      "ce bf",
      "de gro",
      "ido s",
      "ido chip",
      "ff bdf",
      "bgl code",
      "bgl idochip",
      "ca ec",
      "db f",
      "ac cc",
      "dc f",
      "ef baa",
      "cb ec",
      "cb fc",
      "efc bb",
      "dy na",
      "bbe b",
      "efb af",
      "efdb e",
      "efca a",
      "dac d",
      "afc bf",
      "dfa fa",
      "degro ot",
      "a eee",
      "b cab",
      "c too",
      "d g",
      "d ge",
      "d ram",
      "i date",
      "j r",
      "p mo",
      "p dbg",
      "q s",
      "s n",
      "t c",
      "x fffff",
      "at t",
      "ar gu",
      "st name",
      "sp pmo",
      "ch cham",
      "dd b",
      "inst all",
      "am r",
      "po pt",
      "max bug",
      "ff da",
      "bgl p",
      "bgl info",
      "so pt",
      "val idate",
      "db e",
      "mp xl",
      "mp ill",
      "cc ba",
      "cc same",
      "hp m",
      "mpi hpm",
      "li st",
      "ef eea",
      "ef eeb",
      "all c",
      "all gath",
      "eaa e",
      "copro c",
      "fd fa",
      "part sn",
      "send ing",
      "fcc b",
      "write log",
      "ho stname",
      "bde e",
      "efed b",
      "efed c",
      "efed d",
      "func tests",
      "efdc d",
      "efce f",
      "ale amr",
      "fcdb f",
      "ffdb f",
      "efbe f",
      "make bglp",
      "ctoo ls",
      "dg test",
      "dge mm",
      "jr att",
      "argu ment",
      "sppmo pt",
      "mpxl c",
      "ccsame f",
      "allgath er",
      "c cac",
      "ff fc",
      "ff bfb",
      "ff afe",
      "ca ee",
      "db a",
      "ac dc",
      "ac bd",
      "fa f",
      "ffff ca",
      "be bd",
      "ef ddc",
      "ef eaa",
      "ef eff",
      "ef efe",
      "ef efd",
      "df b",
      "bb adbe",
      "efd ce",
      "fcc ba",
      "fcc bb",
      "ffa ff",
      "fce bd",
      "efdd b",
      "efdd d",
      "efea b",
      "efdc f",
      "bee b",
      "a efe",
      "a ug",
      "a ffaa",
      "b af",
      "b la",
      "b eea",
      "d abf",
      "e def",
      "g in",
      "w in",
      "x aa",
      "at all",
      "err han",
      "ce eb",
      "no apc",
      "ido mar",
      "ff ec",
      "ff cd",
      "ff abf",
      "cc be",
      "be gin",
      "fc ff",
      "fc be",
      "fc bb",
      "fc bbb",
      "ab ff",
      "bd ec",
      "wa ve",
      "df cc",
      "fe b",
      "sh al",
      "fd cc",
      "fd fc",
      "eb ed",
      "fcc d",
      "fce cb",
      "efde a",
      "efde b",
      "fcb ba",
      "communic ating",
      "feff ed",
      "bla st",
      "beea abff",
      "win err",
      "atall begin",
      "idomar shal",
      "= =",
      "a ff",
      "a bea",
      "b cec",
      "b def",
      "c fee",
      "f ddc",
      "m sg",
      "s or",
      "err str",
      "ce ab",
      "ce bb",
      "de ce",
      "de bd",
      "de eb",
      "ed ba",
      "ma ins",
      "do mains",
      "align ed",
      "ge te",
      "ff bfc",
      "ff acb",
      "ff adc",
      "ff bfd",
      "ca cb",
      "ca eb",
      "db b",
      "ac fc",
      "ac bf",
      "sen sor",
      "ee bf",
      "fc bde",
      "fc bdf",
      "ea bd",
      "ef ecf",
      "ba ec",
      "ba ac",
      "df d",
      "df bc",
      "df bf",
      "fe ad",
      "bb ec",
      "cb de",
      "fd af",
      "bad c",
      "efe ce",
      "efd ff",
      "fcc ce",
      "fcc ff",
      "fcc cf",
      "fcc fe",
      "ffa ca",
      "fce be",
      "fce bf",
      "fca f",
      "ffb de",
      "ffb bd",
      "bde a",
      "cca f",
      "dca ee",
      "efca f",
      "efef eff",
      "efdf e",
      "efec d",
      "fcb dd",
      "net work",
      "fcdc f",
      "gete l",
      "a eea",
      "c v",
      "c fff",
      "f efefeff",
      "h ul",
      "i or",
      "r flo",
      "s on",
      "v is",
      "x bf",
      "x vicar",
      "er io",
      "al ity",
      "ce ca",
      "ec bb",
      "de ed",
      "me hul",
      "dd ba",
      "ff de",
      "ff add",
      "ff bbc",
      "ff cec",
      "ff ced",
      "ff cdf",
      "ff bbb",
      "ff bcb",
      "ff dcd",
      "per son",
      "ca ba",
      "ver sion",
      "fa ec",
      "fa ef",
      "dc ce",
      "fc fc",
      "fc ba",
      "fc dbd",
      "fc bea",
      "fc dfe",
      "fffff e",
      "bc bf",
      "ea bea",
      "af bb",
      "cd de",
      "bd de",
      "ef ccc",
      "ef ccd",
      "ba bc",
      "df ed",
      "fe ac",
      "fe ffff",
      "fe fc",
      "bb bb",
      "eff ef",
      "eb db",
      "eb bd",
      "efd ab",
      "fcc de",
      "fcc dd",
      "fcc be",
      "fcc bd",
      "fcc df",
      "ffa ec",
      "cdc f",
      "fce cc",
      "fce cd",
      "ffb ca",
      "fcd ff",
      "acc ad",
      "ffd ce",
      "ffd cc",
      "dab d",
      "bde b",
      "efda a",
      "dca af",
      "fcdb e",
      "fcdf d",
      "xfffff e",
      "idomarshal erio",
      "cv s",
      "rflo mp",
      "vis us",
      "person ality",
      "! (",
      "= !(",
      "a abf",
      "b ffd",
      "m s",
      "p ll",
      "r w",
      "s mi",
      "s com",
      "x ad",
      "x fa",
      "x da",
      "y ur",
      "er ed",
      "ti g",
      "ec ce",
      "ec ad",
      "ed fa",
      "ff fe",
      "ff bcc",
      "ff bae",
      "ff afb",
      "ff aaa",
      "ff adb",
      "ff aeb",
      "ca ea",
      "ace c",
      "fa fc",
      "to debugger",
      "cc ca",
      "cc db",
      "ee ba",
      "dc u",
      "dc db",
      "dc bd",
      "fc bd",
      "fc bec",
      "fc fd",
      "fc cec",
      "fc ffe",
      "fc cac",
      "fc daf",
      "fc bfe",
      "fc dae",
      "fc ffd",
      "fc ceb",
      "fc beb",
      "fc cea",
      "fc baa",
      "con tig",
      "ab ec",
      "bf ea",
      "bf bb",
      "ord ered",
      "bd fa",
      "bd fc",
      "ef ac",
      "ef bcc",
      "ef bcb",
      "ef bda",
      "cf de",
      "df ac",
      "ae fc",
      "fe bc",
      "fe bf",
      "fe ffe",
      "bb ab",
      "cb dd",
      "bec a",
      "bec b",
      "fd ff",
      "fd ac",
      "efc da",
      "send msg",
      "efd af",
      "fcc fd",
      "ffa ed",
      "ffa fa",
      "ffb af",
      "ade a",
      "gh dr",
      "fec c",
      "fcf db",
      "fcf da",
      "cbe b",
      "non contig",
      "fcca a",
      "fcca b",
      "cde a",
      "fcb ce",
      "fcb ff",
      "fcb ac",
      "fcb ab",
      "afa bf",
      "fcbc f",
      "efbc d",
      "bdb b",
      "exit ed",
      "walk up",
      "ffffff fc",
      "ms ghdr",
      "smi th",
      "scom error",
      "yur i",
      "sendmsg todebugger",
      "& )",
      "* &)",
      "- >",
      "/ .",
      "a abb",
      "a fffffff",
      "b ll",
      "b ffe",
      "c u",
      "c star",
      "d ffc",
      "d cae",
      "d ccd",
      "d ccb",
      "d fffffff",
      "e m",
      "e ffff",
      "f test",
      "f acc",
      "f adc",
      "f dee",
      "f dbc",
      "g apps",
      "g cc",
      "l en",
      "o id",
      "p u",
      "v buffer",
      "v oid",
      "w ed",
      "x de",
      "x ff",
      "x ca",
      "x db",
      "x af",
      "x ef",
      "x fee",
      "x ae",
      "x bb",
      "x fb",
      "x bfa",
      "x ffd",
      "er vic",
      "en et",
      "ti cs",
      "err ec",
      "ce df",
      "ec bc",
      "pt y",
      "de bf",
      "de fe",
      "de bcc",
      "ed de",
      "ed fc",
      "ed da",
      "lo cal",
      "ro cf",
      "ro cstar",
      "dd ff",
      "flo or",
      "ido msg",
      "ido msghdr",
      "is o",
      "is tics",
      "ff ee",
      "ff bec",
      "ff bfa",
      "ff cee",
      "ff acf",
      "ff acc",
      "bgl sys",
      "bgl personality",
      "ad ce",
      "ad fa",
      "ddr size",
      "un sign",
      "pp s",
      "ca de",
      "id x",
      "id mp",
      "che mb",
      "db ea",
      "ace f",
      "ac ter",
      "ac bb",
      "fa fa",
      "fa bc",
      "fa bf",
      "ffff ffc",
      "ffff ffd",
      "cc bd",
      "ee ec",
      "dc da",
      "lu idmp",
      "test long",
      "fc ddc",
      "fc dec",
      "fc fcc",
      "fc fcd",
      "fc fff",
      "fc ded",
      "fc fcb",
      "fffff d",
      "bc dc",
      "ea bc",
      "ea bf",
      "read block",
      "af bc",
      "ab db",
      "es ervic",
      "clear port",
      "sel ftest",
      "bf ed",
      "bf ee",
      "bf dea",
      "cd adc",
      "cd fffe",
      "bd fea",
      "ef dda",
      "da af",
      "work char",
      "bffff a",
      "bffff d",
      "ae bb",
      "ae edf",
      "fe ec",
      "fe fffff",
      "fe bd",
      "bb ca",
      "eff ab",
      "eff fe",
      "eff aa",
      "eff fd",
      "cb ba",
      "bfc b",
      "bec d",
      "fd ec",
      "fd fffff",
      "rec v",
      "eb fa",
      "eb ee",
      "dec lar",
      "fb ac",
      "fb dc",
      "fb ab",
      "fb ba",
      "eed b",
      "ffa de",
      "ffa ac",
      "ffa ab",
      "fce ff",
      "fce ad",
      "fce ca",
      "fce db",
      "fce bc",
      "fce af",
      "fce da",
      "fce ae",
      "fce fe",
      "fce bb",
      "fce fd",
      "ppc floor",
      "efa a",
      "fca b",
      "ffb ed",
      "sti ll",
      "() '",
      "ebd a",
      "eec c",
      "dab b",
      "cad b",
      "bde aa",
      "lib visus",
      "ede a",
      "ede fb",
      "xffff b",
      "xffff ff",
      "bff dea",
      "fcde b",
      "nm sg",
      "fbd a",
      "face e",
      "fcdd b",
      "fcdd d",
      "feff fc",
      "long long",
      "idomarshal errec",
      "cu pps",
      "em pty",
      "enet workchar",
      "rocf luidmp",
      "unsign ed",
      "chemb io",
      "acter istics",
      "eservic enetworkchar",
      "declar eservicenetworkchar",
      "nmsg len",
      "idomarshalerrec vbuffer",
      "declareservicenetworkchar acteristics",
      "& ,",
      ") '",
      "a edc",
      "a fcb",
      "b cac",
      "b ffb",
      "b abf",
      "b fff",
      "b bae",
      "b edc",
      "b eda",
      "b abb",
      "b dbc",
      "b caa",
      "b net",
      "c ffa",
      "c bfb",
      "d ffa",
      "d fae",
      "d ffd",
      "d fcf",
      "d ccf",
      "d fcb",
      "e add",
      "e ace",
      "e fffff",
      "e bbc",
      "e cee",
      "e bfb",
      "e bae",
      "e adf",
      "e ceb",
      "e baa",
      "f bfb",
      "f def",
      "f daea",
      "f edc",
      "f efeb",
      "j ection",
      "m err",
      "n ull",
      "o ption",
      "p age",
      "r y",
      "u al",
      "x ce",
      "x ec",
      "x ed",
      "x ac",
      "x dc",
      "x be",
      "x fc",
      "x bc",
      "x ab",
      "x bd",
      "x ba",
      "x fe",
      "x fd",
      "x bbe",
      "x fcd",
      "x fff",
      "x bfe",
      "x abb",
      "x afd",
      "x fcffd",
      "| |",
      "in jection",
      "er exception",
      "ce fd",
      "ec de",
      "ec fa",
      "ec cc",
      "ec af",
      "ec da",
      "ec ba",
      "ec ae",
      "ec fe",
      "ec ccc",
      "ec dca",
      "ent ry",
      "de ab",
      "de df",
      "de bb",
      "de fb",
      "de eca",
      "ed ec",
      "ed ca",
      "ed ac",
      "ed cc",
      "ed dc",
      "ed bc",
      "ed df",
      "ed aa",
      "ed bae",
      "mi b",
      "dd de",
      "dd dd",
      "dd ad",
      "dd ca",
      "dd af",
      "dd ab",
      "point erexception",
      "ff fa",
      "ff fd",
      "ff dda",
      "ff bfe",
      "ff cae",
      "ff adf",
      "ff ada",
      "ff cef",
      "ff caa",
      "ff bda",
      "ad cb",
      "ad ded",
      "ca aa",
      "ca eeb",
      "ca ffee",
      "tlb entry",
      "address es",
      "su bnet",
      "db de",
      "db dd",
      "ace bf",
      "rt ual",
      "ac dd",
      "ac fa",
      "ac cec",
      "fa de",
      "fa ad",
      "fa bd",
      "fa bb",
      "fa bea",
      "fa ecd",
      "fa bda",
      "fa bdd",
      "fa edbae",
      "app memory",
      "ffff e",
      "ffff fc",
      "cc fa",
      "ee ce",
      "ee fc",
      "ee bc",
      "ee bd",
      "ee ae",
      "ee bb",
      "be ad",
      "be ac",
      "be be",
      "be bc",
      "be bf",
      "be ba",
      "be bb",
      "be fb",
      "ic bcast",
      "ddc b",
      "ddc d",
      "fc fa",
      "fc cae",
      "fc faa",
      "fc dcd",
      "fc fab",
      "fffff efa",
      "bc be",
      "bc fc",
      "bc da",
      "bc cac",
      "ea ec",
      "ea de",
      "ea ca",
      "ea be",
      "ea fc",
      "af db",
      "af cc",
      "af be",
      "af bd",
      "ab ed",
      "ab dd",
      "ab ca",
      "bf de",
      "bf ca",
      "bf bf",
      "bf bec",
      "bf cefc",
      "bf dab",
      "bf dac",
      "xc b",
      "xc d",
      "run recv",
      "cd ce",
      "cd ca",
      "cd fbab",
      "bd ae",
      "bd fe",
      "bd ecc",
      "ef ad",
      "ef adf",
      "da abd",
      "da abe",
      "ba fc",
      "ba ae",
      "feaa a",
      "vi rtual",
      "fee b",
      "fee aa",
      "cf ca",
      "cf ecf",
      "df ec",
      "df de",
      "df dc",
      "df dac",
      "ae de",
      "ae be",
      "ae bf",
      "ae bd",
      "ae ffa",
      "enc er",
      "fe fcd",
      "fe fcf",
      "fe fab",
      "fe fafa",
      "fe fabb",
      "bb db",
      "bb dc",
      "bb dee",
      "bb ccf",
      "cb ad",
      "aa fa",
      "aa ee",
      "aa af",
      "bfc bd",
      "bcc f",
      "fd de",
      "fd fae",
      "fd ffc",
      "fd ffffe",
      "cce b",
      "cce ea",
      "cce da",
      "efc bad",
      "va ddr",
      "eb ce",
      "eb ca",
      "eb eee",
      "sequ encer",
      "fdf b",
      "fdf e",
      "fdf db",
      "fdf ac",
      "fdf df",
      "fdf eabe",
      "efd cc",
      "fb db",
      "fb be",
      "fb bf",
      "fb bae",
      "fcc cd",
      "bfa a",
      "bfa b",
      "bfa f",
      "ffa ee",
      "ffa fc",
      "ffa ea",
      "ffa af",
      "ffa ae",
      "cdb e",
      "ffc de",
      "ffc bc",
      "ffc bf",
      "ffc bd",
      "ffc bb",
      "fce ec",
      "fce ed",
      "fce eb",
      "efa fb",
      "dad f",
      "ffb db",
      "ffb be",
      "ffb ab",
      "ffb bf",
      "initial ize",
      "fbb b",
      "bfb af",
      "bfb ab",
      "fea b",
      "fdc ff",
      "fcd ce",
      "fcd ca",
      "fcd ab",
      "dda be",
      "fff bccf",
      "eec b",
      "fec b",
      "fec fc",
      "bde ce",
      "bde ae",
      "aef ee",
      "aaa bc",
      "cca b",
      "fcf be",
      "fcf bf",
      "fcf bd",
      "xd cef",
      "fbc d",
      "fbc beb",
      "fba a",
      "xa ed",
      "fcca f",
      "cde e",
      "xffff cb",
      "xffff ffe",
      "xffff fffe",
      "cea be",
      "abe f",
      "ffba a",
      "bff ac",
      "bff ee",
      "bff bc",
      "bff ea",
      "bff cf",
      "aca f",
      "aaec ab",
      "ffea eb",
      "cccc ccc",
      "cccc cccd",
      "fcda a",
      "bba de",
      "ir q",
      "ull en",
      "xf ed",
      "xf efefeff",
      "fbe f",
      "fcdc b",
      "ffca f",
      "bffc bf",
      "dff acb",
      "fdb b",
      "fdb bf",
      "fdb df",
      "ffffff fa",
      "ffffff fe",
      "ffffff fb",
      "fde ad",
      "fcbfa bd",
      "mm u",
      "xfffff dc",
      "xfffff ef",
      "xfffff ebc",
      "xaa de",
      "bdec ab",
      "xda abe",
      "bffe bcbe",
      "xff fead",
      "xbfa eb",
      "bfee fe",
      "recv msghdr",
      "null pointerexception",
      "xed cb",
      "dddd ddd",
      "ffdda ff",
      "subnet s",
      "fdffc be",
      "initialize appmemory"
    ]
  }
}